{
  "<unk>": 0,
  "<s>": 1,
  "</s>": 2,
  "[PAD]": 3,
  "[UNK]": 4,
  "[CLS]": 5,
  "[SEP]": 6,
  "[MASK]": 7,
  ",": 8,
  ".": 9,
  "▁и": 10,
  "▁в": 11,
  "а": 12,
  "▁не": 13,
  "▁на": 14,
  "▁": 15,
  "▁с": 16,
  "е": 17,
  "и": 18,
  "▁что": 19,
  "▁—": 20,
  "-": 21,
  "▁«": 22,
  "▁по": 23,
  "у": 24,
  "м": 25,
  "ы": 26,
  "▁к": 27,
  ":": 28,
  "▁за": 29,
  "▁как": 30,
  "▁В": 31,
  "▁из": 32,
  "о": 33,
  "▁от": 34,
  "▁о": 35,
  "ом": 36,
  "▁а": 37,
  "▁–": 38,
  "ов": 39,
  "▁его": 40,
  "▁у": 41,
  "й": 42,
  "▁он": 43,
  "▁(": 44,
  "»": 45,
  "▁я": 46,
  "▁это": 47,
  "х": 48,
  "▁для": 49,
  "я": 50,
  "▁же": 51,
  "▁но": 52,
  "?": 53,
  "▁при": 54,
  "▁все": 55,
  "▁то": 56,
  "▁И": 57,
  "▁до": 58,
  "ся": 59,
  "▁А": 60,
  "▁было": 61,
  "▁вы": 62,
  ";": 63,
  "то": 64,
  "!": 65,
  "ой": 66,
  "ные": 67,
  "▁или": 68,
  "▁С": 69,
  "▁так": 70,
  "ных": 71,
  "ами": 72,
  "▁был": 73,
  "▁их": 74,
  "».": 75,
  "ный": 76,
  "ю": 77,
  "ной": 78,
  "ми": 79,
  "го": 80,
  "▁бы": 81,
  "ъ": 82,
  "▁под": 83,
  "▁только": 84,
  "▁мы": 85,
  ")": 86,
  "▁Но": 87,
  "...": 88,
  "▁они": 89,
  "ли": 90,
  "ка": 91,
  "▁г": 92,
  "▁Я": 93,
  "ет": 94,
  "в": 95,
  "но": 96,
  "ного": 97,
  "▁чтобы": 98,
  "ки": 99,
  "▁-": 100,
  "▁раз": 101,
  "с": 102,
  "л": 103,
  "▁со": 104,
  "▁были": 105,
  "ия": 106,
  "▁ее": 107,
  "т": 108,
  "▁когда": 109,
  "ная": 110,
  "▁про": 111,
  "▁уже": 112,
  "▁во": 113,
  "ть": 114,
  "▁время": 115,
  "▁На": 116,
  "▁еще": 117,
  "ным": 118,
  "ах": 119,
  "»,": 120,
  "на": 121,
  "▁По": 122,
  "▁ни": 123,
  "▁Он": 124,
  "▁она": 125,
  "▁меня": 126,
  "▁об": 127,
  "▁того": 128,
  "▁если": 129,
  "▁была": 130,
  "ая": 131,
  "▁мне": 132,
  "ии": 133,
  "▁которые": 134,
  "▁К": 135,
  "▁У": 136,
  "▁Не": 137,
  "▁том": 138,
  "ий": 139,
  "▁быть": 140,
  "ие": 141,
  "ам": 142,
  "ную": 143,
  "▁может": 144,
  "▁этого": 145,
  "▁есть": 146,
  "ку": 147,
  "ого": 148,
  "▁чем": 149,
  "ное": 150,
  "▁Это": 151,
  "▁ему": 152,
  "▁без": 153,
  "▁даже": 154,
  "▁ли": 155,
  "▁этом": 156,
  "▁себя": 157,
  "▁более": 158,
  "ь": 159,
  "ла": 160,
  "▁тем": 161,
  "ем": 162,
  "ию": 163,
  "ых": 164,
  "▁где": 165,
  "▁пере": 166,
  "ей": 167,
  "▁года": 168,
  ").": 169,
  "▁очень": 170,
  "▁нас": 171,
  "▁после": 172,
  "▁будет": 173,
  "▁них": 174,
  "▁можно": 175,
  "ые": 176,
  "▁который": 177,
  "не": 178,
  "▁О": 179,
  "ской": 180,
  "▁также": 181,
  "за": 182,
  "н": 183,
  "ить": 184,
  "▁\"": 185,
  "▁всех": 186,
  "ского": 187,
  "ными": 188,
  "д": 189,
  "ый": 190,
  "▁т": 191,
  "▁жизни": 192,
  "ют": 193,
  "сти": 194,
  "▁него": 195,
  "ую": 196,
  "лись": 197,
  "к": 198,
  "ном": 199,
  "▁За": 200,
  "▁ты": 201,
  "▁себе": 202,
  "ется": 203,
  "ым": 204,
  "▁лет": 205,
  "▁кто": 206,
  "▁всего": 207,
  "ке": 208,
  "▁При": 209,
  "▁этот": 210,
  "ок": 211,
  "▁человек": 212,
  "▁между": 213,
  "ский": 214,
  "▁этой": 215,
  "▁Как": 216,
  "),": 217,
  "▁своей": 218,
  "му": 219,
  "С": 220,
  "▁Если": 221,
  "▁эти": 222,
  "▁М": 223,
  "▁через": 224,
  "б": 225,
  "▁один": 226,
  "▁нет": 227,
  "ен": 228,
  "ло": 229,
  "▁больше": 230,
  "ит": 231,
  "▁лишь": 232,
  "им": 233,
  "▁П": 234,
  "В": 235,
  "▁над": 236,
  "▁перед": 237,
  "ться": 238,
  "▁людей": 239,
  "▁им": 240,
  "▁там": 241,
  "по": 242,
  "▁своих": 243,
  "ны": 244,
  "▁сказал": 245,
  "▁Так": 246,
  "▁много": 247,
  "▁Г": 248,
  "▁несколько": 249,
  "сть": 250,
  "▁свою": 251,
  "та": 252,
  "▁Мы": 253,
  "лся": 254,
  "лась": 255,
  "▁просто": 256,
  "▁потому": 257,
  "▁нам": 258,
  "ни": 259,
  "▁году": 260,
  "▁Да": 261,
  "▁времени": 262,
  "▁человека": 263,
  "▁которых": 264,
  "▁против": 265,
  "р": 266,
  "г": 267,
  "п": 268,
  "▁тогда": 269,
  "▁Все": 270,
  "▁здесь": 271,
  "▁день": 272,
  "▁этих": 273,
  "те": 274,
  "ое": 275,
  "▁своего": 276,
  "▁образом": 277,
  "▁да": 278,
  "▁Вы": 279,
  "▁всегда": 280,
  "или": 281,
  "ш": 282,
  "▁сам": 283,
  "▁1": 284,
  "А": 285,
  "ских": 286,
  "ись": 287,
  "▁тот": 288,
  "▁вот": 289,
  "ил": 290,
  "▁те": 291,
  "▁Когда": 292,
  "их": 293,
  "▁свои": 294,
  "ность": 295,
  "▁Они": 296,
  "▁ним": 297,
  "▁других": 298,
  "▁Однако": 299,
  "ются": 300,
  "▁которая": 301,
  "▁которой": 302,
  "▁рас": 303,
  "▁Д": 304,
  "▁жизнь": 305,
  "▁Н": 306,
  "▁два": 307,
  "кой": 308,
  "▁Т": 309,
  "▁Б": 310,
  "▁ничего": 311,
  "ская": 312,
  "▁люди": 313,
  "▁теперь": 314,
  "▁хотя": 315,
  "ности": 316,
  "▁тех": 317,
  "▁Что": 318,
  "▁войны": 319,
  "\"": 320,
  "]": 321,
  "▁п": 322,
  "▁тоже": 323,
  "ские": 324,
  "▁стал": 325,
  "▁является": 326,
  "▁надо": 327,
  "▁именно": 328,
  "▁ко": 329,
  "▁вас": 330,
  "▁случае": 331,
  "ков": 332,
  "ин": 333,
  "▁мог": 334,
  "ние": 335,
  "от": 336,
  "▁собой": 337,
  "▁такой": 338,
  "▁потом": 339,
  "▁России": 340,
  "▁мир": 341,
  "ль": 342,
  "ко": 343,
  "▁2": 344,
  "▁почти": 345,
  "▁[": 346,
  "▁стороны": 347,
  "ят": 348,
  "вер": 349,
  "▁Ф": 350,
  "лось": 351,
  "▁Вот": 352,
  "▁дело": 353,
  "ля": 354,
  "▁три": 355,
  "▁д": 356,
  "▁Л": 357,
  "▁нужно": 358,
  "▁Она": 359,
  "▁Из": 360,
  "▁должны": 361,
  "ась": 362,
  "▁тут": 363,
  "ж": 364,
  "▁другой": 365,
  "▁свое": 366,
  "▁всем": 367,
  "▁вместе": 368,
  "▁могут": 369,
  "▁ней": 370,
  "ня": 371,
  "▁18": 372,
  "▁пока": 373,
  "▁От": 374,
  "И": 375,
  "ва": 376,
  "▁должен": 377,
  "▁одной": 378,
  "ния": 379,
  "▁которого": 380,
  "ч": 381,
  "ясь": 382,
  "ском": 383,
  "▁тому": 384,
  "К": 385,
  "▁вам": 386,
  "▁двух": 387,
  "ось": 388,
  "ать": 389,
  "▁Для": 390,
  "ив": 391,
  "▁Про": 392,
  "▁Его": 393,
  "ну": 394,
  "з": 395,
  "ному": 396,
  "▁части": 397,
  "▁Во": 398,
  "▁После": 399,
  "да": 400,
  "П": 401,
  "▁своим": 402,
  "▁часть": 403,
  "▁въ": 404,
  "▁какой": 405,
  "он": 406,
  "▁сейчас": 407,
  "▁которое": 408,
  "О": 409,
  "цы": 410,
  "ыми": 411,
  "▁армии": 412,
  "▁место": 413,
  "▁этим": 414,
  "М": 415,
  "▁чего": 416,
  "▁свой": 417,
  "▁слова": 418,
  "Г": 419,
  "Д": 420,
  "▁эту": 421,
  "▁другие": 422,
  "▁сказать": 423,
  "ѣ": 424,
  "▁Р": 425,
  "▁3": 426,
  "▁тебя": 427,
  "▁друг": 428,
  "▁хорошо": 429,
  "▁одного": 430,
  "▁эта": 431,
  "▁вопрос": 432,
  "▁ей": 433,
  "▁“": 434,
  "▁пред": 435,
  "ал": 436,
  "ев": 437,
  "▁никогда": 438,
  "ц": 439,
  "ское": 440,
  "▁всё": 441,
  "нибудь": 442,
  "▁До": 443,
  "▁совершенно": 444,
  "▁оно": 445,
  "ст": 446,
  "ство": 447,
  "▁стали": 448,
  "ком": 449,
  "мер": 450,
  "▁особенно": 451,
  "ф": 452,
  "▁говорит": 453,
  "▁одно": 454,
  "▁мира": 455,
  "▁часто": 456,
  "і": 457,
  "ец": 458,
  "га": 459,
  "▁пор": 460,
  "Л": 461,
  "ти": 462,
  "▁затем": 463,
  "вы": 464,
  "▁истории": 465,
  "—": 466,
  "▁имеет": 467,
  "Я": 468,
  "▁конечно": 469,
  "▁тебе": 470,
  "▁ведь": 471,
  "▁власти": 472,
  "▁10": 473,
  "скую": 474,
  "Б": 475,
  "▁Ну": 476,
  "ту": 477,
  "ле": 478,
  "▁сразу": 479,
  "▁само": 480,
  "▁снова": 481,
  "▁СССР": 482,
  "ения": 483,
  "▁будут": 484,
  "▁среди": 485,
  "▁менее": 486,
  "са": 487,
  "Т": 488,
  "▁работы": 489,
  "▁могли": 490,
  "ками": 491,
  "▁де": 492,
  "▁б": 493,
  "Н": 494,
  "али": 495,
  "ре": 496,
  "▁гор": 497,
  "У": 498,
  "нее": 499,
  "ился": 500,
  "овой": 501,
  "▁То": 502,
  "ским": 503,
  "▁которую": 504,
  "▁самом": 505,
  "ение": 506,
  "▁год": 507,
  "▁силы": 508,
  "ства": 509,
  "ник": 510,
  "▁совсем": 511,
  "▁сделать": 512,
  "▁такое": 513,
  "▁нашей": 514,
  "▁Поэтому": 515,
  "▁Под": 516,
  "▁быстро": 517,
  "ова": 518,
  "ний": 519,
  "▁мало": 520,
  "▁момент": 521,
  "▁Э": 522,
  "▁4": 523,
  "▁пре": 524,
  "▁вообще": 525,
  "▁лучше": 526,
  "▁17": 527,
  "ди": 528,
  "▁свет": 529,
  "▁город": 530,
  "▁сил": 531,
  "!»": 532,
  "▁следует": 533,
  "иться": 534,
  "▁действительно": 535,
  "▁таким": 536,
  "▁конце": 537,
  "▁почему": 538,
  "во": 539,
  "ием": 540,
  "▁Со": 541,
  "де": 542,
  "▁этому": 543,
  "▁дома": 544,
  "▁котором": 545,
  "ты": 546,
  "ились": 547,
  "▁прежде": 548,
  "▁м": 549,
  "▁самого": 550,
  "▁дня": 551,
  "▁всей": 552,
  "▁р": 553,
  "▁деле": 554,
  "▁5": 555,
  "▁каждый": 556,
  "▁однако": 557,
  "▁связи": 558,
  "ги": 559,
  "цев": 560,
  "▁Ты": 561,
  "▁таких": 562,
  "▁дела": 563,
  "ешь": 564,
  "▁города": 565,
  "▁15": 566,
  "ша": 567,
  "ер": 568,
  "▁той": 569,
  "овых": 570,
  "▁Е": 571,
  "▁например": 572,
  "▁ними": 573,
  "ца": 574,
  "ше": 575,
  "из": 576,
  "▁поэтому": 577,
  "▁руки": 578,
  "▁страны": 579,
  "▁одна": 580,
  "ра": 581,
  "▁такие": 582,
  "ится": 583,
  "▁мой": 584,
  "ости": 585,
  "▁должно": 586,
  "до": 587,
  "▁нем": 588,
  "▁около": 589,
  "▁Ш": 590,
  "▁Х": 591,
  "▁Об": 592,
  "▁пути": 593,
  "▁войск": 594,
  "▁поскольку": 595,
  "▁всю": 596,
  "ому": 597,
  "▁две": 598,
  "▁стало": 599,
  "при": 600,
  "▁нельзя": 601,
  "э": 602,
  "ан": 603,
  "ья": 604,
  "ут": 605,
  "▁та": 606,
  "ость": 607,
  "▁э": 608,
  "\".": 609,
  "▁смерти": 610,
  "ма": 611,
  "ина": 612,
  "▁наши": 613,
  "тер": 614,
  "▁Там": 615,
  "▁период": 616,
  "▁слишком": 617,
  "▁глаза": 618,
  "▁её": 619,
  "▁мере": 620,
  "▁делать": 621,
  "ду": 622,
  "▁20": 623,
  "▁ж": 624,
  "▁своем": 625,
  "▁говорил": 626,
  "▁многие": 627,
  "ман": 628,
  "же": 629,
  "▁достаточно": 630,
  "Ф": 631,
  "▁будто": 632,
  "▁народ": 633,
  "ите": 634,
  "овые": 635,
  "сь": 636,
  "чи": 637,
  "ри": 638,
  "▁ответ": 639,
  "ик": 640,
  "про": 641,
  "либо": 642,
  "ши": 643,
  "Р": 644,
  "▁прямо": 645,
  "▁долго": 646,
  "▁куда": 647,
  "▁весьма": 648,
  "▁качестве": 649,
  "▁тысяч": 650,
  "▁наших": 651,
  "▁ещё": 652,
  "▁многих": 653,
  "ск": 654,
  "▁годы": 655,
  "▁весь": 656,
  "раз": 657,
  "▁бес": 658,
  "”": 659,
  "▁которым": 660,
  "▁16": 661,
  "▁возможность": 662,
  "▁внимание": 663,
  "▁такого": 664,
  "▁первый": 665,
  "▁12": 666,
  "ической": 667,
  "▁ибо": 668,
  "▁никто": 669,
  "▁характер": 670,
  "ней": 671,
  "нии": 672,
  "▁дней": 673,
  "▁начала": 674,
  "▁века": 675,
  "▁возможно": 676,
  "ар": 677,
  "▁дел": 678,
  "▁виде": 679,
  "▁кон": 680,
  "ель": 681,
  "▁роль": 682,
  "лю": 683,
  "▁выше": 684,
  "▁з": 685,
  "▁генерал": 686,
  "▁начал": 687,
  "2": 688,
  "ила": 689,
  "▁вполне": 690,
  "▁противника": 691,
  "▁мысли": 692,
  "▁труд": 693,
  "▁течение": 694,
  "▁США": 695,
  "▁месте": 696,
  "▁путь": 697,
  "су": 698,
  "▁области": 699,
  "▁мире": 700,
  "▁должна": 701,
  "▁уж": 702,
  "ис": 703,
  "▁сторону": 704,
  "стью": 705,
  "▁6": 706,
  "▁I": 707,
  "▁значит": 708,
  "▁назад": 709,
  "вин": 710,
  "▁З": 711,
  "▁кого": 712,
  "1": 713,
  "▁ре": 714,
  "Х": 715,
  "че": 716,
  "▁столь": 717,
  "▁второй": 718,
  "ча": 719,
  "▁большой": 720,
  "▁Мне": 721,
  "▁род": 722,
  "▁точно": 723,
  "▁воз": 724,
  "па": 725,
  "▁Нет": 726,
  "ор": 727,
  "▁могу": 728,
  "▁нашего": 729,
  "▁Теперь": 730,
  "▁Тогда": 731,
  "мен": 732,
  "▁какие": 733,
  "▁знаю": 734,
  "▁сегодня": 735,
  "ического": 736,
  "▁Только": 737,
  "▁„": 738,
  "▁наш": 739,
  "ат": 740,
  "лет": 741,
  "?»": 742,
  "▁легко": 743,
  "▁земли": 744,
  "▁Здесь": 745,
  "ках": 746,
  "▁говорить": 747,
  "▁развития": 748,
  "▁равно": 749,
  "▁стоит": 750,
  "об": 751,
  "▁работу": 752,
  "▁кроме": 753,
  "▁ту": 754,
  "ье": 755,
  "▁обычно": 756,
  "▁Бог": 757,
  "­": 758,
  "▁Ю": 759,
  "▁детей": 760,
  "▁некоторые": 761,
  "под": 762,
  "▁право": 763,
  "▁удалось": 764,
  "ников": 765,
  "/": 766,
  "▁•": 767,
  "▁действия": 768,
  "▁вокруг": 769,
  "ум": 770,
  "▁14": 771,
  "▁получил": 772,
  "▁стала": 773,
  "▁своими": 774,
  "вод": 775,
  "вид": 776,
  "▁нему": 777,
  "▁стран": 778,
  "▁др": 779,
  "▁либо": 780,
  "йте": 781,
  "ба": 782,
  "▁идет": 783,
  "▁знал": 784,
  "▁самой": 785,
  "▁необходимо": 786,
  "▁иногда": 787,
  "▁одним": 788,
  "▁места": 789,
  "ика": 790,
  "Е": 791,
  "се": 792,
  "▁отношения": 793,
  "▁наиболее": 794,
  "▁народа": 795,
  "▁состав": 796,
  "▁вдруг": 797,
  "▁войска": 798,
  "▁кажется": 799,
  "▁рядом": 800,
  "ировать": 801,
  "▁спросил": 802,
  "▁прав": 803,
  "▁результате": 804,
  "▁дом": 805,
  "вар": 806,
  "▁работа": 807,
  "си": 808,
  "нь": 809,
  "▁партии": 810,
  "▁Таким": 811,
  "▁имя": 812,
  "▁довольно": 813,
  "▁значение": 814,
  "гу": 815,
  "▁помощью": 816,
  "▁Эти": 817,
  "▁трех": 818,
  "▁11": 819,
  "ры": 820,
  "▁системы": 821,
  "ией": 822,
  "▁группы": 823,
  "▁наконец": 824,
  "ические": 825,
  "▁писал": 826,
  "▁слово": 827,
  "▁часов": 828,
  "▁н": 829,
  "▁сами": 830,
  "мы": 831,
  "▁сколько": 832,
  "▁па": 833,
  ".)": 834,
  "▁числе": 835,
  "▁хотел": 836,
  "▁самое": 837,
  "▁Раз": 838,
  "▁государства": 839,
  "▁общества": 840,
  "би": 841,
  "▁13": 842,
  "▁самым": 843,
  "ич": 844,
  "ники": 845,
  "▁полностью": 846,
  "ха": 847,
  "▁полу": 848,
  "▁Этот": 849,
  "▁постоянно": 850,
  "ических": 851,
  "▁ответил": 852,
  "▁зрения": 853,
  "▁известно": 854,
  "ющих": 855,
  "скому": 856,
  "ою": 857,
  "▁друга": 858,
  "▁Бога": 859,
  "ью": 860,
  "▁моей": 861,
  "▁дальше": 862,
  "▁7": 863,
  "ща": 864,
  "▁опять": 865,
  "ический": 866,
  "▁Тем": 867,
  "нов": 868,
  "▁нее": 869,
  "...»": 870,
  "▁рода": 871,
  "ющий": 872,
  "▁8": 873,
  "▁положение": 874,
  "▁степени": 875,
  "▁новые": 876,
  "▁книги": 877,
  "▁точки": 878,
  "▁вновь": 879,
  "ія": 880,
  "ян": 881,
  "▁опыт": 882,
  "▁возможности": 883,
  "▁тела": 884,
  "▁далеко": 885,
  "▁начале": 886,
  "▁деятельности": 887,
  "▁вид": 888,
  "таки": 889,
  "▁земле": 890,
  "▁воды": 891,
  "▁х": 892,
  "▁голову": 893,
  "▁пол": 894,
  "▁одну": 895,
  "Ш": 896,
  "юсь": 897,
  "ющие": 898,
  "5": 899,
  "ическое": 900,
  "▁власть": 901,
  "▁движения": 902,
  "▁происходит": 903,
  "ро": 904,
  "▁становится": 905,
  "▁Ко": 906,
  "▁і": 907,
  "▁II": 908,
  "▁Кроме": 909,
  "'": 910,
  "З": 911,
  "▁ум": 912,
  "▁интерес": 913,
  "▁Германии": 914,
  "▁немного": 915,
  "▁одном": 916,
  "▁ясно": 917,
  "ист": 918,
  "́": 919,
  "▁силу": 920,
  "мет": 921,
  "▁Ведь": 922,
  "▁сильно": 923,
  "▁имени": 924,
  "ическая": 925,
  "▁солдат": 926,
  "▁сделал": 927,
  "▁стать": 928,
  "▁No": 929,
  "▁своему": 930,
  "▁трудно": 931,
  "илась": 932,
  "ста": 933,
  "ает": 934,
  "род": 935,
  "▁самых": 936,
  "ве": 937,
  "▁меньше": 938,
  "со": 939,
  "▁видел": 940,
  "▁Ни": 941,
  "▁план": 942,
  "▁четыре": 943,
  "ают": 944,
  "▁деньги": 945,
  "▁другим": 946,
  "▁жить": 947,
  "▁отношении": 948,
  "ви": 949,
  "▁ф": 950,
  "▁решил": 951,
  "ики": 952,
  "▁пришлось": 953,
  "▁сын": 954,
  "бу": 955,
  "▁конца": 956,
  "▁закон": 957,
  "вшись": 958,
  "▁е": 959,
  "▁Эта": 960,
  "▁условиях": 961,
  "лин": 962,
  "ала": 963,
  "ника": 964,
  "▁понять": 965,
  "▁имел": 966,
  "▁процесс": 967,
  "▁говоря": 968,
  "мо": 969,
  "▁30": 970,
  "▁1.": 971,
  "▁тело": 972,
  "▁пять": 973,
  "По": 974,
  "ек": 975,
  "енный": 976,
  "▁Ч": 977,
  "▁Кон": 978,
  "ели": 979,
  "▁мной": 980,
  "▁первой": 981,
  "▁Ре": 982,
  "▁речь": 983,
  "лен": 984,
  "▁раньше": 985,
  "▁найти": 986,
  "▁9": 987,
  "ска": 988,
  "▁Александр": 989,
  "▁иметь": 990,
  "4": 991,
  "▁смысл": 992,
  "▁могла": 993,
  "▁нами": 994,
  "▁цели": 995,
  "прав": 996,
  "\",": 997,
  "▁Ж": 998,
  "▁/": 999,
  "Э": 1000,
  "лов": 1001,
  "▁голос": 1002,
  "3": 1003,
  "▁=": 1004,
  "пер": 1005,
  "ски": 1006,
  "кон": 1007,
  "▁взгляд": 1008,
  "ового": 1009,
  "▁разных": 1010,
  "▁Кто": 1011,
  "▁пар": 1012,
  "▁анти": 1013,
  "▁фронта": 1014,
  "▁давно": 1015,
  "▁Еще": 1016,
  "▁являются": 1017,
  "▁очередь": 1018,
  "▁скоро": 1019,
  "▁новых": 1020,
  "▁море": 1021,
  "▁организации": 1022,
  "енные": 1023,
  "ран": 1024,
  "▁невозможно": 1025,
  "▁2.": 1026,
  "▁образ": 1027,
  "▁дни": 1028,
  "▁сердце": 1029,
  "▁минут": 1030,
  "▁туда": 1031,
  "▁мои": 1032,
  "▁цен": 1033,
  "▁матери": 1034,
  "вал": 1035,
  "▁внутри": 1036,
  "▁факт": 1037,
  "▁скорее": 1038,
  "▁помощи": 1039,
  "овым": 1040,
  "▁русских": 1041,
  "▁знает": 1042,
  "▁решение": 1043,
  "▁некоторых": 1044,
  "жи": 1045,
  "▁Затем": 1046,
  "ос": 1047,
  "ении": 1048,
  "▁чуть": 1049,
  "▁съ": 1050,
  "▁мол": 1051,
  "▁права": 1052,
  "ход": 1053,
  "ё": 1054,
  "▁находится": 1055,
  "тель": 1056,
  "▁благодаря": 1057,
  "▁стране": 1058,
  "▁населения": 1059,
  "▁Конечно": 1060,
  "▁землю": 1061,
  "▁каким": 1062,
  "▁практически": 1063,
  "▁другом": 1064,
  "его": 1065,
  "▁сама": 1066,
  "▁словно": 1067,
  "ации": 1068,
  "▁состоянии": 1069,
  "▁говорят": 1070,
  "▁руку": 1071,
  "▁ночь": 1072,
  "▁количество": 1073,
  "▁действий": 1074,
  "иль": 1075,
  "▁удар": 1076,
  "▁одновременно": 1077,
  "▁случай": 1078,
  "▁л": 1079,
  "овать": 1080,
  "▁хоть": 1081,
  "▁иначе": 1082,
  "лей": 1083,
  "▁отец": 1084,
  "▁самый": 1085,
  "▁ряд": 1086,
  "▁любви": 1087,
  "▁Хотя": 1088,
  "изм": 1089,
  "▁Именно": 1090,
  "▁ради": 1091,
  "▁работе": 1092,
  "▁дать": 1093,
  "тся": 1094,
  "▁25": 1095,
  "▁Даже": 1096,
  "▁счет": 1097,
  "▁нового": 1098,
  "шей": 1099,
  "▁имеют": 1100,
  "▁Потом": 1101,
  "шие": 1102,
  "▁Москве": 1103,
  "ру": 1104,
  "▁брат": 1105,
  "▁другого": 1106,
  "▁виду": 1107,
  "▁моя": 1108,
  "ге": 1109,
  "▁Те": 1110,
  "▁каждого": 1111,
  "вших": 1112,
  "▁//": 1113,
  "(": 1114,
  "▁души": 1115,
  "бр": 1116,
  "▁Чтобы": 1117,
  "▁лицо": 1118,
  "▁готов": 1119,
  "▁различных": 1120,
  "ями": 1121,
  "▁какое": 1122,
  "▁лес": 1123,
  "▁лица": 1124,
  "▁число": 1125,
  "▁мая": 1126,
  "нос": 1127,
  "▁смысле": 1128,
  "▁отца": 1129,
  "мир": 1130,
  "енных": 1131,
  "емся": 1132,
  "вший": 1133,
  "▁дивизии": 1134,
  "бор": 1135,
  "▁Ц": 1136,
  "бо": 1137,
  "6": 1138,
  "ще": 1139,
  "▁(«": 1140,
  "бер": 1141,
  "енко": 1142,
  "▁территории": 1143,
  "▁поле": 1144,
  "▁существует": 1145,
  "▁суд": 1146,
  "ович": 1147,
  "кин": 1148,
  "–": 1149,
  "ишь": 1150,
  "▁Ла": 1151,
  "ус": 1152,
  "ид": 1153,
  "▁которому": 1154,
  "вшие": 1155,
  "▁кор": 1156,
  "▁Кор": 1157,
  "нию": 1158,
  "це": 1159,
  "ация": 1160,
  "стр": 1161,
  "кам": 1162,
  "▁моего": 1163,
  "▁Их": 1164,
  "▁вместо": 1165,
  "▁Через": 1166,
  "▁жил": 1167,
  "▁августа": 1168,
  "▁класс": 1169,
  "скими": 1170,
  "▁помощь": 1171,
  "мъ": 1172,
  "ее": 1173,
  "▁несмотря": 1174,
  "▁новый": 1175,
  "ева": 1176,
  "▁слов": 1177,
  "▁выход": 1178,
  "▁такая": 1179,
  "▁способ": 1180,
  "▁гораздо": 1181,
  "ший": 1182,
  "▁новой": 1183,
  "▁руках": 1184,
  "▁мысль": 1185,
  "▁революции": 1186,
  "іе": 1187,
  "бы": 1188,
  "лу": 1189,
  "▁вопросы": 1190,
  "▁дал": 1191,
  "▁полка": 1192,
  "▁главе": 1193,
  "тор": 1194,
  "▁первого": 1195,
  "▁решения": 1196,
  "ант": 1197,
  "▁культуры": 1198,
  "изма": 1199,
  "▁война": 1200,
  "▁русской": 1201,
  "чат": 1202,
  "▁всеми": 1203,
  "зы": 1204,
  "▁другими": 1205,
  "▁Иван": 1206,
  "▁Пере": 1207,
  "▁использовать": 1208,
  "▁ч": 1209,
  "▁целью": 1210,
  "▁относительно": 1211,
  "▁буду": 1212,
  "*": 1213,
  "▁казалось": 1214,
  "▁июля": 1215,
  "▁Почему": 1216,
  "ству": 1217,
  "▁вперед": 1218,
  "▁Франции": 1219,
  "ды": 1220,
  "▁цвет": 1221,
  "од": 1222,
  "▁система": 1223,
  "▁получить": 1224,
  "▁пер": 1225,
  "▁союз": 1226,
  "ден": 1227,
  "▁час": 1228,
  "▁язык": 1229,
  "▁правительства": 1230,
  "▁столько": 1231,
  "▁самые": 1232,
  "▁вер": 1233,
  "ющей": 1234,
  "▁можем": 1235,
  "▁Может": 1236,
  "▁нескольких": 1237,
  "▁проблемы": 1238,
  "▁церкви": 1239,
  "ющего": 1240,
  "жа": 1241,
  "см": 1242,
  "лад": 1243,
  "▁пришел": 1244,
  "▁вовсе": 1245,
  "▁благо": 1246,
  "говор": 1247,
  "▁бо": 1248,
  "▁Ле": 1249,
  "▁управления": 1250,
  "кая": 1251,
  "▁людьми": 1252,
  "▁знать": 1253,
  "▁автор": 1254,
  "▁19": 1255,
  "рон": 1256,
  "▁Один": 1257,
  "▁июня": 1258,
  "▁сказала": 1259,
  "▁настолько": 1260,
  "дер": 1261,
  "ятся": 1262,
  "▁труда": 1263,
  "На": 1264,
  "▁никаких": 1265,
  "оп": 1266,
  "▁увидел": 1267,
  "ница": 1268,
  "▁первых": 1269,
  "аль": 1270,
  "ван": 1271,
  "ших": 1272,
  "▁оказался": 1273,
  "▁Сам": 1274,
  "рас": 1275,
  "▁сих": 1276,
  "▁крест": 1277,
  "щ": 1278,
  "▁состояние": 1279,
  "▁военных": 1280,
  "нет": 1281,
  "▁3.": 1282,
  "▁сентября": 1283,
  "▁кур": 1284,
  "▁движение": 1285,
  "▁работать": 1286,
  "▁стол": 1287,
  "▁Ар": 1288,
  "тур": 1289,
  "▁Ли": 1290,
  "▁людям": 1291,
  "▁вещи": 1292,
  "▁письмо": 1293,
  "Не": 1294,
  "▁дает": 1295,
  "ическую": 1296,
  "▁начали": 1297,
  "▁любовь": 1298,
  "▁делает": 1299,
  "▁могло": 1300,
  "овая": 1301,
  "▁пишет": 1302,
  "▁зло": 1303,
  "▁любой": 1304,
  "▁домой": 1305,
  "▁человеком": 1306,
  "эн": 1307,
  "ним": 1308,
  "▁женщины": 1309,
  "воз": 1310,
  "7": 1311,
  "▁глаз": 1312,
  "▁мин": 1313,
  "▁будем": 1314,
  "рис": 1315,
  "▁вскоре": 1316,
  "▁другое": 1317,
  "▁формы": 1318,
  "9": 1319,
  "▁пусть": 1320,
  "▁непосредственно": 1321,
  "Ч": 1322,
  "▁видеть": 1323,
  "▁приказ": 1324,
  "▁ди": 1325,
  "▁главным": 1326,
  "▁огонь": 1327,
  "▁борьбы": 1328,
  "▁бой": 1329,
  "▁правительство": 1330,
  "▁моря": 1331,
  "▁основе": 1332,
  "▁едва": 1333,
  "ско": 1334,
  "▁октября": 1335,
  "сон": 1336,
  "▁история": 1337,
  "ак": 1338,
  "8": 1339,
  "▁имели": 1340,
  "▁целом": 1341,
  "▁путем": 1342,
  "▁вся": 1343,
  "▁сначала": 1344,
  "▁Мар": 1345,
  "▁лично": 1346,
  "▁22": 1347,
  "альные": 1348,
  "▁утра": 1349,
  "▁отношение": 1350,
  "ях": 1351,
  "▁понял": 1352,
  "▁Сталин": 1353,
  "▁поэт": 1354,
  "пи": 1355,
  "итель": 1356,
  "▁хочет": 1357,
  "она": 1358,
  "▁множество": 1359,
  "нуть": 1360,
  "▁причин": 1361,
  "▁лож": 1362,
  "▁никак": 1363,
  "альный": 1364,
  "▁марта": 1365,
  "стве": 1366,
  "лы": 1367,
  "фа": 1368,
  "цами": 1369,
  "▁причем": 1370,
  "▁идти": 1371,
  "▁форме": 1372,
  "зи": 1373,
  "▁сад": 1374,
  "▁числа": 1375,
  "дел": 1376,
  "▁говорили": 1377,
  "▁принять": 1378,
  "ров": 1379,
  "“": 1380,
  "▁всему": 1381,
  "▁случаях": 1382,
  "▁плен": 1383,
  "оз": 1384,
  "▁видно": 1385,
  "▁первые": 1386,
  "▁явно": 1387,
  "кова": 1388,
  "▁связь": 1389,
  "чу": 1390,
  "▁умер": 1391,
  "▁Или": 1392,
  "▁ужас": 1393,
  "▁вести": 1394,
  "▁сына": 1395,
  "▁постепенно": 1396,
  "▁дети": 1397,
  "▁взял": 1398,
  "▁типа": 1399,
  "▁впервые": 1400,
  "▁районе": 1401,
  "ностью": 1402,
  "стер": 1403,
  "▁которыми": 1404,
  "▁последние": 1405,
  "▁словами": 1406,
  "ел": 1407,
  "▁взять": 1408,
  "▁мать": 1409,
  "▁хочу": 1410,
  "▁войне": 1411,
  "▁Например": 1412,
  "▁войну": 1413,
  "лом": 1414,
  "▁*": 1415,
  "▁резко": 1416,
  "▁двумя": 1417,
  "чин": 1418,
  "▁Вер": 1419,
  "вшихся": 1420,
  "ции": 1421,
  "альная": 1422,
  "ете": 1423,
  "▁Пред": 1424,
  "▁Можно": 1425,
  "▁центр": 1426,
  "▁каких": 1427,
  "▁правда": 1428,
  "▁цель": 1429,
  "ент": 1430,
  "▁обо": 1431,
  "▁правильно": 1432,
  "▁значительно": 1433,
  "▁первую": 1434,
  "▁важно": 1435,
  ");": 1436,
  "▁наше": 1437,
  "▁написал": 1438,
  "цион": 1439,
  "▁частности": 1440,
  "▁линии": 1441,
  "тов": 1442,
  "▁сто": 1443,
  "▁доме": 1444,
  "мат": 1445,
  "ря": 1446,
  "▁правило": 1447,
  "▁1-": 1448,
  "▁ком": 1449,
  "▁мое": 1450,
  "цу": 1451,
  "▁отдел": 1452,
  "ению": 1453,
  "▁крестьян": 1454,
  "сен": 1455,
  "▁штаб": 1456,
  "мор": 1457,
  "▁бур": 1458,
  "▁касается": 1459,
  "ими": 1460,
  "▁мировой": 1461,
  "сов": 1462,
  "▁женщин": 1463,
  "ющая": 1464,
  "шего": 1465,
  "лив": 1466,
  "▁денег": 1467,
  "▁рабочих": 1468,
  "▁остается": 1469,
  "▁большинство": 1470,
  "▁вз": 1471,
  "▁муж": 1472,
  "▁вечер": 1473,
  "▁кому": 1474,
  "▁ноября": 1475,
  "▁состоит": 1476,
  "▁представляет": 1477,
  "▁поводу": 1478,
  "пере": 1479,
  "▁армия": 1480,
  "шка": 1481,
  "▁смерть": 1482,
  "▁кол": 1483,
  "▁24": 1484,
  "▁2-": 1485,
  "▁энергии": 1486,
  "▁вероятно": 1487,
  "▁плохо": 1488,
  "▁21": 1489,
  "▁ст": 1490,
  "▁средств": 1491,
  "▁поля": 1492,
  "▁бу": 1493,
  "▁произошло": 1494,
  "Ж": 1495,
  "▁января": 1496,
  "▁средства": 1497,
  "▁ну": 1498,
  "▁внимания": 1499,
  "▁См": 1500,
  "▁события": 1501,
  "▁Тут": 1502,
  "▁Де": 1503,
  "▁женщина": 1504,
  "▁ЦК": 1505,
  "▁царя": 1506,
  "▁времена": 1507,
  "мин": 1508,
  "▁вывод": 1509,
  "▁Мо": 1510,
  "▁русского": 1511,
  "цов": 1512,
  "▁Ка": 1513,
  "▁очевидно": 1514,
  "▁пост": 1515,
  "▁городе": 1516,
  "▁рук": 1517,
  "ировал": 1518,
  "▁Петр": 1519,
  "кий": 1520,
  "▁группа": 1521,
  "ав": 1522,
  "три": 1523,
  "▁ноги": 1524,
  "▁декабря": 1525,
  "▁направлении": 1526,
  "▁разум": 1527,
  "▁Та": 1528,
  "пол": 1529,
  "▁станет": 1530,
  "бе": 1531,
  "овал": 1532,
  "▁пе": 1533,
  "▁23": 1534,
  "▁дух": 1535,
  "вел": 1536,
  "▁считал": 1537,
  "▁никакого": 1538,
  "▁немедленно": 1539,
  "▁мед": 1540,
  "▁форм": 1541,
  "рос": 1542,
  "▁Есть": 1543,
  "▁мнению": 1544,
  "▁таком": 1545,
  "▁апреля": 1546,
  "▁влияние": 1547,
  "вшиеся": 1548,
  "ющим": 1549,
  "▁искусства": 1550,
  "кс": 1551,
  "▁начало": 1552,
  "▁берегу": 1553,
  "▁операции": 1554,
  "▁изменения": 1555,
  "▁страх": 1556,
  "▁участие": 1557,
  "стро": 1558,
  "▁природы": 1559,
  "ад": 1560,
  "▁пользу": 1561,
  "▁десять": 1562,
  "ём": 1563,
  "▁Итак": 1564,
  "▁ситуации": 1565,
  "▁означает": 1566,
  "пор": 1567,
  "пре": 1568,
  "▁сторон": 1569,
  "▁моих": 1570,
  "▁вос": 1571,
  "тели": 1572,
  "▁событий": 1573,
  "▁семьи": 1574,
  "ция": 1575,
  "▁заявил": 1576,
  "▁чувства": 1577,
  "нул": 1578,
  "▁Кар": 1579,
  "том": 1580,
  "▁мо": 1581,
  "▁проект": 1582,
  "гор": 1583,
  "▁Впрочем": 1584,
  "▁исключительно": 1585,
  "▁времен": 1586,
  "▁оказалось": 1587,
  "▁чувство": 1588,
  "▁дороги": 1589,
  "щий": 1590,
  "▁наша": 1591,
  "▁Ему": 1592,
  "ившись": 1593,
  "▁считать": 1594,
  "▁штаба": 1595,
  "▁развитие": 1596,
  "вен": 1597,
  "▁Надо": 1598,
  "теля": 1599,
  ",—": 1600,
  "▁Наконец": 1601,
  "▁примерно": 1602,
  "▁Рас": 1603,
  "▁Владимир": 1604,
  "▁концов": 1605,
  "▁крайне": 1606,
  "▁вроде": 1607,
  "▁исход": 1608,
  "▁теории": 1609,
  "▁позиции": 1610,
  "▁следующий": 1611,
  "ню": 1612,
  "▁бывает": 1613,
  "▁разговор": 1614,
  "▁большую": 1615,
  "хи": 1616,
  "▁первым": 1617,
  "▁чаще": 1618,
  "▁какая": 1619,
  "▁вод": 1620,
  "шу": 1621,
  "▁разве": 1622,
  "▁ш": 1623,
  "▁сюда": 1624,
  "▁вышел": 1625,
  "▁каждой": 1626,
  "▁крайней": 1627,
  "ез": 1628,
  "!..": 1629,
  "▁большое": 1630,
  "▁основном": 1631,
  "▁корпуса": 1632,
  "ление": 1633,
  "▁командир": 1634,
  "рез": 1635,
  "▁оказались": 1636,
  "▁отношений": 1637,
  "ющее": 1638,
  "▁роман": 1639,
  "▁письма": 1640,
  "▁пяти": 1641,
  "▁исследования": 1642,
  "▁Глава": 1643,
  "▁ста": 1644,
  "▁большим": 1645,
  "▁условия": 1646,
  "▁Москву": 1647,
  "▁тыс": 1648,
  "ическом": 1649,
  "▁спокойно": 1650,
  "истов": 1651,
  "ины": 1652,
  "сад": 1653,
  "▁производства": 1654,
  "▁народов": 1655,
  "▁Ме": 1656,
  "▁ос": 1657,
  "▁временем": 1658,
  "▁радио": 1659,
  "▁информации": 1660,
  "0": 1661,
  "▁вес": 1662,
  "гер": 1663,
  "▁вне": 1664,
  "ера": 1665,
  "как": 1666,
  ".).": 1667,
  "▁главное": 1668,
  "ій": 1669,
  "▁человеку": 1670,
  "▁последний": 1671,
  "ило": 1672,
  "▁книге": 1673,
  "▁разные": 1674,
  "▁граждан": 1675,
  "нем": 1676,
  "▁крови": 1677,
  "▁договор": 1678,
  "▁Бар": 1679,
  "▁стоял": 1680,
  "вес": 1681,
  "готов": 1682,
  "▁Правда": 1683,
  "▁круг": 1684,
  "▁лиц": 1685,
  "▁деятельность": 1686,
  "▁откуда": 1687,
  "▁неожиданно": 1688,
  "ана": 1689,
  "▁Бо": 1690,
  "▁политики": 1691,
  "ци": 1692,
  "▁врага": 1693,
  "▁частей": 1694,
  "▁Па": 1695,
  "▁чисто": 1696,
  "сы": 1697,
  "▁часа": 1698,
  "коп": 1699,
  "▁Уже": 1700,
  "▁50": 1701,
  "▁идеи": 1702,
  "жен": 1703,
  "▁обороны": 1704,
  "▁работ": 1705,
  "нные": 1706,
  "▁стр": 1707,
  "мест": 1708,
  "▁положения": 1709,
  "▁позже": 1710,
  "▁мест": 1711,
  "▁пример": 1712,
  "іи": 1713,
  "▁большие": 1714,
  "▁нечто": 1715,
  "▁двор": 1716,
  "шим": 1717,
  "год": 1718,
  "▁историю": 1719,
  "ул": 1720,
  "▁согласно": 1721,
  "▁отряд": 1722,
  "ол": 1723,
  "альных": 1724,
  "▁частью": 1725,
  "▁%": 1726,
  "▁ходе": 1727,
  "▁науки": 1728,
  "▁такую": 1729,
  "▁вкус": 1730,
  "чик": 1731,
  "▁обязательно": 1732,
  "▁обратно": 1733,
  "▁силой": 1734,
  "▁ма": 1735,
  "▁капитан": 1736,
  "▁рот": 1737,
  "▁февраля": 1738,
  "ять": 1739,
  "▁Без": 1740,
  "вой": 1741,
  "▁Сейчас": 1742,
  "шая": 1743,
  "▁Пре": 1744,
  "▁военной": 1745,
  "тон": 1746,
  "▁думаю": 1747,
  "ёт": 1748,
  "▁шли": 1749,
  "▁шум": 1750,
  "▁какую": 1751,
  "Ц": 1752,
  "▁Европе": 1753,
  "ед": 1754,
  "▁Англии": 1755,
  "чет": 1756,
  "▁Союза": 1757,
  "щи": 1758,
  "▁принял": 1759,
  "леп": 1760,
  "Ь": 1761,
  "▁Пол": 1762,
  "▁Гор": 1763,
  "▁Ал": 1764,
  "▁воду": 1765,
  "▁Перед": 1766,
  "▁знали": 1767,
  "▁26": 1768,
  "▁символ": 1769,
  "вшийся": 1770,
  "▁ниже": 1771,
  "куп": 1772,
  "суд": 1773,
  "вшего": 1774,
  "▁Мир": 1775,
  "кор": 1776,
  "▁ген": 1777,
  "▁отношению": 1778,
  "▁Пер": 1779,
  "▁27": 1780,
  "▁28": 1781,
  "овый": 1782,
  "ирует": 1783,
  "▁империи": 1784,
  "▁ход": 1785,
  "атор": 1786,
  "▁естественно": 1787,
  "стей": 1788,
  "дель": 1789,
  "емых": 1790,
  "ющихся": 1791,
  "изации": 1792,
  "рей": 1793,
  "▁общем": 1794,
  "▁сила": 1795,
  "▁членов": 1796,
  "▁начальник": 1797,
  "▁далее": 1798,
  "ьных": 1799,
  "▁речи": 1800,
  "▁отличие": 1801,
  "▁Возможно": 1802,
  "▁помочь": 1803,
  "▁роли": 1804,
  "ям": 1805,
  "▁приказал": 1806,
  "чен": 1807,
  "▁Россия": 1808,
  "▁задачи": 1809,
  "▁боя": 1810,
  "▁0": 1811,
  "▁название": 1812,
  "▁советских": 1813,
  "кол": 1814,
  "▁III": 1815,
  "▁Между": 1816,
  "▁выбор": 1817,
  "▁ночью": 1818,
  "▁глазами": 1819,
  "▁стороне": 1820,
  "дар": 1821,
  "▁дар": 1822,
  "▁необходимости": 1823,
  "▁жив": 1824,
  "▁животных": 1825,
  "▁реки": 1826,
  "▁оп": 1827,
  "▁Га": 1828,
  "▁начинает": 1829,
  "▁царь": 1830,
  "▁русские": 1831,
  "▁заметил": 1832,
  "▁бед": 1833,
  "стан": 1834,
  "тан": 1835,
  "оль": 1836,
  "ницы": 1837,
  "▁головой": 1838,
  "▁см": 1839,
  "▁земля": 1840,
  "▁политической": 1841,
  "▁спустя": 1842,
  "▁предложил": 1843,
  "▁двадцать": 1844,
  "▁пошел": 1845,
  "▁ранее": 1846,
  "что": 1847,
  "▁ю": 1848,
  "нием": 1849,
  "лег": 1850,
  "чки": 1851,
  "▁кос": 1852,
  "▁100": 1853,
  "▁местах": 1854,
  "▁месяцев": 1855,
  "▁находился": 1856,
  "▁четырех": 1857,
  "▁знаком": 1858,
  "▁самолет": 1859,
  "Ю": 1860,
  "▁языка": 1861,
  "зем": 1862,
  "▁переход": 1863,
  "▁полк": 1864,
  "▁поход": 1865,
  "▁теле": 1866,
  "▁жена": 1867,
  "уд": 1868,
  "лер": 1869,
  "йтесь": 1870,
  "▁представить": 1871,
  "▁какого": 1872,
  "▁видим": 1873,
  "аться": 1874,
  "▁света": 1875,
  "▁рассказ": 1876,
  "▁слав": 1877,
  "эт": 1878,
  "▁думал": 1879,
  "щей": 1880,
  "▁дверь": 1881,
  "кро": 1882,
  "пе": 1883,
  "▁основан": 1884,
  "сто": 1885,
  "▁Ис": 1886,
  "▁спас": 1887,
  "▁руб": 1888,
  "▁высоко": 1889,
  "▁медленно": 1890,
  "▁Ра": 1891,
  "▁Пока": 1892,
  "▁сведения": 1893,
  "ину": 1894,
  "▁анализ": 1895,
  "овский": 1896,
  "емые": 1897,
  "ёр": 1898,
  "▁хотелось": 1899,
  "гар": 1900,
  "яв": 1901,
  "▁личности": 1902,
  "▁волн": 1903,
  "▁строго": 1904,
  "нес": 1905,
  "▁новое": 1906,
  "илось": 1907,
  "ание": 1908,
  "▁сознания": 1909,
  "▁нес": 1910,
  "▁Николай": 1911,
  "▁видели": 1912,
  "▁генерала": 1913,
  "вшей": 1914,
  "чив": 1915,
  "▁фронт": 1916,
  "▁приходилось": 1917,
  "твор": 1918,
  "тен": 1919,
  "ост": 1920,
  "▁40": 1921,
  "▁къ": 1922,
  "▁насколько": 1923,
  "▁значения": 1924,
  "рен": 1925,
  "▁машин": 1926,
  "рад": 1927,
  "▁стар": 1928,
  "▁проблем": 1929,
  "▁вернулся": 1930,
  "”.": 1931,
  "▁риск": 1932,
  "▁готовы": 1933,
  "▁борьбе": 1934,
  "▁шесть": 1935,
  "▁метод": 1936,
  "▁Ор": 1937,
  "▁Ее": 1938,
  "▁Европы": 1939,
  "▁тысячи": 1940,
  "▁суда": 1941,
  "▁глазах": 1942,
  "За": 1943,
  "▁состоя": 1944,
  "ическим": 1945,
  "▁долг": 1946,
  "щего": 1947,
  "енной": 1948,
  "▁дороге": 1949,
  "ена": 1950,
  "уз": 1951,
  "▁Москвы": 1952,
  "▁шел": 1953,
  "▁Бер": 1954,
  "▁мор": 1955,
  "▁продолжал": 1956,
  "телем": 1957,
  "хо": 1958,
  "стоя": 1959,
  "▁групп": 1960,
  "зна": 1961,
  "▁создать": 1962,
  "▁большей": 1963,
  "▁машины": 1964,
  "▁полной": 1965,
  "▁эффект": 1966,
  "▁секрет": 1967,
  "▁получили": 1968,
  "чка": 1969,
  "▁спор": 1970,
  "раж": 1971,
  "ень": 1972,
  "▁Господь": 1973,
  "▁Ку": 1974,
  "овую": 1975,
  "▁вынужден": 1976,
  "▁корпус": 1977,
  "▁Мор": 1978,
  "▁пришли": 1979,
  "цию": 1980,
  "▁Христа": 1981,
  "▁флот": 1982,
  "▁советской": 1983,
  "▁думать": 1984,
  "▁изъ": 1985,
  "▁Многие": 1986,
  "▁можете": 1987,
  "ён": 1988,
  "▁уровне": 1989,
  "▁Тот": 1990,
  "▁знания": 1991,
  "▁отдал": 1992,
  "▁военного": 1993,
  "дал": 1994,
  "▁Ха": 1995,
  "▁чтоб": 1996,
  "дав": 1997,
  "▁совет": 1998,
  "▁короля": 1999,
  "лан": 2000,
  "▁чувств": 2001,
  "▁сердца": 2002,
  "▁чему": 2003,
  "▁вред": 2004,
  "▁задача": 2005,
  "нный": 2006,
  "тро": 2007,
  "нут": 2008,
  "▁нашу": 2009,
  "▁абсолютно": 2010,
  "▁офицеров": 2011,
  "▁Некоторые": 2012,
  "▁Пусть": 2013,
  "▁конец": 2014,
  "вшая": 2015,
  "пад": 2016,
  "%": 2017,
  "нд": 2018,
  "▁князь": 2019,
  "▁школы": 2020,
  "▁Су": 2021,
  "▁увидеть": 2022,
  "▁душе": 2023,
  "нима": 2024,
  "▁ребенка": 2025,
  "той": 2026,
  "▁состояния": 2027,
  "▁термин": 2028,
  "▁рукой": 2029,
  "ген": 2030,
  "зе": 2031,
  "пис": 2032,
  "ань": 2033,
  "▁район": 2034,
  "▁ума": 2035,
  "▁приходится": 2036,
  "▁большая": 2037,
  "▁коллектив": 2038,
  "▁Богу": 2039,
  "▁мою": 2040,
  "▁позволяет": 2041,
  "ион": 2042,
  "▁принцип": 2043,
  "вор": 2044,
  "▁уровень": 2045,
  "▁нос": 2046,
  "▁шла": 2047,
  "▁впечатление": 2048,
  "▁порядок": 2049,
  "▁философ": 2050,
  "▁Ман": 2051,
  "▁месяца": 2052,
  "▁фон": 2053,
  "▁оружие": 2054,
  "▁1941": 2055,
  "ацию": 2056,
  "бав": 2057,
  "▁памяти": 2058,
  "чер": 2059,
  "▁Ленин": 2060,
  "▁занима": 2061,
  "брос": 2062,
  "▁безопасности": 2063,
  "пар": 2064,
  "▁мозг": 2065,
  "▁след": 2066,
  "▁книг": 2067,
  "▁установлен": 2068,
  "хот": 2069,
  "▁Ма": 2070,
  "жив": 2071,
  "▁мер": 2072,
  "сп": 2073,
  "исты": 2074,
  "▁срок": 2075,
  "▁маг": 2076,
  "▁службы": 2077,
  "альной": 2078,
  "▁называется": 2079,
  "образ": 2080,
  "ует": 2081,
  "цен": 2082,
  "▁окончательно": 2083,
  "ались": 2084,
  "▁прием": 2085,
  "▁Более": 2086,
  "▁случайно": 2087,
  "▁больших": 2088,
  "▁тепло": 2089,
  "зов": 2090,
  "мысл": 2091,
  "вать": 2092,
  "▁военно": 2093,
  "▁видимо": 2094,
  "еж": 2095,
  "▁порт": 2096,
  "▁сер": 2097,
  "▁смог": 2098,
  "лич": 2099,
  "▁флота": 2100,
  "▁орган": 2101,
  "кан": 2102,
  "▁желание": 2103,
  "ган": 2104,
  "▁успех": 2105,
  "ьные": 2106,
  "▁Среди": 2107,
  "▁шаг": 2108,
  "▁отдельных": 2109,
  "шь": 2110,
  "▁одному": 2111,
  "▁настоящее": 2112,
  "▁император": 2113,
  "▁кино": 2114,
  "▁представления": 2115,
  "▁идея": 2116,
  "▁собственной": 2117,
  "щие": 2118,
  "▁глубоко": 2119,
  "▁зависимости": 2120,
  "▁результат": 2121,
  "▁работал": 2122,
  "▁предмет": 2123,
  "▁ран": 2124,
  "▁душа": 2125,
  "▁немало": 2126,
  "▁придется": 2127,
  "?!": 2128,
  "ата": 2129,
  "▁чрезвычайно": 2130,
  "▁Люб": 2131,
  "ющиеся": 2132,
  "▁уверен": 2133,
  "▁подобно": 2134,
  "душ": 2135,
  "▁Потому": 2136,
  "▁руками": 2137,
  "▁Ру": 2138,
  "▁люб": 2139,
  "▁общество": 2140,
  "щих": 2141,
  "▁книгу": 2142,
  "▁другу": 2143,
  "▁первом": 2144,
  "ир": 2145,
  "▁ограничен": 2146,
  "енная": 2147,
  "▁зависит": 2148,
  "вшим": 2149,
  "▁различные": 2150,
  "▁вверх": 2151,
  "Да": 2152,
  "▁вниз": 2153,
  "▁осталось": 2154,
  "ике": 2155,
  "▁языке": 2156,
  "▁тип": 2157,
  "веден": 2158,
  "ун": 2159,
  "▁Вам": 2160,
  "▁встреча": 2161,
  "▁4.": 2162,
  "▁29": 2163,
  "▁перемен": 2164,
  "▁Где": 2165,
  "▁государство": 2166,
  "▁редко": 2167,
  "вели": 2168,
  "▁актив": 2169,
  "▁недо": 2170,
  "▁текст": 2171,
  "▁силами": 2172,
  "▁небес": 2173,
  "видимому": 2174,
  "▁широко": 2175,
  "▁горе": 2176,
  "▁роз": 2177,
  "▁стен": 2178,
  "▁Оно": 2179,
  "▁мнение": 2180,
  "слов": 2181,
  "▁уровня": 2182,
  "▁погиб": 2183,
  "▁князя": 2184,
  "нич": 2185,
  "▁материал": 2186,
  "▁Сталина": 2187,
  "▁пал": 2188,
  "▁Человек": 2189,
  "омъ": 2190,
  "▁систему": 2191,
  "▁коп": 2192,
  "▁назван": 2193,
  "▁оказалась": 2194,
  "так": 2195,
  "▁кем": 2196,
  "▁болезни": 2197,
  "▁низ": 2198,
  "▁посвящен": 2199,
  "ица": 2200,
  "телей": 2201,
  "ред": 2202,
  "очка": 2203,
  "ания": 2204,
  "▁особенности": 2205,
  "аж": 2206,
  "▁наоборот": 2207,
  "▁голод": 2208,
  "▁прекрасно": 2209,
  "▁будучи": 2210,
  "▁театр": 2211,
  "▁сознание": 2212,
  "▁Несмотря": 2213,
  "▁однажды": 2214,
  "▁Каждый": 2215,
  "▁утром": 2216,
  "▁Очень": 2217,
  "▁Ге": 2218,
  "ций": 2219,
  "▁искать": 2220,
  "▁миф": 2221,
  "▁этими": 2222,
  "▁никакой": 2223,
  "▁назначен": 2224,
  "▁оказывается": 2225,
  "нер": 2226,
  "▁Ст": 2227,
  "▁книга": 2228,
  "▁рост": 2229,
  "▁случилось": 2230,
  "▁слышал": 2231,
  "▁вдоль": 2232,
  "вед": 2233,
  "▁Ди": 2234,
  "няя": 2235,
  "▁месяц": 2236,
  "▁кар": 2237,
  "▁воздух": 2238,
  "▁Михаил": 2239,
  "ления": 2240,
  "▁оружия": 2241,
  "▁приводит": 2242,
  "▁противо": 2243,
  "▁Вас": 2244,
  "▁Три": 2245,
  "▁остался": 2246,
  "▁соответствии": 2247,
  "▁3-": 2248,
  "овое": 2249,
  "▁другую": 2250,
  "▁хлеб": 2251,
  "▁рис": 2252,
  "▁честь": 2253,
  "▁память": 2254,
  "▁нашем": 2255,
  "▁Кур": 2256,
  "▁офицер": 2257,
  "▁христиан": 2258,
  "▁знаем": 2259,
  "▁ночи": 2260,
  "ур": 2261,
  "▁перевод": 2262,
  "▁Лев": 2263,
  "▁самому": 2264,
  "▁головы": 2265,
  "мон": 2266,
  "прежнему": 2267,
  "▁словам": 2268,
  "▁боль": 2269,
  "▁действие": 2270,
  "▁годов": 2271,
  "▁стихи": 2272,
  "▁кое": 2273,
  "▁бал": 2274,
  "▁составе": 2275,
  "▁ныне": 2276,
  "вшейся": 2277,
  "енным": 2278,
  "▁считает": 2279,
  "▁положении": 2280,
  "▁мимо": 2281,
  "▁лист": 2282,
  "▁процесса": 2283,
  "лага": 2284,
  "▁инженер": 2285,
  "пред": 2286,
  "▁XIX": 2287,
  "▁сел": 2288,
  "▁Хо": 2289,
  "▁берег": 2290,
  "▁данные": 2291,
  "▁понимал": 2292,
  "ест": 2293,
  "эр": 2294,
  "▁возник": 2295,
  "▁каждом": 2296,
  "▁протяжении": 2297,
  "»)": 2298,
  "▁свете": 2299,
  "▁новую": 2300,
  "рин": 2301,
  "кую": 2302,
  "▁некоторое": 2303,
  "▁оба": 2304,
  "кур": 2305,
  "▁порядке": 2306,
  "шин": 2307,
  "[": 2308,
  "▁сбор": 2309,
  "кар": 2310,
  "▁боевых": 2311,
  "▁решили": 2312,
  "▁ла": 2313,
  "▁наук": 2314,
  "енного": 2315,
  "▁построен": 2316,
  "▁требует": 2317,
  "▁меры": 2318,
  "▁русский": 2319,
  "▁Советского": 2320,
  "▁проблема": 2321,
  "част": 2322,
  "▁общего": 2323,
  "▁добро": 2324,
  "▁форму": 2325,
  "вали": 2326,
  "лит": 2327,
  "▁наступление": 2328,
  "▁подход": 2329,
  "▁буквально": 2330,
  "▁Меня": 2331,
  "ений": 2332,
  "город": 2333,
  "▁молодой": 2334,
  "ешься": 2335,
  "первых": 2336,
  "ющую": 2337,
  "▁успешно": 2338,
  "▁меч": 2339,
  "▁немцы": 2340,
  "▁вещей": 2341,
  "▁тихо": 2342,
  "▁Красной": 2343,
  "▁опер": 2344,
  "▁север": 2345,
  "▁понятия": 2346,
  "▁идеал": 2347,
  "▁Ти": 2348,
  "▁Дело": 2349,
  "▁рождения": 2350,
  "▁Вскоре": 2351,
  "щу": 2352,
  "▁странах": 2353,
  "▁Гер": 2354,
  "▁граф": 2355,
  "▁губ": 2356,
  "▁автора": 2357,
  "станов": 2358,
  "▁начальника": 2359,
  "▁Особенно": 2360,
  "▁специально": 2361,
  "▁создания": 2362,
  "▁поверхности": 2363,
  "▁запас": 2364,
  "▁говорю": 2365,
  "▁идей": 2366,
  "все": 2367,
  "▁св": 2368,
  "фер": 2369,
  "▁номер": 2370,
  "▁впоследствии": 2371,
  "▁показал": 2372,
  "рь": 2373,
  "▁поставлен": 2374,
  "уль": 2375,
  "полн": 2376,
  "▁нашим": 2377,
  "▁Иногда": 2378,
  "иков": 2379,
  "▁аппарат": 2380,
  "ступ": 2381,
  "▁партизан": 2382,
  "▁Дж": 2383,
  "град": 2384,
  "▁жар": 2385,
  "цам": 2386,
  "▁звезд": 2387,
  "ложить": 2388,
  "быт": 2389,
  "▁находились": 2390,
  "ается": 2391,
  "пал": 2392,
  "▁трав": 2393,
  "дор": 2394,
  "1.": 2395,
  "▁семь": 2396,
  "▁прибыл": 2397,
  "воль": 2398,
  "▁задач": 2399,
  "▁ног": 2400,
  "▁прос": 2401,
  "фе": 2402,
  "▁подумал": 2403,
  "тин": 2404,
  "▁дочь": 2405,
  "▁друзей": 2406,
  "▁Рим": 2407,
  "чит": 2408,
  "ні": 2409,
  "дан": 2410,
  "▁избран": 2411,
  "▁порядка": 2412,
  "▁Александра": 2413,
  "▁Было": 2414,
  "▁живет": 2415,
  "ук": 2416,
  "▁пита": 2417,
  "казан": 2418,
  "▁лице": 2419,
  "▁Сегодня": 2420,
  "▁писать": 2421,
  "▁будущем": 2422,
  "▁свободы": 2423,
  "▁возникает": 2424,
  "бин": 2425,
  "▁внезапно": 2426,
  "▁Ан": 2427,
  "▁начать": 2428,
  "▁всякого": 2429,
  "▁узнать": 2430,
  "▁духа": 2431,
  "▁видит": 2432,
  "▁существования": 2433,
  "▁недавно": 2434,
  "▁небо": 2435,
  "итесь": 2436,
  "ведение": 2437,
  "▁ло": 2438,
  "пут": 2439,
  "▁Че": 2440,
  "став": 2441,
  "▁душу": 2442,
  "▁Поскольку": 2443,
  "▁остальные": 2444,
  "▁курс": 2445,
  "▁масс": 2446,
  "▁форма": 2447,
  "▁узнал": 2448,
  "▁Бор": 2449,
  "ителя": 2450,
  "ьный": 2451,
  "▁литературы": 2452,
  "▁философии": 2453,
  "▁водой": 2454,
  "сер": 2455,
  "▁эпохи": 2456,
  "▁дорогу": 2457,
  "ких": 2458,
  "гляд": 2459,
  "▁нашел": 2460,
  "▁солнце": 2461,
  "▁вечером": 2462,
  "▁2)": 2463,
  "▁образования": 2464,
  "щее": 2465,
  "▁распространен": 2466,
  "▁расположен": 2467,
  "дов": 2468,
  "▁горы": 2469,
  "▁Чем": 2470,
  "▁полковник": 2471,
  "ьев": 2472,
  "щая": 2473,
  "ланд": 2474,
  "▁дав": 2475,
  "дет": 2476,
  "▁ранен": 2477,
  "шки": 2478,
  "▁улице": 2479,
  "▁немцев": 2480,
  "▁Иисус": 2481,
  "крас": 2482,
  "▁характера": 2483,
  "▁Виктор": 2484,
  "▁первое": 2485,
  "▁корм": 2486,
  "▁Люди": 2487,
  "руч": 2488,
  "▁границы": 2489,
  "▁ин": 2490,
  "▁создан": 2491,
  "ож": 2492,
  "▁класса": 2493,
  "▁называют": 2494,
  "▁проч": 2495,
  "▁тяжело": 2496,
  "▁процессе": 2497,
  "гр": 2498,
  "▁ваш": 2499,
  "лез": 2500,
  "енно": 2501,
  "▁пят": 2502,
  "каз": 2503,
  "▁президент": 2504,
  "▁близко": 2505,
  "▁голове": 2506,
  "▁пошли": 2507,
  "▁данных": 2508,
  "▁относится": 2509,
  "▁сосед": 2510,
  "▁самостоятельно": 2511,
  "вести": 2512,
  "▁городов": 2513,
  "▁ярко": 2514,
  "▁представление": 2515,
  "▁взрыв": 2516,
  "▁обществе": 2517,
  "▁товарищ": 2518,
  "▁жизнью": 2519,
  "селен": 2520,
  "▁сделали": 2521,
  "▁вода": 2522,
  "00": 2523,
  "▁Нам": 2524,
  "▁остров": 2525,
  "▁недостаточно": 2526,
  "▁король": 2527,
  "▁существование": 2528,
  "▁отъ": 2529,
  "▁обще": 2530,
  "тр": 2531,
  "един": 2532,
  "▁XX": 2533,
  "▁кровь": 2534,
  "дума": 2535,
  "▁Мин": 2536,
  "ирование": 2537,
  "▁общей": 2538,
  "▁взят": 2539,
  "▁Ба": 2540,
  "▁природе": 2541,
  "▁знак": 2542,
  "овали": 2543,
  "▁данном": 2544,
  "ху": 2545,
  "▁лицом": 2546,
  "поль": 2547,
  "▁Чу": 2548,
  "жу": 2549,
  "▁тщательно": 2550,
  "▁телефон": 2551,
  "зор": 2552,
  "▁танков": 2553,
  "▁самим": 2554,
  "▁армию": 2555,
  "жил": 2556,
  "▁Запад": 2557,
  "йся": 2558,
  "▁жителей": 2559,
  "щим": 2560,
  "▁брата": 2561,
  "▁сообщил": 2562,
  "▁фактически": 2563,
  "▁Бел": 2564,
  "▁сожалению": 2565,
  "▁вопросов": 2566,
  "▁принято": 2567,
  "дж": 2568,
  "▁запад": 2569,
  "▁оставил": 2570,
  "▁Стар": 2571,
  "▁Бу": 2572,
  "▁лежит": 2573,
  "▁хотели": 2574,
  "▁объяснить": 2575,
  "▁существ": 2576,
  "ющими": 2577,
  "▁качества": 2578,
  "емый": 2579,
  "▁бомб": 2580,
  "вторых": 2581,
  "ировали": 2582,
  "▁1)": 2583,
  "▁раза": 2584,
  "▁зачем": 2585,
  "▁Однажды": 2586,
  "▁000": 2587,
  "▁дали": 2588,
  "днев": 2589,
  "▁принимать": 2590,
  "▁бар": 2591,
  "цем": 2592,
  "тельные": 2593,
  "▁вел": 2594,
  "▁вида": 2595,
  "▁привести": 2596,
  "▁системе": 2597,
  "▁рад": 2598,
  "▁мотив": 2599,
  "▁второго": 2600,
  "ался": 2601,
  "▁трудом": 2602,
  "▁работает": 2603,
  "▁Совет": 2604,
  "▁Карл": 2605,
  "пел": 2606,
  "▁жили": 2607,
  "▁тобой": 2608,
  "▁колон": 2609,
  "▁раздел": 2610,
  "▁отвечал": 2611,
  "▁заключается": 2612,
  "▁систем": 2613,
  "▁боевой": 2614,
  "▁ро": 2615,
  "▁нужны": 2616,
  "▁служил": 2617,
  "▁направлен": 2618,
  "лож": 2619,
  "бел": 2620,
  "▁стояли": 2621,
  "▁последних": 2622,
  "▁попросил": 2623,
  "▁метров": 2624,
  "зу": 2625,
  "очки": 2626,
  "▁пояс": 2627,
  "слав": 2628,
  "▁живот": 2629,
  "▁компании": 2630,
  "▁Россию": 2631,
  "▁одни": 2632,
  "овского": 2633,
  "10": 2634,
  "▁совершен": 2635,
  "▁пытался": 2636,
  "▁опыта": 2637,
  "▁успел": 2638,
  "▁пан": 2639,
  "▁склад": 2640,
  "▁делал": 2641,
  "▁вернуться": 2642,
  "▁военные": 2643,
  "▁напротив": 2644,
  "▁голов": 2645,
  "действительности": 2646,
  "тельный": 2647,
  "вая": 2648,
  "▁ар": 2649,
  "▁ус": 2650,
  "▁открыл": 2651,
  "▁политических": 2652,
  "▁минуту": 2653,
  "сом": 2654,
  "▁Значит": 2655,
  "лог": 2656,
  "▁завод": 2657,
  "▁недели": 2658,
  "▁холод": 2659,
  "рус": 2660,
  "▁миру": 2661,
  "▁семье": 2662,
  "▁мужчин": 2663,
  "При": 2664,
  "▁бор": 2665,
  "▁Пар": 2666,
  "Как": 2667,
  "▁решительно": 2668,
  "пы": 2669,
  "оч": 2670,
  "▁сидел": 2671,
  "▁никого": 2672,
  "▁итоге": 2673,
  "▁сюжет": 2674,
  "▁традиции": 2675,
  "ара": 2676,
  "▁документ": 2677,
  "▁черт": 2678,
  "ливо": 2679,
  "вшегося": 2680,
  "▁действовать": 2681,
  "▁великого": 2682,
  "▁баб": 2683,
  "▁последнего": 2684,
  "▁делают": 2685,
  "ально": 2686,
  "▁верно": 2687,
  "ари": 2688,
  "▁огня": 2689,
  "▁похоже": 2690,
  "ушки": 2691,
  "▁занят": 2692,
  "▁воин": 2693,
  "▁центре": 2694,
  "▁произведения": 2695,
  "▁угол": 2696,
  "▁пр": 2697,
  "ств": 2698,
  "ением": 2699,
  "▁Разве": 2700,
  "ального": 2701,
  "▁пространство": 2702,
  "рок": 2703,
  "▁1942": 2704,
  "▁понятно": 2705,
  "▁церковь": 2706,
  "▁пара": 2707,
  "▁бог": 2708,
  "▁сотни": 2709,
  "▁находятся": 2710,
  "▁суть": 2711,
  "▁сути": 2712,
  "▁земель": 2713,
  "остью": 2714,
  "▁явления": 2715,
  "етесь": 2716,
  "мент": 2717,
  "▁ближе": 2718,
  "фи": 2719,
  "▁фронте": 2720,
  "ительно": 2721,
  "▁Им": 2722,
  "▁склон": 2723,
  "▁командира": 2724,
  "▁Сан": 2725,
  "▁прошлом": 2726,
  "▁хуже": 2727,
  "овъ": 2728,
  "▁выражен": 2729,
  "▁акт": 2730,
  "▁небольшой": 2731,
  "▁Союз": 2732,
  "▁понятие": 2733,
  "овыми": 2734,
  "▁середине": 2735,
  "2.": 2736,
  "▁появились": 2737,
  "▁последнее": 2738,
  "бой": 2739,
  "▁забот": 2740,
  "▁славян": 2741,
  "тки": 2742,
  "▁каком": 2743,
  "мар": 2744,
  "▁ваши": 2745,
  "▁доступ": 2746,
  "▁Сер": 2747,
  "▁ц": 2748,
  "ложил": 2749,
  "▁императора": 2750,
  "▁служит": 2751,
  "▁большого": 2752,
  "▁сквозь": 2753,
  "▁отсутствие": 2754,
  "нев": 2755,
  "▁евреев": 2756,
  "▁стены": 2757,
  "▁край": 2758,
  "▁семей": 2759,
  "▁будущее": 2760,
  "ким": 2761,
  "вит": 2762,
  "▁получен": 2763,
  "дра": 2764,
  "енное": 2765,
  "раст": 2766,
  "альным": 2767,
  "▁сказано": 2768,
  "▁отправился": 2769,
  "ток": 2770,
  "▁двери": 2771,
  "▁возраста": 2772,
  "▁сомнения": 2773,
  "▁кораблей": 2774,
  "пр": 2775,
  "▁служить": 2776,
  "▁имела": 2777,
  "наго": 2778,
  "▁Фа": 2779,
  "▁автомат": 2780,
  "▁нередко": 2781,
  "▁Иванович": 2782,
  "▁комплекс": 2783,
  "▁завтра": 2784,
  "цией": 2785,
  "знаком": 2786,
  "▁бег": 2787,
  "▁Второй": 2788,
  "▁X": 2789,
  "▁семья": 2790,
  "▁видов": 2791,
  "▁края": 2792,
  "▁состава": 2793,
  "ством": 2794,
  "▁потери": 2795,
  "▁показывает": 2796,
  "вет": 2797,
  "▁вижу": 2798,
  "▁остались": 2799,
  "▁источник": 2800,
  "▁острова": 2801,
  "▁функции": 2802,
  "▁письме": 2803,
  "▁Мон": 2804,
  "▁Совета": 2805,
  "▁такими": 2806,
  "айте": 2807,
  "▁батальон": 2808,
  "▁част": 2809,
  "▁причине": 2810,
  "▁поведения": 2811,
  "зо": 2812,
  "▁сей": 2813,
  "▁первая": 2814,
  "дя": 2815,
  "шен": 2816,
  "▁результаты": 2817,
  "▁вели": 2818,
  "▁сложно": 2819,
  "▁сверх": 2820,
  "▁другая": 2821,
  "ители": 2822,
  "▁Гитлер": 2823,
  "▁ад": 2824,
  "▁промышленности": 2825,
  "▁Италии": 2826,
  "▁голуб": 2827,
  "альную": 2828,
  "▁сопровожда": 2829,
  "кос": 2830,
  "веща": 2831,
  "▁пи": 2832,
  "▁ба": 2833,
  "ирования": 2834,
  "▁определить": 2835,
  "▁вашей": 2836,
  "▁органов": 2837,
  "Про": 2838,
  "ряд": 2839,
  "▁гроз": 2840,
  "▁показать": 2841,
  "бил": 2842,
  "▁всякий": 2843,
  "▁содержание": 2844,
  "▁позднее": 2845,
  "▁службу": 2846,
  "енную": 2847,
  "»:": 2848,
  "▁возле": 2849,
  "▁игра": 2850,
  "тя": 2851,
  "▁моим": 2852,
  "РА": 2853,
  "▁внимательно": 2854,
  "ог": 2855,
  "▁ракет": 2856,
  "▁ред": 2857,
  "▁...": 2858,
  "▁якобы": 2859,
  "▁момента": 2860,
  "▁говорится": 2861,
  "▁гон": 2862,
  "▁Первый": 2863,
  "▁4-": 2864,
  "лем": 2865,
  "работ": 2866,
  "▁следовательно": 2867,
  "▁организован": 2868,
  "▁оттуда": 2869,
  "▁любит": 2870,
  "▁явля": 2871,
  "син": 2872,
  "▁Пан": 2873,
  "▁Руси": 2874,
  "▁противоположно": 2875,
  "ены": 2876,
  "▁наверное": 2877,
  "▁мужа": 2878,
  "тал": 2879,
  "▁ваше": 2880,
  "▁рассказал": 2881,
  "▁делу": 2882,
  "▁труб": 2883,
  "▁войсками": 2884,
  "▁смотреть": 2885,
  "нят": 2886,
  "▁миллионов": 2887,
  "▁стоя": 2888,
  "ура": 2889,
  "▁достижения": 2890,
  "▁сигнал": 2891,
  "▁способность": 2892,
  "▁иностранных": 2893,
  "▁Лу": 2894,
  "▁мальчик": 2895,
  "▁неделю": 2896,
  "сил": 2897,
  "▁прошлого": 2898,
  "▁Петра": 2899,
  "совет": 2900,
  "клад": 2901,
  "▁назвать": 2902,
  "▁член": 2903,
  "▁груз": 2904,
  "▁шар": 2905,
  "след": 2906,
  "▁архив": 2907,
  "▁знают": 2908,
  "▁выйти": 2909,
  "▁чин": 2910,
  "▁представлен": 2911,
  "инг": 2912,
  "▁портрет": 2913,
  "▁десяти": 2914,
  "стрел": 2915,
  "стар": 2916,
  "▁атом": 2917,
  "▁веры": 2918,
  "▁Рис": 2919,
  "▁Народ": 2920,
  "ически": 2921,
  "▁успеха": 2922,
  "▁раствор": 2923,
  "▁счастье": 2924,
  "▁доктор": 2925,
  "▁крупных": 2926,
  "держ": 2927,
  "▁Род": 2928,
  "▁Ши": 2929,
  "▁немецких": 2930,
  "▁товар": 2931,
  "▁попал": 2932,
  "▁словом": 2933,
  "бл": 2934,
  "▁искусство": 2935,
  "▁меж": 2936,
  "▁ведет": 2937,
  "▁человеческого": 2938,
  "▁человечества": 2939,
  "»).": 2940,
  "▁девушка": 2941,
  "▁судьба": 2942,
  "▁всяком": 2943,
  "равн": 2944,
  "▁желания": 2945,
  "▁современной": 2946,
  "хан": 2947,
  "▁ман": 2948,
  "▁собою": 2949,
  "бит": 2950,
  "▁сможет": 2951,
  "▁вышли": 2952,
  "▁5.": 2953,
  "▁вопроса": 2954,
  "▁читать": 2955,
  "хват": 2956,
  "▁быт": 2957,
  "▁ею": 2958,
  "▁страну": 2959,
  "▁сильнее": 2960,
  "▁доклад": 2961,
  "▁обед": 2962,
  "▁IV": 2963,
  "тра": 2964,
  "ющийся": 2965,
  "▁поведение": 2966,
  "▁норм": 2967,
  "евич": 2968,
  "уч": 2969,
  "▁принес": 2970,
  "рик": 2971,
  "кие": 2972,
  "▁Вместе": 2973,
  "”,": 2974,
  "▁31": 2975,
  "▁любил": 2976,
  "ял": 2977,
  "▁представителей": 2978,
  "▁сделан": 2979,
  "▁Ми": 2980,
  "▁Кол": 2981,
  "▁вариант": 2982,
  "▁различ": 2983,
  "▁жены": 2984,
  "лик": 2985,
  "▁подробно": 2986,
  "▁основания": 2987,
  "рав": 2988,
  "▁бок": 2989,
  "ируют": 2990,
  "▁став": 2991,
  "▁самая": 2992,
  "▁героя": 2993,
  "▁полно": 2994,
  "▁пришла": 2995,
  "есс": 2996,
  "чем": 2997,
  "▁область": 2998,
  "нин": 2999,
  "▁контр": 3000,
  "▁произнес": 3001,
  "ицы": 3002,
  "ьная": 3003,
  "?..": 3004,
  "▁жал": 3005,
  "▁руководство": 3006,
  "▁ал": 3007,
  "ів": 3008,
  "▁знаете": 3009,
  "▁смерт": 3010,
  "▁рублей": 3011,
  "▁брак": 3012,
  "ита": 3013,
  "▁понимаю": 3014,
  "▁ветер": 3015,
  "▁мною": 3016,
  "▁появился": 3017,
  "▁Пушкин": 3018,
  "▁господин": 3019,
  "дом": 3020,
  "др": 3021,
  "▁V": 3022,
  "▁читал": 3023,
  "▁газ": 3024,
  "ово": 3025,
  "▁лишен": 3026,
  "прият": 3027,
  "▁вследствие": 3028,
  "ическими": 3029,
  "▁причины": 3030,
  "ником": 3031,
  "▁угодно": 3032,
  "▁нрав": 3033,
  "▁Азии": 3034,
  "онов": 3035,
  "ьте": 3036,
  "▁несомненно": 3037,
  "гин": 3038,
  "▁объем": 3039,
  "▁Ибо": 3040,
  "▁понимать": 3041,
  "▁целый": 3042,
  "▁полном": 3043,
  "щую": 3044,
  "ине": 3045,
  "▁строй": 3046,
  "имся": 3047,
  "свет": 3048,
  "▁1917": 3049,
  "юр": 3050,
  "дон": 3051,
  "▁дым": 3052,
  "▁победы": 3053,
  "▁цвета": 3054,
  "▁подобных": 3055,
  "▁профессор": 3056,
  "нт": 3057,
  "▁ключ": 3058,
  "▁вызывает": 3059,
  "числен": 3060,
  "▁реш": 3061,
  "▁транспорт": 3062,
  "▁Ро": 3063,
  "▁усилия": 3064,
  "иш": 3065,
  "▁основных": 3066,
  "▁сущности": 3067,
  "ушка": 3068,
  "зин": 3069,
  "▁мод": 3070,
  "знач": 3071,
  "▁дальнейшем": 3072,
  "▁встречи": 3073,
  "▁1918": 3074,
  "аются": 3075,
  "▁ряда": 3076,
  "▁будущего": 3077,
  "нная": 3078,
  "▁помню": 3079,
  "▁нашли": 3080,
  "▁60": 3081,
  "▁Богом": 3082,
  "рит": 3083,
  "▁способны": 3084,
  "▁ново": 3085,
  "плат": 3086,
  "▁члены": 3087,
  "ці": 3088,
  "▁сон": 3089,
  "эй": 3090,
  "▁соч": 3091,
  "▁держав": 3092,
  "▁собственно": 3093,
  "▁необходимость": 3094,
  "▁хотят": 3095,
  "▁благород": 3096,
  "ителей": 3097,
  "▁шести": 3098,
  "▁неизбежно": 3099,
  "▁площади": 3100,
  "уш": 3101,
  "▁обоих": 3102,
  "▁борьба": 3103,
  "бол": 3104,
  "▁созда": 3105,
  "▁1943": 3106,
  "▁солдаты": 3107,
  "▁поставил": 3108,
  "▁пожар": 3109,
  "▁религии": 3110,
  "▁мама": 3111,
  "▁бесконечно": 3112,
  "▁неизвестно": 3113,
  "▁лейтенант": 3114,
  "▁воли": 3115,
  "▁контакт": 3116,
  "▁великий": 3117,
  "▁пап": 3118,
  "▁пару": 3119,
  "▁образован": 3120,
  "▁Много": 3121,
  "▁почувствовал": 3122,
  "ас": 3123,
  "▁слабо": 3124,
  "еть": 3125,
  "нув": 3126,
  "сты": 3127,
  "▁структур": 3128,
  "▁просил": 3129,
  "Ка": 3130,
  "▁государств": 3131,
  "нского": 3132,
  "▁основании": 3133,
  "▁ими": 3134,
  "▁Хорошо": 3135,
  "▁борьбу": 3136,
  "▁человеческой": 3137,
  "чей": 3138,
  "▁отношениях": 3139,
  "запад": 3140,
  "▁третий": 3141,
  "▁контроль": 3142,
  "▁крас": 3143,
  "▁представля": 3144,
  "▁особо": 3145,
  "сте": 3146,
  "▁проведен": 3147,
  "вест": 3148,
  "▁писатель": 3149,
  "▁мозга": 3150,
  "ообраз": 3151,
  "тельных": 3152,
  "▁возраст": 3153,
  "иф": 3154,
  "▁поезд": 3155,
  "▁начинается": 3156,
  "пят": 3157,
  "груз": 3158,
  "▁техники": 3159,
  "▁провести": 3160,
  "▁Чер": 3161,
  "▁стремление": 3162,
  "▁Земли": 3163,
  "▁Бр": 3164,
  "▁периода": 3165,
  "▁случаев": 3166,
  "ело": 3167,
  "▁талант": 3168,
  "▁Ри": 3169,
  "▁Ленина": 3170,
  "▁Генерал": 3171,
  "▁попытки": 3172,
  "сел": 3173,
  "гре": 3174,
  "▁пулемет": 3175,
  "жд": 3176,
  "▁мат": 3177,
  "▁корабль": 3178,
  "шее": 3179,
  "▁делом": 3180,
  "▁приходит": 3181,
  "▁считают": 3182,
  "▁считали": 3183,
  "▁включая": 3184,
  "ощ": 3185,
  "▁хочется": 3186,
  "▁разумеется": 3187,
  "▁корабля": 3188,
  "форм": 3189,
  "ниц": 3190,
  "лев": 3191,
  "ьным": 3192,
  "▁армий": 3193,
  "▁орудий": 3194,
  "очку": 3195,
  "▁кро": 3196,
  "▁элементов": 3197,
  "▁ощущение": 3198,
  "▁дают": 3199,
  "▁способности": 3200,
  "▁мусульман": 3201,
  "крыл": 3202,
  "▁задачу": 3203,
  "сс": 3204,
  "▁раб": 3205,
  "▁свободу": 3206,
  "▁режим": 3207,
  "доб": 3208,
  "ложен": 3209,
  "▁зла": 3210,
  "вое": 3211,
  "▁карт": 3212,
  "▁друзья": 3213,
  "▁днем": 3214,
  "▁имеется": 3215,
  "ву": 3216,
  "▁Си": 3217,
  "▁леса": 3218,
  "▁тесно": 3219,
  "▁звук": 3220,
  "▁предложение": 3221,
  "▁электро": 3222,
  "ацией": 3223,
  "дин": 3224,
  "инский": 3225,
  "▁газеты": 3226,
  "бал": 3227,
  "▁Господа": 3228,
  "▁интересов": 3229,
  "Что": 3230,
  "аю": 3231,
  "пом": 3232,
  "▁отдела": 3233,
  "▁влияния": 3234,
  "▁ми": 3235,
  "▁запах": 3236,
  "▁веру": 3237,
  "лок": 3238,
  "▁существенно": 3239,
  "▁обнаружил": 3240,
  "▁авторитет": 3241,
  "▁заниматься": 3242,
  "▁никому": 3243,
  "▁гол": 3244,
  "▁советского": 3245,
  "шн": 3246,
  "▁огне": 3247,
  "креп": 3248,
  "ром": 3249,
  "▁информацию": 3250,
  "▁вечера": 3251,
  "▁веке": 3252,
  "▁правил": 3253,
  "▁идут": 3254,
  "джи": 3255,
  "▁берега": 3256,
  "▁млн": 3257,
  "▁пространства": 3258,
  "▁бр": 3259,
  "рек": 3260,
  "▁отчет": 3261,
  "▁гости": 3262,
  "чал": 3263,
  "▁сорок": 3264,
  "▁восемь": 3265,
  "ража": 3266,
  "оф": 3267,
  "▁Св": 3268,
  "▁плот": 3269,
  "▁защиты": 3270,
  "▁концу": 3271,
  "вшимся": 3272,
  "▁ра": 3273,
  "▁ситуация": 3274,
  "ностей": 3275,
  "▁мечта": 3276,
  "▁чувствовал": 3277,
  "▁самих": 3278,
  "▁активно": 3279,
  "▁независимо": 3280,
  "▁заключен": 3281,
  "▁поток": 3282,
  "▁действ": 3283,
  "▁Армии": 3284,
  "нных": 3285,
  "▁ждать": 3286,
  "стой": 3287,
  "▁посмотрел": 3288,
  "▁направление": 3289,
  "▁мотор": 3290,
  "▁высокой": 3291,
  "▁Пи": 3292,
  "▁игры": 3293,
  "▁отлича": 3294,
  "кал": 3295,
  "▁вход": 3296,
  "еров": 3297,
  "▁сказали": 3298,
  "▁встретил": 3299,
  "▁поднял": 3300,
  "▁роста": 3301,
  "▁воде": 3302,
  "▁население": 3303,
  "ало": 3304,
  "▁кот": 3305,
  "▁впереди": 3306,
  "▁отметить": 3307,
  "▁татар": 3308,
  "уют": 3309,
  "▁провел": 3310,
  "▁условий": 3311,
  "▁опасности": 3312,
  "▁закона": 3313,
  "▁Над": 3314,
  "▁Оп": 3315,
  "▁утро": 3316,
  "учи": 3317,
  "▁Церкви": 3318,
  "ію": 3319,
  "▁штат": 3320,
  "веч": 3321,
  "гон": 3322,
  "▁расчет": 3323,
  "рат": 3324,
  ".—": 3325,
  "тей": 3326,
  "▁руч": 3327,
  "Это": 3328,
  "▁новым": 3329,
  "▁отряда": 3330,
  "▁туман": 3331,
  "чев": 3332,
  "▁Сергей": 3333,
  "иц": 3334,
  "▁целей": 3335,
  "чек": 3336,
  "▁описан": 3337,
  "▁сопротивление": 3338,
  "▁клуб": 3339,
  "▁послал": 3340,
  "▁командование": 3341,
  "ику": 3342,
  "▁добиться": 3343,
  "йдя": 3344,
  "▁вашего": 3345,
  "езд": 3346,
  "▁составлен": 3347,
  "▁нож": 3348,
  "▁создал": 3349,
  "▁живут": 3350,
  "▁северо": 3351,
  "▁поздно": 3352,
  "▁изменить": 3353,
  "▁предназначен": 3354,
  "чь": 3355,
  "▁храм": 3356,
  "▁заранее": 3357,
  "фф": 3358,
  "рожден": 3359,
  "▁новая": 3360,
  "рак": 3361,
  "ске": 3362,
  "▁скорость": 3363,
  "▁главный": 3364,
  "▁век": 3365,
  "тес": 3366,
  "▁самолетов": 3367,
  "▁Согласно": 3368,
  "▁принадлежит": 3369,
  "ес": 3370,
  "▁Ответ": 3371,
  "▁внутренних": 3372,
  "▁массы": 3373,
  "▁района": 3374,
  "▁статьи": 3375,
  "▁посредством": 3376,
  "▁серьезно": 3377,
  "скаго": 3378,
  "ош": 3379,
  "▁Ту": 3380,
  "ему": 3381,
  "▁нерв": 3382,
  "▁вышла": 3383,
  "▁праздник": 3384,
  "Мы": 3385,
  "изация": 3386,
  "▁километров": 3387,
  "▁оставалось": 3388,
  "▁литературе": 3389,
  "▁верх": 3390,
  "кле": 3391,
  "▁комнату": 3392,
  "▁реч": 3393,
  "▁реальности": 3394,
  "▁волос": 3395,
  "▁1944": 3396,
  "▁комнате": 3397,
  "▁вызван": 3398,
  "общ": 3399,
  "▁правила": 3400,
  "▁Сначала": 3401,
  "▁веществ": 3402,
  "яз": 3403,
  "▁указ": 3404,
  "ающие": 3405,
  "▁грамот": 3406,
  "▁именем": 3407,
  "▁помог": 3408,
  "▁составляет": 3409,
  "▁корабли": 3410,
  "▁навсегда": 3411,
  "инского": 3412,
  "▁следующее": 3413,
  "▁Север": 3414,
  "▁дивизия": 3415,
  "▁представляют": 3416,
  "▁воздуха": 3417,
  "▁дли": 3418,
  "▁научно": 3419,
  "▁рамках": 3420,
  "▁последней": 3421,
  "зер": 3422,
  "▁мужчина": 3423,
  "нулся": 3424,
  "▁знаешь": 3425,
  "▁врагов": 3426,
  "▁воздухе": 3427,
  "▁опасность": 3428,
  "▁какъ": 3429,
  "▁Хар": 3430,
  "▁Дон": 3431,
  "▁хозяйства": 3432,
  "рем": 3433,
  "▁поставить": 3434,
  "▁легче": 3435,
  "вшее": 3436,
  "бан": 3437,
  "нюю": 3438,
  "▁свод": 3439,
  "▁связано": 3440,
  "▁должности": 3441,
  "▁бою": 3442,
  "▁разведки": 3443,
  "▁ан": 3444,
  "▁Само": 3445,
  "кла": 3446,
  "▁проход": 3447,
  "▁существу": 3448,
  "дол": 3449,
  "▁Павел": 3450,
  "анс": 3451,
  "крат": 3452,
  "▁оставить": 3453,
  "▁старик": 3454,
  "▁принимал": 3455,
  "иях": 3456,
  "сан": 3457,
  "▁смотрел": 3458,
  "▁вопросу": 3459,
  "▁хвост": 3460,
  "▁Рад": 3461,
  "▁обратился": 3462,
  "▁бога": 3463,
  "вол": 3464,
  "▁политика": 3465,
  "▁эпизод": 3466,
  "▁рано": 3467,
  "▁Свят": 3468,
  "▁рос": 3469,
  "иями": 3470,
  "▁началась": 3471,
  "▁народу": 3472,
  "▁подобные": 3473,
  "▁тотчас": 3474,
  "▁здоровье": 3475,
  "▁послан": 3476,
  "▁рез": 3477,
  "▁партия": 3478,
  "▁отдельные": 3479,
  "▁мил": 3480,
  "▁многое": 3481,
  "▁связан": 3482,
  "▁признать": 3483,
  "▁авиации": 3484,
  "▁потенциал": 3485,
  "▁долларов": 3486,
  "ющейся": 3487,
  "▁наступления": 3488,
  "▁би": 3489,
  "рам": 3490,
  "Если": 3491,
  "жал": 3492,
  "▁Мак": 3493,
  "▁эпоху": 3494,
  "▁мужчины": 3495,
  "▁грех": 3496,
  "▁плане": 3497,
  "▁обязан": 3498,
  "▁блок": 3499,
  "▁государственной": 3500,
  "▁согласился": 3501,
  "▁команд": 3502,
  "▁станции": 3503,
  "▁История": 3504,
  "▁объявил": 3505,
  "▁фигур": 3506,
  "▁гл": 3507,
  "кер": 3508,
  "▁последствия": 3509,
  "▁рыб": 3510,
  "тельная": 3511,
  "▁потеря": 3512,
  "атив": 3513,
  "ея": 3514,
  "▁Был": 3515,
  "▁Борис": 3516,
  "▁подготовки": 3517,
  "▁Прежде": 3518,
  "верен": 3519,
  "трен": 3520,
  "сматрива": 3521,
  "▁Киев": 3522,
  "▁любого": 3523,
  "▁пункт": 3524,
  "▁Гре": 3525,
  "▁зато": 3526,
  "До": 3527,
  "▁подвиг": 3528,
  "▁ль": 3529,
  "▁Отец": 3530,
  "▁огнем": 3531,
  "ограф": 3532,
  "пит": 3533,
  "▁лед": 3534,
  "▁имея": 3535,
  "▁получив": 3536,
  "▁Би": 3537,
  "▁данной": 3538,
  "▁сохранить": 3539,
  "ведения": 3540,
  "▁связаны": 3541,
  "ающих": 3542,
  "▁Андрей": 3543,
  "▁твердо": 3544,
  "▁производство": 3545,
  "▁Ев": 3546,
  "▁организм": 3547,
  "▁особ": 3548,
  "▁Ком": 3549,
  "▁школе": 3550,
  "кри": 3551,
  "щем": 3552,
  "уса": 3553,
  "▁четко": 3554,
  "▁призна": 3555,
  "▁сход": 3556,
  "От": 3557,
  "мал": 3558,
  "▁Новгород": 3559,
  "▁играть": 3560,
  "вос": 3561,
  "несли": 3562,
  "▁душ": 3563,
  "▁вчера": 3564,
  "▁приехал": 3565,
  "▁установить": 3566,
  "ируя": 3567,
  "центр": 3568,
  "▁документы": 3569,
  "▁Боже": 3570,
  "▁хотите": 3571,
  "шли": 3572,
  "реш": 3573,
  "фор": 3574,
  "ницу": 3575,
  "▁Ин": 3576,
  "▁жертв": 3577,
  "▁повел": 3578,
  "▁Просто": 3579,
  "▁услышал": 3580,
  "▁законы": 3581,
  "онос": 3582,
  "жига": 3583,
  "▁чел": 3584,
  "▁создание": 3585,
  "емой": 3586,
  "▁обе": 3587,
  "▁родителей": 3588,
  "▁Москва": 3589,
  "▁вечно": 3590,
  "»;": 3591,
  "▁основные": 3592,
  "▁ры": 3593,
  "▁называли": 3594,
  "шую": 3595,
  "▁Зна": 3596,
  "▁семи": 3597,
  "давать": 3598,
  "▁ответственность": 3599,
  "▁понят": 3600,
  "▁остро": 3601,
  "▁комитет": 3602,
  "▁весел": 3603,
  "зд": 3604,
  "▁молодых": 3605,
  "▁становятся": 3606,
  "▁направления": 3607,
  "мп": 3608,
  "▁назвал": 3609,
  "▁совета": 3610,
  "▁торжеств": 3611,
  "ование": 3612,
  "ологии": 3613,
  "▁Джон": 3614,
  "щен": 3615,
  "еля": 3616,
  "▁свойства": 3617,
  "▁выражение": 3618,
  "▁смогли": 3619,
  "▁опубликован": 3620,
  "▁км": 3621,
  "▁'": 3622,
  "▁Никто": 3623,
  "▁нежели": 3624,
  "▁нужна": 3625,
  "▁остальных": 3626,
  "▁обеспечить": 3627,
  "▁гнев": 3628,
  "ено": 3629,
  "▁фа": 3630,
  "ора": 3631,
  "ела": 3632,
  "▁боли": 3633,
  "▁веков": 3634,
  "▁внутренней": 3635,
  "▁отсюда": 3636,
  "▁жир": 3637,
  "▁молча": 3638,
  "Ы": 3639,
  "бежал": 3640,
  "▁200": 3641,
  "▁следовало": 3642,
  "▁пожалуй": 3643,
  "граф": 3644,
  "▁сравнению": 3645,
  "▁противник": 3646,
  "▁смысла": 3647,
  "▁электрон": 3648,
  "▁Ничего": 3649,
  "▁герои": 3650,
  "▁металл": 3651,
  "▁радость": 3652,
  "лес": 3653,
  "▁Эр": 3654,
  "▁глубин": 3655,
  "▁журнал": 3656,
  "▁зна": 3657,
  "тельным": 3658,
  "шёл": 3659,
  "▁покор": 3660,
  "▁ушел": 3661,
  "▁голова": 3662,
  "▁Гар": 3663,
  "▁ребенок": 3664,
  "▁местных": 3665,
  "▁центра": 3666,
  "▁Всё": 3667,
  "3.": 3668,
  "▁основной": 3669,
  "голов": 3670,
  "ною": 3671,
  "пу": 3672,
  "дать": 3673,
  "▁занял": 3674,
  "▁объект": 3675,
  "▁твой": 3676,
  "иан": 3677,
  "▁колхоз": 3678,
  "ныя": 3679,
  "кнул": 3680,
  "▁судов": 3681,
  "бат": 3682,
  "чист": 3683,
  "нский": 3684,
  "▁вплоть": 3685,
  "олог": 3686,
  "▁реформ": 3687,
  "▁внешней": 3688,
  "▁тепл": 3689,
  "цеп": 3690,
  "▁Гу": 3691,
  "▁социальной": 3692,
  "низ": 3693,
  "▁образование": 3694,
  "▁впрочем": 3695,
  "▁НА": 3696,
  "▁птиц": 3697,
  "фу": 3698,
  "▁отнюдь": 3699,
  "▁неудач": 3700,
  "▁че": 3701,
  "▁дат": 3702,
  "дем": 3703,
  "▁справ": 3704,
  "▁окна": 3705,
  "▁монарх": 3706,
  "пло": 3707,
  "▁крик": 3708,
  "ично": 3709,
  "▁меди": 3710,
  "▁машина": 3711,
  "▁будете": 3712,
  "▁сумел": 3713,
  "▁пройти": 3714,
  "▁делали": 3715,
  "▁стан": 3716,
  "▁Нью": 3717,
  "▁интересы": 3718,
  "кры": 3719,
  "▁опасно": 3720,
  "инов": 3721,
  "руш": 3722,
  "▁мастер": 3723,
  "▁палат": 3724,
  "▁Далее": 3725,
  "▁двое": 3726,
  "▁поворот": 3727,
  "▁Тар": 3728,
  "▁дворе": 3729,
  "▁тридцать": 3730,
  "способ": 3731,
  "▁экономики": 3732,
  "▁материала": 3733,
  "▁предложения": 3734,
  "пра": 3735,
  "ьи": 3736,
  "▁демократ": 3737,
  "▁удач": 3738,
  "▁Мой": 3739,
  "▁Ша": 3740,
  "руб": 3741,
  "▁кризис": 3742,
  "▁любом": 3743,
  "▁занятия": 3744,
  "меша": 3745,
  "▁Несколько": 3746,
  "пас": 3747,
  "▁вряд": 3748,
  "▁Крас": 3749,
  "▁Автор": 3750,
  "▁сп": 3751,
  "▁страна": 3752,
  "▁деревни": 3753,
  "еры": 3754,
  "▁артиллерии": 3755,
  "▁здоров": 3756,
  "▁определ": 3757,
  "▁Париж": 3758,
  "▁быстрее": 3759,
  "шев": 3760,
  "▁достиг": 3761,
  "очные": 3762,
  "▁культур": 3763,
  "▁Нас": 3764,
  "▁группу": 3765,
  "▁круп": 3766,
  "▁главного": 3767,
  "▁груди": 3768,
  "▁Два": 3769,
  "мана": 3770,
  "▁ситуацию": 3771,
  "▁Василий": 3772,
  "Вы": 3773,
  "боль": 3774,
  "▁Николаевич": 3775,
  "пуск": 3776,
  "▁сего": 3777,
  "▁рассказывал": 3778,
  "водит": 3779,
  "▁страшно": 3780,
  "▁школ": 3781,
  "▁черты": 3782,
  "20": 3783,
  "▁главных": 3784,
  "▁бригады": 3785,
  "тянут": 3786,
  "▁командиров": 3787,
  "▁выгод": 3788,
  "▁организация": 3789,
  "▁дур": 3790,
  "▁«...": 3791,
  "▁привык": 3792,
  "▁половине": 3793,
  "▁обладает": 3794,
  "▁страха": 3795,
  "▁Иоанн": 3796,
  "▁банк": 3797,
  "▁близ": 3798,
  "▁Иисуса": 3799,
  "▁подошел": 3800,
  "▁порой": 3801,
  "▁жест": 3802,
  "▁журналист": 3803,
  "▁дочери": 3804,
  "▁Сколько": 3805,
  "▁хлеба": 3806,
  "▁предан": 3807,
  "нских": 3808,
  "»?": 3809,
  "▁машину": 3810,
  "▁примеру": 3811,
  "▁провод": 3812,
  "▁честно": 3813,
  "созна": 3814,
  "▁программы": 3815,
  "▁минуты": 3816,
  "гран": 3817,
  "▁прошел": 3818,
  "▁крепко": 3819,
  "▁Японии": 3820,
  "▁ха": 3821,
  "▁35": 3822,
  "▁воспоминания": 3823,
  "▁картин": 3824,
  "▁потребовал": 3825,
  "▁полное": 3826,
  "▁баз": 3827,
  "▁Суд": 3828,
  "спе": 3829,
  "▁глава": 3830,
  "▁учение": 3831,
  "▁проник": 3832,
  "▁получает": 3833,
  "тек": 3834,
  "▁Го": 3835,
  "ида": 3836,
  "▁каждому": 3837,
  "▁лесу": 3838,
  "▁Великой": 3839,
  "▁передать": 3840,
  "▁призыв": 3841,
  "▁пу": 3842,
  "▁Ос": 3843,
  "▁другому": 3844,
  "ийский": 3845,
  "▁един": 3846,
  "▁отвечает": 3847,
  "▁странно": 3848,
  "▁радости": 3849,
  "иг": 3850,
  "▁исследований": 3851,
  "▁представители": 3852,
  "»),": 3853,
  "▁моему": 3854,
  "▁относятся": 3855,
  "вшееся": 3856,
  "▁получила": 3857,
  "▁едино": 3858,
  "▁Тор": 3859,
  "▁6.": 3860,
  "фин": 3861,
  "▁точка": 3862,
  "▁нашему": 3863,
  "▁ученых": 3864,
  "▁строя": 3865,
  "отвор": 3866,
  "▁домов": 3867,
  "рож": 3868,
  "вшую": 3869,
  "еп": 3870,
  "▁Фе": 3871,
  "▁звон": 3872,
  "▁гигант": 3873,
  "ицу": 3874,
  "пан": 3875,
  "▁ду": 3876,
  "▁теми": 3877,
  "ящих": 3878,
  "▁лов": 3879,
  "▁Одна": 3880,
  "▁Пу": 3881,
  "▁собственных": 3882,
  "▁модели": 3883,
  "▁приговор": 3884,
  "▁древних": 3885,
  "лі": 3886,
  "жат": 3887,
  "▁Центр": 3888,
  "▁мертв": 3889,
  "▁швед": 3890,
  "▁зем": 3891,
  "▁оставаться": 3892,
  "еев": 3893,
  "▁позволя": 3894,
  "явля": 3895,
  "▁кавалер": 3896,
  "▁Кстати": 3897,
  "▁измен": 3898,
  "▁канал": 3899,
  "ируем": 3900,
  "истор": 3901,
  "▁знамен": 3902,
  "стях": 3903,
  "печат": 3904,
  "▁Америки": 3905,
  "▁мнения": 3906,
  "ище": 3907,
  "▁вещества": 3908,
  "▁неё": 3909,
  "▁живых": 3910,
  "▁дипломат": 3911,
  "рыв": 3912,
  "них": 3913,
  "▁Украины": 3914,
  "дали": 3915,
  "▁каждая": 3916,
  "▁хочешь": 3917,
  "▁ворот": 3918,
  "▁картины": 3919,
  "▁Ген": 3920,
  "▁решить": 3921,
  "▁араб": 3922,
  "кина": 3923,
  "▁ле": 3924,
  "▁соединения": 3925,
  "▁Такие": 3926,
  "▁управление": 3927,
  "▁удивительно": 3928,
  "▁использования": 3929,
  "▁троп": 3930,
  "▁приняли": 3931,
  "▁песни": 3932,
  "▁миром": 3933,
  "▁слуша": 3934,
  "▁громко": 3935,
  "▁дев": 3936,
  "▁сообщения": 3937,
  "▁велел": 3938,
  "▁собран": 3939,
  "жит": 3940,
  "▁Воз": 3941,
  "▁рус": 3942,
  "▁самолета": 3943,
  "▁Нужно": 3944,
  "альное": 3945,
  "фон": 3946,
  "ивший": 3947,
  "▁судьбы": 3948,
  "▁министр": 3949,
  "▁конфликт": 3950,
  "без": 3951,
  "▁жители": 3952,
  "аций": 3953,
  "▁организма": 3954,
  "▁этап": 3955,
  "▁истины": 3956,
  "▁мета": 3957,
  "▁Бур": 3958,
  "▁существуют": 3959,
  "▁лун": 3960,
  "▁зная": 3961,
  "o": 3962,
  "▁крепости": 3963,
  "▁возрасте": 3964,
  "▁собственного": 3965,
  "▁пытались": 3966,
  "▁учения": 3967,
  "▁имена": 3968,
  "▁Кам": 3969,
  "лян": 3970,
  "очных": 3971,
  "▁Стр": 3972,
  "▁побед": 3973,
  "▁мал": 3974,
  "▁наука": 3975,
  "▁зале": 3976,
  "▁окруж": 3977,
  "▁Эй": 3978,
  "▁Бен": 3979,
  "▁богов": 3980,
  "▁отлично": 3981,
  "▁здания": 3982,
  "▁открыто": 3983,
  "▁орудия": 3984,
  "▁Прав": 3985,
  "▁прямой": 3986,
  "аков": 3987,
  "▁фин": 3988,
  "▁танк": 3989,
  "мут": 3990,
  "▁чай": 3991,
  "▁слух": 3992,
  "▁пле": 3993,
  "▁авиа": 3994,
  "рю": 3995,
  "▁количества": 3996,
  "▁велико": 3997,
  "▁свободно": 3998,
  "КА": 3999,
  "▁исключением": 4000,
  "▁бытия": 4001,
  "▁указывает": 4002,
  "▁часы": 4003,
  "щик": 4004,
  "▁поражение": 4005,
  "▁3)": 4006,
  "▁Кир": 4007,
  "очек": 4008,
  "▁вспоминал": 4009,
  "▁Кре": 4010,
  "емого": 4011,
  "▁убежден": 4012,
  "▁университет": 4013,
  "▁добавил": 4014,
  "▁адрес": 4015,
  "▁появилась": 4016,
  "▁цифр": 4017,
  "▁камень": 4018,
  "▁пространстве": 4019,
  "ЛА": 4020,
  "▁заговор": 4021,
  "▁должность": 4022,
  "▁Ки": 4023,
  "▁причиной": 4024,
  "▁зим": 4025,
  "▁нужен": 4026,
  "▁Ах": 4027,
  "▁многом": 4028,
  "▁пусты": 4029,
  "▁выходит": 4030,
  "▁Тро": 4031,
  "нѣ": 4032,
  "▁поддержку": 4033,
  "▁спать": 4034,
  "▁плав": 4035,
  "▁каждым": 4036,
  "▁мораль": 4037,
  "▁инструмент": 4038,
  "▁уйти": 4039,
  "ителем": 4040,
  "▁запрет": 4041,
  "▁элементы": 4042,
  "▁осад": 4043,
  "▁объектив": 4044,
  "▁позицию": 4045,
  "▁отказ": 4046,
  "хар": 4047,
  "действ": 4048,
  "▁Мал": 4049,
  "▁вспомнил": 4050,
  "▁актер": 4051,
  "▁тур": 4052,
  "▁точку": 4053,
  "▁приятно": 4054,
  "▁ничем": 4055,
  "▁программ": 4056,
  "▁поэта": 4057,
  "▁сыр": 4058,
  "▁попытка": 4059,
  "▁получается": 4060,
  "смотр": 4061,
  "▁появляется": 4062,
  "▁Лишь": 4063,
  "▁резерв": 4064,
  "него": 4065,
  "▁любим": 4066,
  "▁писателя": 4067,
  "▁общее": 4068,
  "тяж": 4069,
  "▁соответственно": 4070,
  "уди": 4071,
  "▁престол": 4072,
  "мел": 4073,
  "▁планы": 4074,
  "вшаяся": 4075,
  "ическому": 4076,
  "хъ": 4077,
  "▁призван": 4078,
  "▁главной": 4079,
  "▁финансов": 4080,
  "▁набор": 4081,
  "▁бывший": 4082,
  "нская": 4083,
  "▁чудес": 4084,
  "ску": 4085,
  "▁молод": 4086,
  "▁Гитлера": 4087,
  "▁написан": 4088,
  "▁простой": 4089,
  "▁демон": 4090,
  "▁Марк": 4091,
  "▁десант": 4092,
  "▁Такое": 4093,
  "▁цикл": 4094,
  "▁команды": 4095,
  "▁Николая": 4096,
  "▁следующие": 4097,
  "▁прочим": 4098,
  "▁преступления": 4099,
  "▁тре": 4100,
  "▁армией": 4101,
  "▁Одно": 4102,
  "▁океан": 4103,
  "бар": 4104,
  "клон": 4105,
  "пт": 4106,
  "▁рассказывает": 4107,
  "повед": 4108,
  "тар": 4109,
  "▁Тре": 4110,
  "▁существа": 4111,
  "иров": 4112,
  "▁родился": 4113,
  "▁практике": 4114,
  "ченко": 4115,
  "ящий": 4116,
  "лам": 4117,
  "▁лежа": 4118,
  "шек": 4119,
  "▁избежать": 4120,
  "▁способен": 4121,
  "▁Бес": 4122,
  "чку": 4123,
  "▁психолог": 4124,
  "▁руководством": 4125,
  "луч": 4126,
  "▁Париже": 4127,
  "нс": 4128,
  "▁собак": 4129,
  "▁переговоры": 4130,
  "▁тверд": 4131,
  "▁Российской": 4132,
  "ительные": 4133,
  "▁интересно": 4134,
  "▁Христос": 4135,
  "▁министра": 4136,
  "▁стояла": 4137,
  "▁общин": 4138,
  "▁проводить": 4139,
  "▁моем": 4140,
  "▁начинают": 4141,
  "▁будешь": 4142,
  "▁явление": 4143,
  "▁Се": 4144,
  "Ма": 4145,
  "▁1945": 4146,
  "▁большинства": 4147,
  "▁бросил": 4148,
  "▁Закон": 4149,
  "▁Вос": 4150,
  "▁солнца": 4151,
  "▁пить": 4152,
  "▁замуж": 4153,
  "▁фильм": 4154,
  "▁ничто": 4155,
  "▁воле": 4156,
  "▁обещал": 4157,
  "▁университета": 4158,
  "▁посмотреть": 4159,
  "▁красно": 4160,
  "план": 4161,
  "▁безусловно": 4162,
  "▁деревне": 4163,
  "бить": 4164,
  "лек": 4165,
  "▁заметно": 4166,
  "▁горд": 4167,
  "▁важным": 4168,
  "▁газет": 4169,
  "▁племен": 4170,
  "▁наличие": 4171,
  "▁названием": 4172,
  "▁плод": 4173,
  "▁партий": 4174,
  "▁Такой": 4175,
  "ающий": 4176,
  "▁устав": 4177,
  "▁юго": 4178,
  "▁бер": 4179,
  "волюцион": 4180,
  "▁ритуал": 4181,
  "▁Индии": 4182,
  "▁будь": 4183,
  "▁ученые": 4184,
  "▁вагон": 4185,
  "▁подо": 4186,
  "▁прошло": 4187,
  "▁советские": 4188,
  "▁герой": 4189,
  "▁дабы": 4190,
  "▁формул": 4191,
  "▁квадрат": 4192,
  "▁атаку": 4193,
  "▁пра": 4194,
  "▁счастлив": 4195,
  "рог": 4196,
  "вшими": 4197,
  "▁аспект": 4198,
  "пов": 4199,
  "▁взяли": 4200,
  "▁Кал": 4201,
  "▁умел": 4202,
  "▁заряд": 4203,
  "▁аэродром": 4204,
  "▁Оста": 4205,
  "▁жен": 4206,
  "▁ворота": 4207,
  "▁тел": 4208,
  "ходит": 4209,
  "▁хор": 4210,
  "▁картину": 4211,
  "▁культ": 4212,
  "▁представитель": 4213,
  "▁непри": 4214,
  "▁приведен": 4215,
  "▁Пе": 4216,
  "илл": 4217,
  "▁проходит": 4218,
  "кра": 4219,
  "▁фоне": 4220,
  "писан": 4221,
  "▁картина": 4222,
  "▁выхода": 4223,
  "▁комиссии": 4224,
  "▁теория": 4225,
  "▁компьютер": 4226,
  "▁зал": 4227,
  "▁нравится": 4228,
  "▁Император": 4229,
  "▁Ло": 4230,
  "▁приход": 4231,
  "▁охот": 4232,
  "аем": 4233,
  "▁среды": 4234,
  "водить": 4235,
  "ницей": 4236,
  "▁реакции": 4237,
  "▁энергия": 4238,
  "▁Мат": 4239,
  "▁уст": 4240,
  "▁дед": 4241,
  "▁каждое": 4242,
  "▁села": 4243,
  "▁Свет": 4244,
  "▁гром": 4245,
  "▁кат": 4246,
  "бро": 4247,
  "дают": 4248,
  "▁всякой": 4249,
  "▁Петербург": 4250,
  "▁соединя": 4251,
  "лиз": 4252,
  "▁принят": 4253,
  "▁Жуков": 4254,
  "ота": 4255,
  "▁уме": 4256,
  "▁собира": 4257,
  "▁тему": 4258,
  "чная": 4259,
  "▁пьян": 4260,
  "▁плана": 4261,
  "▁авто": 4262,
  "▁уехал": 4263,
  "ительный": 4264,
  "▁прибыли": 4265,
  "▁громад": 4266,
  "▁влиянием": 4267,
  "▁Земле": 4268,
  "▁руководства": 4269,
  "▁подвод": 4270,
  "▁вошел": 4271,
  "ступа": 4272,
  "▁понимание": 4273,
  "порт": 4274,
  "▁своё": 4275,
  "▁Сын": 4276,
  "арх": 4277,
  "▁президента": 4278,
  "сса": 4279,
  "чество": 4280,
  "▁сед": 4281,
  "▁одинаково": 4282,
  "▁говорилось": 4283,
  "мена": 4284,
  "▁исключ": 4285,
  "лить": 4286,
  "▁коридор": 4287,
  "овской": 4288,
  "▁костюм": 4289,
  "евский": 4290,
  "▁происходило": 4291,
  "▁рука": 4292,
  "▁Ван": 4293,
  "▁оборон": 4294,
  "тив": 4295,
  "сыл": 4296,
  "▁отказался": 4297,
  "▁плат": 4298,
  "▁Алексей": 4299,
  "4.": 4300,
  "уя": 4301,
  "рес": 4302,
  "▁Отсюда": 4303,
  "▁правления": 4304,
  "▁подготовлен": 4305,
  "▁гре": 4306,
  "▁театра": 4307,
  "▁Иванов": 4308,
  "▁син": 4309,
  "▁почита": 4310,
  "▁дорог": 4311,
  "▁корон": 4312,
  "▁круж": 4313,
  "▁золото": 4314,
  "▁содержа": 4315,
  "▁удел": 4316,
  "▁способом": 4317,
  "як": 4318,
  "▁властью": 4319,
  "подоб": 4320,
  "▁тон": 4321,
  "▁Вол": 4322,
  "▁Сен": 4323,
  "▁Ду": 4324,
  "аз": 4325,
  "▁вами": 4326,
  "▁45": 4327,
  "▁лошадей": 4328,
  "▁луч": 4329,
  "гнал": 4330,
  "▁выступил": 4331,
  "бра": 4332,
  "ляр": 4333,
  "▁начиная": 4334,
  "▁Дух": 4335,
  "▁структуры": 4336,
  "▁лав": 4337,
  "нки": 4338,
  "▁обход": 4339,
  "▁пойти": 4340,
  "▁слегка": 4341,
  "▁старый": 4342,
  "▁требования": 4343,
  "▁самую": 4344,
  "▁каса": 4345,
  "▁сверху": 4346,
  "▁маневр": 4347,
  "▁представлял": 4348,
  "▁кабинет": 4349,
  "росс": 4350,
  "▁що": 4351,
  "пеш": 4352,
  "▁вещь": 4353,
  "▁масса": 4354,
  "▁летом": 4355,
  "▁продолжает": 4356,
  "▁первоначально": 4357,
  "▁держать": 4358,
  "▁оставался": 4359,
  "▁данным": 4360,
  "▁большинстве": 4361,
  "лон": 4362,
  "▁наблюдения": 4363,
  "▁голоса": 4364,
  "▁разрушен": 4365,
  "▁двадцати": 4366,
  "▁Тур": 4367,
  "▁Том": 4368,
  "шир": 4369,
  "кус": 4370,
  "гн": 4371,
  "▁текста": 4372,
  "▁созна": 4373,
  "▁зуб": 4374,
  "тека": 4375,
  "▁Кара": 4376,
  "тка": 4377,
  "лас": 4378,
  "глас": 4379,
  "▁вед": 4380,
  "сот": 4381,
  "▁обмен": 4382,
  "▁собрать": 4383,
  "▁высшей": 4384,
  "Со": 4385,
  "▁Ги": 4386,
  "▁превосход": 4387,
  "▁законов": 4388,
  "▁Действительно": 4389,
  "▁мышления": 4390,
  "▁оборот": 4391,
  "▁ответа": 4392,
  "▁Китай": 4393,
  "▁мудр": 4394,
  "овод": 4395,
  "дь": 4396,
  "▁помогает": 4397,
  "пп": 4398,
  "▁материалов": 4399,
  "▁везде": 4400,
  "▁друж": 4401,
  "▁давать": 4402,
  "▁использовал": 4403,
  "▁Май": 4404,
  "▁скорости": 4405,
  "▁знание": 4406,
  "▁книж": 4407,
  "▁школу": 4408,
  "▁врач": 4409,
  "пущен": 4410,
  "▁Константин": 4411,
  "▁спец": 4412,
  "▁чу": 4413,
  "▁подобного": 4414,
  "▁офицеры": 4415,
  "▁лагеря": 4416,
  "никами": 4417,
  "▁Эн": 4418,
  "тый": 4419,
  "енными": 4420,
  "▁навстречу": 4421,
  "ныхъ": 4422,
  "▁дворян": 4423,
  "▁крупные": 4424,
  "▁феномен": 4425,
  "▁поклон": 4426,
  "▁епископ": 4427,
  "▁Чи": 4428,
  "▁развитии": 4429,
  "меш": 4430,
  "зр": 4431,
  "▁Максим": 4432,
  "▁волю": 4433,
  "▁цивилизации": 4434,
  "▁Советской": 4435,
  "▁утверждает": 4436,
  "▁чист": 4437,
  "▁Кан": 4438,
  "▁справедливо": 4439,
  "игра": 4440,
  "▁пад": 4441,
  "▁обман": 4442,
  "мышлен": 4443,
  "▁Мария": 4444,
  "▁полиции": 4445,
  "▁фото": 4446,
  "был": 4447,
  "▁оста": 4448,
  "ват": 4449,
  "▁Ново": 4450,
  "▁местности": 4451,
  "▁гибели": 4452,
  "▁атаки": 4453,
  "▁вслед": 4454,
  "▁батальона": 4455,
  "▁участников": 4456,
  "▁прогресс": 4457,
  "▁политические": 4458,
  "▁союзников": 4459,
  "раб": 4460,
  "▁волосы": 4461,
  "▁помимо": 4462,
  "▁комиссар": 4463,
  "▁Город": 4464,
  "ьную": 4465,
  "▁принимает": 4466,
  "▁1919": 4467,
  "▁Гос": 4468,
  "люб": 4469,
  "▁передал": 4470,
  "▁пес": 4471,
  "▁волны": 4472,
  "сек": 4473,
  "ящие": 4474,
  "▁стоят": 4475,
  "чные": 4476,
  "▁упал": 4477,
  "▁современных": 4478,
  "▁Вопрос": 4479,
  "это": 4480,
  "стями": 4481,
  "▁Михайлович": 4482,
  "▁скрыт": 4483,
  "▁встал": 4484,
  "▁ходить": 4485,
  "▁соответствует": 4486,
  "▁повод": 4487,
  "▁совместно": 4488,
  "▁причина": 4489,
  "▁собственные": 4490,
  "нова": 4491,
  "гл": 4492,
  "▁нечего": 4493,
  "▁вошли": 4494,
  "▁материалы": 4495,
  "▁хозяин": 4496,
  "теле": 4497,
  "▁необходимым": 4498,
  "двор": 4499,
  "ании": 4500,
  "▁отправ": 4501,
  "шт": 4502,
  "▁полков": 4503,
  "стям": 4504,
  "▁стандарт": 4505,
  "▁Мил": 4506,
  "▁70": 4507,
  "▁му": 4508,
  "важ": 4509,
  "вис": 4510,
  "▁изображен": 4511,
  "▁скажем": 4512,
  "▁Гал": 4513,
  "▁бра": 4514,
  "▁живой": 4515,
  "ющегося": 4516,
  "сим": 4517,
  "ирован": 4518,
  "▁огромное": 4519,
  "▁понимания": 4520,
  "▁лежал": 4521,
  "▁Дев": 4522,
  "▁поступил": 4523,
  "нять": 4524,
  "▁родители": 4525,
  "▁цел": 4526,
  "▁всяких": 4527,
  "▁5-": 4528,
  "▁ходил": 4529,
  "▁представляется": 4530,
  "▁Федор": 4531,
  "▁окружен": 4532,
  "«": 4533,
  "НИ": 4534,
  "▁совершил": 4535,
  "▁Ивана": 4536,
  "▁захват": 4537,
  "▁рабочего": 4538,
  "▁модель": 4539,
  "▁основа": 4540,
  "▁положил": 4541,
  "▁собор": 4542,
  "▁надежды": 4543,
  "▁идею": 4544,
  "▁табл": 4545,
  "▁вступил": 4546,
  "▁поколения": 4547,
  "▁голосом": 4548,
  "▁русским": 4549,
  "▁Следовательно": 4550,
  "▁верить": 4551,
  "бот": 4552,
  "▁арестован": 4553,
  "▁победу": 4554,
  "▁энергию": 4555,
  "дава": 4556,
  "▁социальных": 4557,
  "▁документов": 4558,
  "▁зад": 4559,
  "ср": 4560,
  "▁среде": 4561,
  "▁Кат": 4562,
  "нице": 4563,
  "полит": 4564,
  "▁известный": 4565,
  "▁ПО": 4566,
  "государственного": 4567,
  "▁свидетельствует": 4568,
  "▁полного": 4569,
  "▁началось": 4570,
  "тай": 4571,
  "▁продолжать": 4572,
  "▁мар": 4573,
  "▁кара": 4574,
  "▁требуется": 4575,
  "дается": 4576,
  "▁32": 4577,
  "▁Син": 4578,
  "▁следующим": 4579,
  "▁написать": 4580,
  "▁знала": 4581,
  "чан": 4582,
  "ходить": 4583,
  "ича": 4584,
  "▁преимущественно": 4585,
  "бур": 4586,
  "▁капитал": 4587,
  "▁втором": 4588,
  "закон": 4589,
  "▁расход": 4590,
  "▁куст": 4591,
  "▁происхождения": 4592,
  "▁городах": 4593,
  "шла": 4594,
  "▁черно": 4595,
  "▁концерт": 4596,
  "▁прошли": 4597,
  "▁источников": 4598,
  "▁скот": 4599,
  "▁отправля": 4600,
  "▁отличается": 4601,
  "ін": 4602,
  "руж": 4603,
  "▁брать": 4604,
  "▁социально": 4605,
  "▁лап": 4606,
  "▁реке": 4607,
  "▁методы": 4608,
  "АР": 4609,
  "▁царство": 4610,
  "▁миг": 4611,
  "▁дерево": 4612,
  "▁ответить": 4613,
  "▁Бат": 4614,
  "▁старший": 4615,
  "▁спросила": 4616,
  "▁считается": 4617,
  "▁братья": 4618,
  "▁Также": 4619,
  "ьер": 4620,
  "ОВ": 4621,
  "ческих": 4622,
  "▁отказаться": 4623,
  "▁рубеж": 4624,
  "▁пора": 4625,
  "уха": 4626,
  "изирован": 4627,
  "▁Зачем": 4628,
  "▁хан": 4629,
  "они": 4630,
  "▁Мер": 4631,
  "▁военный": 4632,
  "лия": 4633,
  "▁Разумеется": 4634,
  "стра": 4635,
  "▁Вместо": 4636,
  "▁сущность": 4637,
  "▁делах": 4638,
  "▁увидели": 4639,
  "мѣ": 4640,
  "грамм": 4641,
  "▁Дом": 4642,
  "▁отдыха": 4643,
  "▁находилась": 4644,
  "▁сфере": 4645,
  "▁вторая": 4646,
  "дей": 4647,
  "▁знаний": 4648,
  "▁площадь": 4649,
  "▁убит": 4650,
  "▁группе": 4651,
  "▁Зо": 4652,
  "▁носил": 4653,
  "▁классов": 4654,
  "▁сравнительно": 4655,
  "▁участия": 4656,
  "▁факты": 4657,
  "▁нужда": 4658,
  "▁забыл": 4659,
  "▁кап": 4660,
  "▁полный": 4661,
  "▁Ча": 4662,
  "▁границу": 4663,
  "▁мост": 4664,
  "▁получения": 4665,
  "▁упор": 4666,
  "▁рассказать": 4667,
  "▁думает": 4668,
  "изован": 4669,
  "▁ор": 4670,
  "▁ваших": 4671,
  "▁печати": 4672,
  "иса": 4673,
  "шеств": 4674,
  "▁осторожно": 4675,
  "▁сосредоточен": 4676,
  "▁Гри": 4677,
  "▁Наполеон": 4678,
  "▁спрос": 4679,
  "▁англичан": 4680,
  "▁сидя": 4681,
  "▁официально": 4682,
  "▁остаться": 4683,
  "рач": 4684,
  "▁зап": 4685,
  "▁кстати": 4686,
  "▁Ленинград": 4687,
  "плет": 4688,
  "▁Вар": 4689,
  "НО": 4690,
  "▁рабочие": 4691,
  "работа": 4692,
  "▁Причем": 4693,
  "▁существо": 4694,
  "▁столб": 4695,
  "▁элемент": 4696,
  "▁учителя": 4697,
  "▁непрерывно": 4698,
  "▁услов": 4699,
  "▁НКВД": 4700,
  "30": 4701,
  "жда": 4702,
  "▁печаль": 4703,
  "▁сообщение": 4704,
  "▁направля": 4705,
  "▁лучших": 4706,
  "▁страдания": 4707,
  "▁мужик": 4708,
  "▁ваша": 4709,
  "▁рассматривать": 4710,
  "▁закрыт": 4711,
  "▁недель": 4712,
  "▁организаций": 4713,
  "▁ходу": 4714,
  "ада": 4715,
  "▁целях": 4716,
  "▁учитель": 4717,
  "▁папа": 4718,
  "▁мягко": 4719,
  "▁конечном": 4720,
  "▁пределы": 4721,
  "▁единственный": 4722,
  "▁отход": 4723,
  "▁планет": 4724,
  "▁возвраща": 4725,
  "▁тайны": 4726,
  "▁проб": 4727,
  "▁священник": 4728,
  "▁воинов": 4729,
  "▁общественного": 4730,
  "нок": 4731,
  "соб": 4732,
  "▁предприятия": 4733,
  "НА": 4734,
  "▁знач": 4735,
  "▁бумаги": 4736,
  "▁государственных": 4737,
  "ывая": 4738,
  "овича": 4739,
  "нка": 4740,
  "▁Америке": 4741,
  "11": 4742,
  "▁клин": 4743,
  "спор": 4744,
  "роб": 4745,
  "16": 4746,
  "▁рек": 4747,
  "чика": 4748,
  "▁ритм": 4749,
  "джа": 4750,
  "▁руке": 4751,
  "летел": 4752,
  "▁применения": 4753,
  "▁описание": 4754,
  "дает": 4755,
  "мед": 4756,
  "▁политику": 4757,
  "▁потерял": 4758,
  "▁настоящий": 4759,
  "▁борт": 4760,
  "итар": 4761,
  "нной": 4762,
  "ования": 4763,
  "▁Му": 4764,
  "▁скал": 4765,
  "▁непременно": 4766,
  "▁снег": 4767,
  "▁доста": 4768,
  "▁войско": 4769,
  "звол": 4770,
  "▁имело": 4771,
  "▁участвовал": 4772,
  "пуст": 4773,
  "▁Гра": 4774,
  "=": 4775,
  "ЕН": 4776,
  "▁данного": 4777,
  "евой": 4778,
  "▁возврат": 4779,
  "стран": 4780,
  "▁старых": 4781,
  "▁Юр": 4782,
  "▁горизонт": 4783,
  "шку": 4784,
  "▁политического": 4785,
  "нуться": 4786,
  "▁Благодаря": 4787,
  "▁названия": 4788,
  "▁мыслей": 4789,
  "▁ще": 4790,
  "▁500": 4791,
  "▁Вал": 4792,
  "ован": 4793,
  "ведом": 4794,
  "рет": 4795,
  "яет": 4796,
  "▁гг": 4797,
  "тел": 4798,
  "▁какими": 4799,
  "▁премьер": 4800,
  "▁РФ": 4801,
  "▁креп": 4802,
  "▁рок": 4803,
  "▁Западной": 4804,
  "▁предложен": 4805,
  "ап": 4806,
  "▁команду": 4807,
  "▁толст": 4808,
  "▁несчаст": 4809,
  "▁Мари": 4810,
  "РЕ": 4811,
  "15": 4812,
  "▁открыт": 4813,
  "▁глядя": 4814,
  "▁заметить": 4815,
  "ология": 4816,
  "▁крут": 4817,
  "хов": 4818,
  "▁художник": 4819,
  "▁политике": 4820,
  "▁роты": 4821,
  "▁похорон": 4822,
  "▁главы": 4823,
  "еле": 4824,
  "▁написано": 4825,
  "▁можешь": 4826,
  "▁познания": 4827,
  "▁масштаб": 4828,
  "▁Китае": 4829,
  "▁лагерь": 4830,
  "чиков": 4831,
  "шему": 4832,
  "▁ящик": 4833,
  "▁указан": 4834,
  "▁коллег": 4835,
  "▁Бе": 4836,
  "▁механизм": 4837,
  "лых": 4838,
  "▁Петров": 4839,
  "▁выполнять": 4840,
  "▁дорож": 4841,
  "изу": 4842,
  "▁изменение": 4843,
  "▁сознательно": 4844,
  "лл": 4845,
  "аго": 4846,
  "▁намного": 4847,
  "▁протест": 4848,
  "ніе": 4849,
  "▁фи": 4850,
  "▁правом": 4851,
  "ати": 4852,
  "▁романа": 4853,
  "▁осталась": 4854,
  "▁сестра": 4855,
  "▁детьми": 4856,
  "шись": 4857,
  "▁арест": 4858,
  "▁представил": 4859,
  "числ": 4860,
  "▁камен": 4861,
  "▁смех": 4862,
  "▁сне": 4863,
  "цвет": 4864,
  "▁сборник": 4865,
  "глав": 4866,
  "фиц": 4867,
  "плыв": 4868,
  "▁половины": 4869,
  "нской": 4870,
  "▁дивизий": 4871,
  "▁светло": 4872,
  "▁тревож": 4873,
  "▁работой": 4874,
  "▁труп": 4875,
  "▁выс": 4876,
  "▁продолжали": 4877,
  "▁маленький": 4878,
  "▁артист": 4879,
  "▁писателей": 4880,
  "▁собрание": 4881,
  "▁Пл": 4882,
  "▁статус": 4883,
  "хожу": 4884,
  "телю": 4885,
  "▁директор": 4886,
  "▁австр": 4887,
  "▁частично": 4888,
  "▁ча": 4889,
  "▁болезнь": 4890,
  "▁столетия": 4891,
  "▁великой": 4892,
  "бран": 4893,
  "▁80": 4894,
  "времен": 4895,
  "▁американских": 4896,
  "▁имеем": 4897,
  "▁казни": 4898,
  "▁ценности": 4899,
  "▁пик": 4900,
  "лина": 4901,
  "бира": 4902,
  "дыха": 4903,
  "▁Ян": 4904,
  "▁Эд": 4905,
  "▁связанные": 4906,
  "▁Указ": 4907,
  "страива": 4908,
  "вай": 4909,
  "▁органы": 4910,
  "▁приближа": 4911,
  "хим": 4912,
  "▁каждую": 4913,
  "▁последовательно": 4914,
  "▁ремонт": 4915,
  "рев": 4916,
  "▁ведут": 4917,
  "▁природа": 4918,
  "▁исповед": 4919,
  "▁урок": 4920,
  "нувшись": 4921,
  "▁кулак": 4922,
  "▁отчасти": 4923,
  "чувств": 4924,
  "ушку": 4925,
  "▁Пушкина": 4926,
  "▁содержания": 4927,
  "▁подобное": 4928,
  "▁значительной": 4929,
  "▁отдельно": 4930,
  "▁обсужда": 4931,
  "▁ребята": 4932,
  "▁тонн": 4933,
  "роз": 4934,
  "▁линию": 4935,
  "аты": 4936,
  "▁список": 4937,
  "чики": 4938,
  "▁злоб": 4939,
  "▁здоровья": 4940,
  "▁дерева": 4941,
  "▁Кра": 4942,
  "▁судить": 4943,
  "▁заболевания": 4944,
  "▁женой": 4945,
  "например": 4946,
  "втор": 4947,
  "▁частиц": 4948,
  "тельной": 4949,
  "▁пароход": 4950,
  "▁линия": 4951,
  "▁понимает": 4952,
  "▁вопросам": 4953,
  "▁эпи": 4954,
  "▁бояр": 4955,
  "▁началом": 4956,
  "водил": 4957,
  "▁проявил": 4958,
  "▁останется": 4959,
  "щими": 4960,
  "рид": 4961,
  "▁подразделения": 4962,
  "▁скажет": 4963,
  "▁слаб": 4964,
  "▁внешне": 4965,
  "▁воскликнул": 4966,
  "меча": 4967,
  "▁благ": 4968,
  "▁фланг": 4969,
  "▁кивнул": 4970,
  "▁особого": 4971,
  "▁играет": 4972,
  "▁заказ": 4973,
  "▁отдать": 4974,
  "▁дорогой": 4975,
  "▁Кап": 4976,
  "▁основу": 4977,
  "ийского": 4978,
  "ума": 4979,
  "сред": 4980,
  "▁комнаты": 4981,
  "▁отправлен": 4982,
  "▁оружием": 4983,
  "▁устал": 4984,
  "бен": 4985,
  "дели": 4986,
  "▁Время": 4987,
  "▁гал": 4988,
  "▁доход": 4989,
  "▁личность": 4990,
  "▁строительства": 4991,
  "▁важное": 4992,
  "пон": 4993,
  "▁Вообще": 4994,
  "▁количестве": 4995,
  "▁редактор": 4996,
  "▁Мол": 4997,
  "▁бел": 4998,
  "▁проявления": 4999,
  "▁торговли": 5000,
  "▁контроля": 5001,
  "▁минимум": 5002,
  "▁хотела": 5003,
  "▁коров": 5004,
  "▁видом": 5005,
  "▁Хи": 5006,
  "▁пуст": 5007,
  "▁7.": 5008,
  "нц": 5009,
  "кого": 5010,
  "ОН": 5011,
  "▁вклад": 5012,
  "жим": 5013,
  "▁вере": 5014,
  "▁говорила": 5015,
  "▁хватает": 5016,
  "▁пир": 5017,
  "▁Цар": 5018,
  "▁пришло": 5019,
  "нк": 5020,
  "▁перспектив": 5021,
  "▁чет": 5022,
  "▁люблю": 5023,
  "сып": 5024,
  "▁удара": 5025,
  "▁искренне": 5026,
  "▁целиком": 5027,
  "▁облик": 5028,
  "тир": 5029,
  "пил": 5030,
  "▁300": 5031,
  "▁посыл": 5032,
  "ег": 5033,
  "▁XVI": 5034,
  "вый": 5035,
  "сар": 5036,
  "опыт": 5037,
  "▁поражен": 5038,
  "].": 5039,
  "▁оказаться": 5040,
  "▁кредит": 5041,
  "рот": 5042,
  "буд": 5043,
  "▁титул": 5044,
  "ьем": 5045,
  "▁духов": 5046,
  "▁визит": 5047,
  "тянул": 5048,
  "енность": 5049,
  "▁образа": 5050,
  "▁Северной": 5051,
  "▁шт": 5052,
  "▁Мало": 5053,
  "▁Такая": 5054,
  "▁темно": 5055,
  "▁вооружен": 5056,
  "▁поиск": 5057,
  "▁враг": 5058,
  "▁изображения": 5059,
  "▁стакан": 5060,
  "▁революция": 5061,
  "▁пушки": 5062,
  "▁обл": 5063,
  "▁неоднократно": 5064,
  "▁растения": 5065,
  "мур": 5066,
  "ичный": 5067,
  "▁данный": 5068,
  "▁виды": 5069,
  "▁дис": 5070,
  "▁приобрел": 5071,
  "▁процессов": 5072,
  "▁правду": 5073,
  "▁верхов": 5074,
  "▁ангел": 5075,
  "▁аргумент": 5076,
  "▁прочих": 5077,
  "ею": 5078,
  "▁съезд": 5079,
  "▁жестоко": 5080,
  "цин": 5081,
  "аф": 5082,
  "▁многочисленные": 5083,
  "ваться": 5084,
  "демократ": 5085,
  "▁республик": 5086,
  "нула": 5087,
  "▁танки": 5088,
  "▁окончания": 5089,
  "▁имею": 5090,
  "▁возможным": 5091,
  "▁180": 5092,
  "▁духовной": 5093,
  "мина": 5094,
  "▁ошиб": 5095,
  "▁воскрес": 5096,
  "▁захвачен": 5097,
  "▁регулярно": 5098,
  "▁собственности": 5099,
  "▁ти": 5100,
  "▁республики": 5101,
  "▁завода": 5102,
  "▁ошибки": 5103,
  "емая": 5104,
  "▁Берлин": 5105,
  "▁реальность": 5106,
  "▁обеих": 5107,
  "▁личного": 5108,
  "!)": 5109,
  "▁занимался": 5110,
  "▁парламент": 5111,
  "цом": 5112,
  "▁стимул": 5113,
  "▁морской": 5114,
  "▁онъ": 5115,
  "▁разума": 5116,
  "▁сидит": 5117,
  "▁немецкой": 5118,
  "▁единиц": 5119,
  "вшему": 5120,
  "▁Петрович": 5121,
  "силь": 5122,
  "▁улицы": 5123,
  "сказ": 5124,
  "▁дам": 5125,
  "еб": 5126,
  "▁дорога": 5127,
  "▁холм": 5128,
  "▁еврей": 5129,
  "▁прийти": 5130,
  "чил": 5131,
  "▁расти": 5132,
  "▁идеолог": 5133,
  "▁делам": 5134,
  "▁штурм": 5135,
  "▁Наши": 5136,
  "▁выражения": 5137,
  "▁счастья": 5138,
  "▁обращен": 5139,
  "▁объяснил": 5140,
  "Об": 5141,
  "▁Были": 5142,
  "▁возвышен": 5143,
  "▁качество": 5144,
  "▁работали": 5145,
  "мол": 5146,
  "тельную": 5147,
  "▁старого": 5148,
  "▁культура": 5149,
  "▁встрече": 5150,
  "чных": 5151,
  "очный": 5152,
  "американ": 5153,
  "ложение": 5154,
  "▁Гол": 5155,
  "фо": 5156,
  "▁Большинство": 5157,
  "нным": 5158,
  "зон": 5159,
  "яться": 5160,
  "шими": 5161,
  "▁Тер": 5162,
  "▁Первая": 5163,
  "▁бизнес": 5164,
  "емое": 5165,
  "▁Испании": 5166,
  "▁хороший": 5167,
  "▁Очевидно": 5168,
  "▁великих": 5169,
  "▁тай": 5170,
  "▁майор": 5171,
  "▁великим": 5172,
  "▁выполнен": 5173,
  "▁получал": 5174,
  "арь": 5175,
  "▁ислам": 5176,
  "▁столом": 5177,
  "▁опор": 5178,
  "▁утверждал": 5179,
  "▁чудовищ": 5180,
  "▁археолог": 5181,
  "▁сильный": 5182,
  "▁Обычно": 5183,
  "▁определения": 5184,
  "▁твои": 5185,
  "орт": 5186,
  "▁наверняка": 5187,
  "били": 5188,
  "рел": 5189,
  "▁Герман": 5190,
  "▁объединен": 5191,
  "▁36": 5192,
  "▁единственным": 5193,
  "▁дер": 5194,
  "▁глав": 5195,
  "нец": 5196,
  "▁пошла": 5197,
  "▁лег": 5198,
  "▁продуктов": 5199,
  "▁наклон": 5200,
  "обыч": 5201,
  "▁провал": 5202,
  "▁выступления": 5203,
  "▁явился": 5204,
  "▁вспомнить": 5205,
  "рт": 5206,
  "▁достичь": 5207,
  "▁Васильевич": 5208,
  "эл": 5209,
  "▁смертью": 5210,
  "▁пищи": 5211,
  "▁старые": 5212,
  "▁боевые": 5213,
  "▁Шу": 5214,
  "▁советник": 5215,
  "▁озера": 5216,
  "▁очередной": 5217,
  "▁проблему": 5218,
  "▁переправ": 5219,
  "▁Германия": 5220,
  "▁ежедневно": 5221,
  "реб": 5222,
  "▁девушки": 5223,
  "тика": 5224,
  "▁командованием": 5225,
  "▁остановился": 5226,
  "ища": 5227,
  "▁любовью": 5228,
  "▁рассказа": 5229,
  "▁подтвердил": 5230,
  "▁обязанности": 5231,
  "▁Зато": 5232,
  "▁Ваше": 5233,
  "▁вызов": 5234,
  "▁стат": 5235,
  "▁немецкие": 5236,
  "▁держал": 5237,
  "▁обстоятельства": 5238,
  "▁операций": 5239,
  "▁некогда": 5240,
  "▁ногами": 5241,
  "▁Жан": 5242,
  "лыш": 5243,
  "▁мел": 5244,
  "ьной": 5245,
  "▁храма": 5246,
  "▁сражения": 5247,
  "▁экономической": 5248,
  "▁усили": 5249,
  "очной": 5250,
  "▁ощущения": 5251,
  "▁XVII": 5252,
  "▁перейти": 5253,
  "жн": 5254,
  "▁33": 5255,
  "▁ответственности": 5256,
  "▁общим": 5257,
  "▁повтор": 5258,
  "▁стрел": 5259,
  "▁статье": 5260,
  "▁гроб": 5261,
  "▁известны": 5262,
  "анта": 5263,
  "прос": 5264,
  "▁действует": 5265,
  "▁давал": 5266,
  "▁защиту": 5267,
  "▁импульс": 5268,
  "▁силах": 5269,
  "▁парень": 5270,
  "▁огромные": 5271,
  "Все": 5272,
  "▁1939": 5273,
  "▁поможет": 5274,
  "▁флаг": 5275,
  "▁творчества": 5276,
  "ительных": 5277,
  "нтер": 5278,
  "▁подписан": 5279,
  "ино": 5280,
  "▁Почти": 5281,
  "▁анализа": 5282,
  "▁развива": 5283,
  "▁Ак": 5284,
  "ДА": 5285,
  "тельно": 5286,
  "раста": 5287,
  "▁средствами": 5288,
  "▁проще": 5289,
  "▁общий": 5290,
  "▁одежды": 5291,
  "▁смел": 5292,
  "▁Крым": 5293,
  "▁спасти": 5294,
  "гун": 5295,
  "ывать": 5296,
  "▁худ": 5297,
  "▁взаимо": 5298,
  "берг": 5299,
  "▁Всего": 5300,
  "щиков": 5301,
  "▁наблюда": 5302,
  "рд": 5303,
  "▁канон": 5304,
  "▁уничтожить": 5305,
  "▁полезно": 5306,
  "▁территорию": 5307,
  "▁шут": 5308,
  "▁Тай": 5309,
  "ющимся": 5310,
  "ода": 5311,
  "дро": 5312,
  "▁поддержки": 5313,
  "▁климат": 5314,
  "▁строительство": 5315,
  "▁признан": 5316,
  "▁обратил": 5317,
  "▁Пал": 5318,
  "▁Жизнь": 5319,
  "▁решений": 5320,
  "▁голода": 5321,
  "▁различия": 5322,
  "оля": 5323,
  "▁старой": 5324,
  "ИН": 5325,
  "нар": 5326,
  "):": 5327,
  "ёл": 5328,
  "ослов": 5329,
  "▁коз": 5330,
  "▁жену": 5331,
  "▁процентов": 5332,
  "▁молодого": 5333,
  "▁люд": 5334,
  "реж": 5335,
  "оцен": 5336,
  "▁истинно": 5337,
  "становлен": 5338,
  "▁Церковь": 5339,
  "-2": 5340,
  "▁огромный": 5341,
  "▁Вся": 5342,
  "▁здание": 5343,
  "дева": 5344,
  "ставлен": 5345,
  "▁возможностей": 5346,
  "▁лодки": 5347,
  "▁напряжен": 5348,
  "▁лошади": 5349,
  "яр": 5350,
  "▁старался": 5351,
  "нное": 5352,
  "гла": 5353,
  "ечь": 5354,
  "▁косм": 5355,
  "▁Сал": 5356,
  "▁открыть": 5357,
  "▁ущерб": 5358,
  "▁Ник": 5359,
  "▁растений": 5360,
  "▁обид": 5361,
  "▁невест": 5362,
  "▁хватало": 5363,
  "▁магнит": 5364,
  "▁оставались": 5365,
  "▁поднялся": 5366,
  "мени": 5367,
  "▁давали": 5368,
  "▁Востоке": 5369,
  "казать": 5370,
  "▁поражения": 5371,
  "▁святого": 5372,
  "▁обучения": 5373,
  "▁микро": 5374,
  "▁языков": 5375,
  "ишься": 5376,
  "▁трудности": 5377,
  "▁пытается": 5378,
  "▁одних": 5379,
  "▁тест": 5380,
  "▁выглядит": 5381,
  "цел": 5382,
  "▁берет": 5383,
  "пл": 5384,
  "Ар": 5385,
  "▁современного": 5386,
  "▁ед": 5387,
  "▁братьев": 5388,
  "полз": 5389,
  "▁транс": 5390,
  "▁службе": 5391,
  "цар": 5392,
  "▁отверг": 5393,
  "▁абсолют": 5394,
  "▁Сар": 5395,
  "▁1940": 5396,
  "яется": 5397,
  "▁процессы": 5398,
  "власт": 5399,
  "▁священ": 5400,
  "▁расстояние": 5401,
  "кот": 5402,
  "▁определение": 5403,
  "исто": 5404,
  "скій": 5405,
  "▁отрыв": 5406,
  "▁считаю": 5407,
  "летний": 5408,
  "▁глуп": 5409,
  "▁Ярослав": 5410,
  "▁объ": 5411,
  "▁тыл": 5412,
  "ЕТ": 5413,
  "▁высоты": 5414,
  "▁похвал": 5415,
  "▁поэзии": 5416,
  "▁сидели": 5417,
  "▁герцог": 5418,
  "▁взглядом": 5419,
  "▁монастыря": 5420,
  "▁белых": 5421,
  "▁свыше": 5422,
  "▁чьи": 5423,
  "сол": 5424,
  "шел": 5425,
  "▁проводил": 5426,
  "▁известных": 5427,
  "▁мятеж": 5428,
  "▁окон": 5429,
  "гнать": 5430,
  "50": 5431,
  "▁силе": 5432,
  "▁вина": 5433,
  "кат": 5434,
  "▁древ": 5435,
  "▁настроение": 5436,
  "▁скажу": 5437,
  "ируется": 5438,
  "▁проведения": 5439,
  "▁обвиня": 5440,
  "▁37": 5441,
  "▁нормально": 5442,
  "▁институт": 5443,
  "▁лоб": 5444,
  "▁тро": 5445,
  "▁КП": 5446,
  "кто": 5447,
  "▁учреждения": 5448,
  "▁букв": 5449,
  "▁высокий": 5450,
  "▁Больше": 5451,
  "▁работников": 5452,
  "▁откровенно": 5453,
  "гад": 5454,
  "▁института": 5455,
  "▁подвиж": 5456,
  "▁Жив": 5457,
  "▁щит": 5458,
  "▁доказать": 5459,
  "▁пород": 5460,
  "6.": 5461,
  "вил": 5462,
  "▁разрыв": 5463,
  "яд": 5464,
  "анов": 5465,
  "▁сделано": 5466,
  "щики": 5467,
  "▁6-": 5468,
  "▁Тебе": 5469,
  "ческой": 5470,
  "▁заставить": 5471,
  "▁ответствен": 5472,
  "▁языком": 5473,
  "▁проклят": 5474,
  "▁устроен": 5475,
  "▁небе": 5476,
  "▁Благо": 5477,
  "▁экипаж": 5478,
  "▁изучения": 5479,
  "▁трон": 5480,
  "▁пользоваться": 5481,
  "▁девять": 5482,
  "▁Фу": 5483,
  "ОР": 5484,
  "яли": 5485,
  "▁пилот": 5486,
  "▁святых": 5487,
  "▁обстоятельств": 5488,
  "▁округа": 5489,
  "▁ши": 5490,
  "▁результатов": 5491,
  "▁Наиболее": 5492,
  "▁статья": 5493,
  "▁крепость": 5494,
  "▁поверхность": 5495,
  "гля": 5496,
  "▁показали": 5497,
  "▁счастью": 5498,
  "▁сан": 5499,
  "▁товарищей": 5500,
  "▁большевиков": 5501,
  "▁дыхание": 5502,
  "вшуюся": 5503,
  "▁связанных": 5504,
  "▁ехать": 5505,
  "▁деревья": 5506,
  "▁реклам": 5507,
  "ковский": 5508,
  "▁секс": 5509,
  "вѣ": 5510,
  "▁бе": 5511,
  "▁фаз": 5512,
  "▁узнав": 5513,
  "▁Китая": 5514,
  "ити": 5515,
  "▁куп": 5516,
  "▁придет": 5517,
  "▁привело": 5518,
  "сона": 5519,
  "▁отделения": 5520,
  "▁объекта": 5521,
  "▁героев": 5522,
  "▁районах": 5523,
  "▁допрос": 5524,
  "▁исчез": 5525,
  "▁Нельзя": 5526,
  "▁обстоятельство": 5527,
  "▁национальной": 5528,
  "▁комитета": 5529,
  "▁последним": 5530,
  "роч": 5531,
  "▁начинал": 5532,
  "▁привели": 5533,
  "▁содержит": 5534,
  "▁полез": 5535,
  "▁Рус": 5536,
  "▁обер": 5537,
  "▁утверждение": 5538,
  "▁катастроф": 5539,
  "▁стола": 5540,
  "ице": 5541,
  "вот": 5542,
  "▁1920": 5543,
  "▁воздействия": 5544,
  "▁духе": 5545,
  "▁берегов": 5546,
  "▁тракт": 5547,
  "7.": 5548,
  "▁обстановке": 5549,
  "▁святой": 5550,
  "▁аналог": 5551,
  "иста": 5552,
  "енс": 5553,
  "▁дву": 5554,
  "овом": 5555,
  "▁маршрут": 5556,
  "▁испытания": 5557,
  "▁весело": 5558,
  "▁Лю": 5559,
  "▁броне": 5560,
  "▁Сибири": 5561,
  "▁обеспечения": 5562,
  "▁Дан": 5563,
  "▁Порт": 5564,
  "▁приходил": 5565,
  "▁боях": 5566,
  "▁дому": 5567,
  "лат": 5568,
  "верш": 5569,
  "▁случаи": 5570,
  "▁уз": 5571,
  "▁Бл": 5572,
  "▁Анна": 5573,
  "▁Христов": 5574,
  "▁клад": 5575,
  "▁пору": 5576,
  "▁предоставлен": 5577,
  "▁десятки": 5578,
  "▁прошлое": 5579,
  "▁ресторан": 5580,
  "▁неба": 5581,
  "▁Вит": 5582,
  "тем": 5583,
  "▁народного": 5584,
  "▁товарищи": 5585,
  "▁высокого": 5586,
  "▁требовал": 5587,
  "▁кле": 5588,
  "▁определяется": 5589,
  "▁освобожден": 5590,
  "чай": 5591,
  "▁тороп": 5592,
  "кр": 5593,
  "▁КПСС": 5594,
  "Но": 5595,
  "▁звезды": 5596,
  "▁дик": 5597,
  "▁полным": 5598,
  "▁секунд": 5599,
  "ывают": 5600,
  "I": 5601,
  "▁предметы": 5602,
  "▁слез": 5603,
  "▁Александрович": 5604,
  "▁пределах": 5605,
  "▁позиций": 5606,
  "▁играл": 5607,
  "▁мае": 5608,
  "▁произведен": 5609,
  "вала": 5610,
  "ани": 5611,
  "тик": 5612,
  "КО": 5613,
  "▁попасть": 5614,
  "▁расстоянии": 5615,
  "дела": 5616,
  "шко": 5617,
  "▁Этим": 5618,
  "Рус": 5619,
  "▁разу": 5620,
  "▁использование": 5621,
  "▁Великий": 5622,
  "▁бело": 5623,
  "▁формально": 5624,
  "▁предположить": 5625,
  "тики": 5626,
  "▁золота": 5627,
  "▁временно": 5628,
  "нную": 5629,
  "▁особой": 5630,
  "▁Наш": 5631,
  "▁Вселенной": 5632,
  "нулись": 5633,
  "12": 5634,
  "▁проекта": 5635,
  "плыл": 5636,
  "▁полную": 5637,
  "▁смотрит": 5638,
  "▁многим": 5639,
  "▁нач": 5640,
  "▁договора": 5641,
  "лова": 5642,
  "▁фашист": 5643,
  "▁вопросом": 5644,
  "▁заинтересован": 5645,
  "▁вызвать": 5646,
  "пот": 5647,
  "▁Кро": 5648,
  "▁Какой": 5649,
  "▁взгляды": 5650,
  "▁больных": 5651,
  "уча": 5652,
  "▁режима": 5653,
  "▁глубине": 5654,
  "▁Фил": 5655,
  "▁плач": 5656,
  "▁полет": 5657,
  "▁научных": 5658,
  "17": 5659,
  "▁создает": 5660,
  "бри": 5661,
  "▁семью": 5662,
  "▁называет": 5663,
  "▁лук": 5664,
  "жела": 5665,
  "▁причинам": 5666,
  "▁выполнения": 5667,
  "▁сопротивления": 5668,
  "настоящему": 5669,
  "дите": 5670,
  "▁эшелон": 5671,
  "▁Великого": 5672,
  "вр": 5673,
  "▁новом": 5674,
  "▁важных": 5675,
  "▁разрешения": 5676,
  "ческие": 5677,
  "друг": 5678,
  "▁указания": 5679,
  "▁собрания": 5680,
  "▁давление": 5681,
  "▁ствол": 5682,
  "▁настоящего": 5683,
  "▁судьбу": 5684,
  "▁лечения": 5685,
  "▁свин": 5686,
  "▁планеты": 5687,
  "▁почет": 5688,
  "▁Особ": 5689,
  "▁покой": 5690,
  "▁заключение": 5691,
  "▁принц": 5692,
  "▁средство": 5693,
  "звуч": 5694,
  "▁ударил": 5695,
  "ающей": 5696,
  "вей": 5697,
  "▁Работа": 5698,
  "▁любое": 5699,
  "▁игр": 5700,
  "▁отцом": 5701,
  "▁Командир": 5702,
  "рв": 5703,
  "▁Роман": 5704,
  "АН": 5705,
  "гул": 5706,
  "сель": 5707,
  "▁существовать": 5708,
  "див": 5709,
  "▁детям": 5710,
  "цер": 5711,
  "▁град": 5712,
  "▁имеются": 5713,
  "▁снят": 5714,
  "▁настроен": 5715,
  "▁Антон": 5716,
  "сн": 5717,
  "▁спрашивает": 5718,
  "▁легенд": 5719,
  "▁августе": 5720,
  "▁размер": 5721,
  "пись": 5722,
  "▁художника": 5723,
  "▁оставлен": 5724,
  "▁исторической": 5725,
  "гал": 5726,
  "▁гражданской": 5727,
  "▁поддерживать": 5728,
  "▁клетки": 5729,
  "▁входит": 5730,
  "▁Речь": 5731,
  "▁молодые": 5732,
  "5.": 5733,
  "▁грубо": 5734,
  "▁Восточной": 5735,
  "▁сообщает": 5736,
  "▁принципе": 5737,
  "ВО": 5738,
  "оне": 5739,
  "кажет": 5740,
  "▁неизменно": 5741,
  "▁родов": 5742,
  "зя": 5743,
  "▁тонко": 5744,
  "▁указал": 5745,
  "гром": 5746,
  "▁фильма": 5747,
  "гора": 5748,
  "▁Оба": 5749,
  "▁слушать": 5750,
  "▁получилось": 5751,
  "▁недалеко": 5752,
  "▁Одновременно": 5753,
  "▁бывшего": 5754,
  "▁показалось": 5755,
  "▁агент": 5756,
  "▁арт": 5757,
  "▁предварительно": 5758,
  "▁Кас": 5759,
  "▁приняты": 5760,
  "тил": 5761,
  "▁полит": 5762,
  "▁оригинал": 5763,
  "▁занимал": 5764,
  "▁невидим": 5765,
  "стал": 5766,
  "беж": 5767,
  "▁отряды": 5768,
  "▁ЗА": 5769,
  "▁улицу": 5770,
  "▁углу": 5771,
  "▁информация": 5772,
  "▁схватил": 5773,
  "▁вызвал": 5774,
  "▁сознании": 5775,
  "▁либерал": 5776,
  "▁Лен": 5777,
  "▁150": 5778,
  "▁коня": 5779,
  "▁командования": 5780,
  "▁ждет": 5781,
  "▁бывают": 5782,
  "▁пен": 5783,
  "▁проща": 5784,
  "лива": 5785,
  "нія": 5786,
  "Он": 5787,
  "▁вынуждены": 5788,
  "тянуть": 5789,
  "13": 5790,
  "▁покрыт": 5791,
  "▁удастся": 5792,
  "анг": 5793,
  "кт": 5794,
  "▁нападения": 5795,
  "▁древней": 5796,
  "▁спиной": 5797,
  "▁надел": 5798,
  "▁восстания": 5799,
  "▁пас": 5800,
  "лил": 5801,
  "▁серебрян": 5802,
  "Ну": 5803,
  "▁Юго": 5804,
  "двига": 5805,
  "▁авторов": 5806,
  "майор": 5807,
  "▁СС": 5808,
  "▁делается": 5809,
  "▁сторона": 5810,
  "▁дворец": 5811,
  "Й": 5812,
  "▁мах": 5813,
  "▁Казалось": 5814,
  "рова": 5815,
  "▁диалог": 5816,
  "▁лошадь": 5817,
  "▁Въ": 5818,
  "▁Советский": 5819,
  "▁убийц": 5820,
  "▁уход": 5821,
  "▁кратко": 5822,
  "▁вино": 5823,
  "▁Павлов": 5824,
  "▁усилий": 5825,
  "док": 5826,
  "▁налет": 5827,
  "юль": 5828,
  "▁Одним": 5829,
  "носит": 5830,
  "иды": 5831,
  "тре": 5832,
  "▁фундамент": 5833,
  "▁неправильно": 5834,
  "▁рассматривал": 5835,
  "▁сыном": 5836,
  "▁связана": 5837,
  "▁разработан": 5838,
  "14": 5839,
  "▁лог": 5840,
  "▁границ": 5841,
  "ающего": 5842,
  "▁ша": 5843,
  "ывал": 5844,
  "▁мясо": 5845,
  "▁ответила": 5846,
  "языч": 5847,
  "▁общих": 5848,
  "▁строить": 5849,
  "▁русском": 5850,
  "Де": 5851,
  "▁крыш": 5852,
  "десят": 5853,
  "▁изменений": 5854,
  "▁эволюции": 5855,
  "▁Королев": 5856,
  "▁отправил": 5857,
  "▁расстрел": 5858,
  "ьян": 5859,
  "сыла": 5860,
  "▁Й": 5861,
  "ственный": 5862,
  "▁вернулись": 5863,
  "ард": 5864,
  "▁традиция": 5865,
  "зв": 5866,
  "▁пойдет": 5867,
  "шем": 5868,
  "▁производил": 5869,
  "▁строк": 5870,
  "▁ак": 5871,
  "пали": 5872,
  "▁подчинен": 5873,
  "ову": 5874,
  "▁кровью": 5875,
  "▁бойцов": 5876,
  "нить": 5877,
  "▁смеша": 5878,
  "▁цеп": 5879,
  "▁попытался": 5880,
  "▁божеств": 5881,
  "▁выделя": 5882,
  "▁объектов": 5883,
  "мес": 5884,
  "▁груб": 5885,
  "▁тени": 5886,
  "ющееся": 5887,
  "лой": 5888,
  "где": 5889,
  "▁эффективно": 5890,
  "оны": 5891,
  "▁аль": 5892,
  "ступление": 5893,
  "ющаяся": 5894,
  "правлен": 5895,
  "▁остаются": 5896,
  "▁случая": 5897,
  "меч": 5898,
  "кли": 5899,
  "▁магазин": 5900,
  "▁38": 5901,
  "ительным": 5902,
  "монт": 5903,
  "▁лит": 5904,
  "▁твоя": 5905,
  "▁Филипп": 5906,
  "здоров": 5907,
  "▁Тан": 5908,
  "▁рак": 5909,
  "▁режиссер": 5910,
  "ема": 5911,
  "▁войн": 5912,
  "▁даст": 5913,
  "▁задачей": 5914,
  "▁изучение": 5915,
  "ийские": 5916,
  "▁записи": 5917,
  "▁ожидал": 5918,
  "стин": 5919,
  "▁защит": 5920,
  "нские": 5921,
  "▁стремится": 5922,
  "▁ожидать": 5923,
  "▁дет": 5924,
  "пат": 5925,
  "▁Инд": 5926,
  "▁Отечественной": 5927,
  "▁явлений": 5928,
  "-1": 5929,
  "▁далек": 5930,
  "▁называть": 5931,
  "▁встреч": 5932,
  "▁максимально": 5933,
  "▁Бело": 5934,
  "▁произведений": 5935,
  "▁превраща": 5936,
  "чок": 5937,
  "▁юг": 5938,
  "▁телом": 5939,
  "▁Ад": 5940,
  "метр": 5941,
  "▁продолжа": 5942,
  "▁кофе": 5943,
  "ящей": 5944,
  "▁оси": 5945,
  "▁ждал": 5946,
  "▁убить": 5947,
  "▁взор": 5948,
  "▁Какие": 5949,
  "▁выразил": 5950,
  "▁90": 5951,
  "▁Ур": 5952,
  "▁приступ": 5953,
  "▁пуга": 5954,
  "▁Сид": 5955,
  "фт": 5956,
  "тая": 5957,
  "слушива": 5958,
  "▁Шар": 5959,
  "▁образов": 5960,
  "▁личной": 5961,
  "▁общения": 5962,
  "ложения": 5963,
  "▁игру": 5964,
  "▁Буд": 5965,
  "▁получать": 5966,
  "▁Пас": 5967,
  "▁хорош": 5968,
  "Ре": 5969,
  "▁мороз": 5970,
  "▁хозяйств": 5971,
  "▁государ": 5972,
  "▁брон": 5973,
  "▁выступает": 5974,
  "Ты": 5975,
  "▁пря": 5976,
  "▁действовал": 5977,
  "▁убийства": 5978,
  "▁деревьев": 5979,
  "▁внутреннего": 5980,
  "▁человеческих": 5981,
  "18": 5982,
  "▁детали": 5983,
  "▁народы": 5984,
  "олом": 5985,
  "▁печ": 5986,
  "▁общественной": 5987,
  "▁темы": 5988,
  "▁марте": 5989,
  "▁желая": 5990,
  "▁общественных": 5991,
  "▁мм": 5992,
  "▁Куда": 5993,
  "▁сочета": 5994,
  "Из": 5995,
  "▁твоей": 5996,
  "лый": 5997,
  "▁одинок": 5998,
  "▁накануне": 5999,
  "▁Неужели": 6000,
  "нским": 6001,
  "доволь": 6002,
  "▁Верховного": 6003,
  "▁спасения": 6004,
  "▁считая": 6005,
  "▁Хан": 6006,
  "народ": 6007,
  "▁Точно": 6008,
  "▁вера": 6009,
  "▁сотрудников": 6010,
  "▁VI": 6011,
  "▁Ху": 6012,
  "▁сахар": 6013,
  "▁исследование": 6014,
  "▁Польши": 6015,
  "▁появления": 6016,
  "▁континент": 6017,
  "▁социал": 6018,
  "▁закончил": 6019,
  "▁купить": 6020,
  "▁получают": 6021,
  "▁Варшав": 6022,
  "▁кости": 6023,
  "▁предприятий": 6024,
  "ерн": 6025,
  "▁монет": 6026,
  "линг": 6027,
  "лист": 6028,
  "▁удобно": 6029,
  "▁га": 6030,
  "▁правой": 6031,
  "▁взрыва": 6032,
  "лейтенант": 6033,
  "▁патриот": 6034,
  "▁природу": 6035,
  "▁ихъ": 6036,
  "плачива": 6037,
  "чина": 6038,
  "бре": 6039,
  "▁являлся": 6040,
  "▁зенит": 6041,
  "▁найден": 6042,
  "▁упорно": 6043,
  "плав": 6044,
  "▁жертву": 6045,
  "▁срочно": 6046,
  "▁гибель": 6047,
  "▁прошу": 6048,
  "ящего": 6049,
  "производ": 6050,
  "Мо": 6051,
  "▁Новый": 6052,
  "▁журнала": 6053,
  "▁формирования": 6054,
  "▁оценки": 6055,
  "▁разно": 6056,
  "там": 6057,
  "двинул": 6058,
  "сла": 6059,
  "▁одежду": 6060,
  "▁необходимые": 6061,
  "няв": 6062,
  "▁включен": 6063,
  "ключи": 6064,
  "▁ровно": 6065,
  "▁постиг": 6066,
  "▁устойчив": 6067,
  "▁произведение": 6068,
  "▁начина": 6069,
  "▁бороться": 6070,
  "аны": 6071,
  "▁начальником": 6072,
  "▁открытия": 6073,
  "▁Крест": 6074,
  "▁Сил": 6075,
  "▁степень": 6076,
  "▁большими": 6077,
  "▁наблюдать": 6078,
  "▁Вин": 6079,
  "▁Поли": 6080,
  "▁военным": 6081,
  "дея": 6082,
  "уда": 6083,
  "▁кандидат": 6084,
  "носить": 6085,
  "эм": 6086,
  "▁источника": 6087,
  "▁мгновение": 6088,
  "нском": 6089,
  "▁страж": 6090,
  "▁качеств": 6091,
  "▁стих": 6092,
  "▁железной": 6093,
  "ющему": 6094,
  "▁группой": 6095,
  "▁словах": 6096,
  "▁напряжение": 6097,
  "▁бежать": 6098,
  "▁подлинно": 6099,
  "▁пытаясь": 6100,
  "▁кадров": 6101,
  "▁34": 6102,
  "▁конференции": 6103,
  "▁Солнце": 6104,
  "▁привел": 6105,
  "▁меньшей": 6106,
  "▁Мои": 6107,
  "люд": 6108,
  "▁месту": 6109,
  "▁крикнул": 6110,
  "▁событие": 6111,
  "▁яко": 6112,
  "▁единство": 6113,
  "▁распространя": 6114,
  "служ": 6115,
  "▁упомянут": 6116,
  "▁нашими": 6117,
  "унд": 6118,
  "▁кристалл": 6119,
  "ори": 6120,
  "▁ок": 6121,
  "▁гос": 6122,
  "▁двигаться": 6123,
  "▁перво": 6124,
  "▁западных": 6125,
  "▁принадлежа": 6126,
  "▁переговоров": 6127,
  "топ": 6128,
  "авших": 6129,
  "▁занимает": 6130,
  "▁успели": 6131,
  "▁монастырь": 6132,
  "▁исторических": 6133,
  "тих": 6134,
  "ейн": 6135,
  "▁выполнить": 6136,
  "▁подумать": 6137,
  "▁двора": 6138,
  "нного": 6139,
  "▁человеке": 6140,
  "▁крив": 6141,
  "шло": 6142,
  "▁Фи": 6143,
  "▁8.": 6144,
  "▁перенос": 6145,
  "▁педагог": 6146,
  "▁присутствие": 6147,
  "верх": 6148,
  "▁реку": 6149,
  "▁Вероятно": 6150,
  "▁искусстве": 6151,
  "бес": 6152,
  "▁дежур": 6153,
  "▁питания": 6154,
  "▁удивля": 6155,
  "▁издания": 6156,
  "▁стул": 6157,
  "▁поняли": 6158,
  "25": 6159,
  "зен": 6160,
  "▁учиться": 6161,
  "▁Маркс": 6162,
  "▁удовольствие": 6163,
  "▁окажется": 6164,
  "▁сети": 6165,
  "▁практики": 6166,
  "▁участке": 6167,
  "▁икон": 6168,
  "▁ногу": 6169,
  "▁обряд": 6170,
  "▁Вид": 6171,
  "▁обстоятельствах": 6172,
  "▁предлагает": 6173,
  "▁духовного": 6174,
  "яс": 6175,
  "▁Глав": 6176,
  "▁участник": 6177,
  "шке": 6178,
  "▁кра": 6179,
  "▁американской": 6180,
  "▁услуг": 6181,
  "▁кожи": 6182,
  "▁специалистов": 6183,
  "▁Роберт": 6184,
  "▁особое": 6185,
  "▁движении": 6186,
  "▁важные": 6187,
  "▁экзамен": 6188,
  "▁заявление": 6189,
  "▁определенной": 6190,
  "▁пребывания": 6191,
  "▁белые": 6192,
  "▁образу": 6193,
  "▁предметов": 6194,
  "фан": 6195,
  "тян": 6196,
  "▁самолеты": 6197,
  "▁чём": 6198,
  "▁отцу": 6199,
  "▁Рай": 6200,
  "▁третьего": 6201,
  "▁развит": 6202,
  "ализм": 6203,
  "ийских": 6204,
  "▁ценность": 6205,
  "▁дыр": 6206,
  "▁следы": 6207,
  "▁Военно": 6208,
  "▁План": 6209,
  "ыч": 6210,
  "▁связей": 6211,
  "▁немецкого": 6212,
  "йдут": 6213,
  "иде": 6214,
  "против": 6215,
  "▁лад": 6216,
  "мень": 6217,
  "▁всякое": 6218,
  "▁кн": 6219,
  "▁корен": 6220,
  "▁Другие": 6221,
  "▁сухо": 6222,
  "ТО": 6223,
  "▁свойств": 6224,
  "Йорк": 6225,
  "кут": 6226,
  "▁трое": 6227,
  "▁воевод": 6228,
  "▁Часть": 6229,
  "▁улыбнулся": 6230,
  "▁оставив": 6231,
  "▁зелен": 6232,
  "кров": 6233,
  "▁разряд": 6234,
  "▁операция": 6235,
  "тические": 6236,
  "▁восторг": 6237,
  "▁болот": 6238,
  "▁вернуть": 6239,
  "▁продукты": 6240,
  "▁буд": 6241,
  "▁рынка": 6242,
  "▁сохрани": 6243,
  "▁шу": 6244,
  "▁появление": 6245,
  "кса": 6246,
  "мира": 6247,
  "▁марш": 6248,
  "строен": 6249,
  "ствовать": 6250,
  "▁останавлива": 6251,
  "▁стремительно": 6252,
  "анти": 6253,
  "▁выбора": 6254,
  "▁детства": 6255,
  "▁богослов": 6256,
  "▁надежно": 6257,
  "▁Весь": 6258,
  "▁многочисленных": 6259,
  "8.": 6260,
  "▁работают": 6261,
  "▁зачастую": 6262,
  "▁субъект": 6263,
  "▁высоких": 6264,
  "▁позор": 6265,
  "гас": 6266,
  "▁топ": 6267,
  "▁прошла": 6268,
  "▁науке": 6269,
  "рн": 6270,
  "▁высших": 6271,
  "▁науч": 6272,
  "▁задан": 6273,
  "▁чрез": 6274,
  "▁Влад": 6275,
  "пев": 6276,
  "▁юж": 6277,
  "▁повсюду": 6278,
  "▁продолжил": 6279,
  "▁создавать": 6280,
  "▁намерения": 6281,
  "▁сцене": 6282,
  "атов": 6283,
  "▁Аль": 6284,
  "▁отцов": 6285,
  "▁городу": 6286,
  "▁встречаются": 6287,
  "екс": 6288,
  "Па": 6289,
  "дам": 6290,
  "▁взаимодействия": 6291,
  "▁желает": 6292,
  "▁устройства": 6293,
  "▁видя": 6294,
  "▁бои": 6295,
  "ческого": 6296,
  "▁Вдруг": 6297,
  "▁любые": 6298,
  "▁восьми": 6299,
  "▁ушли": 6300,
  "чков": 6301,
  "дат": 6302,
  "рап": 6303,
  "▁Востока": 6304,
  "▁окно": 6305,
  "▁Дю": 6306,
  "▁субъектив": 6307,
  "ЛИ": 6308,
  "▁математик": 6309,
  "▁напоминает": 6310,
  "▁зл": 6311,
  "▁Куб": 6312,
  "▁эмоционально": 6313,
  "гра": 6314,
  "вяз": 6315,
  "▁свобод": 6316,
  "▁Моя": 6317,
  "▁поднима": 6318,
  "▁молитвы": 6319,
  "▁наряду": 6320,
  "риф": 6321,
  "▁упомина": 6322,
  "▁(1": 6323,
  "▁экспедиции": 6324,
  "▁лагере": 6325,
  "▁выбрал": 6326,
  "▁характеристик": 6327,
  "▁возникают": 6328,
  "▁огромной": 6329,
  "▁коммунист": 6330,
  "▁Кри": 6331,
  "лежа": 6332,
  "▁занять": 6333,
  "▁жертвы": 6334,
  "▁музыка": 6335,
  "▁ворон": 6336,
  "▁апостол": 6337,
  "▁Россией": 6338,
  "▁объявлен": 6339,
  "▁Слово": 6340,
  "▁пыль": 6341,
  "▁точнее": 6342,
  "▁стыд": 6343,
  "▁весной": 6344,
  "▁пятьдесят": 6345,
  "▁владения": 6346,
  "▁вооруженных": 6347,
  "▁Главное": 6348,
  "▁изначально": 6349,
  "▁местные": 6350,
  "▁соединен": 6351,
  "нье": 6352,
  "▁множества": 6353,
  "коль": 6354,
  "▁достал": 6355,
  "▁изо": 6356,
  "▁слеп": 6357,
  "▁стадии": 6358,
  "▁Следует": 6359,
  "▁ци": 6360,
  "для": 6361,
  "▁Слова": 6362,
  "▁тор": 6363,
  "▁монах": 6364,
  "оса": 6365,
  "ТА": 6366,
  "▁пистолет": 6367,
  "▁точке": 6368,
  "▁ме": 6369,
  "▁лент": 6370,
  "▁фирм": 6371,
  "▁свеже": 6372,
  "▁низко": 6373,
  "▁охран": 6374,
  "ини": 6375,
  "▁мистер": 6376,
  "▁украин": 6377,
  "кач": 6378,
  "▁спутник": 6379,
  "▁эксперимент": 6380,
  "▁подъем": 6381,
  "▁Святого": 6382,
  "9.": 6383,
  "▁муч": 6384,
  "▁твое": 6385,
  "▁некоторым": 6386,
  "тических": 6387,
  "▁помощник": 6388,
  "▁партнер": 6389,
  "▁нов": 6390,
  "▁удален": 6391,
  "▁груд": 6392,
  "▁Олег": 6393,
  "нит": 6394,
  "▁близких": 6395,
  "▁платье": 6396,
  "▁Украине": 6397,
  "▁назначения": 6398,
  "▁столицы": 6399,
  "▁наказания": 6400,
  "▁кампании": 6401,
  "▁писем": 6402,
  "▁сна": 6403,
  "▁грудь": 6404,
  "▁Марии": 6405,
  "▁выступал": 6406,
  "▁народом": 6407,
  "▁страниц": 6408,
  "нн": 6409,
  "▁капитана": 6410,
  "▁Иерусалим": 6411,
  "▁суб": 6412,
  "▁имущество": 6413,
  "▁Павла": 6414,
  "▁позади": 6415,
  "енгер": 6416,
  "▁атак": 6417,
  "▁чуд": 6418,
  "▁позиция": 6419,
  "мой": 6420,
  "▁обусловлен": 6421,
  "▁осенью": 6422,
  "уру": 6423,
  "▁носит": 6424,
  "▁правительственн": 6425,
  "инд": 6426,
  "▁человечество": 6427,
  "▁перехода": 6428,
  "▁сделала": 6429,
  "обра": 6430,
  "дач": 6431,
  "▁карты": 6432,
  "давал": 6433,
  "▁историк": 6434,
  "▁простор": 6435,
  "бед": 6436,
  "▁большом": 6437,
  "▁суток": 6438,
  "▁ветра": 6439,
  "▁решать": 6440,
  "▁полос": 6441,
  "резан": 6442,
  "▁студент": 6443,
  "▁Маг": 6444,
  "▁ри": 6445,
  "▁определенные": 6446,
  "▁раду": 6447,
  "▁источником": 6448,
  "▁социального": 6449,
  "рал": 6450,
  "▁положительно": 6451,
  "▁создании": 6452,
  "веду": 6453,
  "▁желез": 6454,
  "60": 6455,
  "▁невероятно": 6456,
  "▁Духа": 6457,
  "ческий": 6458,
  "▁применение": 6459,
  "▁пребыва": 6460,
  "лаг": 6461,
  "▁пехоты": 6462,
  "▁узнали": 6463,
  "▁произ": 6464,
  "нг": 6465,
  "▁хорошим": 6466,
  "▁це": 6467,
  "▁союза": 6468,
  "▁гарнизон": 6469,
  "▁украшен": 6470,
  "▁разными": 6471,
  "▁войти": 6472,
  "▁расширя": 6473,
  "биты": 6474,
  "▁составляют": 6475,
  "▁хо": 6476,
  "▁называл": 6477,
  "▁определен": 6478,
  "▁Часто": 6479,
  "рия": 6480,
  "▁импер": 6481,
  "▁применя": 6482,
  "▁выража": 6483,
  "▁Господи": 6484,
  "▁собирался": 6485,
  "▁похож": 6486,
  "▁единого": 6487,
  "ительная": 6488,
  "▁лучшие": 6489,
  "▁Сад": 6490,
  "ЕР": 6491,
  "тые": 6492,
  "▁обез": 6493,
  "Ме": 6494,
  "▁пещер": 6495,
  "▁разговора": 6496,
  "▁Бра": 6497,
  "▁успехом": 6498,
  "ТИ": 6499,
  "▁провинции": 6500,
  "▁парт": 6501,
  "никам": 6502,
  "▁шло": 6503,
  "▁левой": 6504,
  "▁темп": 6505,
  "▁учит": 6506,
  "▁распоряжение": 6507,
  "ющем": 6508,
  "▁культуре": 6509,
  "культур": 6510,
  "▁реакция": 6511,
  "▁купил": 6512,
  "▁Запада": 6513,
  "▁Помимо": 6514,
  "▁дважды": 6515,
  "▁твоего": 6516,
  "▁настроения": 6517,
  "летнего": 6518,
  "▁изменил": 6519,
  "▁внутрь": 6520,
  "▁Жен": 6521,
  "Петербург": 6522,
  "▁Земля": 6523,
  "▁супруг": 6524,
  "▁показания": 6525,
  "▁похода": 6526,
  "Ан": 6527,
  "▁сутки": 6528,
  "▁уста": 6529,
  "тира": 6530,
  "▁признавал": 6531,
  "хин": 6532,
  "рван": 6533,
  "▁КГБ": 6534,
  "▁принципиально": 6535,
  "▁всячески": 6536,
  "▁научной": 6537,
  "▁стене": 6538,
  "▁итог": 6539,
  "▁обыкновенно": 6540,
  "▁взаимно": 6541,
  "▁описания": 6542,
  "▁этапе": 6543,
  "▁бого": 6544,
  "▁квартиру": 6545,
  "вез": 6546,
  "▁кип": 6547,
  "▁Сто": 6548,
  "▁торжественно": 6549,
  "▁граб": 6550,
  "▁фр": 6551,
  "▁снял": 6552,
  "▁Мел": 6553,
  "▁руководителей": 6554,
  "▁манер": 6555,
  "▁царю": 6556,
  "▁билет": 6557,
  "▁обуча": 6558,
  "▁камня": 6559,
  "усь": 6560,
  "люби": 6561,
  "нули": 6562,
  "резать": 6563,
  "▁передачи": 6564,
  "▁технолог": 6565,
  "▁чувствовать": 6566,
  "▁ламп": 6567,
  "▁Васил": 6568,
  "▁подверг": 6569,
  "▁развитию": 6570,
  "дум": 6571,
  "▁сержант": 6572,
  "кл": 6573,
  "▁лозунг": 6574,
  "пин": 6575,
  "▁шпион": 6576,
  "▁океана": 6577,
  "если": 6578,
  "▁сильным": 6579,
  "анд": 6580,
  "лѣ": 6581,
  "▁Ир": 6582,
  "▁забав": 6583,
  "▁пищу": 6584,
  "▁драма": 6585,
  "▁передан": 6586,
  "▁острове": 6587,
  "▁появляются": 6588,
  "таль": 6589,
  "▁дневник": 6590,
  "▁принципы": 6591,
  "▁гидро": 6592,
  "▁духом": 6593,
  "▁читатель": 6594,
  "▁главнокомандующ": 6595,
  "▁произвел": 6596,
  "▁подчиня": 6597,
  "▁заключения": 6598,
  "зрел": 6599,
  "▁дала": 6600,
  "▁убил": 6601,
  "▁Западе": 6602,
  "▁квартире": 6603,
  "▁Мама": 6604,
  "▁экс": 6605,
  "▁Каза": 6606,
  "▁Созда": 6607,
  "▁последнем": 6608,
  "▁команда": 6609,
  "▁поехал": 6610,
  "▁радост": 6611,
  "йдем": 6612,
  "▁Дар": 6613,
  "▁Ок": 6614,
  "▁Владимира": 6615,
  "▁потреб": 6616,
  "▁идеально": 6617,
  "▁высказал": 6618,
  "ады": 6619,
  "▁среднего": 6620,
  "нцев": 6621,
  "▁слезы": 6622,
  "рост": 6623,
  "ивших": 6624,
  "▁Царь": 6625,
  "▁греб": 6626,
  "▁объединя": 6627,
  "▁родной": 6628,
  "▁боев": 6629,
  "ившего": 6630,
  "▁тяжелые": 6631,
  "щика": 6632,
  "эк": 6633,
  "▁любить": 6634,
  "▁радостно": 6635,
  "▁верил": 6636,
  "▁скоростью": 6637,
  "▁управлять": 6638,
  "▁адмирал": 6639,
  "▁десят": 6640,
  "▁подготовке": 6641,
  "▁предмета": 6642,
  "▁предстояло": 6643,
  "▁видела": 6644,
  "▁ше": 6645,
  "▁округ": 6646,
  "жать": 6647,
  "▁остатки": 6648,
  "тической": 6649,
  "▁Утром": 6650,
  "▁воздействие": 6651,
  "сам": 6652,
  "▁орден": 6653,
  "▁задание": 6654,
  "▁распространение": 6655,
  "▁разнообраз": 6656,
  "▁признание": 6657,
  "▁Необходимо": 6658,
  "▁требуют": 6659,
  "хал": 6660,
  "▁снять": 6661,
  "▁охотно": 6662,
  "▁долю": 6663,
  "▁тер": 6664,
  "писал": 6665,
  "▁пожал": 6666,
  "▁полку": 6667,
  "даль": 6668,
  "▁бежал": 6669,
  "▁высокие": 6670,
  "▁Южной": 6671,
  "КИ": 6672,
  "▁тремя": 6673,
  "▁спин": 6674,
  "▁Зим": 6675,
  "сок": 6676,
  "▁крестьяне": 6677,
  "▁богатство": 6678,
  "▁следов": 6679,
  "спо": 6680,
  "вра": 6681,
  "▁N": 6682,
  "кси": 6683,
  "▁1937": 6684,
  "губ": 6685,
  "▁выпуск": 6686,
  "▁станут": 6687,
  "▁враща": 6688,
  "▁высоте": 6689,
  "▁хозяйство": 6690,
  "▁организовать": 6691,
  "▁нигде": 6692,
  "▁добра": 6693,
  "▁гриб": 6694,
  "▁краю": 6695,
  "▁внук": 6696,
  "▁интервью": 6697,
  "▁май": 6698,
  "бург": 6699,
  "▁усилен": 6700,
  "▁проявляется": 6701,
  "▁простым": 6702,
  "▁границе": 6703,
  "везли": 6704,
  "▁пределами": 6705,
  "▁Сталинград": 6706,
  "▁мгновенно": 6707,
  "▁пусто": 6708,
  "▁гостей": 6709,
  "▁январе": 6710,
  "40": 6711,
  "▁нём": 6712,
  "▁следующем": 6713,
  "бег": 6714,
  "▁цветов": 6715,
  "▁селе": 6716,
  "▁казаков": 6717,
  "▁покоя": 6718,
  "▁карман": 6719,
  "▁восстановить": 6720,
  "имо": 6721,
  "▁барон": 6722,
  "▁Иоанна": 6723,
  "ающая": 6724,
  "▁хорошие": 6725,
  "▁оборону": 6726,
  "▁Лондон": 6727,
  "пала": 6728,
  "▁волк": 6729,
  "▁сентябре": 6730,
  "▁Начал": 6731,
  "▁угла": 6732,
  "лению": 6733,
  "▁обеда": 6734,
  "овки": 6735,
  "▁справедливости": 6736,
  "▁тра": 6737,
  "▁членом": 6738,
  "▁встречается": 6739,
  "▁слава": 6740,
  "▁собственную": 6741,
  "▁понимали": 6742,
  "шков": 6743,
  "рах": 6744,
  "▁Первое": 6745,
  "чный": 6746,
  "▁хлоп": 6747,
  "▁восток": 6748,
  "▁доложил": 6749,
  "▁подходит": 6750,
  "стон": 6751,
  "▁половину": 6752,
  "▁батареи": 6753,
  "▁дворца": 6754,
  "▁мелких": 6755,
  "иб": 6756,
  "обыкновен": 6757,
  "▁Думаю": 6758,
  "дова": 6759,
  "хватил": 6760,
  "▁старше": 6761,
  "▁функция": 6762,
  "▁победа": 6763,
  "▁бывших": 6764,
  "класс": 6765,
  "▁дисциплин": 6766,
  "▁делами": 6767,
  "▁боги": 6768,
  "▁продолжение": 6769,
  "иной": 6770,
  "▁государь": 6771,
  "▁прекратил": 6772,
  "▁нации": 6773,
  "▁девочка": 6774,
  "▁определенных": 6775,
  "▁отправились": 6776,
  "▁товаров": 6777,
  "Те": 6778,
  "водя": 6779,
  "▁кожа": 6780,
  "▁Ред": 6781,
  "тесь": 6782,
  "▁посад": 6783,
  "▁декабре": 6784,
  "▁демократии": 6785,
  "▁колен": 6786,
  "▁добр": 6787,
  "▁октябре": 6788,
  "▁Ган": 6789,
  "кі": 6790,
  "▁продукт": 6791,
  "▁Видимо": 6792,
  "▁Ай": 6793,
  "▁просит": 6794,
  "▁курса": 6795,
  "▁Ильич": 6796,
  "овка": 6797,
  "▁Смоленск": 6798,
  "▁допустить": 6799,
  "▁заставляет": 6800,
  "▁куб": 6801,
  "▁капитала": 6802,
  "▁отказа": 6803,
  "рабатыва": 6804,
  "▁губернии": 6805,
  "▁нарушения": 6806,
  "бега": 6807,
  "▁находиться": 6808,
  "▁возвращения": 6809,
  "▁хотим": 6810,
  "▁Дмитрий": 6811,
  "мель": 6812,
  "▁вал": 6813,
  "▁изображение": 6814,
  "перед": 6815,
  "лё": 6816,
  "ступив": 6817,
  "▁таинств": 6818,
  "кром": 6819,
  "▁определил": 6820,
  "ЦИ": 6821,
  "проб": 6822,
  "бле": 6823,
  "▁примет": 6824,
  "▁ткани": 6825,
  "▁Цел": 6826,
  "▁выяснилось": 6827,
  "▁участок": 6828,
  "▁обратиться": 6829,
  "бек": 6830,
  "▁осужден": 6831,
  "▁искал": 6832,
  "▁любят": 6833,
  "▁негатив": 6834,
  "▁получали": 6835,
  "▁торпед": 6836,
  "ителю": 6837,
  "▁Кавказ": 6838,
  "▁земной": 6839,
  "▁врача": 6840,
  "▁бригад": 6841,
  "▁автомобиль": 6842,
  "▁разреша": 6843,
  "▁Михайлов": 6844,
  "▁собаки": 6845,
  "▁холодно": 6846,
  "чке": 6847,
  "▁вокзал": 6848,
  "давая": 6849,
  "▁Фер": 6850,
  "▁пласт": 6851,
  "▁ждали": 6852,
  "▁приказа": 6853,
  "▁аппарата": 6854,
  "▁фабрик": 6855,
  "анию": 6856,
  "▁напряжения": 6857,
  "рим": 6858,
  "▁Ей": 6859,
  "▁Чего": 6860,
  "▁сочинения": 6861,
  "▁обращение": 6862,
  "▁экран": 6863,
  "▁обнаружен": 6864,
  "▁еду": 6865,
  "енности": 6866,
  "▁русская": 6867,
  "▁беседы": 6868,
  "фр": 6869,
  "чёт": 6870,
  "▁продав": 6871,
  "казания": 6872,
  "▁высшего": 6873,
  "▁камни": 6874,
  "▁кирпич": 6875,
  "▁людях": 6876,
  "▁шанс": 6877,
  "тру": 6878,
  "▁битвы": 6879,
  "▁пыта": 6880,
  "физ": 6881,
  "вшимися": 6882,
  "рош": 6883,
  "▁просить": 6884,
  "▁освобождения": 6885,
  "▁находит": 6886,
  "▁признак": 6887,
  "▁банд": 6888,
  "▁уходит": 6889,
  "▁учеников": 6890,
  "Во": 6891,
  "дри": 6892,
  "▁планов": 6893,
  "ивает": 6894,
  "береж": 6895,
  "идов": 6896,
  "▁соли": 6897,
  "▁звуки": 6898,
  "▁охраны": 6899,
  "▁Брат": 6900,
  "▁посе": 6901,
  "▁использовали": 6902,
  "нде": 6903,
  "▁Петербурге": 6904,
  "▁республика": 6905,
  "ером": 6906,
  "▁поднять": 6907,
  "▁Первым": 6908,
  "▁различными": 6909,
  "уме": 6910,
  "▁степ": 6911,
  "▁судя": 6912,
  "▁глас": 6913,
  "▁некий": 6914,
  "▁помогал": 6915,
  "лки": 6916,
  "▁наряд": 6917,
  "▁цепи": 6918,
  "▁диск": 6919,
  "льский": 6920,
  "▁нарушение": 6921,
  "▁протянул": 6922,
  "▁стрельб": 6923,
  "ключ": 6924,
  "19": 6925,
  "▁синтез": 6926,
  "▁Другой": 6927,
  "▁повторя": 6928,
  "оро": 6929,
  "мит": 6930,
  "имый": 6931,
  "▁показывают": 6932,
  "▁вздохнул": 6933,
  "▁реально": 6934,
  "▁39": 6935,
  "▁Рима": 6936,
  "▁Росс": 6937,
  "держан": 6938,
  "▁потребность": 6939,
  "▁публично": 6940,
  "ствует": 6941,
  "▁француз": 6942,
  "▁налогов": 6943,
  "кому": 6944,
  "▁требование": 6945,
  "▁Мед": 6946,
  "леж": 6947,
  "▁театре": 6948,
  "евского": 6949,
  "▁выразить": 6950,
  "▁начались": 6951,
  "▁Михаила": 6952,
  "скор": 6953,
  "▁ужасно": 6954,
  "вязан": 6955,
  "▁следовать": 6956,
  "щему": 6957,
  "▁камер": 6958,
  "гли": 6959,
  "▁доверие": 6960,
  "▁псих": 6961,
  "▁уча": 6962,
  "сал": 6963,
  "▁второе": 6964,
  "вѣт": 6965,
  "▁полета": 6966,
  "труд": 6967,
  "▁запрос": 6968,
  "▁морских": 6969,
  "▁используют": 6970,
  "▁такому": 6971,
  "▁воля": 6972,
  "ичной": 6973,
  "коле": 6974,
  "▁Сав": 6975,
  "▁42": 6976,
  "▁базы": 6977,
  "ходило": 6978,
  "▁справа": 6979,
  "лаз": 6980,
  "▁щек": 6981,
  "▁очереди": 6982,
  "▁целое": 6983,
  "▁лодка": 6984,
  "▁начался": 6985,
  "▁Орлов": 6986,
  "!\"": 6987,
  "▁скромно": 6988,
  "▁расс": 6989,
  "ленд": 6990,
  "▁относи": 6991,
  "▁Мен": 6992,
  "▁Ци": 6993,
  "▁река": 6994,
  "▁полки": 6995,
  "▁тайно": 6996,
  "▁французской": 6997,
  "▁обстрел": 6998,
  "▁Васильев": 6999,
  "▁национального": 7000,
  "▁построить": 7001,
  "струк": 7002,
  "▁категории": 7003,
  "ечный": 7004,
  "▁концепции": 7005,
  "▁вопреки": 7006,
  "▁утвержден": 7007,
  "чать": 7008,
  "ствовал": 7009,
  "маз": 7010,
  "▁выводу": 7011,
  "▁судьбе": 7012,
  "измом": 7013,
  "▁горяч": 7014,
  "▁предполагает": 7015,
  "▁захватить": 7016,
  "▁сыновей": 7017,
  "▁остановить": 7018,
  "▁женщину": 7019,
  "▁обраща": 7020,
  "▁порыв": 7021,
  "▁получа": 7022,
  "мож": 7023,
  "▁ценностей": 7024,
  "лекс": 7025,
  "▁Первой": 7026,
  "▁кам": 7027,
  "▁сильное": 7028,
  "лечен": 7029,
  "▁машине": 7030,
  "▁благополучно": 7031,
  "▁видят": 7032,
  "▁Иначе": 7033,
  "▁Форм": 7034,
  "▁покинул": 7035,
  "▁свобода": 7036,
  "▁властей": 7037,
  "▁Естественно": 7038,
  "▁листья": 7039,
  "есть": 7040,
  "▁пересек": 7041,
  "▁профессионально": 7042,
  "▁диалект": 7043,
  "▁патрон": 7044,
  "▁феодал": 7045,
  "▁авторы": 7046,
  "▁господству": 7047,
  "▁привлек": 7048,
  "▁покров": 7049,
  "▁удавалось": 7050,
  "дзе": 7051,
  "▁стоять": 7052,
  "оид": 7053,
  "▁Вене": 7054,
  "▁путей": 7055,
  "▁сферы": 7056,
  "▁объяснял": 7057,
  "▁большее": 7058,
  "▁мен": 7059,
  "▁хим": 7060,
  "▁укрепления": 7061,
  "▁див": 7062,
  "▁держа": 7063,
  "▁любую": 7064,
  "носят": 7065,
  "▁доказательства": 7066,
  "ушке": 7067,
  "▁фигуры": 7068,
  "▁видите": 7069,
  "▁наград": 7070,
  "▁офицера": 7071,
  "▁отметил": 7072,
  "▁Лучше": 7073,
  "▁окончил": 7074,
  "▁соображения": 7075,
  "▁Алексеев": 7076,
  "▁признаки": 7077,
  "▁наполнен": 7078,
  "▁напоминал": 7079,
  "▁звание": 7080,
  "іі": 7081,
  "▁протокол": 7082,
  "▁недолго": 7083,
  "▁открытие": 7084,
  "▁жила": 7085,
  "▁старшего": 7086,
  "▁реализации": 7087,
  "▁латин": 7088,
  "уров": 7089,
  "▁господ": 7090,
  "▁обеспечен": 7091,
  "▁давления": 7092,
  "▁добровольно": 7093,
  "▁воспользоваться": 7094,
  "▁достойно": 7095,
  "▁друзьями": 7096,
  "чить": 7097,
  "▁памятник": 7098,
  "гнали": 7099,
  "Ис": 7100,
  "▁парус": 7101,
  "▁методов": 7102,
  "▁Наверное": 7103,
  "▁стер": 7104,
  "▁следствие": 7105,
  "лай": 7106,
  "▁открыва": 7107,
  "▁Франция": 7108,
  "▁забыть": 7109,
  "▁используется": 7110,
  "▁возникла": 7111,
  "цит": 7112,
  "▁решила": 7113,
  "еш": 7114,
  "▁1938": 7115,
  "▁смотрели": 7116,
  "▁объяснение": 7117,
  "▁произвол": 7118,
  "▁подъ": 7119,
  "▁сосуд": 7120,
  "▁ранга": 7121,
  "▁Великобритании": 7122,
  "▁восприятия": 7123,
  "▁присутствии": 7124,
  "▁Пра": 7125,
  "▁сыграл": 7126,
  "▁объяснения": 7127,
  "аешь": 7128,
  "▁4)": 7129,
  "▁оставили": 7130,
  "▁ребят": 7131,
  "рк": 7132,
  "▁укреплен": 7133,
  "▁попад": 7134,
  "▁поста": 7135,
  "▁означало": 7136,
  "верг": 7137,
  "работал": 7138,
  "▁европейских": 7139,
  "▁чести": 7140,
  "ливый": 7141,
  "▁вышло": 7142,
  "▁Первые": 7143,
  "▁рассказы": 7144,
  "▁французского": 7145,
  "▁увидев": 7146,
  "▁действиях": 7147,
  "▁озер": 7148,
  "▁соблазн": 7149,
  "Так": 7150,
  "▁чувствую": 7151,
  "▁плит": 7152,
  "▁евреи": 7153,
  "▁птицы": 7154,
  "▁Спас": 7155,
  "▁руководителя": 7156,
  "▁богатства": 7157,
  "▁полковника": 7158,
  "▁потребности": 7159,
  "▁обнаружили": 7160,
  "▁славу": 7161,
  "▁Марс": 7162,
  "жива": 7163,
  "▁чудо": 7164,
  "▁принципа": 7165,
  "кул": 7166,
  "▁многими": 7167,
  "▁программу": 7168,
  "▁ап": 7169,
  "▁немецкий": 7170,
  "▁дополнительно": 7171,
  "▁позвонил": 7172,
  "▁основы": 7173,
  "▁государя": 7174,
  "▁крово": 7175,
  "▁Ум": 7176,
  "▁вол": 7177,
  "▁дерев": 7178,
  "рі": 7179,
  "▁обознач": 7180,
  "▁Святой": 7181,
  "вато": 7182,
  "▁июне": 7183,
  "▁мет": 7184,
  "»...": 7185,
  "▁прибор": 7186,
  "ческая": 7187,
  "вязал": 7188,
  "▁слева": 7189,
  "▁Восток": 7190,
  "▁альтернатив": 7191,
  "▁происхождение": 7192,
  "пост": 7193,
  "▁прибыв": 7194,
  "▁пригласил": 7195,
  "ближ": 7196,
  "▁)": 7197,
  "▁принимали": 7198,
  "▁защищать": 7199,
  "▁российской": 7200,
  "▁восста": 7201,
  "▁побережье": 7202,
  "▁достоинства": 7203,
  "▁фактор": 7204,
  "▁дождь": 7205,
  "▁знаменит": 7206,
  "▁спину": 7207,
  "▁местного": 7208,
  "сид": 7209,
  "▁патриарх": 7210,
  "▁апреле": 7211,
  "сор": 7212,
  "иев": 7213,
  "▁июле": 7214,
  "ставля": 7215,
  "нцы": 7216,
  "▁потряс": 7217,
  "ращива": 7218,
  "▁удовольствием": 7219,
  "▁леп": 7220,
  "▁варвар": 7221,
  "▁позволяют": 7222,
  "▁землей": 7223,
  "▁началу": 7224,
  "▁Юрий": 7225,
  "▁хорошего": 7226,
  "▁поисках": 7227,
  "▁невольно": 7228,
  "▁живу": 7229,
  "▁бывало": 7230,
  "▁преоблада": 7231,
  "▁статей": 7232,
  "лъ": 7233,
  "▁Анти": 7234,
  "ивать": 7235,
  "хватить": 7236,
  "ступлен": 7237,
  "▁рай": 7238,
  "▁сделает": 7239,
  "▁устройство": 7240,
  "▁сеть": 7241,
  "▁городом": 7242,
  "▁Джо": 7243,
  "▁установил": 7244,
  "▁эскадр": 7245,
  "▁половина": 7246,
  "▁песен": 7247,
  "ставил": 7248,
  "▁бож": 7249,
  "▁вор": 7250,
  "▁Стран": 7251,
  "▁толпы": 7252,
  "▁порог": 7253,
  "▁каз": 7254,
  "чё": 7255,
  "▁сестры": 7256,
  "▁понимают": 7257,
  "▁хорошее": 7258,
  "▁критически": 7259,
  "▁принимают": 7260,
  "почт": 7261,
  "▁психологически": 7262,
  "▁полтора": 7263,
  "▁Большой": 7264,
  "▁прост": 7265,
  "▁утверждать": 7266,
  "▁восстание": 7267,
  "▁избавиться": 7268,
  "▁залив": 7269,
  "нку": 7270,
  "рыж": 7271,
  "▁шкур": 7272,
  "вержен": 7273,
  "иком": 7274,
  "▁коммун": 7275,
  "▁социализма": 7276,
  "▁стресс": 7277,
  "▁массу": 7278,
  "▁Русь": 7279,
  "▁пациент": 7280,
  "▁добавить": 7281,
  "▁гипотез": 7282,
  "ивая": 7283,
  "▁жу": 7284,
  "▁стиле": 7285,
  "▁сезон": 7286,
  "▁детстве": 7287,
  "▁практику": 7288,
  "▁думали": 7289,
  "▁фронтов": 7290,
  "▁председатель": 7291,
  "▁сия": 7292,
  "▁используя": 7293,
  "▁настоящим": 7294,
  "▁Петроград": 7295,
  "▁западной": 7296,
  "▁исторического": 7297,
  "▁рабов": 7298,
  "▁развернул": 7299,
  "▁противником": 7300,
  "ственная": 7301,
  "▁верст": 7302,
  "казал": 7303,
  "телями": 7304,
  "ившие": 7305,
  "нам": 7306,
  "▁храбр": 7307,
  "▁совершить": 7308,
  "того": 7309,
  "▁моменты": 7310,
  "страст": 7311,
  "дур": 7312,
  "ировав": 7313,
  "▁сцены": 7314,
  "▁вначале": 7315,
  "▁Кот": 7316,
  "▁квартал": 7317,
  "▁прочие": 7318,
  "▁чувствует": 7319,
  "▁молодым": 7320,
  "свят": 7321,
  "▁Николаев": 7322,
  "рой": 7323,
  "▁Бол": 7324,
  "▁заговорил": 7325,
  "▁Горбачев": 7326,
  "тического": 7327,
  "чест": 7328,
  "▁музыкант": 7329,
  "▁творчество": 7330,
  "▁обрати": 7331,
  "ложи": 7332,
  "▁тема": 7333,
  "▁вашу": 7334,
  "нен": 7335,
  "▁народных": 7336,
  "чным": 7337,
  "▁отражение": 7338,
  "ящ": 7339,
  "жев": 7340,
  "тона": 7341,
  "гур": 7342,
  "▁клан": 7343,
  "▁Иосиф": 7344,
  "▁кг": 7345,
  "разум": 7346,
  "▁Вечером": 7347,
  "▁сидеть": 7348,
  "▁повышен": 7349,
  "▁сумму": 7350,
  "▁захотел": 7351,
  "▁виноват": 7352,
  "▁обладал": 7353,
  "шедших": 7354,
  "▁поддерживал": 7355,
  "▁компания": 7356,
  "▁мышц": 7357,
  "▁Уч": 7358,
  "▁вашим": 7359,
  "▁определяет": 7360,
  "▁уезд": 7361,
  "▁посла": 7362,
  "▁отличи": 7363,
  "▁эфир": 7364,
  "▁рожда": 7365,
  "▁числу": 7366,
  "тера": 7367,
  "тип": 7368,
  "▁особый": 7369,
  "▁продолжительно": 7370,
  "▁Леонид": 7371,
  "▁собака": 7372,
  "▁страсти": 7373,
  "ними": 7374,
  "▁осуществить": 7375,
  "▁9.": 7376,
  "▁Интересно": 7377,
  "▁школа": 7378,
  "▁каб": 7379,
  "ыр": 7380,
  "▁читателя": 7381,
  "вари": 7382,
  "▁Гали": 7383,
  "юще": 7384,
  "▁НЕ": 7385,
  "▁ходили": 7386,
  "ометр": 7387,
  "▁сцен": 7388,
  "▁20-": 7389,
  "▁сведений": 7390,
  "ичных": 7391,
  "дѣл": 7392,
  "▁Прим": 7393,
  "▁заканчива": 7394,
  "▁лучшим": 7395,
  "стре": 7396,
  "▁стиль": 7397,
  "▁тягот": 7398,
  "нья": 7399,
  "оли": 7400,
  "▁нужды": 7401,
  "▁Скорее": 7402,
  "чках": 7403,
  "▁мастера": 7404,
  "▁плечи": 7405,
  "▁факторов": 7406,
  "▁жене": 7407,
  "лять": 7408,
  "▁Иран": 7409,
  "▁исполнение": 7410,
  "давались": 7411,
  "авший": 7412,
  "гов": 7413,
  "▁жестко": 7414,
  "сия": 7415,
  "▁слушал": 7416,
  "▁проверить": 7417,
  "▁убийство": 7418,
  "чение": 7419,
  "▁карьер": 7420,
  "▁английского": 7421,
  "▁десятилетия": 7422,
  "▁реальной": 7423,
  "▁заключа": 7424,
  "▁секретарь": 7425,
  "оваться": 7426,
  "▁подполковник": 7427,
  "▁пользова": 7428,
  "▁погон": 7429,
  "▁обоснован": 7430,
  "орган": 7431,
  "▁XV": 7432,
  "▁массив": 7433,
  "▁физически": 7434,
  "езжал": 7435,
  "▁предстоит": 7436,
  "▁ослаб": 7437,
  "есь": 7438,
  "▁живопис": 7439,
  "▁желал": 7440,
  "▁выходил": 7441,
  "▁Хол": 7442,
  "▁волну": 7443,
  "▁ошибка": 7444,
  "▁ВВС": 7445,
  "опер": 7446,
  "▁партию": 7447,
  "▁груст": 7448,
  "▁эмоции": 7449,
  "▁Германию": 7450,
  "▁конгресс": 7451,
  "ичная": 7452,
  "▁скандал": 7453,
  "▁американского": 7454,
  "▁ряде": 7455,
  "▁литература": 7456,
  "▁составляли": 7457,
  "▁капиталистическ": 7458,
  "▁ордена": 7459,
  "зан": 7460,
  "▁эр": 7461,
  "ВА": 7462,
  "▁Вед": 7463,
  "▁разобраться": 7464,
  "▁раненых": 7465,
  "▁След": 7466,
  "Ко": 7467,
  "▁отличаются": 7468,
  "▁мелкие": 7469,
  "▁трудов": 7470,
  "▁закричал": 7471,
  "▁перешел": 7472,
  "▁материи": 7473,
  "▁командовал": 7474,
  "бул": 7475,
  "▁известной": 7476,
  "▁рабочий": 7477,
  "▁смут": 7478,
  "бирать": 7479,
  "▁мелко": 7480,
  "▁результатом": 7481,
  "▁пил": 7482,
  "лли": 7483,
  "▁вылет": 7484,
  "▁бассейн": 7485,
  "▁кризиса": 7486,
  "айт": 7487,
  "▁400": 7488,
  "▁ставил": 7489,
  "кре": 7490,
  "йду": 7491,
  "▁попали": 7492,
  "▁Джордж": 7493,
  "▁исполня": 7494,
  "▁Молотов": 7495,
  "▁сколь": 7496,
  "берт": 7497,
  "▁развед": 7498,
  "▁оценка": 7499,
  "▁активность": 7500,
  "нимая": 7501,
  "▁Америка": 7502,
  "изацию": 7503,
  "▁увеличение": 7504,
  "▁самыми": 7505,
  "▁новыми": 7506,
  "евым": 7507,
  "▁известен": 7508,
  "▁экономического": 7509,
  "▁облака": 7510,
  "▁бунт": 7511,
  "тягива": 7512,
  "вание": 7513,
  "▁опустил": 7514,
  "▁древности": 7515,
  "▁расположение": 7516,
  "чной": 7517,
  "эконом": 7518,
  "атель": 7519,
  "▁получится": 7520,
  "▁появилось": 7521,
  "▁гармон": 7522,
  "▁Лес": 7523,
  "ийской": 7524,
  "авшие": 7525,
  "хотя": 7526,
  "▁военную": 7527,
  "▁тылу": 7528,
  "▁собрал": 7529,
  "▁рам": 7530,
  "абель": 7531,
  "▁зеркал": 7532,
  "▁фактов": 7533,
  "▁исходя": 7534,
  "▁метода": 7535,
  "▁48": 7536,
  "▁источники": 7537,
  "леч": 7538,
  "▁шляп": 7539,
  "тельного": 7540,
  "▁поговорить": 7541,
  "нял": 7542,
  "▁врагом": 7543,
  "▁нравственно": 7544,
  "▁царства": 7545,
  "стил": 7546,
  "▁лицу": 7547,
  "▁сыну": 7548,
  "дент": 7549,
  "▁продукции": 7550,
  "▁Ростов": 7551,
  "сыпа": 7552,
  "▁Йо": 7553,
  "бир": 7554,
  "везти": 7555,
  "▁Француз": 7556,
  "▁Ваш": 7557,
  "▁свят": 7558,
  "информ": 7559,
  "▁від": 7560,
  "▁Подобно": 7561,
  "▁обладают": 7562,
  "▁прекраща": 7563,
  "кля": 7564,
  "кали": 7565,
  "ЕНИЕ": 7566,
  "▁Академии": 7567,
  "▁депутат": 7568,
  "▁бре": 7569,
  "ведении": 7570,
  "▁постели": 7571,
  "чего": 7572,
  "▁эстет": 7573,
  "▁способы": 7574,
  "русски": 7575,
  "пла": 7576,
  "Вот": 7577,
  "▁графа": 7578,
  "▁ноябре": 7579,
  "▁особых": 7580,
  "▁Греции": 7581,
  "▁сельскохозяйств": 7582,
  "▁круга": 7583,
  "▁молодежи": 7584,
  "▁долгое": 7585,
  "еро": 7586,
  "▁мероприятия": 7587,
  "▁столе": 7588,
  "▁Божий": 7589,
  "▁десятков": 7590,
  "▁ВКП": 7591,
  "ОЙ": 7592,
  "▁конструктор": 7593,
  "▁частях": 7594,
  "▁сексуально": 7595,
  "оген": 7596,
  "▁крейсер": 7597,
  "▁8-": 7598,
  "стен": 7599,
  "▁спал": 7600,
  "▁толпа": 7601,
  "▁путешествия": 7602,
  "▁критики": 7603,
  "▁Вели": 7604,
  "▁областях": 7605,
  "▁элит": 7606,
  "▁выстрел": 7607,
  "▁существовало": 7608,
  "▁академии": 7609,
  "▁ставит": 7610,
  "хол": 7611,
  "▁несет": 7612,
  "бли": 7613,
  "ленный": 7614,
  "цист": 7615,
  "▁тридцати": 7616,
  "▁двенадцать": 7617,
  "▁пленных": 7618,
  "▁практика": 7619,
  "▁Германией": 7620,
  "пира": 7621,
  "▁удается": 7622,
  "▁студентов": 7623,
  "сут": 7624,
  "▁75": 7625,
  "▁Лит": 7626,
  "▁неприятно": 7627,
  "зыва": 7628,
  "▁черед": 7629,
  "22": 7630,
  "▁наказание": 7631,
  "▁собственным": 7632,
  "сердеч": 7633,
  "▁обоз": 7634,
  "▁структура": 7635,
  "овских": 7636,
  "даются": 7637,
  "ственные": 7638,
  "стов": 7639,
  "21": 7640,
  "тис": 7641,
  "инской": 7642,
  "▁собственный": 7643,
  "▁войной": 7644,
  "ывает": 7645,
  "▁кров": 7646,
  "Ба": 7647,
  "▁помнить": 7648,
  "▁увеличива": 7649,
  "гиба": 7650,
  "▁персонаж": 7651,
  "телен": 7652,
  "▁равнин": 7653,
  "▁сует": 7654,
  "▁религиозно": 7655,
  "▁программа": 7656,
  "▁важный": 7657,
  "фир": 7658,
  "▁перешли": 7659,
  "луча": 7660,
  "▁кафедр": 7661,
  "▁неприятель": 7662,
  "▁образы": 7663,
  "▁двум": 7664,
  "чную": 7665,
  "▁биограф": 7666,
  "▁Атлант": 7667,
  "▁наблюдал": 7668,
  "ць": 7669,
  "яя": 7670,
  "▁Спасибо": 7671,
  "▁сэр": 7672,
  "▁Начальник": 7673,
  "▁бросить": 7674,
  "нина": 7675,
  "▁Матери": 7676,
  "▁Дума": 7677,
  "▁римлян": 7678,
  "ящим": 7679,
  "▁государственно": 7680,
  "▁рукав": 7681,
  "▁сильные": 7682,
  "іемъ": 7683,
  "аре": 7684,
  "▁кольцо": 7685,
  "▁похожи": 7686,
  "▁корабле": 7687,
  "▁тяжелых": 7688,
  "▁вблизи": 7689,
  "▁белый": 7690,
  "▁отрицательно": 7691,
  "▁инстинкт": 7692,
  "▁вторую": 7693,
  "▁ров": 7694,
  "▁скрип": 7695,
  "пустить": 7696,
  "▁закрыл": 7697,
  "ывали": 7698,
  "техн": 7699,
  "▁сомнений": 7700,
  "▁известным": 7701,
  "▁единственно": 7702,
  "лён": 7703,
  "▁являлись": 7704,
  "ьного": 7705,
  "▁Обо": 7706,
  "▁экз": 7707,
  "▁повторил": 7708,
  "▁радостью": 7709,
  "эль": 7710,
  "▁код": 7711,
  "▁феврале": 7712,
  "▁рыба": 7713,
  "▁страдал": 7714,
  "▁Али": 7715,
  "▁функций": 7716,
  "▁Обще": 7717,
  "пада": 7718,
  "▁примитив": 7719,
  "рут": 7720,
  "▁впечатления": 7721,
  "▁разруша": 7722,
  "▁новому": 7723,
  "обрет": 7724,
  "▁Толстой": 7725,
  "▁некое": 7726,
  "ворот": 7727,
  "▁объясняется": 7728,
  "▁43": 7729,
  "▁пожалуйста": 7730,
  "лях": 7731,
  "▁обвинения": 7732,
  "▁командующий": 7733,
  "▁взгляда": 7734,
  "▁Григорий": 7735,
  "▁интересах": 7736,
  "▁Солнца": 7737,
  "▁Платон": 7738,
  "щит": 7739,
  "▁былъ": 7740,
  "▁слухи": 7741,
  "▁тезис": 7742,
  "▁водо": 7743,
  "▁хирург": 7744,
  "▁активности": 7745,
  "ившийся": 7746,
  "кину": 7747,
  "▁брю": 7748,
  "▁музыки": 7749,
  "▁английский": 7750,
  "▁хватит": 7751,
  "▁мудрость": 7752,
  "истый": 7753,
  "▁равны": 7754,
  "▁глагол": 7755,
  "▁Кер": 7756,
  "▁юге": 7757,
  "▁координат": 7758,
  "два": 7759,
  "▁убеждения": 7760,
  "▁Около": 7761,
  "▁провели": 7762,
  "друж": 7763,
  "АС": 7764,
  "▁раскол": 7765,
  "▁иду": 7766,
  "▁больно": 7767,
  "▁зоны": 7768,
  "▁шест": 7769,
  "▁слоя": 7770,
  "▁Пет": 7771,
  "гнул": 7772,
  "▁занимались": 7773,
  "▁собрались": 7774,
  "▁оценить": 7775,
  "▁судно": 7776,
  "делать": 7777,
  "▁привет": 7778,
  "▁реал": 7779,
  "▁Павл": 7780,
  "▁вероятность": 7781,
  "▁дорого": 7782,
  "▁главные": 7783,
  "▁сель": 7784,
  "▁исправ": 7785,
  "▁мут": 7786,
  "▁общие": 7787,
  "итов": 7788,
  "▁несколькими": 7789,
  "▁главная": 7790,
  "▁богат": 7791,
  "▁бюрократ": 7792,
  "▁фигура": 7793,
  "▁Фридрих": 7794,
  "▁Боль": 7795,
  "▁последнюю": 7796,
  "йдет": 7797,
  "▁выпуска": 7798,
  "гряз": 7799,
  "▁волна": 7800,
  "▁преступник": 7801,
  "▁беспоко": 7802,
  "ЕМ": 7803,
  "рё": 7804,
  "злюблен": 7805,
  "▁преодолеть": 7806,
  "▁ведения": 7807,
  "▁командующего": 7808,
  "само": 7809,
  "▁уверенность": 7810,
  "▁предков": 7811,
  "очного": 7812,
  "▁третьей": 7813,
  "▁забыв": 7814,
  "▁хи": 7815,
  "▁исполнен": 7816,
  "▁убор": 7817,
  "▁оставалась": 7818,
  "▁отсутствия": 7819,
  "▁XII": 7820,
  "▁пакет": 7821,
  "лева": 7822,
  "▁поставили": 7823,
  "▁счита": 7824,
  "▁Пример": 7825,
  "▁ряды": 7826,
  "емым": 7827,
  "▁ожесточен": 7828,
  "еніе": 7829,
  "▁осужда": 7830,
  "▁непрерыв": 7831,
  "жение": 7832,
  "▁Лондоне": 7833,
  "▁выяснить": 7834,
  "▁печать": 7835,
  "ателей": 7836,
  "винов": 7837,
  "тти": 7838,
  "▁парад": 7839,
  "мас": 7840,
  "▁расправ": 7841,
  "▁лев": 7842,
  "▁независимость": 7843,
  "▁смогут": 7844,
  "пыт": 7845,
  "▁фантаст": 7846,
  "▁умереть": 7847,
  "дох": 7848,
  "овала": 7849,
  "▁военное": 7850,
  "▁Юж": 7851,
  "шив": 7852,
  "▁44": 7853,
  "▁вовремя": 7854,
  "▁противоречия": 7855,
  "пле": 7856,
  "нат": 7857,
  "ключение": 7858,
  "▁слышать": 7859,
  "▁обязаны": 7860,
  "▁неплохо": 7861,
  "виз": 7862,
  "▁применять": 7863,
  "▁точек": 7864,
  "тельное": 7865,
  "▁сообща": 7866,
  "▁регион": 7867,
  "▁дано": 7868,
  "Когда": 7869,
  "▁коммунистов": 7870,
  "овская": 7871,
  "чим": 7872,
  "▁собственное": 7873,
  "▁горах": 7874,
  "▁плечо": 7875,
  "ніи": 7876,
  "▁утверждения": 7877,
  "▁Вторая": 7878,
  "ЧЕ": 7879,
  "▁государством": 7880,
  "▁плечами": 7881,
  "▁устроил": 7882,
  "▁тень": 7883,
  "▁приходят": 7884,
  "ительную": 7885,
  "утся": 7886,
  "▁стоп": 7887,
  "▁коне": 7888,
  "▁проявление": 7889,
  "альными": 7890,
  "▁Наша": 7891,
  "▁указывал": 7892,
  "▁русскими": 7893,
  "тых": 7894,
  "▁выводы": 7895,
  "▁физик": 7896,
  "мах": 7897,
  "чения": 7898,
  "▁Риме": 7899,
  "▁бомбы": 7900,
  "▁деятель": 7901,
  "▁поп": 7902,
  "▁Товарищ": 7903,
  "▁здрав": 7904,
  "вшем": 7905,
  "▁полем": 7906,
  "чий": 7907,
  "▁отнес": 7908,
  "шедшие": 7909,
  "зва": 7910,
  "▁зубы": 7911,
  "▁защища": 7912,
  "ахъ": 7913,
  "нулась": 7914,
  "▁дан": 7915,
  "▁ученый": 7916,
  "Ле": 7917,
  "ждение": 7918,
  "▁рат": 7919,
  "хоз": 7920,
  "▁статью": 7921,
  "▁спуска": 7922,
  "▁охотник": 7923,
  "▁Кле": 7924,
  "▁экономических": 7925,
  "тали": 7926,
  "▁лидер": 7927,
  "▁взвод": 7928,
  "▁Кажется": 7929,
  "▁предел": 7930,
  "▁Книга": 7931,
  "▁Эту": 7932,
  "▁любых": 7933,
  "▁здорово": 7934,
  "▁вооружение": 7935,
  "▁христианства": 7936,
  "▁войскам": 7937,
  "▁предметом": 7938,
  "▁Труд": 7939,
  "▁районов": 7940,
  "▁намерен": 7941,
  "▁Александров": 7942,
  "▁путешествие": 7943,
  "▁Воло": 7944,
  "▁играли": 7945,
  "▁убедить": 7946,
  "▁издан": 7947,
  "▁свидетельство": 7948,
  "▁центром": 7949,
  "▁полагал": 7950,
  "▁загадоч": 7951,
  "▁Польше": 7952,
  "▁дне": 7953,
  "отдел": 7954,
  "▁обращения": 7955,
  "▁хаос": 7956,
  "▁зря": 7957,
  "▁председателя": 7958,
  "▁замечательно": 7959,
  "▁рынок": 7960,
  "▁вспоминает": 7961,
  "▁отчетливо": 7962,
  "▁известного": 7963,
  "▁задания": 7964,
  "▁Харьков": 7965,
  "▁баланс": 7966,
  "▁сыновья": 7967,
  "▁древние": 7968,
  "ываю": 7969,
  "РУ": 7970,
  "гро": 7971,
  "▁гражданин": 7972,
  "Ин": 7973,
  "▁посту": 7974,
  "сужден": 7975,
  "▁имущества": 7976,
  "▁собирались": 7977,
  "▁очаг": 7978,
  "тельство": 7979,
  "▁заняли": 7980,
  "▁наличии": 7981,
  "▁приблизительно": 7982,
  "степен": 7983,
  "ущего": 7984,
  "▁единства": 7985,
  "▁красоты": 7986,
  "▁правительством": 7987,
  "вок": 7988,
  "▁увидела": 7989,
  "▁ресурсов": 7990,
  "▁процент": 7991,
  "▁кусок": 7992,
  "▁следующего": 7993,
  "▁принести": 7994,
  "▁версии": 7995,
  "вир": 7996,
  "▁помогать": 7997,
  "▁надежда": 7998,
  "▁выделен": 7999,
  "▁био": 8000,
  "▁обеспечив": 8001,
  "несен": 8002,
  "штаб": 8003,
  "▁сердцем": 8004,
  "пуга": 8005,
  "щет": 8006,
  "▁столице": 8007,
  "▁организатор": 8008,
  "▁стратег": 8009,
  "▁звучит": 8010,
  "▁частями": 8011,
  "гнут": 8012,
  "▁кругу": 8013,
  "▁пут": 8014,
  "▁лета": 8015,
  "▁могуществен": 8016,
  "ЕЙ": 8017,
  "▁писали": 8018,
  "▁Тра": 8019,
  "▁простых": 8020,
  "ящая": 8021,
  "▁упражнения": 8022,
  "▁небольшие": 8023,
  "брать": 8024,
  "▁мн": 8025,
  "▁назначение": 8026,
  "▁раскрыт": 8027,
  "▁обнаружить": 8028,
  "▁клеток": 8029,
  "▁объективно": 8030,
  "▁серьезные": 8031,
  "верка": 8032,
  "▁ПРО": 8033,
  "гло": 8034,
  "▁конфликта": 8035,
  "▁XIV": 8036,
  "▁Ага": 8037,
  "▁Кирилл": 8038,
  "▁процедур": 8039,
  "▁сторонам": 8040,
  "ящими": 8041,
  "▁домик": 8042,
  "▁Един": 8043,
  "▁разрешение": 8044,
  "▁тюрем": 8045,
  "▁Опять": 8046,
  "▁Откуда": 8047,
  "ичность": 8048,
  "▁фрагмент": 8049,
  "праздн": 8050,
  "▁Фин": 8051,
  "ЕВ": 8052,
  "▁установки": 8053,
  "ивается": 8054,
  "▁включает": 8055,
  "▁городской": 8056,
  "▁стоило": 8057,
  "▁дружин": 8058,
  "пс": 8059,
  "▁целого": 8060,
  "▁господа": 8061,
  "▁открытым": 8062,
  "▁Эль": 8063,
  "▁помещения": 8064,
  "▁советский": 8065,
  "▁состоял": 8066,
  "тельными": 8067,
  "▁наследник": 8068,
  "▁депутатов": 8069,
  "ственно": 8070,
  "▁российских": 8071,
  "▁просьбой": 8072,
  "▁крыла": 8073,
  "▁настоящей": 8074,
  "▁устраивал": 8075,
  "москов": 8076,
  "альд": 8077,
  "▁Позже": 8078,
  "▁бол": 8079,
  "прям": 8080,
  "▁враждебно": 8081,
  "▁позволить": 8082,
  "водится": 8083,
  "▁Дела": 8084,
  "▁стремился": 8085,
  "▁составил": 8086,
  "▁двига": 8087,
  "▁закончен": 8088,
  "ене": 8089,
  "ктор": 8090,
  "▁нормы": 8091,
  "аган": 8092,
  "▁истину": 8093,
  "▁внизу": 8094,
  "строй": 8095,
  "▁блажен": 8096,
  "▁удары": 8097,
  "падает": 8098,
  "▁Суворов": 8099,
  "блюд": 8100,
  "шина": 8101,
  "▁взяты": 8102,
  "еты": 8103,
  "иска": 8104,
  "▁такъ": 8105,
  "▁возникновения": 8106,
  "▁служат": 8107,
  "▁производитель": 8108,
  "▁типов": 8109,
  "▁Рассказ": 8110,
  "24": 8111,
  "вад": 8112,
  "▁рожден": 8113,
  "▁карте": 8114,
  "несла": 8115,
  "чно": 8116,
  "динами": 8117,
  "▁отделение": 8118,
  "▁великое": 8119,
  "▁соответствующие": 8120,
  "▁Московского": 8121,
  "▁переводчик": 8122,
  "▁Сир": 8123,
  "ыш": 8124,
  "▁Президент": 8125,
  "▁положить": 8126,
  "▁Англ": 8127,
  "▁согласие": 8128,
  "▁террор": 8129,
  "▁областей": 8130,
  "▁слуг": 8131,
  "▁признал": 8132,
  "учен": 8133,
  "РИ": 8134,
  "чества": 8135,
  "▁спектр": 8136,
  "▁основным": 8137,
  "вого": 8138,
  "▁славы": 8139,
  "▁годами": 8140,
  "▁состояла": 8141,
  "▁мя": 8142,
  "▁специалист": 8143,
  "▁зимой": 8144,
  "▁41": 8145,
  "▁штук": 8146,
  "охран": 8147,
  "▁помещ": 8148,
  "▁повернул": 8149,
  "▁целую": 8150,
  "▁Берлине": 8151,
  "▁Политбюро": 8152,
  "▁посреди": 8153,
  "▁побежал": 8154,
  "▁создавал": 8155,
  "чих": 8156,
  "эс": 8157,
  "▁академик": 8158,
  "▁падения": 8159,
  "▁религиозных": 8160,
  "▁Мать": 8161,
  "▁лжи": 8162,
  "▁гер": 8163,
  "▁географ": 8164,
  "▁монастыр": 8165,
  "▁млад": 8166,
  "▁тексте": 8167,
  "ичным": 8168,
  "▁обезьян": 8169,
  "▁Трудно": 8170,
  "▁потеряли": 8171,
  "соглас": 8172,
  "▁кругом": 8173,
  "▁чувством": 8174,
  "▁поняла": 8175,
  "▁кал": 8176,
  "▁форт": 8177,
  "шат": 8178,
  "▁цены": 8179,
  "▁удал": 8180,
  "▁танка": 8181,
  "▁профессиональны": 8182,
  "▁отправиться": 8183,
  "▁обратить": 8184,
  "▁миллиона": 8185,
  "▁матерью": 8186,
  "▁оказать": 8187,
  "▁физики": 8188,
  "▁закону": 8189,
  "оты": 8190,
  "▁старались": 8191,
  "▁теорию": 8192,
  "▁народной": 8193,
  "ните": 8194,
  "юн": 8195,
  "▁Давид": 8196,
  "▁мощь": 8197,
  "меня": 8198,
  "▁психологии": 8199,
  "▁30-": 8200,
  "яков": 8201,
  "▁говорим": 8202,
  "▁следующей": 8203,
  "▁определял": 8204,
  "▁укрепля": 8205,
  "▁обща": 8206,
  "▁Какая": 8207,
  "▁умение": 8208,
  "▁плоскости": 8209,
  "▁возможных": 8210,
  "▁придумал": 8211,
  "▁верит": 8212,
  "▁маленькие": 8213,
  "▁талантлив": 8214,
  "▁требовалось": 8215,
  "▁бомбардировщик": 8216,
  "ёв": 8217,
  "▁интриг": 8218,
  "▁каза": 8219,
  "▁Иль": 8220,
  "▁выполнение": 8221,
  "▁всѣ": 8222,
  "▁стоимость": 8223,
  "▁снарядов": 8224,
  "дина": 8225,
  "▁выбран": 8226,
  "▁песня": 8227,
  "прост": 8228,
  "▁различие": 8229,
  "валь": 8230,
  "▁музыку": 8231,
  "чн": 8232,
  "▁Бед": 8233,
  "▁Любовь": 8234,
  "▁соперник": 8235,
  "ип": 8236,
  "▁блеск": 8237,
  "▁хозяина": 8238,
  "▁мальчика": 8239,
  "▁каш": 8240,
  "овна": 8241,
  "▁какому": 8242,
  "▁блага": 8243,
  "▁замкнут": 8244,
  "▁элемента": 8245,
  "ищ": 8246,
  "▁совести": 8247,
  "▁отрядов": 8248,
  "▁родину": 8249,
  "▁пыл": 8250,
  "▁Андреев": 8251,
  "▁среднем": 8252,
  "▁мышление": 8253,
  "страда": 8254,
  "▁трога": 8255,
  "▁Хал": 8256,
  "▁становились": 8257,
  "▁династии": 8258,
  "▁топор": 8259,
  "▁Федерации": 8260,
  "▁спросить": 8261,
  "▁компонент": 8262,
  "▁шоссе": 8263,
  "▁остальное": 8264,
  "▁гар": 8265,
  "нди": 8266,
  "ходим": 8267,
  "▁пролив": 8268,
  "“.": 8269,
  "▁Северо": 8270,
  "ектор": 8271,
  "▁направил": 8272,
  "▁малыш": 8273,
  "вич": 8274,
  "▁ступень": 8275,
  "▁побережья": 8276,
  "▁защитник": 8277,
  "лении": 8278,
  "▁приглашен": 8279,
  "▁решал": 8280,
  "вз": 8281,
  "ающее": 8282,
  "▁учетом": 8283,
  "имен": 8284,
  "▁племени": 8285,
  "▁адвокат": 8286,
  "▁фамилии": 8287,
  "▁глубины": 8288,
  "ированных": 8289,
  "▁сурово": 8290,
  "врат": 8291,
  "бах": 8292,
  "▁ездил": 8293,
  "▁VII": 8294,
  "ущий": 8295,
  "▁призыва": 8296,
  "▁представ": 8297,
  "▁танковой": 8298,
  "национал": 8299,
  "▁эконом": 8300,
  "▁Ше": 8301,
  "ированные": 8302,
  "▁подошли": 8303,
  "▁мѣст": 8304,
  "ьными": 8305,
  "▁Ск": 8306,
  "▁забрал": 8307,
  "▁Давайте": 8308,
  "▁всюду": 8309,
  "Ро": 8310,
  "▁предполагал": 8311,
  "▁реформы": 8312,
  "ущих": 8313,
  "андр": 8314,
  "▁вон": 8315,
  "▁принятия": 8316,
  "23": 8317,
  "▁рассуждения": 8318,
  "▁брошен": 8319,
  "▁Ас": 8320,
  "▁насилия": 8321,
  "▁запрещен": 8322,
  "Мар": 8323,
  "▁перерыв": 8324,
  "▁рядов": 8325,
  "▁религия": 8326,
  "▁князей": 8327,
  "▁искр": 8328,
  "▁Джа": 8329,
  "▁Маль": 8330,
  "▁тюрьме": 8331,
  "кладывать": 8332,
  "основ": 8333,
  "▁зависимость": 8334,
  "▁последняя": 8335,
  "▁получаем": 8336,
  "▁Европу": 8337,
  "▁находилось": 8338,
  "▁выполнил": 8339,
  "вле": 8340,
  "▁брал": 8341,
  "▁очерк": 8342,
  "▁Павлович": 8343,
  "▁1921": 8344,
  "нимает": 8345,
  "▁Долго": 8346,
  "▁грехов": 8347,
  "▁жалоб": 8348,
  "▁важную": 8349,
  "▁наблюдение": 8350,
  "▁спасение": 8351,
  "рии": 8352,
  "▁столицу": 8353,
  "ёк": 8354,
  "▁отрица": 8355,
  "фил": 8356,
  "скольз": 8357,
  "▁газа": 8358,
  "▁деревню": 8359,
  "▁Год": 8360,
  "26": 8361,
  "арт": 8362,
  "▁шир": 8363,
  "▁соединений": 8364,
  "▁Шах": 8365,
  "▁покинуть": 8366,
  "вания": 8367,
  "▁приносит": 8368,
  "▁размеров": 8369,
  "ающим": 8370,
  "▁колонны": 8371,
  "руд": 8372,
  "▁пах": 8373,
  "пусти": 8374,
  "честву": 8375,
  "ложив": 8376,
  "нными": 8377,
  "▁соглашения": 8378,
  "▁удовольствия": 8379,
  "очке": 8380,
  "▁переживания": 8381,
  "яют": 8382,
  "▁колени": 8383,
  "▁ел": 8384,
  "▁внутренние": 8385,
  "▁рассказывать": 8386,
  "▁платить": 8387,
  "▁представляли": 8388,
  "▁вооруж": 8389,
  "▁Алекс": 8390,
  "щение": 8391,
  "▁описывает": 8392,
  "▁шагов": 8393,
  "ИЯ": 8394,
  "электр": 8395,
  "▁Адам": 8396,
  "▁Хр": 8397,
  "▁взяла": 8398,
  "▁прислал": 8399,
  "34": 8400,
  "▁отвечать": 8401,
  "▁гранат": 8402,
  "гай": 8403,
  "ившихся": 8404,
  "▁вырос": 8405,
  "▁сине": 8406,
  "▁жит": 8407,
  "▁строитель": 8408,
  "▁пытаются": 8409,
  "▁рев": 8410,
  "▁дьявол": 8411,
  "▁разговоры": 8412,
  "▁связ": 8413,
  "▁квартиры": 8414,
  "▁местом": 8415,
  "тический": 8416,
  "инь": 8417,
  "▁остановил": 8418,
  "▁рабочей": 8419,
  "говорить": 8420,
  "▁организацию": 8421,
  "сту": 8422,
  "▁перевоз": 8423,
  "▁ставить": 8424,
  "▁государстве": 8425,
  "▁никуда": 8426,
  "▁отдых": 8427,
  "▁уши": 8428,
  "▁занятий": 8429,
  "▁Флор": 8430,
  "▁газете": 8431,
  "▁больного": 8432,
  "▁День": 8433,
  "▁автобус": 8434,
  "▁проходили": 8435,
  "▁воины": 8436,
  "▁поспешил": 8437,
  "▁отпуск": 8438,
  "енном": 8439,
  "▁населен": 8440,
  "▁известные": 8441,
  "▁сообщал": 8442,
  "▁улыб": 8443,
  "▁обречен": 8444,
  "▁парашют": 8445,
  "▁промышленность": 8446,
  "▁фар": 8447,
  "▁зон": 8448,
  "▁подал": 8449,
  "▁ужин": 8450,
  "▁Образ": 8451,
  "▁Дальше": 8452,
  "▁масла": 8453,
  "▁уничтожа": 8454,
  "▁учебник": 8455,
  "орош": 8456,
  "▁бригада": 8457,
  "▁подавля": 8458,
  "▁Никогда": 8459,
  "кое": 8460,
  "▁средней": 8461,
  "ТЕ": 8462,
  "▁спирт": 8463,
  "▁шагом": 8464,
  "▁фе": 8465,
  "Гр": 8466,
  "▁красиво": 8467,
  "▁внешних": 8468,
  "сыпал": 8469,
  "морф": 8470,
  "дикт": 8471,
  "▁штурмов": 8472,
  "▁технологии": 8473,
  "▁самоубийств": 8474,
  "▁особым": 8475,
  "сос": 8476,
  "▁1914": 8477,
  "▁испытывал": 8478,
  "▁фотографии": 8479,
  "▁материально": 8480,
  "▁служа": 8481,
  "ходящих": 8482,
  "▁смело": 8483,
  "▁вирус": 8484,
  "▁распоряжении": 8485,
  "▁выбрать": 8486,
  "нское": 8487,
  "▁современном": 8488,
  "▁греха": 8489,
  "▁губы": 8490,
  "нке": 8491,
  "▁держит": 8492,
  "щад": 8493,
  "ИМ": 8494,
  "▁понятий": 8495,
  "▁пятнадцать": 8496,
  "министр": 8497,
  "▁поддержал": 8498,
  "▁животные": 8499,
  "бив": 8500,
  "▁Баб": 8501,
  "▁необычно": 8502,
  "восток": 8503,
  "Ни": 8504,
  "▁умеет": 8505,
  "тора": 8506,
  "лиц": 8507,
  "▁валют": 8508,
  "▁соверша": 8509,
  "▁заняты": 8510,
  "▁предпринима": 8511,
  "▁устройств": 8512,
  "▁Арм": 8513,
  "▁подража": 8514,
  "▁положен": 8515,
  "▁растет": 8516,
  "▁Бал": 8517,
  "▁бл": 8518,
  "▁середины": 8519,
  "▁островов": 8520,
  "▁осуществля": 8521,
  "▁освобождение": 8522,
  "множ": 8523,
  "▁кислот": 8524,
  "▁национальных": 8525,
  "▁движением": 8526,
  "▁правительству": 8527,
  "▁замок": 8528,
  "▁судеб": 8529,
  "▁представителя": 8530,
  "пустил": 8531,
  "▁опытом": 8532,
  "стол": 8533,
  "▁изучал": 8534,
  "пускать": 8535,
  "▁Соединенных": 8536,
  "игрыва": 8537,
  "▁шап": 8538,
  "▁аристократ": 8539,
  "▁ру": 8540,
  "▁газета": 8541,
  "▁описыва": 8542,
  "▁предшественник": 8543,
  "▁Божия": 8544,
  "▁отмечал": 8545,
  "▁Карла": 8546,
  "нью": 8547,
  "икой": 8548,
  "имые": 8549,
  "ируются": 8550,
  "X": 8551,
  "истом": 8552,
  "▁полюс": 8553,
  "селение": 8554,
  "▁Ангел": 8555,
  "чуж": 8556,
  "▁христианской": 8557,
  "▁легких": 8558,
  "ико": 8559,
  "▁тюрьмы": 8560,
  "▁открыли": 8561,
  "▁характеристики": 8562,
  "▁перестал": 8563,
  "Нет": 8564,
  "▁представлений": 8565,
  "▁Вз": 8566,
  "горел": 8567,
  "▁сзади": 8568,
  "▁продолжала": 8569,
  "ныне": 8570,
  "▁глубокой": 8571,
  "▁соль": 8572,
  "еньки": 8573,
  "▁чиновников": 8574,
  "уна": 8575,
  "▁тиран": 8576,
  "нику": 8577,
  "▁основание": 8578,
  "▁гео": 8579,
  "енц": 8580,
  "оруж": 8581,
  "льц": 8582,
  "▁организовал": 8583,
  "▁акцент": 8584,
  "▁порок": 8585,
  "▁масло": 8586,
  "▁располага": 8587,
  "▁свидетельствуют": 8588,
  "ческое": 8589,
  "▁ядер": 8590,
  "▁гуля": 8591,
  "▁абстракт": 8592,
  "▁моно": 8593,
  "изировать": 8594,
  "▁теряет": 8595,
  "▁имен": 8596,
  "▁естественным": 8597,
  "▁объясняет": 8598,
  "▁отмечен": 8599,
  "▁расп": 8600,
  "▁заседании": 8601,
  "▁относиться": 8602,
  "▁комнат": 8603,
  "▁смогла": 8604,
  "▁социальные": 8605,
  "▁свидетельства": 8606,
  "▁награжден": 8607,
  "плю": 8608,
  "▁55": 8609,
  "атели": 8610,
  "▁Ус": 8611,
  "▁прорыв": 8612,
  "▁7-": 8613,
  "▁конкретно": 8614,
  "▁создали": 8615,
  "▁сотен": 8616,
  "▁окружающей": 8617,
  "▁окружающих": 8618,
  "▁видны": 8619,
  "ленные": 8620,
  "▁ненависть": 8621,
  "фик": 8622,
  "▁притом": 8623,
  "▁иллюстр": 8624,
  "▁погибли": 8625,
  "▁истина": 8626,
  "аев": 8627,
  "ві": 8628,
  "пед": 8629,
  "▁пункта": 8630,
  "80": 8631,
  "▁Рыб": 8632,
  "▁профсоюз": 8633,
  "раздел": 8634,
  "▁французских": 8635,
  "▁направился": 8636,
  "▁дурак": 8637,
  "▁окрест": 8638,
  "▁уступ": 8639,
  "спа": 8640,
  "▁профессионал": 8641,
  "▁конструкции": 8642,
  "▁грандиоз": 8643,
  "▁дум": 8644,
  "▁незаметно": 8645,
  "▁коротко": 8646,
  "▁руководил": 8647,
  "▁крем": 8648,
  "плот": 8649,
  "считыва": 8650,
  "▁разница": 8651,
  "добро": 8652,
  "работка": 8653,
  "▁Известно": 8654,
  "▁показан": 8655,
  "▁своём": 8656,
  "▁научиться": 8657,
  "▁доктора": 8658,
  "▁французский": 8659,
  "▁своя": 8660,
  "▁душой": 8661,
  "▁астроном": 8662,
  "▁комендант": 8663,
  "айн": 8664,
  "▁первыми": 8665,
  "▁взглядов": 8666,
  "▁черн": 8667,
  "▁совету": 8668,
  "нах": 8669,
  "▁нужд": 8670,
  "чко": 8671,
  "ставка": 8672,
  "рва": 8673,
  "▁возвращается": 8674,
  "ИЙ": 8675,
  "▁Небес": 8676,
  "ведя": 8677,
  "▁звучал": 8678,
  "носил": 8679,
  "▁губернатор": 8680,
  "▁поддержке": 8681,
  "▁заслуг": 8682,
  "▁границей": 8683,
  "▁командиром": 8684,
  "▁Гур": 8685,
  "▁идеологии": 8686,
  "парт": 8687,
  "▁стараясь": 8688,
  "▁предположение": 8689,
  "▁зритель": 8690,
  "▁бюро": 8691,
  "▁целые": 8692,
  "▁окружения": 8693,
  "▁правилам": 8694,
  "▁участвовать": 8695,
  "▁шат": 8696,
  "▁уничтожен": 8697,
  "марк": 8698,
  "селя": 8699,
  "е́": 8700,
  "▁личных": 8701,
  "▁вождя": 8702,
  "▁читателей": 8703,
  "▁ученик": 8704,
  "▁спорт": 8705,
  "▁Поль": 8706,
  "▁профессора": 8707,
  "▁системой": 8708,
  "▁рамки": 8709,
  "▁бодр": 8710,
  "▁расстояния": 8711,
  "▁перес": 8712,
  "▁цитат": 8713,
  "▁политическую": 8714,
  "▁строки": 8715,
  "▁Оль": 8716,
  "ллер": 8717,
  "▁страш": 8718,
  "▁Последний": 8719,
  "▁47": 8720,
  "▁следующих": 8721,
  "▁искажен": 8722,
  "▁пола": 8723,
  "тельности": 8724,
  "▁согласия": 8725,
  "▁знакомых": 8726,
  "▁черные": 8727,
  "еса": 8728,
  "▁лома": 8729,
  "▁завершен": 8730,
  "▁заместитель": 8731,
  "▁враги": 8732,
  "шит": 8733,
  "▁трактат": 8734,
  "енія": 8735,
  "▁позволит": 8736,
  "▁Рам": 8737,
  "▁предлагал": 8738,
  "▁лето": 8739,
  "▁рога": 8740,
  "шедший": 8741,
  "▁факультет": 8742,
  "▁французов": 8743,
  "▁Произ": 8744,
  "▁Уж": 8745,
  "▁сталкива": 8746,
  "▁непонятно": 8747,
  "▁сменил": 8748,
  "плод": 8749,
  "▁милость": 8750,
  "▁РСФСР": 8751,
  "оле": 8752,
  "▁министров": 8753,
  "етъ": 8754,
  "▁устроить": 8755,
  "▁приказу": 8756,
  "▁физической": 8757,
  "▁пыш": 8758,
  "▁переходит": 8759,
  "крытие": 8760,
  "27": 8761,
  "▁великие": 8762,
  "ЛЕ": 8763,
  "▁светом": 8764,
  "▁вектор": 8765,
  "брат": 8766,
  "орд": 8767,
  "фен": 8768,
  "▁Миш": 8769,
  "▁бытие": 8770,
  "▁обстановка": 8771,
  "АК": 8772,
  "▁ракеты": 8773,
  "▁восприятие": 8774,
  "слан": 8775,
  "▁Ясно": 8776,
  "▁Понятно": 8777,
  "▁поездки": 8778,
  "зн": 8779,
  "вист": 8780,
  "▁рож": 8781,
  "▁Англия": 8782,
  "рг": 8783,
  "▁еже": 8784,
  "▁воевать": 8785,
  "▁препода": 8786,
  "▁автоном": 8787,
  "смеш": 8788,
  "▁высоту": 8789,
  "▁личным": 8790,
  "▁всякие": 8791,
  "▁разделен": 8792,
  "▁повести": 8793,
  "▁привез": 8794,
  "▁числ": 8795,
  "кою": 8796,
  "▁специальных": 8797,
  "▁высоким": 8798,
  "▁Екатерина": 8799,
  "▁клиент": 8800,
  "▁королю": 8801,
  "▁объединения": 8802,
  "▁сложных": 8803,
  "▁законам": 8804,
  "▁пластин": 8805,
  "ляет": 8806,
  "акт": 8807,
  "28": 8808,
  "▁встретить": 8809,
  "▁плотно": 8810,
  "▁мелод": 8811,
  "▁сражение": 8812,
  "▁Семен": 8813,
  "▁величайш": 8814,
  "изме": 8815,
  "▁ссор": 8816,
  "▁созданию": 8817,
  "▁Бре": 8818,
  "▁Отца": 8819,
  "энерг": 8820,
  "▁князья": 8821,
  "▁юноша": 8822,
  "дис": 8823,
  "▁заменить": 8824,
  "▁Кант": 8825,
  "▁видишь": 8826,
  "истами": 8827,
  "▁съезда": 8828,
  "ийцы": 8829,
  "сточ": 8830,
  "▁Мое": 8831,
  "▁46": 8832,
  "▁внешнего": 8833,
  "▁Энгельс": 8834,
  "▁Ср": 8835,
  "▁отражен": 8836,
  "▁температуры": 8837,
  "▁уклон": 8838,
  "▁прочно": 8839,
  "олов": 8840,
  "ичные": 8841,
  "▁черв": 8842,
  "▁Спустя": 8843,
  "ившиеся": 8844,
  "▁Куп": 8845,
  "ялись": 8846,
  "▁преступление": 8847,
  "▁успоко": 8848,
  "▁приготовлен": 8849,
  "▁нанести": 8850,
  "▁Бир": 8851,
  "овцы": 8852,
  "▁готовности": 8853,
  "▁случаю": 8854,
  "▁Рядом": 8855,
  "▁происходят": 8856,
  "▁рынке": 8857,
  "▁общины": 8858,
  "▁белой": 8859,
  "еф": 8860,
  "гей": 8861,
  "▁око": 8862,
  "▁становилось": 8863,
  "▁Март": 8864,
  "▁строг": 8865,
  "▁пары": 8866,
  "▁действовали": 8867,
  "▁носить": 8868,
  "▁пута": 8869,
  "РО": 8870,
  "▁погрузи": 8871,
  "▁Израиля": 8872,
  "▁Наполеона": 8873,
  "▁десятка": 8874,
  "▁англичане": 8875,
  "зия": 8876,
  "▁операцию": 8877,
  "▁глубину": 8878,
  "▁Говорят": 8879,
  "нз": 8880,
  "руп": 8881,
  "▁тяжелой": 8882,
  "▁бывал": 8883,
  "екции": 8884,
  "▁маленькой": 8885,
  "▁мяса": 8886,
  "▁строе": 8887,
  "боя": 8888,
  "▁Напротив": 8889,
  "▁американские": 8890,
  "▁карту": 8891,
  "крывает": 8892,
  "▁Сергеевич": 8893,
  "▁сообщить": 8894,
  "ордин": 8895,
  "ностях": 8896,
  "▁ищет": 8897,
  "▁армян": 8898,
  "▁входили": 8899,
  "▁Став": 8900,
  "шение": 8901,
  "▁сумм": 8902,
  "▁размера": 8903,
  "▁соглашение": 8904,
  "▁Лив": 8905,
  "▁геолог": 8906,
  "▁Хор": 8907,
  "тическая": 8908,
  "▁игрок": 8909,
  "ТЬ": 8910,
  "нами": 8911,
  "▁маршал": 8912,
  "АМ": 8913,
  "уля": 8914,
  "▁ложь": 8915,
  "истые": 8916,
  "▁гус": 8917,
  "▁Скоро": 8918,
  "ицей": 8919,
  "АТЬ": 8920,
  "▁национально": 8921,
  "▁бронз": 8922,
  "▁отклик": 8923,
  "▁Зе": 8924,
  "▁телеграф": 8925,
  "▁цветы": 8926,
  "▁базе": 8927,
  "▁сорока": 8928,
  "▁счете": 8929,
  "шний": 8930,
  "▁ошибок": 8931,
  "▁исполнитель": 8932,
  "▁сотрудник": 8933,
  "▁принципов": 8934,
  "любов": 8935,
  "▁погружен": 8936,
  "▁вспомни": 8937,
  "лями": 8938,
  "вых": 8939,
  "бессмерт": 8940,
  "▁Василия": 8941,
  "человек": 8942,
  "лая": 8943,
  "▁лодок": 8944,
  "▁энергией": 8945,
  "▁изгнан": 8946,
  "▁Цель": 8947,
  "▁служили": 8948,
  "▁внутренний": 8949,
  "▁встречу": 8950,
  "▁СО": 8951,
  "▁интер": 8952,
  "держав": 8953,
  "▁предпо": 8954,
  "▁аромат": 8955,
  "ставлять": 8956,
  "▁Сим": 8957,
  "юк": 8958,
  "▁обучение": 8959,
  "▁Пис": 8960,
  "▁пророк": 8961,
  "бреж": 8962,
  "▁золотой": 8963,
  "▁издание": 8964,
  "▁мех": 8965,
  "▁философия": 8966,
  "сторон": 8967,
  "▁американцы": 8968,
  "▁комфорт": 8969,
  "оза": 8970,
  "▁эпох": 8971,
  "▁Ладно": 8972,
  "▁Шт": 8973,
  "▁масон": 8974,
  "яг": 8975,
  "▁корни": 8976,
  "▁гад": 8977,
  "шиб": 8978,
  "▁поверить": 8979,
  "▁плоды": 8980,
  "▁законодательств": 8981,
  "▁комсомол": 8982,
  "▁Роз": 8983,
  "говаривал": 8984,
  "▁лестнице": 8985,
  "▁человеч": 8986,
  "ГА": 8987,
  "въ": 8988,
  "▁механ": 8989,
  "▁газов": 8990,
  "▁музей": 8991,
  "лаж": 8992,
  "▁подряд": 8993,
  "▁знат": 8994,
  "казывает": 8995,
  "▁некоторой": 8996,
  "▁угрозы": 8997,
  "▁Валентин": 8998,
  "▁развод": 8999,
  "▁заседания": 9000,
  "▁поразил": 9001,
  "▁Важно": 9002,
  "▁разрешен": 9003,
  "толкнул": 9004,
  "▁согласиться": 9005,
  "▁поверхност": 9006,
  "▁превращается": 9007,
  "▁Урал": 9008,
  "▁измерения": 9009,
  "▁черной": 9010,
  "▁Санкт": 9011,
  "▁захватил": 9012,
  "▁полагать": 9013,
  "уша": 9014,
  "МА": 9015,
  "лип": 9016,
  "▁юмор": 9017,
  "ующий": 9018,
  "▁формирование": 9019,
  "рина": 9020,
  "▁выдержал": 9021,
  "▁равна": 9022,
  "▁голосов": 9023,
  "▁подписал": 9024,
  "▁прекрасный": 9025,
  "шо": 9026,
  "▁лежат": 9027,
  "▁летчик": 9028,
  "▁меняется": 9029,
  "▁мечтал": 9030,
  "▁чужд": 9031,
  "▁поверил": 9032,
  "▁завет": 9033,
  "▁путешественник": 9034,
  "▁обычным": 9035,
  "вёл": 9036,
  "▁пальцы": 9037,
  "▁центральной": 9038,
  "ийская": 9039,
  "перт": 9040,
  "▁Толстого": 9041,
  "▁хранил": 9042,
  "▁Глу": 9043,
  "▁кладбище": 9044,
  "▁уч": 9045,
  "▁достигли": 9046,
  "▁производить": 9047,
  "▁морально": 9048,
  "▁Ол": 9049,
  "▁Была": 9050,
  "▁бить": 9051,
  "зар": 9052,
  "▁широкой": 9053,
  "мог": 9054,
  "водят": 9055,
  "▁ожидания": 9056,
  "близ": 9057,
  "▁вице": 9058,
  "▁Шел": 9059,
  "пустили": 9060,
  "▁приспособлен": 9061,
  "▁проводник": 9062,
  "▁Египет": 9063,
  "▁секретаря": 9064,
  "29": 9065,
  "▁примеры": 9066,
  "▁оснований": 9067,
  "▁удержать": 9068,
  "▁племена": 9069,
  "ошел": 9070,
  "▁еды": 9071,
  "▁молот": 9072,
  "▁угод": 9073,
  "▁перс": 9074,
  "▁зовут": 9075,
  "поле": 9076,
  "▁заключил": 9077,
  "▁яблок": 9078,
  "▁трудящихся": 9079,
  "▁лом": 9080,
  "▁повышение": 9081,
  "▁примеч": 9082,
  "▁согласован": 9083,
  "▁владык": 9084,
  "▁требовали": 9085,
  "▁подготовку": 9086,
  "▁условии": 9087,
  "▁митинг": 9088,
  "▁поврежден": 9089,
  "НЕ": 9090,
  "▁подвал": 9091,
  "▁капитализма": 9092,
  "▁готова": 9093,
  "▁прожил": 9094,
  "▁Кос": 9095,
  "рѣ": 9096,
  "▁выехал": 9097,
  "▁поколение": 9098,
  "▁сделав": 9099,
  "▁товарища": 9100,
  "▁запись": 9101,
  "▁точности": 9102,
  "▁гвардейск": 9103,
  "ере": 9104,
  "тяг": 9105,
  "▁справиться": 9106,
  "▁полная": 9107,
  "падать": 9108,
  "?\"": 9109,
  "▁жрец": 9110,
  "▁вернее": 9111,
  "▁верхней": 9112,
  "▁короб": 9113,
  "▁трус": 9114,
  "▁налог": 9115,
  "▁иерарх": 9116,
  "▁определенным": 9117,
  "▁подавлен": 9118,
  "▁дай": 9119,
  "▁обеща": 9120,
  "мышля": 9121,
  "▁покупа": 9122,
  "▁улыбкой": 9123,
  "▁лорд": 9124,
  "глуб": 9125,
  "▁разбит": 9126,
  "деля": 9127,
  "▁свято": 9128,
  "▁подверга": 9129,
  "▁звер": 9130,
  "лах": 9131,
  "▁мокр": 9132,
  "▁малых": 9133,
  "▁Кост": 9134,
  "▁бюджет": 9135,
  "▁сцену": 9136,
  "▁наслед": 9137,
  "инки": 9138,
  "▁банков": 9139,
  "▁используем": 9140,
  "этаж": 9141,
  "▁настойчиво": 9142,
  "▁врачей": 9143,
  "▁чужой": 9144,
  "▁духовных": 9145,
  "▁Андрея": 9146,
  "▁хр": 9147,
  "казывать": 9148,
  "▁администрации": 9149,
  "▁ушла": 9150,
  "▁мирового": 9151,
  "▁стремились": 9152,
  "▁вооружения": 9153,
  "▁независимости": 9154,
  "▁Какое": 9155,
  "▁хвал": 9156,
  "кать": 9157,
  "▁мудрости": 9158,
  "▁Египта": 9159,
  "▁телевизор": 9160,
  "▁признаков": 9161,
  "▁схема": 9162,
  "дачу": 9163,
  "▁намек": 9164,
  "▁прекратить": 9165,
  "лые": 9166,
  "▁решении": 9167,
  "▁залива": 9168,
  "▁сохранения": 9169,
  "евых": 9170,
  "▁доказательств": 9171,
  "▁Львов": 9172,
  "▁Афганистан": 9173,
  "▁собора": 9174,
  "лар": 9175,
  "▁черный": 9176,
  "▁автоматически": 9177,
  "▁служба": 9178,
  "▁Твор": 9179,
  "▁семинар": 9180,
  "▁разбил": 9181,
  "▁секунду": 9182,
  "ющимися": 9183,
  "▁аренд": 9184,
  "дев": 9185,
  "▁температур": 9186,
  "▁консул": 9187,
  "▁кругов": 9188,
  "▁внешним": 9189,
  "▁законом": 9190,
  "▁камней": 9191,
  "▁современник": 9192,
  "▁подозрева": 9193,
  "▁болгар": 9194,
  "▁влюблен": 9195,
  "▁Лин": 9196,
  "▁Диа": 9197,
  "▁придержива": 9198,
  "▁уверенно": 9199,
  "лера": 9200,
  "▁автором": 9201,
  "нымъ": 9202,
  "уст": 9203,
  "▁свободе": 9204,
  "шан": 9205,
  "▁разгром": 9206,
  "▁вызывают": 9207,
  "▁социализм": 9208,
  "озна": 9209,
  "▁мощно": 9210,
  "тъ": 9211,
  "▁Ради": 9212,
  "▁пунктов": 9213,
  "▁темноте": 9214,
  "▁спрашивал": 9215,
  "▁Аб": 9216,
  "чью": 9217,
  "▁подхода": 9218,
  "▁ток": 9219,
  "▁лежали": 9220,
  "▁ограничения": 9221,
  "▁предельно": 9222,
  "▁христианство": 9223,
  "▁страной": 9224,
  "▁Пят": 9225,
  "▁встретиться": 9226,
  "▁показаться": 9227,
  "▁узнает": 9228,
  "еву": 9229,
  "▁членами": 9230,
  "▁Вильгельм": 9231,
  "▁теоретически": 9232,
  "▁дуб": 9233,
  "служеб": 9234,
  "говорил": 9235,
  "▁молитв": 9236,
  "▁американский": 9237,
  "ставим": 9238,
  "▁Сразу": 9239,
  "▁военачальник": 9240,
  "▁контракт": 9241,
  "рай": 9242,
  "▁думают": 9243,
  "▁ввиду": 9244,
  "чук": 9245,
  "▁болезней": 9246,
  "▁популярны": 9247,
  "▁ожида": 9248,
  "▁прорыва": 9249,
  "▁насчет": 9250,
  "▁приняв": 9251,
  "▁Расс": 9252,
  "▁молчал": 9253,
  "▁половиной": 9254,
  "бон": 9255,
  "▁Две": 9256,
  "▁стратегии": 9257,
  "▁кровати": 9258,
  "▁отнести": 9259,
  "▁искусств": 9260,
  "▁фокус": 9261,
  "▁120": 9262,
  "▁чтение": 9263,
  "▁немецко": 9264,
  "▁руга": 9265,
  "▁египетск": 9266,
  "▁революционер": 9267,
  "▁платформ": 9268,
  "▁правды": 9269,
  "▁величины": 9270,
  "летней": 9271,
  "▁годах": 9272,
  "▁телефону": 9273,
  "МО": 9274,
  "▁фу": 9275,
  "▁глух": 9276,
  "▁посетил": 9277,
  "▁политический": 9278,
  "вещ": 9279,
  "▁Ром": 9280,
  "▁Попов": 9281,
  "▁научного": 9282,
  "▁забор": 9283,
  "▁боялся": 9284,
  "СС": 9285,
  "▁вып": 9286,
  "▁щедро": 9287,
  "▁композитор": 9288,
  "▁бак": 9289,
  "▁охраня": 9290,
  "▁листов": 9291,
  "▁повезло": 9292,
  "▁велика": 9293,
  "▁исключения": 9294,
  "▁текстов": 9295,
  "▁недостаток": 9296,
  "ковым": 9297,
  "▁объекты": 9298,
  "▁играют": 9299,
  "▁продолжают": 9300,
  "▁действием": 9301,
  "Дж": 9302,
  "▁давай": 9303,
  "▁соблюда": 9304,
  "▁идёт": 9305,
  "▁плакал": 9306,
  "▁броса": 9307,
  "▁движений": 9308,
  "▁вопросе": 9309,
  "▁рыбы": 9310,
  "▁требую": 9311,
  "▁товары": 9312,
  "▁разным": 9313,
  "▁входил": 9314,
  "бери": 9315,
  "▁изд": 9316,
  "тюр": 9317,
  "ГИ": 9318,
  "▁постоянной": 9319,
  "▁неизвестны": 9320,
  "▁прицел": 9321,
  "▁мук": 9322,
  "▁пошло": 9323,
  "▁Израиль": 9324,
  "▁осуществляется": 9325,
  "▁Позднее": 9326,
  "▁подготовка": 9327,
  "▁грунт": 9328,
  "моему": 9329,
  "НЫЙ": 9330,
  "▁чистой": 9331,
  "▁собственность": 9332,
  "▁рефлекс": 9333,
  "▁Эс": 9334,
  "▁пресс": 9335,
  "покой": 9336,
  "люсь": 9337,
  "▁почве": 9338,
  "▁шок": 9339,
  "▁левом": 9340,
  "▁общая": 9341,
  "▁письменно": 9342,
  "▁английских": 9343,
  "▁прокурор": 9344,
  "▁интеллигент": 9345,
  "▁лез": 9346,
  "▁звали": 9347,
  "▁деятельностью": 9348,
  "▁вольно": 9349,
  "▁увидим": 9350,
  "▁количеством": 9351,
  "▁третьем": 9352,
  "▁длинно": 9353,
  "реза": 9354,
  "▁частных": 9355,
  "▁Степан": 9356,
  "▁голланд": 9357,
  "▁произошла": 9358,
  "ступал": 9359,
  "зрев": 9360,
  "▁потерь": 9361,
  "▁подрыв": 9362,
  "▁огромную": 9363,
  "▁кабинете": 9364,
  "▁севере": 9365,
  "ходили": 9366,
  "▁понимая": 9367,
  "сей": 9368,
  "▁Шан": 9369,
  "хор": 9370,
  "▁общую": 9371,
  "▁ресурс": 9372,
  "▁Пир": 9373,
  "ставив": 9374,
  "▁правителя": 9375,
  "▁ряду": 9376,
  "▁вдов": 9377,
  "▁основой": 9378,
  "▁сложности": 9379,
  "▁Нового": 9380,
  "ведению": 9381,
  "▁считаться": 9382,
  "▁мужем": 9383,
  "▁действиями": 9384,
  "▁собирается": 9385,
  "▁лекарств": 9386,
  "гг": 9387,
  "▁предоставля": 9388,
  "щения": 9389,
  "энд": 9390,
  "ётся": 9391,
  "бок": 9392,
  "▁Молод": 9393,
  "▁соединение": 9394,
  "▁лир": 9395,
  "▁перелом": 9396,
  "▁график": 9397,
  "▁бухт": 9398,
  "▁глубже": 9399,
  "▁сторонников": 9400,
  "▁Впервые": 9401,
  "жей": 9402,
  "нейший": 9403,
  "▁лиша": 9404,
  "▁родственников": 9405,
  "▁геометр": 9406,
  "▁достигает": 9407,
  "▁убили": 9408,
  "▁насыщен": 9409,
  "▁плеч": 9410,
  "▁воспринимал": 9411,
  "▁высот": 9412,
  "ковского": 9413,
  "▁Москов": 9414,
  "елли": 9415,
  "▁Питер": 9416,
  "▁мысленно": 9417,
  "▁принялся": 9418,
  "даст": 9419,
  "▁поручил": 9420,
  "▁оказал": 9421,
  "▁сердечно": 9422,
  "▁германской": 9423,
  "▁мудрец": 9424,
  "мок": 9425,
  "▁молекул": 9426,
  "▁решению": 9427,
  "▁Шо": 9428,
  "▁слышали": 9429,
  "гель": 9430,
  "▁стара": 9431,
  "▁знаменитый": 9432,
  "государств": 9433,
  "▁способно": 9434,
  "▁обеспечивает": 9435,
  "▁смол": 9436,
  "▁производит": 9437,
  "▁основыва": 9438,
  "ступает": 9439,
  "▁вывести": 9440,
  "▁сформирован": 9441,
  "▁твоих": 9442,
  "▁европейской": 9443,
  "▁настаивал": 9444,
  "▁температура": 9445,
  "▁прогноз": 9446,
  "вешен": 9447,
  "▁нежно": 9448,
  "▁подарок": 9449,
  "раг": 9450,
  "▁вступить": 9451,
  "елей": 9452,
  "▁пишут": 9453,
  "уется": 9454,
  "▁звуков": 9455,
  "▁соответствовал": 9456,
  "▁начнет": 9457,
  "ДЕ": 9458,
  "▁немцами": 9459,
  "благодар": 9460,
  "▁выходить": 9461,
  "▁буржуазии": 9462,
  "▁Африки": 9463,
  "▁Африке": 9464,
  "▁Чита": 9465,
  "▁Андре": 9466,
  "▁конкретных": 9467,
  "дой": 9468,
  "▁участка": 9469,
  "▁миль": 9470,
  "▁шею": 9471,
  "ничество": 9472,
  "▁изобража": 9473,
  "▁событиях": 9474,
  "зелен": 9475,
  "▁реп": 9476,
  "▁барабан": 9477,
  "ивали": 9478,
  "▁Оказалось": 9479,
  "▁находясь": 9480,
  "▁возвыша": 9481,
  "ировала": 9482,
  "▁способов": 9483,
  "▁свист": 9484,
  "▁Ещё": 9485,
  "▁стреми": 9486,
  "▁Гус": 9487,
  "▁космос": 9488,
  "▁зоне": 9489,
  "вив": 9490,
  "пози": 9491,
  "ссе": 9492,
  "авшего": 9493,
  "▁як": 9494,
  "▁Вашингтон": 9495,
  "рабатывать": 9496,
  "▁Двор": 9497,
  "кидыва": 9498,
  "чёр": 9499,
  "▁течения": 9500,
  "▁Древ": 9501,
  "▁экспорт": 9502,
  "учить": 9503,
  "▁специальные": 9504,
  "▁тюрьму": 9505,
  "▁бат": 9506,
  "ющуюся": 9507,
  "стные": 9508,
  "▁дереве": 9509,
  "▁цепь": 9510,
  "▁записал": 9511,
  "▁последующие": 9512,
  "Там": 9513,
  "▁Генрих": 9514,
  "▁контекст": 9515,
  "▁слой": 9516,
  "▁грани": 9517,
  "▁взглянул": 9518,
  "▁Боб": 9519,
  "▁длинные": 9520,
  "▁суждения": 9521,
  "▁Пен": 9522,
  "ехать": 9523,
  "▁слышит": 9524,
  "▁2000": 9525,
  "▁директора": 9526,
  "▁бросился": 9527,
  "▁определенного": 9528,
  "▁Впоследствии": 9529,
  "топлен": 9530,
  "▁простые": 9531,
  "▁владел": 9532,
  "▁принужден": 9533,
  "▁рейд": 9534,
  "техник": 9535,
  "▁твою": 9536,
  "публ": 9537,
  "▁переворот": 9538,
  "густ": 9539,
  "▁обращается": 9540,
  "лоб": 9541,
  "▁личный": 9542,
  "▁праздно": 9543,
  "▁румын": 9544,
  "нике": 9545,
  "▁опира": 9546,
  "▁тормоз": 9547,
  "▁американцев": 9548,
  "▁Подо": 9549,
  "▁Прос": 9550,
  "▁старым": 9551,
  "▁парк": 9552,
  "▁разрешил": 9553,
  "▁преступно": 9554,
  "разному": 9555,
  "▁технику": 9556,
  "▁защитить": 9557,
  "▁обстановки": 9558,
  "▁Дома": 9559,
  "ращение": 9560,
  "ква": 9561,
  "маг": 9562,
  "▁формиру": 9563,
  "шняя": 9564,
  "▁дальнейшего": 9565,
  "▁изготовлен": 9566,
  "▁живым": 9567,
  "зол": 9568,
  "хай": 9569,
  "▁обстановку": 9570,
  "▁Др": 9571,
  "весел": 9572,
  "▁Одни": 9573,
  "тическое": 9574,
  "▁германских": 9575,
  "▁Кей": 9576,
  "▁психо": 9577,
  "▁гр": 9578,
  "ированный": 9579,
  "▁училище": 9580,
  "▁оттого": 9581,
  "▁борту": 9582,
  "▁следил": 9583,
  "▁скульптур": 9584,
  "▁контексте": 9585,
  "чного": 9586,
  "хрон": 9587,
  "▁пользовались": 9588,
  "▁фраз": 9589,
  "▁существовании": 9590,
  "визи": 9591,
  "▁районы": 9592,
  "▁мешает": 9593,
  "брав": 9594,
  "▁полов": 9595,
  "▁остановиться": 9596,
  "▁воспитания": 9597,
  "явлен": 9598,
  "сі": 9599,
  "бож": 9600,
  "▁пище": 9601,
  "▁оркестр": 9602,
  "▁испытыва": 9603,
  "▁Рейн": 9604,
  "▁выдал": 9605,
  "и́": 9606,
  "извест": 9607,
  "▁горько": 9608,
  "▁единой": 9609,
  "ложены": 9610,
  "бегал": 9611,
  "ЛЯ": 9612,
  "▁животное": 9613,
  "▁условно": 9614,
  "▁казак": 9615,
  "▁допустим": 9616,
  "▁заметили": 9617,
  "чо": 9618,
  "пет": 9619,
  "сев": 9620,
  "▁чи": 9621,
  "▁заявления": 9622,
  "▁фронтом": 9623,
  "▁япон": 9624,
  "▁Капитан": 9625,
  "кими": 9626,
  "▁Сп": 9627,
  "торы": 9628,
  "▁рул": 9629,
  "▁Самое": 9630,
  "▁входа": 9631,
  "▁отправить": 9632,
  "▁Пес": 9633,
  "▁врачи": 9634,
  "▁мужество": 9635,
  "▁примером": 9636,
  "дорож": 9637,
  "▁Маш": 9638,
  "▁дракон": 9639,
  "овался": 9640,
  "▁лишил": 9641,
  "▁уничтожения": 9642,
  "▁необходимых": 9643,
  "ОС": 9644,
  "точно": 9645,
  "▁поиска": 9646,
  "▁механик": 9647,
  "▁привлечь": 9648,
  "▁проявлял": 9649,
  "▁высказыва": 9650,
  "▁привела": 9651,
  "очная": 9652,
  "овому": 9653,
  "▁плацдарм": 9654,
  "▁толка": 9655,
  "▁разбор": 9656,
  "▁техника": 9657,
  "свобод": 9658,
  "ённых": 9659,
  "лед": 9660,
  "▁красные": 9661,
  "▁свойство": 9662,
  "▁оказываются": 9663,
  "▁саду": 9664,
  "▁пропаганды": 9665,
  "сток": 9666,
  "▁намерение": 9667,
  "ушек": 9668,
  "▁паспорт": 9669,
  "▁действуют": 9670,
  "▁отчего": 9671,
  "овались": 9672,
  "рвать": 9673,
  "▁группировки": 9674,
  "▁Дер": 9675,
  "звезд": 9676,
  "▁отправили": 9677,
  "▁считалось": 9678,
  "▁Блок": 9679,
  "ительное": 9680,
  "▁необычайно": 9681,
  "▁структуру": 9682,
  "жин": 9683,
  "▁Це": 9684,
  "▁приехали": 9685,
  "одно": 9686,
  "нями": 9687,
  "жан": 9688,
  "естествен": 9689,
  "изатор": 9690,
  "правил": 9691,
  "▁прочь": 9692,
  "ИТ": 9693,
  "▁маленькая": 9694,
  "▁угрозу": 9695,
  "▁фонд": 9696,
  "▁касс": 9697,
  "▁Аллах": 9698,
  "▁побег": 9699,
  "▁каст": 9700,
  "▁трубку": 9701,
  "▁ежегодно": 9702,
  "▁руд": 9703,
  "▁подготовить": 9704,
  "▁Судя": 9705,
  "роп": 9706,
  "▁диван": 9707,
  "▁отсутствии": 9708,
  "▁вызвало": 9709,
  "▁сквер": 9710,
  "▁красных": 9711,
  "▁9-": 9712,
  "▁соответствующих": 9713,
  "▁падает": 9714,
  "вати": 9715,
  "▁аэро": 9716,
  "▁1922": 9717,
  "нга": 9718,
  "▁деньгами": 9719,
  "▁примеров": 9720,
  "▁современные": 9721,
  "▁женщине": 9722,
  "▁Фар": 9723,
  "▁череп": 9724,
  "ёшь": 9725,
  "итет": 9726,
  "▁Бул": 9727,
  "герман": 9728,
  "▁взяв": 9729,
  "▁воен": 9730,
  "▁дивизион": 9731,
  "▁господство": 9732,
  "нист": 9733,
  "гиб": 9734,
  "▁Ричард": 9735,
  "▁решено": 9736,
  "писать": 9737,
  "▁обычных": 9738,
  "▁наружу": 9739,
  "▁сможете": 9740,
  "▁слабость": 9741,
  "▁моё": 9742,
  "▁говорите": 9743,
  "▁оптим": 9744,
  "▁65": 9745,
  "существова": 9746,
  "ступая": 9747,
  "▁противоположны": 9748,
  "▁заводе": 9749,
  "▁воспоминаний": 9750,
  "нца": 9751,
  "тим": 9752,
  "▁ударов": 9753,
  "▁проявля": 9754,
  "▁ответы": 9755,
  "▁Сол": 9756,
  "▁упрек": 9757,
  "▁увлека": 9758,
  "▁поступать": 9759,
  "вож": 9760,
  "▁плоти": 9761,
  "▁прямым": 9762,
  "▁факта": 9763,
  "▁сельского": 9764,
  "▁греш": 9765,
  "▁Едва": 9766,
  "▁российского": 9767,
  "▁нуждается": 9768,
  "▁выполняет": 9769,
  "▁приема": 9770,
  "елл": 9771,
  "гам": 9772,
  "▁ногах": 9773,
  "▁нашла": 9774,
  "▁интеллигенции": 9775,
  "▁чтения": 9776,
  "▁царской": 9777,
  "▁коллеги": 9778,
  "трав": 9779,
  "▁услышать": 9780,
  "▁поиски": 9781,
  "▁битве": 9782,
  "КОВ": 9783,
  "▁Гран": 9784,
  "▁политическая": 9785,
  "▁обрыв": 9786,
  "▁возвращении": 9787,
  "овало": 9788,
  "▁миллионы": 9789,
  "▁английской": 9790,
  "▁царем": 9791,
  "▁развивается": 9792,
  "ній": 9793,
  "▁угроза": 9794,
  "▁значительные": 9795,
  "хон": 9796,
  "луп": 9797,
  "ключа": 9798,
  "носим": 9799,
  "▁писала": 9800,
  "▁знаки": 9801,
  "▁Тол": 9802,
  "▁потрясен": 9803,
  "▁комиссия": 9804,
  "▁маленьких": 9805,
  "крест": 9806,
  "щины": 9807,
  "▁рассеян": 9808,
  "▁Бри": 9809,
  "▁удивился": 9810,
  "▁принадлежал": 9811,
  "▁Вып": 9812,
  "▁чер": 9813,
  "кевич": 9814,
  "ставит": 9815,
  "▁сустав": 9816,
  "▁учитывать": 9817,
  "▁скуп": 9818,
  "▁высокую": 9819,
  "▁улицах": 9820,
  "▁переводе": 9821,
  "▁двигатель": 9822,
  "▁Леон": 9823,
  "▁сложные": 9824,
  "▁университете": 9825,
  "бород": 9826,
  "ѣд": 9827,
  "▁обороня": 9828,
  "▁внутренним": 9829,
  "▁исследователи": 9830,
  "▁поздней": 9831,
  "▁станов": 9832,
  "аса": 9833,
  "тряс": 9834,
  "▁удаля": 9835,
  "▁заново": 9836,
  "▁шаги": 9837,
  "бывал": 9838,
  "▁давайте": 9839,
  "▁работала": 9840,
  "▁успев": 9841,
  "▁государственный": 9842,
  "▁Времен": 9843,
  "▁Лет": 9844,
  "▁Ран": 9845,
  "▁принесли": 9846,
  "▁сильной": 9847,
  "СТ": 9848,
  "▁овладел": 9849,
  "▁скрыва": 9850,
  "▁учреждений": 9851,
  "иваясь": 9852,
  "това": 9853,
  "льник": 9854,
  "▁убедиться": 9855,
  "Раз": 9856,
  "▁башни": 9857,
  "▁Тебя": 9858,
  "▁пассажир": 9859,
  "▁49": 9860,
  "▁пользовался": 9861,
  "▁обычной": 9862,
  "▁обращаться": 9863,
  "казав": 9864,
  "▁попытку": 9865,
  "▁вашем": 9866,
  "▁стихов": 9867,
  "ствен": 9868,
  "▁морали": 9869,
  "▁рассмотреть": 9870,
  "член": 9871,
  "▁животного": 9872,
  "глаз": 9873,
  "▁удовлетворя": 9874,
  "шкин": 9875,
  "Ра": 9876,
  "служив": 9877,
  "▁1905": 9878,
  "▁совесть": 9879,
  "Под": 9880,
  "рий": 9881,
  "▁выделить": 9882,
  "ПО": 9883,
  "дут": 9884,
  "▁неподалеку": 9885,
  "▁отступ": 9886,
  "терн": 9887,
  "70": 9888,
  "предел": 9889,
  "▁гнева": 9890,
  "▁жених": 9891,
  "потреб": 9892,
  "▁желаем": 9893,
  "▁уничтожение": 9894,
  "куша": 9895,
  "▁IX": 9896,
  "▁историки": 9897,
  "Британ": 9898,
  "зой": 9899,
  "трат": 9900,
  "▁напечатан": 9901,
  "ринг": 9902,
  "▁кан": 9903,
  "▁члена": 9904,
  "▁посме": 9905,
  "▁восхища": 9906,
  "стат": 9907,
  "▁ловко": 9908,
  "▁наставник": 9909,
  "▁боевого": 9910,
  "▁вызвали": 9911,
  "мобил": 9912,
  "▁показатель": 9913,
  "▁Письмо": 9914,
  "▁бандит": 9915,
  "верс": 9916,
  "▁бред": 9917,
  "▁печата": 9918,
  "▁предстоя": 9919,
  "▁Францию": 9920,
  "▁ухо": 9921,
  "▁отчая": 9922,
  "▁Библии": 9923,
  "▁белого": 9924,
  "шива": 9925,
  "▁яйца": 9926,
  "▁ощущал": 9927,
  "▁толщ": 9928,
  "▁государственные": 9929,
  "падают": 9930,
  "Ку": 9931,
  "влад": 9932,
  "▁недостатка": 9933,
  "СК": 9934,
  "ставить": 9935,
  "▁произошел": 9936,
  "▁разведчик": 9937,
  "▁замечает": 9938,
  "▁канала": 9939,
  "▁преимущество": 9940,
  "▁привычно": 9941,
  "▁преемник": 9942,
  "▁лучший": 9943,
  "▁распространения": 9944,
  "анда": 9945,
  "остр": 9946,
  "▁больной": 9947,
  "▁участники": 9948,
  "стру": 9949,
  "▁проходил": 9950,
  "рест": 9951,
  "▁необходима": 9952,
  "▁единственной": 9953,
  "▁общение": 9954,
  "▁сектор": 9955,
  "▁числом": 9956,
  "▁уверены": 9957,
  "▁конкурент": 9958,
  "телям": 9959,
  "▁проговорил": 9960,
  "позитив": 9961,
  "▁продолжи": 9962,
  "▁нарушен": 9963,
  "ившей": 9964,
  "▁осуществления": 9965,
  "быв": 9966,
  "ражение": 9967,
  "▁Але": 9968,
  "риан": 9969,
  "▁возвращение": 9970,
  "▁искренн": 9971,
  "▁санитар": 9972,
  "▁пролетариата": 9973,
  "▁штык": 9974,
  "▁Псков": 9975,
  "▁Жел": 9976,
  "личные": 9977,
  "▁ликвид": 9978,
  "▁Сталину": 9979,
  "▁Завет": 9980,
  "▁Жил": 9981,
  "▁распада": 9982,
  "евр": 9983,
  "▁заняться": 9984,
  "только": 9985,
  "▁законодатель": 9986,
  "▁вернулась": 9987,
  "▁женщиной": 9988,
  "▁рассвет": 9989,
  "▁способна": 9990,
  "▁Бах": 9991,
  "тельства": 9992,
  "▁использован": 9993,
  "руг": 9994,
  "ображ": 9995,
  "▁противников": 9996,
  "▁горожан": 9997,
  "шкой": 9998,
  "▁Реш": 9999,
  "▁добыва": 10000,
  "▁подробности": 10001,
  "▁непосредственны": 10002,
  "йдешь": 10003,
  "▁накоплен": 10004,
  "▁пушек": 10005,
  "анный": 10006,
  "▁полз": 10007,
  "▁толку": 10008,
  "сков": 10009,
  "▁заставил": 10010,
  "▁работах": 10011,
  "▁изучать": 10012,
  "▁Мест": 10013,
  "▁травм": 10014,
  "▁звезда": 10015,
  "▁произвести": 10016,
  "▁скор": 10017,
  "▁прочитал": 10018,
  "▁трибун": 10019,
  "▁Игорь": 10020,
  "▁пропал": 10021,
  "щина": 10022,
  "▁формой": 10023,
  "▁помещение": 10024,
  "ступают": 10025,
  "▁использует": 10026,
  "пасть": 10027,
  "▁высказывания": 10028,
  "коло": 10029,
  "▁воров": 10030,
  "▁готовность": 10031,
  "ходил": 10032,
  "▁поистине": 10033,
  "ивают": 10034,
  "сечен": 10035,
  "▁конча": 10036,
  "▁крае": 10037,
  "▁протестант": 10038,
  "▁выступление": 10039,
  "лена": 10040,
  "льд": 10041,
  "звон": 10042,
  "▁продвига": 10043,
  "ленин": 10044,
  "▁природой": 10045,
  "дес": 10046,
  "▁Давай": 10047,
  "▁используются": 10048,
  "▁логически": 10049,
  "▁последовал": 10050,
  "▁Ста": 10051,
  "▁Дор": 10052,
  "▁смогу": 10053,
  "▁сильней": 10054,
  "▁Война": 10055,
  "инга": 10056,
  "ляется": 10057,
  "▁Стро": 10058,
  "▁месяцы": 10059,
  "▁плюс": 10060,
  "▁называемые": 10061,
  "▁занимается": 10062,
  "нется": 10063,
  "▁займ": 10064,
  "▁храни": 10065,
  "дѣ": 10066,
  "▁следствием": 10067,
  "35": 10068,
  "ары": 10069,
  "▁падение": 10070,
  "▁пуска": 10071,
  "▁Центральной": 10072,
  "▁посланник": 10073,
  "▁Турции": 10074,
  "сю": 10075,
  "▁позволило": 10076,
  "▁Фед": 10077,
  "▁пережив": 10078,
  "▁приходили": 10079,
  "ослав": 10080,
  "▁рукописи": 10081,
  "▁хватило": 10082,
  "▁Яков": 10083,
  "очкой": 10084,
  "хождение": 10085,
  "▁выйдет": 10086,
  "▁ванн": 10087,
  "▁думаете": 10088,
  "▁Путин": 10089,
  "▁моста": 10090,
  "▁построения": 10091,
  "▁одежда": 10092,
  "▁охват": 10093,
  "держать": 10094,
  "▁лучшее": 10095,
  "▁военная": 10096,
  "▁солдата": 10097,
  "ведем": 10098,
  "▁небольших": 10099,
  "▁живого": 10100,
  "▁политическим": 10101,
  "▁произойдет": 10102,
  "исс": 10103,
  "▁Раб": 10104,
  "академ": 10105,
  "▁уменьша": 10106,
  "ированы": 10107,
  "▁судна": 10108,
  "▁ждут": 10109,
  "пир": 10110,
  "▁максим": 10111,
  "▁неподвижно": 10112,
  "▁милости": 10113,
  "сно": 10114,
  "▁биолог": 10115,
  "горе": 10116,
  "▁размеры": 10117,
  "атора": 10118,
  "▁Федоров": 10119,
  "желт": 10120,
  "уваж": 10121,
  "▁определенный": 10122,
  "▁воображение": 10123,
  "▁еле": 10124,
  "станавлива": 10125,
  "▁хорошей": 10126,
  "▁занятие": 10127,
  "▁Втор": 10128,
  "▁Ер": 10129,
  "▁серии": 10130,
  "▁осмотр": 10131,
  "▁закат": 10132,
  "▁разрушения": 10133,
  "▁расширен": 10134,
  "▁жалко": 10135,
  "▁шага": 10136,
  "слаб": 10137,
  "▁сочинений": 10138,
  "▁захватыва": 10139,
  "▁принадлежат": 10140,
  "кажите": 10141,
  "стройка": 10142,
  "кн": 10143,
  "▁окраин": 10144,
  "менял": 10145,
  "▁мило": 10146,
  "▁колес": 10147,
  "▁обороне": 10148,
  "▁коль": 10149,
  "▁берут": 10150,
  "▁52": 10151,
  "▁реже": 10152,
  "▁успокаива": 10153,
  "▁частот": 10154,
  "кция": 10155,
  "нера": 10156,
  "▁посол": 10157,
  "▁важнее": 10158,
  "имость": 10159,
  "▁захватили": 10160,
  "▁побывал": 10161,
  "▁живописи": 10162,
  "ительной": 10163,
  "▁спине": 10164,
  "▁лат": 10165,
  "ходящие": 10166,
  "▁дворце": 10167,
  "май": 10168,
  "▁деятелей": 10169,
  "овские": 10170,
  "▁Мик": 10171,
  "▁выпустил": 10172,
  "▁музыкально": 10173,
  "▁рассчитывать": 10174,
  "▁возникли": 10175,
  "▁чт": 10176,
  "▁употребля": 10177,
  "тами": 10178,
  "хождения": 10179,
  "мога": 10180,
  "▁сохраня": 10181,
  "▁озеро": 10182,
  "оров": 10183,
  "▁переведен": 10184,
  "▁дядя": 10185,
  "овцев": 10186,
  "▁Пат": 10187,
  "▁суммы": 10188,
  "ИС": 10189,
  "▁Лар": 10190,
  "чт": 10191,
  "▁дольше": 10192,
  "мак": 10193,
  "▁жизненно": 10194,
  "▁Добр": 10195,
  "▁братом": 10196,
  "▁представителями": 10197,
  "▁эксперт": 10198,
  "▁руководитель": 10199,
  "▁оппозиции": 10200,
  "▁Стан": 10201,
  "▁Будучи": 10202,
  "пля": 10203,
  "▁Вера": 10204,
  "▁допуска": 10205,
  "▁освободи": 10206,
  "сни": 10207,
  "▁Существует": 10208,
  "ници": 10209,
  "▁поли": 10210,
  "▁надежду": 10211,
  "▁редакции": 10212,
  "▁пережил": 10213,
  "нскую": 10214,
  "▁1933": 10215,
  "▁прежних": 10216,
  "▁Австрии": 10217,
  "▁специфически": 10218,
  "▁фраза": 10219,
  "▁Комитет": 10220,
  "▁вела": 10221,
  "▁историей": 10222,
  "▁личные": 10223,
  "▁чинов": 10224,
  "вязать": 10225,
  "бог": 10226,
  "ственным": 10227,
  "▁стоимости": 10228,
  "▁застав": 10229,
  "▁тексты": 10230,
  "▁требованиям": 10231,
  "▁девушку": 10232,
  "▁восстановления": 10233,
  "▁успехи": 10234,
  "енька": 10235,
  "▁Князь": 10236,
  "▁добраться": 10237,
  "▁труды": 10238,
  "▁освещен": 10239,
  "▁кричал": 10240,
  "▁параллельно": 10241,
  "▁Советов": 10242,
  "▁универсал": 10243,
  "шер": 10244,
  "шить": 10245,
  "▁освобожда": 10246,
  "▁возникло": 10247,
  "▁расходы": 10248,
  "арм": 10249,
  "▁язв": 10250,
  "нтерпрет": 10251,
  "циан": 10252,
  "пыта": 10253,
  "ален": 10254,
  "▁слон": 10255,
  "верт": 10256,
  "▁сперва": 10257,
  "▁физических": 10258,
  "▁традиционно": 10259,
  "▁шелк": 10260,
  "ущие": 10261,
  "▁могил": 10262,
  "▁словес": 10263,
  "дача": 10264,
  "▁проблемой": 10265,
  "чное": 10266,
  "▁казаки": 10267,
  "▁стад": 10268,
  "ставляя": 10269,
  "▁мяч": 10270,
  "▁подняться": 10271,
  "спир": 10272,
  "лого": 10273,
  "▁удовлетворен": 10274,
  "▁руководству": 10275,
  "атом": 10276,
  "дай": 10277,
  "▁подразделений": 10278,
  "▁неприятеля": 10279,
  "▁кожу": 10280,
  "▁военном": 10281,
  "▁освободить": 10282,
  "жки": 10283,
  "▁свободного": 10284,
  "▁возбужда": 10285,
  "ироваться": 10286,
  "реч": 10287,
  "очно": 10288,
  "▁шкаф": 10289,
  "▁конститу": 10290,
  "▁Саша": 10291,
  "▁входят": 10292,
  "▁цифры": 10293,
  "нис": 10294,
  "▁АН": 10295,
  "▁книгах": 10296,
  "▁серб": 10297,
  "▁интересует": 10298,
  "▁Коль": 10299,
  "▁аккуратно": 10300,
  "▁миссии": 10301,
  "▁короткий": 10302,
  "▁этно": 10303,
  "▁слову": 10304,
  "▁Коп": 10305,
  "▁тряс": 10306,
  "▁массовой": 10307,
  "строил": 10308,
  "▁цилиндр": 10309,
  "▁молодежь": 10310,
  "▁шахмат": 10311,
  "▁Золот": 10312,
  "цах": 10313,
  "▁долга": 10314,
  "щин": 10315,
  "▁положено": 10316,
  "▁широким": 10317,
  "▁надеюсь": 10318,
  "▁физического": 10319,
  "▁вошла": 10320,
  "▁мифолог": 10321,
  "▁ягод": 10322,
  "▁умом": 10323,
  "▁Хуан": 10324,
  "▁дво": 10325,
  "▁морю": 10326,
  "▁Красно": 10327,
  "▁Снова": 10328,
  "▁ведомств": 10329,
  "Пер": 10330,
  "▁утверждают": 10331,
  "влечение": 10332,
  "▁предложить": 10333,
  "▁сибир": 10334,
  "▁удачно": 10335,
  "▁согласен": 10336,
  "сси": 10337,
  "▁фотограф": 10338,
  "Чер": 10339,
  "▁изменя": 10340,
  "▁лекции": 10341,
  "аров": 10342,
  "▁Лид": 10343,
  "ующих": 10344,
  "ург": 10345,
  "▁художников": 10346,
  "▁намечен": 10347,
  "▁сокровищ": 10348,
  "▁экипажа": 10349,
  "▁Добро": 10350,
  "офицер": 10351,
  "существ": 10352,
  "▁10-": 10353,
  "▁добродетель": 10354,
  "▁красный": 10355,
  "▁Рез": 10356,
  "▁атаман": 10357,
  "тку": 10358,
  "яне": 10359,
  "▁крах": 10360,
  "▁средством": 10361,
  "▁князю": 10362,
  "▁развал": 10363,
  "▁Яр": 10364,
  "▁Помню": 10365,
  "▁агентов": 10366,
  "▁смешно": 10367,
  "ходят": 10368,
  "троп": 10369,
  "▁крыло": 10370,
  "▁молчание": 10371,
  "▁догмат": 10372,
  "▁лечение": 10373,
  "▁Русские": 10374,
  "▁страстно": 10375,
  "полнение": 10376,
  "▁XIII": 10377,
  "▁стену": 10378,
  "когда": 10379,
  "вред": 10380,
  "▁ввести": 10381,
  "чками": 10382,
  "▁раздался": 10383,
  "шнее": 10384,
  "▁пейзаж": 10385,
  "▁тишина": 10386,
  "рэ": 10387,
  "▁способствует": 10388,
  "▁надолго": 10389,
  "каль": 10390,
  "овав": 10391,
  "ализма": 10392,
  "▁кадет": 10393,
  "интерес": 10394,
  "▁оборудование": 10395,
  "▁воспринимать": 10396,
  "месяч": 10397,
  "▁приоритет": 10398,
  "веча": 10399,
  "▁уважение": 10400,
  "▁Сама": 10401,
  "уры": 10402,
  "▁чита": 10403,
  "▁будущей": 10404,
  "▁забывать": 10405,
  "▁утопи": 10406,
  "▁министерства": 10407,
  "енье": 10408,
  "▁рассматриваем": 10409,
  "▁встретили": 10410,
  "ковой": 10411,
  "ивные": 10412,
  "▁любая": 10413,
  "▁содержится": 10414,
  "ийцев": 10415,
  "▁Ваши": 10416,
  "▁Слав": 10417,
  "вшемся": 10418,
  "▁прес": 10419,
  "ливым": 10420,
  "▁Мас": 10421,
  "паш": 10422,
  "▁архитектор": 10423,
  "▁движущ": 10424,
  "▁исполнения": 10425,
  "▁сумма": 10426,
  "▁связыва": 10427,
  "▁жид": 10428,
  "▁приезжал": 10429,
  "▁удобны": 10430,
  "нести": 10431,
  "▁Русской": 10432,
  "▁Король": 10433,
  "▁военнопленных": 10434,
  "а́": 10435,
  "▁600": 10436,
  "▁осени": 10437,
  "▁отстав": 10438,
  "▁плоско": 10439,
  "▁испуга": 10440,
  "▁даль": 10441,
  "▁буквы": 10442,
  "работать": 10443,
  "ради": 10444,
  "▁учился": 10445,
  "▁снаряд": 10446,
  "▁ходит": 10447,
  "▁служб": 10448,
  "▁соедини": 10449,
  "антов": 10450,
  "▁золот": 10451,
  "▁носили": 10452,
  "еру": 10453,
  "▁супер": 10454,
  "один": 10455,
  "▁определенно": 10456,
  "крепост": 10457,
  "чес": 10458,
  "▁треть": 10459,
  "▁позволил": 10460,
  "ОМ": 10461,
  "▁направлениях": 10462,
  "▁Немцы": 10463,
  "▁ресурсы": 10464,
  "▁Свое": 10465,
  "▁девиц": 10466,
  "▁относились": 10467,
  "снеж": 10468,
  "ственных": 10469,
  "▁Республики": 10470,
  "ступил": 10471,
  "▁Цвет": 10472,
  "▁казарм": 10473,
  "▁англо": 10474,
  "▁султан": 10475,
  "иваются": 10476,
  "▁подарил": 10477,
  "▁51": 10478,
  "▁Пара": 10479,
  "тина": 10480,
  "▁архиепископ": 10481,
  "▁королем": 10482,
  "▁юности": 10483,
  "▁державы": 10484,
  "▁Круп": 10485,
  "▁Лук": 10486,
  "▁частицы": 10487,
  "▁XI": 10488,
  "падет": 10489,
  "▁динамик": 10490,
  "▁Божие": 10491,
  "▁примере": 10492,
  "▁лак": 10493,
  "следователь": 10494,
  "▁соглаша": 10495,
  "седа": 10496,
  "▁штраф": 10497,
  "▁стекло": 10498,
  "▁документа": 10499,
  "жные": 10500,
  "▁учен": 10501,
  "▁бумаг": 10502,
  "▁Уильям": 10503,
  "▁умерла": 10504,
  "▁Тул": 10505,
  "▁брака": 10506,
  "▁знаков": 10507,
  "▁определенное": 10508,
  "▁сфер": 10509,
  "▁упрям": 10510,
  "▁Серг": 10511,
  "▁Большая": 10512,
  "▁Рузвельт": 10513,
  "▁вечеру": 10514,
  "жить": 10515,
  "▁составить": 10516,
  "▁суп": 10517,
  "▁оживлен": 10518,
  "над": 10519,
  "▁целых": 10520,
  "чева": 10521,
  "▁германского": 10522,
  "▁Финляндии": 10523,
  "▁послать": 10524,
  "▁сильных": 10525,
  "скал": 10526,
  "▁фирмы": 10527,
  "▁герман": 10528,
  "▁желаю": 10529,
  "▁слове": 10530,
  "изировал": 10531,
  "ьба": 10532,
  "▁достижение": 10533,
  "▁Шер": 10534,
  "откровен": 10535,
  "▁брод": 10536,
  "▁ранних": 10537,
  "дешев": 10538,
  "очное": 10539,
  "вела": 10540,
  "▁вслух": 10541,
  "▁рассмотрен": 10542,
  "лететь": 10543,
  "▁Ап": 10544,
  "▁контролировать": 10545,
  "▁энтузиазм": 10546,
  "▁добрый": 10547,
  "лице": 10548,
  "▁преград": 10549,
  "▁рассчитывал": 10550,
  "▁помнил": 10551,
  "вергнут": 10552,
  "▁бабушка": 10553,
  "▁человеческие": 10554,
  "▁единственное": 10555,
  "▁сомнение": 10556,
  "▁лопат": 10557,
  "▁поры": 10558,
  "▁причину": 10559,
  "▁ценой": 10560,
  "▁образцов": 10561,
  "овским": 10562,
  "▁называем": 10563,
  "▁подводных": 10564,
  "▁снижа": 10565,
  "левые": 10566,
  "думал": 10567,
  "▁Ольга": 10568,
  "▁1936": 10569,
  "▁матрос": 10570,
  "▁болта": 10571,
  "▁Коз": 10572,
  "▁село": 10573,
  "▁отбор": 10574,
  "▁возвращаться": 10575,
  "смотрел": 10576,
  "▁тысячу": 10577,
  "▁Парижа": 10578,
  "▁мрак": 10579,
  "▁неверно": 10580,
  "▁Бон": 10581,
  "▁обсуждения": 10582,
  "▁разбойник": 10583,
  "▁огромным": 10584,
  "▁высокая": 10585,
  "▁торг": 10586,
  "▁колебания": 10587,
  "▁Орган": 10588,
  "▁огромная": 10589,
  "▁возбуди": 10590,
  "▁высоком": 10591,
  "▁грузовик": 10592,
  "ительного": 10593,
  "▁образца": 10594,
  "▁наблюдается": 10595,
  "▁существовали": 10596,
  "▁жанр": 10597,
  "▁обязательств": 10598,
  "▁Черн": 10599,
  "90": 10600,
  "▁племянник": 10601,
  "▁плащ": 10602,
  "пен": 10603,
  "▁Алексея": 10604,
  "▁стиля": 10605,
  "нтон": 10606,
  "▁корреспондент": 10607,
  "▁любили": 10608,
  "▁назначил": 10609,
  "▁заверша": 10610,
  "▁благодарность": 10611,
  "▁чисел": 10612,
  "▁советским": 10613,
  "▁сотрудники": 10614,
  "▁лежала": 10615,
  "ЛО": 10616,
  "▁дуг": 10617,
  "шах": 10618,
  "▁беседу": 10619,
  "▁чрезмерно": 10620,
  "сет": 10621,
  "▁Совершенно": 10622,
  "▁индивиду": 10623,
  "▁1915": 10624,
  "▁Хрущев": 10625,
  "▁Днепр": 10626,
  "▁грузин": 10627,
  "ённые": 10628,
  "учеб": 10629,
  "▁пользы": 10630,
  "▁главу": 10631,
  "гружен": 10632,
  "▁модерн": 10633,
  "пси": 10634,
  "крыв": 10635,
  "▁Эл": 10636,
  "▁трагедии": 10637,
  "▁легенда": 10638,
  "смея": 10639,
  "▁правильн": 10640,
  "▁кафе": 10641,
  "▁подчеркива": 10642,
  "▁основная": 10643,
  "▁горло": 10644,
  "▁необходимое": 10645,
  "▁надеяться": 10646,
  "гвозд": 10647,
  "▁усилива": 10648,
  "ведет": 10649,
  "▁присутствовал": 10650,
  "▁кабинета": 10651,
  "▁Друг": 10652,
  "▁группами": 10653,
  "▁музея": 10654,
  "▁Руб": 10655,
  "▁чудеса": 10656,
  "▁методик": 10657,
  "▁эллин": 10658,
  "ност": 10659,
  "точная": 10660,
  "▁сказав": 10661,
  "▁воспитание": 10662,
  "▁золотом": 10663,
  "▁телу": 10664,
  "авр": 10665,
  "▁Каждая": 10666,
  "▁проводили": 10667,
  "▁железа": 10668,
  "▁оратор": 10669,
  "▁лучи": 10670,
  "▁Ирак": 10671,
  "ящее": 10672,
  "▁1916": 10673,
  "▁убедительно": 10674,
  "▁недостатки": 10675,
  "▁беда": 10676,
  "▁стрелять": 10677,
  "▁сооружения": 10678,
  "посред": 10679,
  "▁Ант": 10680,
  "▁Крит": 10681,
  "▁птица": 10682,
  "▁критика": 10683,
  "▁выдвинул": 10684,
  "31": 10685,
  "уде": 10686,
  "▁человеческий": 10687,
  "▁грехи": 10688,
  "▁рассе": 10689,
  "▁Верхов": 10690,
  "▁Украин": 10691,
  "▁мышцы": 10692,
  "фар": 10693,
  "▁вопросах": 10694,
  "чие": 10695,
  "▁понимании": 10696,
  "▁участвовали": 10697,
  "▁коем": 10698,
  "▁эмиграции": 10699,
  "прят": 10700,
  "истической": 10701,
  "ПА": 10702,
  "▁северной": 10703,
  "▁моменту": 10704,
  "ношен": 10705,
  "▁очищен": 10706,
  "▁деталей": 10707,
  "дос": 10708,
  "▁завоеван": 10709,
  "гард": 10710,
  "гни": 10711,
  "▁избави": 10712,
  "▁обеспечение": 10713,
  "▁представлять": 10714,
  "▁Масс": 10715,
  "▁полчаса": 10716,
  "▁следить": 10717,
  "кид": 10718,
  "порядоч": 10719,
  "▁агрессивн": 10720,
  "▁романе": 10721,
  "▁Последние": 10722,
  "▁Гей": 10723,
  "▁директив": 10724,
  "▁отстал": 10725,
  "Го": 10726,
  "▁Макс": 10727,
  "▁условие": 10728,
  "дре": 10729,
  "▁значительное": 10730,
  "▁поколений": 10731,
  "▁ПРИ": 10732,
  "▁трат": 10733,
  "▁5)": 10734,
  "▁отчаянно": 10735,
  "▁сроки": 10736,
  "▁Побед": 10737,
  "торг": 10738,
  "▁недовольство": 10739,
  "▁молодости": 10740,
  "яются": 10741,
  "оры": 10742,
  "▁смену": 10743,
  "▁выпал": 10744,
  "▁сложной": 10745,
  "▁богом": 10746,
  "▁описал": 10747,
  "унг": 10748,
  "▁помол": 10749,
  "▁муки": 10750,
  "▁Киеве": 10751,
  "▁пла": 10752,
  "свеж": 10753,
  "▁обеспечивал": 10754,
  "▁Кузнецов": 10755,
  "▁истребитель": 10756,
  "▁обла": 10757,
  "▁направить": 10758,
  "▁Хай": 10759,
  "▁поступить": 10760,
  "ента": 10761,
  "▁присутствует": 10762,
  "▁возглавля": 10763,
  "лоп": 10764,
  "▁испытывает": 10765,
  "▁порожда": 10766,
  "▁Быть": 10767,
  "▁хорошая": 10768,
  "Бог": 10769,
  "▁срока": 10770,
  "▁созданы": 10771,
  "▁наркотик": 10772,
  "▁приготовления": 10773,
  "▁победил": 10774,
  "▁одеты": 10775,
  "▁заболеваний": 10776,
  "▁погран": 10777,
  "▁уголь": 10778,
  "писи": 10779,
  "няк": 10780,
  "▁Прошло": 10781,
  "▁взрослых": 10782,
  "ГУ": 10783,
  "▁воспитан": 10784,
  "▁периодически": 10785,
  "▁приняла": 10786,
  "▁стихий": 10787,
  "▁торгов": 10788,
  "▁ядра": 10789,
  "▁Шам": 10790,
  "▁допущен": 10791,
  "гент": 10792,
  "▁преимущества": 10793,
  "▁раскрыва": 10794,
  "▁перенес": 10795,
  "инка": 10796,
  "▁установления": 10797,
  "▁гвардии": 10798,
  "▁Русский": 10799,
  "священ": 10800,
  "▁значении": 10801,
  "▁некоторыми": 10802,
  "▁вызывал": 10803,
  "▁Социал": 10804,
  "НОВ": 10805,
  "Кон": 10806,
  "▁человеческое": 10807,
  "▁местной": 10808,
  "▁рецепт": 10809,
  "▁Опыт": 10810,
  "анты": 10811,
  "нях": 10812,
  "▁приезд": 10813,
  "чел": 10814,
  "▁серьезным": 10815,
  "▁терял": 10816,
  "▁грязь": 10817,
  "цкой": 10818,
  "▁думала": 10819,
  "маш": 10820,
  "фельд": 10821,
  "▁распозна": 10822,
  "ехал": 10823,
  "▁напрасно": 10824,
  "▁читает": 10825,
  "▁расстрелян": 10826,
  "▁имѣ": 10827,
  "▁болезнен": 10828,
  "▁воевал": 10829,
  "▁возлага": 10830,
  "▁Англию": 10831,
  "▁следствия": 10832,
  "▁перевал": 10833,
  "▁жаль": 10834,
  "▁последующих": 10835,
  "▁искусственно": 10836,
  "▁Мартин": 10837,
  "бель": 10838,
  "▁пациента": 10839,
  "ёс": 10840,
  "кош": 10841,
  "жур": 10842,
  "▁отмечает": 10843,
  "▁1000": 10844,
  "ённый": 10845,
  "▁поднят": 10846,
  "▁свободной": 10847,
  "третьих": 10848,
  "▁движется": 10849,
  "▁Сократ": 10850,
  "▁сомнева": 10851,
  "▁столик": 10852,
  "▁донес": 10853,
  "▁ошибку": 10854,
  "▁богатых": 10855,
  "▁важнейших": 10856,
  "▁заключить": 10857,
  "▁совершать": 10858,
  "▁Бак": 10859,
  "▁Мит": 10860,
  "▁прибыль": 10861,
  "▁размышления": 10862,
  "▁украша": 10863,
  "▁отступил": 10864,
  "зь": 10865,
  "ялся": 10866,
  "▁выполнял": 10867,
  "▁трёх": 10868,
  "▁исследователей": 10869,
  "▁специалисты": 10870,
  "▁деталь": 10871,
  "▁Рей": 10872,
  "▁гипер": 10873,
  "бежать": 10874,
  "ряж": 10875,
  "лицей": 10876,
  "▁Пришлось": 10877,
  "75": 10878,
  "▁Господу": 10879,
  "▁незначительны": 10880,
  "▁экспериментальн": 10881,
  "▁понес": 10882,
  "▁Ля": 10883,
  "▁Всю": 10884,
  "▁митрополит": 10885,
  "▁Артур": 10886,
  "ВИ": 10887,
  "▁гостя": 10888,
  "▁создана": 10889,
  "▁категорически": 10890,
  "▁сказки": 10891,
  "ливая": 10892,
  "своему": 10893,
  "▁монахи": 10894,
  "▁всерьез": 10895,
  "▁страсть": 10896,
  "▁обязанностей": 10897,
  "▁вывел": 10898,
  "АЛ": 10899,
  "быть": 10900,
  "▁взаимодействие": 10901,
  "▁остановились": 10902,
  "▁данное": 10903,
  "▁третья": 10904,
  "▁стекла": 10905,
  "▁потерпел": 10906,
  "▁Лун": 10907,
  "жжен": 10908,
  "▁будущих": 10909,
  "▁заполнен": 10910,
  "поля": 10911,
  "▁наруша": 10912,
  "▁Дуб": 10913,
  "▁Федорович": 10914,
  "▁самолёт": 10915,
  "▁молитва": 10916,
  "▁культуру": 10917,
  "аторов": 10918,
  "▁развитием": 10919,
  "▁признания": 10920,
  "Бр": 10921,
  "▁вернул": 10922,
  "глашен": 10923,
  "▁религиозной": 10924,
  "▁Сына": 10925,
  "▁разговаривал": 10926,
  "▁усерд": 10927,
  "верд": 10928,
  "▁54": 10929,
  "служен": 10930,
  "альном": 10931,
  "▁заметны": 10932,
  "▁дек": 10933,
  "▁доля": 10934,
  "ивный": 10935,
  "▁Северного": 10936,
  "▁относился": 10937,
  "▁настоящем": 10938,
  "▁африкан": 10939,
  "вался": 10940,
  "▁верю": 10941,
  "▁пальцем": 10942,
  "мѣр": 10943,
  "▁коэффициент": 10944,
  "▁Твое": 10945,
  "▁городских": 10946,
  "▁привержен": 10947,
  "44": 10948,
  "▁руководители": 10949,
  "▁изменилось": 10950,
  "▁лучшего": 10951,
  "дз": 10952,
  "▁начинать": 10953,
  "▁уравнения": 10954,
  "▁приобретает": 10955,
  "▁наступает": 10956,
[...]
