{
  "<unk>": 0,
  "<s>": 1,
  "</s>": 2,
  "[PAD]": 3,
  "[UNK]": 4,
  "[CLS]": 5,
  "[SEP]": 6,
  "[MASK]": 7,
  ",": 8,
  ".": 9,
  "▁и": 10,
  "▁в": 11,
  "▁на": 12,
  "▁не": 13,
  "▁с": 14,
  "а": 15,
  "-": 16,
  "▁что": 17,
  "▁—": 18,
  "▁«": 19,
  "е": 20,
  ":": 21,
  "и": 22,
  "▁по": 23,
  "▁(": 24,
  "▁к": 25,
  "▁": 26,
  "▁как": 27,
  "▁В": 28,
  "▁из": 29,
  "▁the": 30,
  "у": 31,
  "м": 32,
  "»": 33,
  "▁–": 34,
  "▁а": 35,
  "▁от": 36,
  "▁о": 37,
  "▁его": 38,
  "▁за": 39,
  "▁он": 40,
  "ы": 41,
  "▁у": 42,
  "й": 43,
  "▁я": 44,
  ";": 45,
  "▁это": 46,
  "s": 47,
  "▁для": 48,
  ")": 49,
  "▁же": 50,
  "?": 51,
  "▁но": 52,
  "х": 53,
  "▁of": 54,
  "ом": 55,
  "о": 56,
  "▁все": 57,
  "▁то": 58,
  "▁И": 59,
  "▁А": 60,
  "▁было": 61,
  "▁до": 62,
  "▁and": 63,
  "я": 64,
  "▁или": 65,
  "!": 66,
  "▁был": 67,
  "ов": 68,
  "▁при": 69,
  "▁их": 70,
  "▁так": 71,
  "».": 72,
  "▁to": 73,
  "▁С": 74,
  "то": 75,
  "▁бы": 76,
  "▁только": 77,
  "▁-": 78,
  "▁г": 79,
  "▁a": 80,
  "▁мы": 81,
  "...": 82,
  "ой": 83,
  "▁они": 84,
  "ъ": 85,
  "▁Но": 86,
  "▁in": 87,
  "▁вы": 88,
  "▁Я": 89,
  "▁чтобы": 90,
  "▁под": 91,
  "▁были": 92,
  "го": 93,
  "ми": 94,
  "»,": 95,
  "ся": 96,
  "▁ее": 97,
  "▁когда": 98,
  "ю": 99,
  "▁уже": 100,
  "▁время": 101,
  "▁во": 102,
  "▁еще": 103,
  ").": 104,
  "ами": 105,
  "▁со": 106,
  "▁она": 107,
  "▁На": 108,
  "▁того": 109,
  "ные": 110,
  "▁была": 111,
  "▁Он": 112,
  "▁ни": 113,
  "▁если": 114,
  "▁меня": 115,
  "▁которые": 116,
  "▁раз": 117,
  "▁том": 118,
  "ный": 119,
  "’": 120,
  "▁мне": 121,
  "ной": 122,
  "),": 123,
  "ных": 124,
  "▁быть": 125,
  "▁есть": 126,
  "▁этого": 127,
  "▁может": 128,
  "▁чем": 129,
  "в": 130,
  "▁более": 131,
  "▁\"": 132,
  "▁об": 133,
  "▁этом": 134,
  "▁ему": 135,
  "▁даже": 136,
  "ая": 137,
  "▁Это": 138,
  "▁себя": 139,
  "▁По": 140,
  "▁года": 141,
  "▁где": 142,
  "▁К": 143,
  "▁М": 144,
  "▁ли": 145,
  "▁I": 146,
  "▁который": 147,
  "ная": 148,
  "▁можно": 149,
  "▁Не": 150,
  "▁после": 151,
  "ка": 152,
  "ного": 153,
  "▁У": 154,
  "▁очень": 155,
  "▁них": 156,
  "▁также": 157,
  "с": 158,
  "▁будет": 159,
  "▁без": 160,
  "▁тем": 161,
  "▁нас": 162,
  "ли": 163,
  "ого": 164,
  "▁that": 165,
  "л": 166,
  "▁т": 167,
  "▁всех": 168,
  "на": 169,
  "▁жизни": 170,
  "ет": 171,
  "ть": 172,
  "▁“": 173,
  "▁него": 174,
  "▁всего": 175,
  "▁О": 176,
  "▁про": 177,
  "▁is": 178,
  "▁между": 179,
  "▁себе": 180,
  "т": 181,
  "▁кто": 182,
  "▁1": 183,
  "▁этой": 184,
  "▁was": 185,
  "▁этот": 186,
  "▁ты": 187,
  "▁человек": 188,
  "▁лет": 189,
  "ий": 190,
  "ей": 191,
  "ным": 192,
  "▁своей": 193,
  "ки": 194,
  "▁The": 195,
  "▁Если": 196,
  "▁через": 197,
  "ые": 198,
  "но": 199,
  "ах": 200,
  "▁Как": 201,
  "—": 202,
  "▁один": 203,
  "▁эти": 204,
  "\"": 205,
  "ed": 206,
  "ых": 207,
  "▁лишь": 208,
  "ную": 209,
  "▁нет": 210,
  "ую": 211,
  "▁for": 212,
  "▁[": 213,
  "ый": 214,
  "▁им": 215,
  "ем": 216,
  "▁больше": 217,
  "за": 218,
  "ное": 219,
  "ing": 220,
  "▁людей": 221,
  "ь": 222,
  "ым": 223,
  "▁При": 224,
  "▁своих": 225,
  "▁году": 226,
  "▁над": 227,
  "▁там": 228,
  "ам": 229,
  "▁несколько": 230,
  "▁Так": 231,
  "▁2": 232,
  "▁свою": 233,
  "▁сказал": 234,
  "'": 235,
  "▁За": 236,
  "t": 237,
  "▁with": 238,
  "▁времени": 239,
  "▁нам": 240,
  "▁потому": 241,
  "▁которых": 242,
  "▁as": 243,
  "e": 244,
  "▁П": 245,
  "ского": 246,
  "▁человека": 247,
  "▁много": 248,
  "▁on": 249,
  "▁Мы": 250,
  "▁перед": 251,
  "▁против": 252,
  "▁образом": 253,
  "▁здесь": 254,
  "не": 255,
  "▁день": 256,
  "▁своего": 257,
  "▁этих": 258,
  "ие": 259,
  "▁тогда": 260,
  "]": 261,
  "▁it": 262,
  "ский": 263,
  "В": 264,
  "▁всегда": 265,
  "/": 266,
  "▁которой": 267,
  "▁тот": 268,
  "▁просто": 269,
  "▁свои": 270,
  "▁которая": 271,
  "ской": 272,
  "▁вот": 273,
  "d": 274,
  "▁других": 275,
  "▁Когда": 276,
  "▁Г": 277,
  "▁Н": 278,
  "▁Все": 279,
  "му": 280,
  "▁два": 281,
  "▁Однако": 282,
  "А": 283,
  "▁да": 284,
  "ия": 285,
  "▁Они": 286,
  "▁ним": 287,
  "▁Да": 288,
  "▁войны": 289,
  "▁сам": 290,
  "▁=": 291,
  "н": 292,
  "▁жизнь": 293,
  "ку": 294,
  "сти": 295,
  "ое": 296,
  "ии": 297,
  "▁пере": 298,
  "▁хотя": 299,
  "ными": 300,
  "▁теперь": 301,
  "▁является": 302,
  "ла": 303,
  "▁ничего": 304,
  "ном": 305,
  "▁люди": 306,
  "▁Вы": 307,
  "▁be": 308,
  "▁России": 309,
  "▁тех": 310,
  "▁Л": 311,
  "▁именно": 312,
  "▁by": 313,
  "▁случае": 314,
  "▁Что": 315,
  "(": 316,
  "к": 317,
  "ют": 318,
  "▁тоже": 319,
  "▁A": 320,
  "▁стал": 321,
  "▁собой": 322,
  "a": 323,
  "▁надо": 324,
  "ок": 325,
  "▁почти": 326,
  "▁те": 327,
  "▁стороны": 328,
  "▁такой": 329,
  "▁вас": 330,
  "▁he": 331,
  "▁3": 332,
  "▁Д": 333,
  "▁No": 334,
  "С": 335,
  "лись": 336,
  "▁мог": 337,
  "сть": 338,
  "▁Т": 339,
  "▁his": 340,
  "▁которого": 341,
  "▁другой": 342,
  "▁вместе": 343,
  "▁5": 344,
  "▁три": 345,
  "▁ней": 346,
  "▁могут": 347,
  "▁одной": 348,
  "▁дело": 349,
  "▁всем": 350,
  "”": 351,
  "▁Вот": 352,
  "▁должны": 353,
  "▁from": 354,
  "▁въ": 355,
  "▁потом": 356,
  "▁Она": 357,
  "▁S": 358,
  "▁тому": 359,
  "▁Для": 360,
  "▁тут": 361,
  "▁at": 362,
  "2": 363,
  "▁свое": 364,
  "▁двух": 365,
  "▁had": 366,
  "▁части": 367,
  "им": 368,
  "▁должен": 369,
  "▁4": 370,
  "▁пока": 371,
  "▁п": 372,
  "ется": 373,
  "▁you": 374,
  "д": 375,
  "▁нужно": 376,
  "▁вам": 377,
  "▁часть": 378,
  "▁Его": 379,
  "по": 380,
  "▁которое": 381,
  "п": 382,
  "▁p": 383,
  "▁Из": 384,
  "▁После": 385,
  "▁10": 386,
  "▁армии": 387,
  "▁or": 388,
  "▁своим": 389,
  "ию": 390,
  "▁какой": 391,
  "▁Б": 392,
  "ке": 393,
  "▁д": 394,
  "▁другие": 395,
  "▁СССР": 396,
  "▁сейчас": 397,
  "▁not": 398,
  "▁оно": 399,
  "▁Ф": 400,
  "▁место": 401,
  "▁слова": 402,
  "▁этим": 403,
  "▁чего": 404,
  "▁эту": 405,
  "ская": 406,
  "И": 407,
  "▁свой": 408,
  "▁одного": 409,
  "▁are": 410,
  "р": 411,
  "▁эта": 412,
  "▁an": 413,
  "y": 414,
  "i": 415,
  "▁истории": 416,
  "▁сказать": 417,
  "их": 418,
  "г": 419,
  "▁ей": 420,
  "б": 421,
  "▁хорошо": 422,
  "▁P": 423,
  "▁друг": 424,
  "▁6": 425,
  "ен": 426,
  "▁мир": 427,
  "▁никогда": 428,
  "▁говорит": 429,
  "▁мира": 430,
  "▁вопрос": 431,
  "▁тебя": 432,
  "лась": 433,
  "▁затем": 434,
  "ны": 435,
  "▁Во": 436,
  "er": 437,
  "▁ко": 438,
  "▁стали": 439,
  "ly": 440,
  "▁Р": 441,
  "нибудь": 442,
  "Я": 443,
  "▁имеет": 444,
  ">": 445,
  "▁часто": 446,
  "▁всё": 447,
  "▁совершенно": 448,
  "▁менее": 449,
  "О": 450,
  "ло": 451,
  "▁работы": 452,
  "▁среди": 453,
  "ться": 454,
  "М": 455,
  "▁this": 456,
  "n": 457,
  "▁одно": 458,
  "▁м": 459,
  "▁власти": 460,
  "▁год": 461,
  "▁От": 462,
  "і": 463,
  "▁особенно": 464,
  "▁будут": 465,
  "ит": 466,
  "▁тебе": 467,
  "▁were": 468,
  "▁have": 469,
  "▁снова": 470,
  "▁/": 471,
  "▁могли": 472,
  "▁сразу": 473,
  "▁15": 474,
  "▁е": 475,
  "лся": 476,
  "ѣ": 477,
  "▁которую": 478,
  "▁самом": 479,
  "▁силы": 480,
  "▁р": 481,
  "▁нем": 482,
  "▁ведь": 483,
  "▁7": 484,
  "▁конце": 485,
  "▁следует": 486,
  "▁8": 487,
  "▁например": 488,
  "1": 489,
  "▁Ну": 490,
  "▁нашей": 491,
  "▁такое": 492,
  "▁конечно": 493,
  "▁Поэтому": 494,
  "ить": 495,
  "▁•": 496,
  "▁связи": 497,
  "▁котором": 498,
  "ские": 499,
  "▁таким": 500,
  "▁этому": 501,
  "▁совсем": 502,
  "▁II": 503,
  "▁вообще": 504,
  "▁однако": 505,
  "▁сделать": 506,
  "или": 507,
  "▁20": 508,
  "p": 509,
  "▁всей": 510,
  "от": 511,
  "▁пор": 512,
  "▁лучше": 513,
  "▁около": 514,
  "▁de": 515,
  "▁самого": 516,
  "ском": 517,
  "▁той": 518,
  "▁таких": 519,
  "▁сил": 520,
  "ских": 521,
  "!»": 522,
  "▁действительно": 523,
  "▁прежде": 524,
  "▁почему": 525,
  "▁12": 526,
  "▁деле": 527,
  "▁каждый": 528,
  "▁годы": 529,
  "ыми": 530,
  "▁момент": 531,
  "es": 532,
  "ность": 533,
  "▁but": 534,
  "ются": 535,
  "▁поэтому": 536,
  "▁дня": 537,
  "▁ними": 538,
  "▁такие": 539,
  "▁города": 540,
  "▁Е": 541,
  "▁страны": 542,
  "▁быстро": 543,
  "П": 544,
  "▁поскольку": 545,
  "та": 546,
  "o": 547,
  ".)": 548,
  "▁одна": 549,
  "▁две": 550,
  "▁н": 551,
  "▁б": 552,
  "▁//": 553,
  "Г": 554,
  "▁In": 555,
  "К": 556,
  "▁C": 557,
  "▁Ты": 558,
  "▁руки": 559,
  "▁смерти": 560,
  "▁стало": 561,
  "▁То": 562,
  "ному": 563,
  "▁мой": 564,
  "▁which": 565,
  "▁пути": 566,
  "▁мало": 567,
  "▁дома": 568,
  "▁всю": 569,
  "▁they": 570,
  "▁9": 571,
  "▁своем": 572,
  "▁До": 573,
  "▁нельзя": 574,
  "▁гг": 575,
  "▁дела": 576,
  "ин": 577,
  "▁века": 578,
  "▁многие": 579,
  "▁мере": 580,
  "▁all": 581,
  "▁США": 582,
  "▁„": 583,
  "▁наши": 584,
  "▁качестве": 585,
  "ни": 586,
  "ния": 587,
  "либо": 588,
  "▁де": 589,
  "У": 590,
  "*": 591,
  "те": 592,
  "▁её": 593,
  "ности": 594,
  "▁слишком": 595,
  "▁their": 596,
  "▁войск": 597,
  "▁области": 598,
  "▁весьма": 599,
  "▁R": 600,
  "▁one": 601,
  "▁we": 602,
  "\".": 603,
  "▁Там": 604,
  "▁первый": 605,
  "▁делать": 606,
  "▁будто": 607,
  "▁многих": 608,
  "▁говорил": 609,
  "▁течение": 610,
  "ев": 611,
  "▁виде": 612,
  "▁город": 613,
  "▁которым": 614,
  "▁начала": 615,
  "▁ибо": 616,
  "▁внимание": 617,
  "▁период": 618,
  "▁1.": 619,
  "m": 620,
  "ись": 621,
  "▁должно": 622,
  "▁весь": 623,
  "лось": 624,
  "▁достаточно": 625,
  "▁возможность": 626,
  "▁2.": 627,
  "▁M": 628,
  "▁куда": 629,
  "▁второй": 630,
  "▁такого": 631,
  "▁наших": 632,
  "▁J": 633,
  "▁дней": 634,
  "^": 635,
  "▁Под": 636,
  "al": 637,
  "▁глаза": 638,
  "▁V": 639,
  "▁ещё": 640,
  "ш": 641,
  "▁нее": 642,
  "ское": 643,
  "▁16": 644,
  "3": 645,
  "ко": 646,
  "▁роль": 647,
  "▁вполне": 648,
  "▁D": 649,
  "Л": 650,
  "–": 651,
  "▁мире": 652,
  "▁должна": 653,
  "▁выше": 654,
  "S": 655,
  "▁can": 656,
  "▁назад": 657,
  "▁никто": 658,
  "▁14": 659,
  "ят": 660,
  "▁+": 661,
  "▁11": 662,
  "▁тысяч": 663,
  "▁большой": 664,
  "▁противника": 665,
  "▁путь": 666,
  "ому": 667,
  "▁сторону": 668,
  "x": 669,
  "▁(«": 670,
  "▁L": 671,
  "ясь": 672,
  "▁‘": 673,
  "▁ж": 674,
  "▁развития": 675,
  "Д": 676,
  "▁генерал": 677,
  "Н": 678,
  "▁нашего": 679,
  "▁кого": 680,
  "▁рас": 681,
  "▁столь": 682,
  ");": 683,
  "­": 684,
  "▁месте": 685,
  "▁земли": 686,
  "ние": 687,
  "▁Тогда": 688,
  "▁системы": 689,
  "▁возможно": 690,
  "▁B": 691,
  "▁so": 692,
  "▁уж": 693,
  "▁какие": 694,
  "▁имя": 695,
  "▁30": 696,
  "▁некоторые": 697,
  "▁группы": 698,
  "▁G": 699,
  "▁наиболее": 700,
  "▁начале": 701,
  "▁числе": 702,
  "кой": 703,
  "▁слово": 704,
  "▁F": 705,
  "▁значит": 706,
  "▁работу": 707,
  "▁партии": 708,
  "▁Нет": 709,
  "да": 710,
  "▁результате": 711,
  "▁Здесь": 712,
  "▁кроме": 713,
  "▁детей": 714,
  "▁Э": 715,
  "▁говорить": 716,
  "▁либо": 717,
  "▁Только": 718,
  "▁Мне": 719,
  "▁идет": 720,
  "▁стала": 721,
  "▁действия": 722,
  "4": 723,
  "▁помощью": 724,
  "▁прямо": 725,
  "▁войска": 726,
  "▁Про": 727,
  "▁писал": 728,
  "▁Теперь": 729,
  "▁і": 730,
  "▁13": 731,
  "▁мысли": 732,
  "скую": 733,
  "▁самой": 734,
  "▁значение": 735,
  "▁удалось": 736,
  "▁стоит": 737,
  "▁своими": 738,
  "ил": 739,
  "ским": 740,
  "ков": 741,
  "▁места": 742,
  "▁нему": 743,
  "?»": 744,
  "▁вокруг": 745,
  "▁Таким": 746,
  "▁сами": 747,
  "▁рода": 748,
  "▁необходимо": 749,
  "▁иногда": 750,
  "▁та": 751,
  "▁книги": 752,
  "ч": 753,
  "▁наш": 754,
  "▁сегодня": 755,
  "см": 756,
  "▁трех": 757,
  "он": 758,
  "▁полностью": 759,
  "▁довольно": 760,
  "▁точно": 761,
  "▁самое": 762,
  "...»": 763,
  "▁точки": 764,
  "▁одним": 765,
  "Б": 766,
  "▁Бог": 767,
  "▁самым": 768,
  "▁народа": 769,
  "▁знал": 770,
  "▁кажется": 771,
  "▁сколько": 772,
  "▁знаю": 773,
  "▁рядом": 774,
  "▁л": 775,
  "▁N": 776,
  "▁Этот": 777,
  "▁зрения": 778,
  "▁would": 779,
  "b": 780,
  "▁государства": 781,
  "▁E": 782,
  "▁He": 783,
  "▁долго": 784,
  "▁наконец": 785,
  "ва": 786,
  "▁общества": 787,
  "ну": 788,
  "▁свет": 789,
  "▁получил": 790,
  "▁ответ": 791,
  "▁Эти": 792,
  "▁вдруг": 793,
  "▁степени": 794,
  "c": 795,
  "r": 796,
  "▁дом": 797,
  "▁начал": 798,
  "▁само": 799,
  "\",": 800,
  "▁who": 801,
  "▁3.": 802,
  "in": 803,
  "▁положение": 804,
  "▁Бога": 805,
  "▁ту": 806,
  "▁обычно": 807,
  "▁Германии": 808,
  "▁друга": 809,
  "▁отношения": 810,
  "▁воды": 811,
  "▁хотел": 812,
  "ти": 813,
  "▁деятельности": 814,
  "▁спросил": 815,
  "Х": 816,
  "Т": 817,
  "▁more": 818,
  "з": 819,
  "en": 820,
  "▁вновь": 821,
  "▁>": 822,
  "ец": 823,
  "f": 824,
  "▁возможности": 825,
  "▁см": 826,
  "▁H": 827,
  "▁новые": 828,
  "до": 829,
  "▁опять": 830,
  "▁равно": 831,
  "▁моей": 832,
  "▁власть": 833,
  "▁Кроме": 834,
  "▁дальше": 835,
  "▁силу": 836,
  "▁становится": 837,
  "▁происходит": 838,
  "▁no": 839,
  "▁одну": 840,
  "▁тела": 841,
  "▁одном": 842,
  "▁др": 843,
  "▁первой": 844,
  "ова": 845,
  "таки": 846,
  "▁легко": 847,
  "ась": 848,
  "ство": 849,
  "Ф": 850,
  "▁отношении": 851,
  "▁ответил": 852,
  "▁самых": 853,
  "▁могу": 854,
  "▁her": 855,
  "▁постоянно": 856,
  "▁T": 857,
  "▁своему": 858,
  "▁народ": 859,
  "▁17": 860,
  "▁been": 861,
  "▁out": 862,
  "ком": 863,
  "▁Ю": 864,
  "▁дел": 865,
  "▁часов": 866,
  "сь": 867,
  "▁движения": 868,
  "▁*": 869,
  "▁э": 870,
  "Р": 871,
  "▁х": 872,
  "[": 873,
  "▁имени": 874,
  "▁Тем": 875,
  "▁голову": 876,
  "ер": 877,
  "l": 878,
  "▁нами": 879,
  "▁право": 880,
  "цы": 881,
  "▁условиях": 882,
  "из": 883,
  "I": 884,
  "са": 885,
  "▁речь": 886,
  "▁немного": 887,
  "ж": 888,
  "▁Эта": 889,
  "▁Ведь": 890,
  "▁стр": 891,
  "▁другим": 892,
  "▁me": 893,
  "▁d": 894,
  "▁конца": 895,
  "▁Со": 896,
  "▁являются": 897,
  "▁иметь": 898,
  "э": 899,
  "▁f": 900,
  "▁найти": 901,
  "▁стать": 902,
  "5": 903,
  "ц": 904,
  "▁разных": 905,
  "▁видел": 906,
  "A": 907,
  "▁25": 908,
  "▁раньше": 909,
  "▁Об": 910,
  "▁организации": 911,
  "▁деньги": 912,
  "▁число": 913,
  "▁меньше": 914,
  "▁четыре": 915,
  "▁жить": 916,
  "▁пришлось": 917,
  "▁сильно": 918,
  "ив": 919,
  "▁up": 920,
  "▁характер": 921,
  "▁It": 922,
  "▁фронта": 923,
  "▁населения": 924,
  "▁новых": 925,
  "▁решение": 926,
  "при": 927,
  "▁понять": 928,
  "▁некоторых": 929,
  "▁известно": 930,
  "0": 931,
  "▁about": 932,
  "▁18": 933,
  "▁очередь": 934,
  "▁my": 935,
  "▁далеко": 936,
  "▁цели": 937,
  "▁русских": 938,
  "▁has": 939,
  "▁количество": 940,
  "▁могла": 941,
  "▁Еще": 942,
  "re": 943,
  "▁into": 944,
  "под": 945,
  "6": 946,
  "стью": 947,
  "▁благодаря": 948,
  "▁тело": 949,
  "ства": 950,
  "ось": 951,
  "▁земле": 952,
  "g": 953,
  "▁помощи": 954,
  "▁мной": 955,
  "▁W": 956,
  "▁пять": 957,
  "ник": 958,
  "▁имел": 959,
  "▁солдат": 960,
  "▁з": 961,
  "▁работе": 962,
  "C": 963,
  "▁мая": 964,
  "▁Х": 965,
  "▁дни": 966,
  "▁состав": 967,
  "us": 968,
  "ешь": 969,
  "▁will": 970,
  "▁скорее": 971,
  "З": 972,
  "▁them": 973,
  "▁находится": 974,
  "▁сын": 975,
  "▁невозможно": 976,
  "▁августа": 977,
  "▁пред": 978,
  "ра": 979,
  "▁вид": 980,
  "▁him": 981,
  "▁говоря": 982,
  "▁море": 983,
  "▁III": 984,
  "▁другом": 985,
  "▁См": 986,
  "▁июля": 987,
  "▁действий": 988,
  "▁виду": 989,
  "▁Затем": 990,
  "▁одновременно": 991,
  "▁сама": 992,
  "▁стране": 993,
  "▁состоянии": 994,
  "▁съ": 995,
  "ль": 996,
  "▁Кто": 997,
  "▁its": 998,
  "▁сделал": 999,
  "▁туда": 1000,
  "▁внутри": 1001,
  "▁стран": 1002,
  "z": 1003,
  "▁имеют": 1004,
  "k": 1005,
  "▁землю": 1006,
  "▁мои": 1007,
  "▁трудно": 1008,
  "▁знает": 1009,
  "▁каким": 1010,
  "▁права": 1011,
  "ф": 1012,
  "▁давно": 1013,
  "▁Ш": 1014,
  "▁июня": 1015,
  "▁смысле": 1016,
  "▁дивизии": 1017,
  "▁Москве": 1018,
  "▁говорят": 1019,
  "▁чуть": 1020,
  "де": 1021,
  "▁'": 1022,
  "B": 1023,
  "▁минут": 1024,
  "▁различных": 1025,
  "▁Именно": 1026,
  "▁ночь": 1027,
  "▁there": 1028,
  "▁словно": 1029,
  "▁нового": 1030,
  "▁сердце": 1031,
  "▁самый": 1032,
  "▁любви": 1033,
  "▁решил": 1034,
  "▁time": 1035,
  "▁территории": 1036,
  "▁Франции": 1037,
  "▁when": 1038,
  "Е": 1039,
  "▁иначе": 1040,
  "▁каждого": 1041,
  "▁дать": 1042,
  "▁другого": 1043,
  "▁do": 1044,
  "ою": 1045,
  "▁Хотя": 1046,
  "▁русской": 1047,
  "▁отец": 1048,
  "▁вместо": 1049,
  "▁руку": 1050,
  "овой": 1051,
  "▁хоть": 1052,
  "▁Александр": 1053,
  "▁души": 1054,
  "▁революции": 1055,
  "▁Конечно": 1056,
  "▁Даже": 1057,
  "вы": 1058,
  "▁существует": 1059,
  "▁которому": 1060,
  "▁слов": 1061,
  "▁X": 1062,
  "▁ясно": 1063,
  "▁сентября": 1064,
  "h": 1065,
  "▁первого": 1066,
  "ца": 1067,
  "▁отца": 1068,
  "▁Чтобы": 1069,
  "ст": 1070,
  "▁моя": 1071,
  "▁какое": 1072,
  "▁новой": 1073,
  "▁ради": 1074,
  "▁other": 1075,
  "▁культуры": 1076,
  "га": 1077,
  "ля": 1078,
  "▁новый": 1079,
  "▁лицо": 1080,
  "▁поле": 1081,
  "▁управления": 1082,
  "▁октября": 1083,
  "▁K": 1084,
  "▁марта": 1085,
  "▁процесс": 1086,
  "▁Потом": 1087,
  "_": 1088,
  "▁главе": 1089,
  "▁гораздо": 1090,
  "▁ряд": 1091,
  "▁целью": 1092,
  "▁несмотря": 1093,
  "7": 1094,
  "▁19": 1095,
  "▁другими": 1096,
  "▁церкви": 1097,
  "▁мысль": 1098,
  "▁вся": 1099,
  "▁относительно": 1100,
  "▁помощь": 1101,
  "▁дал": 1102,
  "▁всеми": 1103,
  "ина": 1104,
  "▁первых": 1105,
  "▁t": 1106,
  "▁взгляд": 1107,
  "▁1-": 1108,
  "▁моего": 1109,
  "▁работа": 1110,
  "▁лица": 1111,
  "▁your": 1112,
  "▁22": 1113,
  "▁Их": 1114,
  "ія": 1115,
  "▁полка": 1116,
  "скому": 1117,
  "▁Через": 1118,
  "or": 1119,
  "▁нескольких": 1120,
  "ша": 1121,
  "▁полу": 1122,
  "▁вопросы": 1123,
  "▁образ": 1124,
  "▁дает": 1125,
  "ками": 1126,
  "же": 1127,
  "▁ч": 1128,
  "▁s": 1129,
  "▁такая": 1130,
  "его": 1131,
  "▁руках": 1132,
  "во": 1133,
  "▁столько": 1134,
  "▁практически": 1135,
  "▁<": 1136,
  "▁50": 1137,
  "ющие": 1138,
  "▁пишет": 1139,
  "▁решения": 1140,
  "▁формы": 1141,
  "▁also": 1142,
  "▁правительства": 1143,
  "▁проблемы": 1144,
  "нее": 1145,
  "▁типа": 1146,
  "▁получить": 1147,
  "▁if": 1148,
  "По": 1149,
  "▁2-": 1150,
  "▁самые": 1151,
  "▁можем": 1152,
  "▁тыс": 1153,
  "ал": 1154,
  "ющих": 1155,
  "▁война": 1156,
  "j": 1157,
  "▁военных": 1158,
  "▁смысл": 1159,
  "▁вперед": 1160,
  "▁than": 1161,
  "▁движение": 1162,
  "ющий": 1163,
  "ость": 1164,
  "▁et": 1165,
  "▁казалось": 1166,
  "ма": 1167,
  "▁настолько": 1168,
  "th": 1169,
  "▁сих": 1170,
  "ня": 1171,
  "▁опыт": 1172,
  "▁января": 1173,
  "▁письмо": 1174,
  "▁24": 1175,
  "▁ноября": 1176,
  "▁причем": 1177,
  "ик": 1178,
  "▁годов": 1179,
  "▁only": 1180,
  "▁язык": 1181,
  "▁использовать": 1182,
  ".”": 1183,
  "▁21": 1184,
  "▁состояние": 1185,
  "▁Например": 1186,
  "▁труда": 1187,
  "▁основе": 1188,
  "ман": 1189,
  "Не": 1190,
  "▁вовсе": 1191,
  "▁любой": 1192,
  "P": 1193,
  "▁история": 1194,
  "▁людьми": 1195,
  "▁знать": 1196,
  "▁Один": 1197,
  "▁путем": 1198,
  "ре": 1199,
  "▁оказался": 1200,
  "▁Почему": 1201,
  "▁непосредственно": 1202,
  "▁частности": 1203,
  "цев": 1204,
  "▁what": 1205,
  "▁4.": 1206,
  "▁никаких": 1207,
  "▁начали": 1208,
  "▁Ни": 1209,
  "▁голос": 1210,
  "▁форме": 1211,
  "ле": 1212,
  "is": 1213,
  "Ш": 1214,
  "▁автор": 1215,
  "▁вещи": 1216,
  "=": 1217,
  "▁борьбы": 1218,
  "▁декабря": 1219,
  "M": 1220,
  "▁впервые": 1221,
  "▁апреля": 1222,
  "▁имели": 1223,
  "▁%": 1224,
  "▁женщины": 1225,
  "▁скоро": 1226,
  "▁план": 1227,
  "▁человеком": 1228,
  "▁Ч": 1229,
  "▁правительство": 1230,
  "▁могло": 1231,
  "▁сказала": 1232,
  "▁войне": 1233,
  "▁n": 1234,
  "ан": 1235,
  "▁работать": 1236,
  "▁увидел": 1237,
  "про": 1238,
  "▁множество": 1239,
  "▁районе": 1240,
  "▁вскоре": 1241,
  "▁счет": 1242,
  "▁другое": 1243,
  "▁час": 1244,
  "▁людям": 1245,
  "ши": 1246,
  "▁over": 1247,
  "▁любовь": 1248,
  "▁some": 1249,
  "▁будем": 1250,
  "▁первые": 1251,
  "▁23": 1252,
  "▁she": 1253,
  "▁could": 1254,
  "▁1941": 1255,
  "▁e": 1256,
  "▁сначала": 1257,
  "▁числа": 1258,
  "▁случаях": 1259,
  "▁З": 1260,
  "▁мировой": 1261,
  "▁видеть": 1262,
  "▁ст": 1263,
  "ите": 1264,
  "▁пришел": 1265,
  "▁пусть": 1266,
  "D": 1267,
  "F": 1268,
  "w": 1269,
  "▁100": 1270,
  "▁сына": 1271,
  "▁буду": 1272,
  "▁книге": 1273,
  "▁едва": 1274,
  "▁ЦК": 1275,
  "H": 1276,
  "▁двумя": 1277,
  "▁принять": 1278,
  "▁целом": 1279,
  "▁видно": 1280,
  "▁огонь": 1281,
  "▁линии": 1282,
  "▁представляет": 1283,
  "ение": 1284,
  "▁войну": 1285,
  "▁домой": 1286,
  "▁всему": 1287,
  "▁словами": 1288,
  "▁удар": 1289,
  "▁первую": 1290,
  "▁идти": 1291,
  "▁последние": 1292,
  "u": 1293,
  ".).": 1294,
  "▁Иван": 1295,
  "ты": 1296,
  "▁Может": 1297,
  "▁которыми": 1298,
  "▁two": 1299,
  "▁хочет": 1300,
  "L": 1301,
  "▁рабочих": 1302,
  "▁говорили": 1303,
  "▁система": 1304,
  "вер": 1305,
  "▁энергии": 1306,
  "▁поводу": 1307,
  "▁факт": 1308,
  "▁русского": 1309,
  "ье": 1310,
  "йте": 1311,
  "▁каких": 1312,
  "▁прав": 1313,
  "▁This": 1314,
  "▁понял": 1315,
  "▁b": 1316,
  "овые": 1317,
  "▁примерно": 1318,
  "▁касается": 1319,
  "▁матери": 1320,
  "ation": 1321,
  "▁начало": 1322,
  "▁означает": 1323,
  "▁c": 1324,
  "▁правда": 1325,
  "ья": 1326,
  "▁мнению": 1327,
  "▁царя": 1328,
  "▁связь": 1329,
  "▁доме": 1330,
  "▁Сталин": 1331,
  "ic": 1332,
  "8": 1333,
  "▁главным": 1334,
  "▁m": 1335,
  "▁Раз": 1336,
  "▁отношение": 1337,
  "▁остается": 1338,
  "▁па": 1339,
  "▁мать": 1340,
  "ости": 1341,
  "▁женщин": 1342,
  "▁хочу": 1343,
  "▁Или": 1344,
  "▁мое": 1345,
  "нии": 1346,
  "▁смерть": 1347,
  "v": 1348,
  "▁наше": 1349,
  "T": 1350,
  "ников": 1351,
  "ями": 1352,
  "▁ф": 1353,
  "▁брат": 1354,
  "▁штаба": 1355,
  "▁направлении": 1356,
  "▁кому": 1357,
  "▁вероятно": 1358,
  "▁la": 1359,
  "ней": 1360,
  "▁искусства": 1361,
  "▁делает": 1362,
  "▁февраля": 1363,
  "▁участие": 1364,
  "▁армия": 1365,
  "▁денег": 1366,
  "▁Можно": 1367,
  "▁like": 1368,
  "▁городе": 1369,
  "▁произошло": 1370,
  "▁first": 1371,
  "ее": 1372,
  "ту": 1373,
  "▁теории": 1374,
  "▁таком": 1375,
  "ич": 1376,
  "▁операции": 1377,
  "▁правило": 1378,
  "со": 1379,
  "▁состоит": 1380,
  "▁согласно": 1381,
  "▁вести": 1382,
  "▁времена": 1383,
  "▁дети": 1384,
  "▁влияние": 1385,
  "▁внимания": 1386,
  "▁название": 1387,
  "▁Глава": 1388,
  "▁событий": 1389,
  "▁средств": 1390,
  "▁Сам": 1391,
  "▁взял": 1392,
  "На": 1393,
  "▁случай": 1394,
  "▁корпуса": 1395,
  "ать": 1396,
  "▁природы": 1397,
  "▁развитие": 1398,
  "▁28": 1399,
  "▁26": 1400,
  "рис": 1401,
  "J": 1402,
  "ion": 1403,
  "▁постепенно": 1404,
  "▁группа": 1405,
  "»)": 1406,
  "си": 1407,
  "▁считать": 1408,
  "▁Итак": 1409,
  "ше": 1410,
  "▁цель": 1411,
  "овых": 1412,
  "▁берегу": 1413,
  "▁производства": 1414,
  "▁семьи": 1415,
  "▁никакого": 1416,
  "▁бес": 1417,
  "как": 1418,
  "▁женщина": 1419,
  "▁27": 1420,
  "▁ситуации": 1421,
  "▁явно": 1422,
  "ис": 1423,
  "▁готов": 1424,
  "▁основном": 1425,
  "▁первым": 1426,
  "ими": 1427,
  "▁моря": 1428,
  "▁said": 1429,
  "▁40": 1430,
  "об": 1431,
  "али": 1432,
  "▁позиции": 1433,
  "ения": 1434,
  "▁взять": 1435,
  "▁следующий": 1436,
  "▁вроде": 1437,
  "▁ноги": 1438,
  "мер": 1439,
  "▁i": 1440,
  "▁наша": 1441,
  "▁глаз": 1442,
  "ск": 1443,
  "▁Пере": 1444,
  "▁Союза": 1445,
  "▁0": 1446,
  "▁каждой": 1447,
  "▁обороны": 1448,
  "▁IV": 1449,
  "ится": 1450,
  "▁жил": 1451,
  "▁народов": 1452,
  "▁концов": 1453,
  "▁крайней": 1454,
  "кин": 1455,
  "▁чаще": 1456,
  "▁ходе": 1457,
  "ний": 1458,
  "▁Есть": 1459,
  "▁большую": 1460,
  "▁U": 1461,
  "▁большинство": 1462,
  "▁Тут": 1463,
  "▁временем": 1464,
  "▁моих": 1465,
  "V": 1466,
  "ers": 1467,
  "▁значительно": 1468,
  "▁условия": 1469,
  "▁отношений": 1470,
  "▁оказалось": 1471,
  "▁позже": 1472,
  "ился": 1473,
  "▁политики": 1474,
  "▁информации": 1475,
  "▁пользу": 1476,
  "it": 1477,
  "▁частей": 1478,
  "▁ниже": 1479,
  "ди": 1480,
  "+": 1481,
  "▁деятельность": 1482,
  "▁закон": 1483,
  "▁откуда": 1484,
  "▁письма": 1485,
  "▁десять": 1486,
  "Ч": 1487,
  "▁чувство": 1488,
  "“": 1489,
  "um": 1490,
  "▁события": 1491,
  "▁Наконец": 1492,
  "іе": 1493,
  "▁Англии": 1494,
  "▁очевидно": 1495,
  "R": 1496,
  "▁средства": 1497,
  "ились": 1498,
  "▁большое": 1499,
  "▁важно": 1500,
  "▁империи": 1501,
  "▁большим": 1502,
  "▁станет": 1503,
  "▁последний": 1504,
  "▁вышел": 1505,
  "▁далее": 1506,
  "▁Впрочем": 1507,
  "▁воз": 1508,
  "▁военной": 1509,
  "▁историю": 1510,
  "<": 1511,
  "▁разные": 1512,
  "раз": 1513,
  "▁немедленно": 1514,
  "▁оказались": 1515,
  "▁сюда": 1516,
  "▁re": 1517,
  "▁бывает": 1518,
  "▁человеку": 1519,
  "▁какая": 1520,
  "▁идеи": 1521,
  "▁науки": 1522,
  "ические": 1523,
  "▁положения": 1524,
  "▁частью": 1525,
  "▁Ему": 1526,
  "▁Ж": 1527,
  "▁крови": 1528,
  "▁пол": 1529,
  "▁most": 1530,
  "▁Россия": 1531,
  "▁Правда": 1532,
  "мы": 1533,
  "▁Москву": 1534,
  "▁these": 1535,
  "ут": 1536,
  "▁Уже": 1537,
  "G": 1538,
  "▁сила": 1539,
  "▁лиц": 1540,
  "▁отношению": 1541,
  "вший": 1542,
  "▁нечто": 1543,
  "▁отличие": 1544,
  "▁главное": 1545,
  "▁ранее": 1546,
  "▁советских": 1547,
  "▁our": 1548,
  "▁But": 1549,
  "▁членов": 1550,
  "▁Надо": 1551,
  "Э": 1552,
  "W": 1553,
  "ри": 1554,
  "E": 1555,
  "▁гор": 1556,
  "▁задачи": 1557,
  "an": 1558,
  "▁un": 1559,
  "▁написал": 1560,
  "▁командир": 1561,
  "▁роли": 1562,
  "▁речи": 1563,
  "▁большие": 1564,
  "▁{": 1565,
  "▁пре": 1566,
  "▁исследования": 1567,
  "▁труд": 1568,
  "▁Николай": 1569,
  "▁языка": 1570,
  "▁XIX": 1571,
  "▁такую": 1572,
  "▁сторон": 1573,
  "ат": 1574,
  "▁воду": 1575,
  "▁принял": 1576,
  "▁света": 1577,
  "тер": 1578,
  "▁...": 1579,
  "▁общем": 1580,
  "▁часа": 1581,
  "▁people": 1582,
  "▁New": 1583,
  "▁политической": 1584,
  "▁силой": 1585,
  "▁спустя": 1586,
  "▁животных": 1587,
  "▁стоял": 1588,
  "▁вне": 1589,
  "▁Европе": 1590,
  "▁стороне": 1591,
  "▁считал": 1592,
  "▁реки": 1593,
  "ющей": 1594,
  "ду": 1595,
  "▁бой": 1596,
  "ско": 1597,
  "▁русские": 1598,
  "▁резко": 1599,
  "▁царь": 1600,
  "▁какую": 1601,
  "ическая": 1602,
  "ью": 1603,
  "▁Между": 1604,
  "▁необходимости": 1605,
  "▁then": 1606,
  "ировать": 1607,
  "▁месяцев": 1608,
  "юсь": 1609,
  "▁находился": 1610,
  "▁къ": 1611,
  "▁Европы": 1612,
  "▁плохо": 1613,
  "ющего": 1614,
  "▁никак": 1615,
  "▁such": 1616,
  "нию": 1617,
  "▁думаю": 1618,
  "▁исключительно": 1619,
  "man": 1620,
  "ях": 1621,
  "▁местах": 1622,
  "су": 1623,
  "▁короля": 1624,
  "▁языке": 1625,
  "▁Сейчас": 1626,
  "▁значения": 1627,
  "▁We": 1628,
  "вших": 1629,
  "За": 1630,
  "▁any": 1631,
  "▁чувства": 1632,
  "▁советской": 1633,
  "▁знали": 1634,
  "▁5.": 1635,
  "▁Христа": 1636,
  "енко": 1637,
  "N": 1638,
  "изм": 1639,
  "▁какого": 1640,
  "▁1)": 1641,
  "вшихся": 1642,
  "▁км": 1643,
  "ила": 1644,
  "▁пяти": 1645,
  "▁29": 1646,
  "▁представить": 1647,
  "▁называется": 1648,
  "▁двадцать": 1649,
  "▁пример": 1650,
  "чи": 1651,
  "ги": 1652,
  "▁1942": 1653,
  "K": 1654,
  "▁дороги": 1655,
  "ники": 1656,
  "▁новое": 1657,
  "▁школы": 1658,
  "▁ночью": 1659,
  "▁четырех": 1660,
  "▁заметил": 1661,
  "▁ум": 1662,
  "▁военного": 1663,
  "ве": 1664,
  "▁тысячи": 1665,
  "▁жена": 1666,
  "▁лично": 1667,
  "▁шли": 1668,
  "on": 1669,
  "▁борьбе": 1670,
  "▁умер": 1671,
  "ity": 1672,
  "▁генерала": 1673,
  "▁глазами": 1674,
  "▁Москвы": 1675,
  "▁3-": 1676,
  "▁O": 1677,
  "st": 1678,
  "▁князь": 1679,
  "▁видели": 1680,
  "ией": 1681,
  "▁большей": 1682,
  "би": 1683,
  "▁получили": 1684,
  "▁поля": 1685,
  "▁Петр": 1686,
  "илась": 1687,
  "▁дух": 1688,
  "▁приказ": 1689,
  "!..": 1690,
  "▁флота": 1691,
  "▁личности": 1692,
  "▁раза": 1693,
  "▁сознания": 1694,
  "▁позволяет": 1695,
  "▁Пусть": 1696,
  "▁мин": 1697,
  "▁пошел": 1698,
  "▁Господь": 1699,
  "▁головой": 1700,
  "▁приходилось": 1701,
  "ической": 1702,
  "▁помочь": 1703,
  "▁new": 1704,
  "▁врага": 1705,
  "іи": 1706,
  "▁создать": 1707,
  "to": 1708,
  "ры": 1709,
  "▁медленно": 1710,
  "род": 1711,
  "▁крайне": 1712,
  "▁уровне": 1713,
  "▁see": 1714,
  "▁насколько": 1715,
  "Ю": 1716,
  "▁Ее": 1717,
  "что": 1718,
  "▁изменения": 1719,
  "▁машины": 1720,
  "▁обязательно": 1721,
  "▁чему": 1722,
  "вшиеся": 1723,
  "▁оба": 1724,
  "▁Возможно": 1725,
  "▁способ": 1726,
  "▁конец": 1727,
  "▁Владимир": 1728,
  "▁дороге": 1729,
  "▁службы": 1730,
  "▁полной": 1731,
  "▁уровень": 1732,
  "ика": 1733,
  "▁можете": 1734,
  "▁Богу": 1735,
  "9": 1736,
  "▁начальник": 1737,
  "▁вернулся": 1738,
  "▁1917": 1739,
  "▁боя": 1740,
  "▁2)": 1741,
  "▁книгу": 1742,
  "▁составе": 1743,
  "▁работ": 1744,
  "▁анти": 1745,
  "▁безопасности": 1746,
  "Ь": 1747,
  "▁глазах": 1748,
  "▁Некоторые": 1749,
  "▁памяти": 1750,
  "▁000": 1751,
  "▁сердца": 1752,
  "тся": 1753,
  "▁настоящее": 1754,
  "°": 1755,
  "▁зависимости": 1756,
  "▁разговор": 1757,
  "▁разве": 1758,
  "▁начинает": 1759,
  "▁русский": 1760,
  "▁дверь": 1761,
  "ического": 1762,
  "па": 1763,
  "▁Более": 1764,
  "▁Среди": 1765,
  "ро": 1766,
  "”.": 1767,
  "able": 1768,
  "▁думать": 1769,
  "▁соответствии": 1770,
  "овая": 1771,
  "▁порядок": 1772,
  "▁отдельных": 1773,
  "▁большая": 1774,
  "ян": 1775,
  "▁увидеть": 1776,
  "́": 1777,
  "ос": 1778,
  "ический": 1779,
  "▁кон": 1780,
  "вшись": 1781,
  "ек": 1782,
  "▁приходится": 1783,
  "▁мою": 1784,
  "▁Пока": 1785,
  "▁Многие": 1786,
  "▁l": 1787,
  "ющая": 1788,
  "▁больших": 1789,
  "▁состояния": 1790,
  "▁after": 1791,
  "▁данные": 1792,
  "▁пост": 1793,
  "▁Тот": 1794,
  "нет": 1795,
  "че": 1796,
  "▁пришли": 1797,
  "▁месяца": 1798,
  "▁князя": 1799,
  ".—": 1800,
  "▁заявил": 1801,
  "▁думал": 1802,
  "▁Перед": 1803,
  "▁Без": 1804,
  "▁1918": 1805,
  "▁хотелось": 1806,
  "▁систему": 1807,
  "▁офицеров": 1808,
  "2.": 1809,
  "▁одному": 1810,
  "▁знания": 1811,
  "▁проблем": 1812,
  "▁even": 1813,
  "▁военно": 1814,
  "▁фон": 1815,
  "▁x": 1816,
  "ках": 1817,
  "▁первом": 1818,
  "▁книг": 1819,
  "лю": 1820,
  "▁1943": 1821,
  "▁суда": 1822,
  "▁нашу": 1823,
  "▁ребенка": 1824,
  "▁шесть": 1825,
  "▁оружие": 1826,
  "вшие": 1827,
  "▁земля": 1828,
  "▁полк": 1829,
  "▁обо": 1830,
  "▁уровня": 1831,
  "ѵ": 1832,
  "ель": 1833,
  "▁man": 1834,
  "▁рук": 1835,
  "▁общество": 1836,
  "▁рукой": 1837,
  "▁другу": 1838,
  "▁60": 1839,
  "▁словам": 1840,
  "▁v": 1841,
  "▁приказал": 1842,
  "▁4-": 1843,
  "І": 1844,
  "▁мнение": 1845,
  "▁предложил": 1846,
  "▁ход": 1847,
  "▁государство": 1848,
  "▁различные": 1849,
  "▁обратно": 1850,
  "▁книга": 1851,
  "▁будучи": 1852,
  "▁зависит": 1853,
  "▁чтоб": 1854,
  "▁спокойно": 1855,
  "емся": 1856,
  "иться": 1857,
  "ia": 1858,
  "▁функции": 1859,
  "ум": 1860,
  "▁where": 1861,
  "ба": 1862,
  "▁Ц": 1863,
  "▁6.": 1864,
  "▁Ленин": 1865,
  "▁Z": 1866,
  "▁собственной": 1867,
  "ча": 1868,
  "▁поверхности": 1869,
  "ника": 1870,
  "▁желание": 1871,
  "▁very": 1872,
  "▁^": 1873,
  "▁Оно": 1874,
  "ё": 1875,
  "O": 1876,
  "▁работал": 1877,
  "она": 1878,
  "▁many": 1879,
  "ических": 1880,
  "▁литературы": 1881,
  "▁утра": 1882,
  "▁особенности": 1883,
  "▁кем": 1884,
  "▁)": 1885,
  "▁порядка": 1886,
  "▁крестьян": 1887,
  "▁Сталина": 1888,
  "▁рождения": 1889,
  "ятся": 1890,
  "▁действие": 1891,
  "):": 1892,
  "нов": 1893,
  "ll": 1894,
  "овым": 1895,
  "▁благо": 1896,
  "ическое": 1897,
  "▁Красной": 1898,
  "▁Александра": 1899,
  "▁Советского": 1900,
  "▁наук": 1901,
  "▁центр": 1902,
  "▁протяжении": 1903,
  "▁шла": 1904,
  "▁осталось": 1905,
  "вин": 1906,
  "▁~": 1907,
  "▁силами": 1908,
  "▁боевых": 1909,
  "▁общего": 1910,
  "▁честь": 1911,
  "▁цвет": 1912,
  "▁оружия": 1913,
  "te": 1914,
  "це": 1915,
  "▁текст": 1916,
  "▁широко": 1917,
  "▁just": 1918,
  "▁данных": 1919,
  "▁way": 1920,
  "▁вдоль": 1921,
  "▁болезни": 1922,
  "▁Несмотря": 1923,
  "▁ума": 1924,
  "▁оказывается": 1925,
  "le": 1926,
  "▁фронт": 1927,
  "▁создания": 1928,
  "▁w": 1929,
  "▁этими": 1930,
  "▁вниз": 1931,
  "▁did": 1932,
  "▁компании": 1933,
  "ха": 1934,
  "▁душе": 1935,
  "▁рис": 1936,
  "▁впоследствии": 1937,
  "▁интерес": 1938,
  "▁Вам": 1939,
  "▁ну": 1940,
  "▁самому": 1941,
  "▁1944": 1942,
  "▁may": 1943,
  "▁|": 1944,
  "▁продолжал": 1945,
  "▁through": 1946,
  "▁наоборот": 1947,
  "ием": 1948,
  "три": 1949,
  "▁сведения": 1950,
  "▁лес": 1951,
  "▁форм": 1952,
  "▁порядке": 1953,
  "▁придется": 1954,
  "▁der": 1955,
  "▁капитан": 1956,
  "▁ночи": 1957,
  "▁форму": 1958,
  "▁знаем": 1959,
  "▁нашем": 1960,
  "ій": 1961,
  "▁философии": 1962,
  "▁r": 1963,
  "▁руками": 1964,
  "▁положении": 1965,
  "▁никакой": 1966,
  "ру": 1967,
  "▁впечатление": 1968,
  "▁однажды": 1969,
  "енный": 1970,
  "▁странах": 1971,
  "ики": 1972,
  "|": 1973,
  "▁оказалась": 1974,
  "▁каждом": 1975,
  "▁вещей": 1976,
  "▁называют": 1977,
  "▁Потому": 1978,
  "гу": 1979,
  "▁млн": 1980,
  "видимому": 1981,
  "▁And": 1982,
  "▁чрезвычайно": 1983,
  "енные": 1984,
  "▁сознание": 1985,
  "▁приводит": 1986,
  "▁Рис": 1987,
  "ски": 1988,
  "▁искать": 1989,
  "мъ": 1990,
  "▁правильно": 1991,
  "▁Поскольку": 1992,
  "▁Где": 1993,
  "▁пр": 1994,
  "▁утром": 1995,
  "▁месяц": 1996,
  "▁эпохи": 1997,
  "▁how": 1998,
  "▁радио": 1999,
  "▁род": 2000,
  "▁новую": 2001,
  "▁видимо": 2002,
  "▁свете": 2003,
  "овать": 2004,
  "?!": 2005,
  "▁другую": 2006,
  "▁изъ": 2007,
  "▁&": 2008,
  "▁чисто": 2009,
  "▁головы": 2010,
  "▁смог": 2011,
  "the": 2012,
  "кон": 2013,
  "▁образования": 2014,
  ",—": 2015,
  "скими": 2016,
  "▁back": 2017,
  "▁ими": 2018,
  ",”": 2019,
  "▁групп": 2020,
  "ист": 2021,
  "▁g": 2022,
  "▁некоторое": 2023,
  "▁Очень": 2024,
  "▁городов": 2025,
  "▁сто": 2026,
  "▁наступление": 2027,
  "▁суд": 2028,
  "вшийся": 2029,
  "▁автора": 2030,
  "▁меры": 2031,
  "▁Каждый": 2032,
  "▁случилось": 2033,
  "▁ныне": 2034,
  "▁требует": 2035,
  "▁For": 2036,
  "X": 2037,
  "▁относится": 2038,
  "▁естественно": 2039,
  "▁остался": 2040,
  "▁времен": 2041,
  "▁середине": 2042,
  "▁дочь": 2043,
  "▁стол": 2044,
  "▁свободы": 2045,
  "▁Ко": 2046,
  "▁шаг": 2047,
  "▁XX": 2048,
  "▁существования": 2049,
  "▁As": 2050,
  "ишь": 2051,
  "▁made": 2052,
  "▁общей": 2053,
  "▁Дело": 2054,
  "▁начальника": 2055,
  "▁глубоко": 2056,
  "▁процесса": 2057,
  "The": 2058,
  "первых": 2059,
  "▁выбор": 2060,
  "▁св": 2061,
  "▁процессе": 2062,
  "ева": 2063,
  "▁видим": 2064,
  "▁жителей": 2065,
  "▁молодой": 2066,
  "▁between": 2067,
  "▁немцы": 2068,
  "▁данном": 2069,
  "▁страх": 2070,
  "▁нашим": 2071,
  "шей": 2072,
  "▁now": 2073,
  "»).": 2074,
  "▁world": 2075,
  "▁задача": 2076,
  "▁Меня": 2077,
  "▁король": 2078,
  "▁недавно": 2079,
  "▁первое": 2080,
  "се": 2081,
  "Ц": 2082,
  "▁характера": 2083,
  "ста": 2084,
  "▁высоко": 2085,
  "▁мол": 2086,
  "▁всякого": 2087,
  "▁говорю": 2088,
  "▁шел": 2089,
  "▁писать": 2090,
  "▁Вас": 2091,
  "▁абсолютно": 2092,
  "Ж": 2093,
  "▁кино": 2094,
  "▁Вскоре": 2095,
  "▁200": 2096,
  "▁причин": 2097,
  "▁системе": 2098,
  "▁горы": 2099,
  "▁класса": 2100,
  "▁метров": 2101,
  "▁границы": 2102,
  "▁душа": 2103,
  "▁плен": 2104,
  "ar": 2105,
  "▁before": 2106,
  "▁находились": 2107,
  "▁душу": 2108,
  "▁штаб": 2109,
  "am": 2110,
  "▁вверх": 2111,
  "▁возникает": 2112,
  "▁остальные": 2113,
  "▁because": 2114,
  "▁годах": 2115,
  "▁отряд": 2116,
  "▁каком": 2117,
  "▁Те": 2118,
  "тель": 2119,
  "▁немцев": 2120,
  "▁фактически": 2121,
  "▁случайно": 2122,
  "▁состава": 2123,
  "▁идея": 2124,
  "▁решили": 2125,
  "▁корпус": 2126,
  "▁окончательно": 2127,
  "▁подобно": 2128,
  "ового": 2129,
  "▁well": 2130,
  "вшего": 2131,
  "рас": 2132,
  "▁второго": 2133,
  "▁31": 2134,
  "▁und": 2135,
  "▁Сегодня": 2136,
  "de": 2137,
  "ви": 2138,
  "▁водой": 2139,
  "▁Михаил": 2140,
  "▁императора": 2141,
  "▁считает": 2142,
  "▁us": 2143,
  "▁теле": 2144,
  "прежнему": 2145,
  "▁память": 2146,
  "▁природе": 2147,
  "▁ш": 2148,
  "▁Было": 2149,
  "▁проект": 2150,
  "▁Иногда": 2151,
  "лин": 2152,
  "▁much": 2153,
  "▁І": 2154,
  "▁k": 2155,
  "▁Совета": 2156,
  "▁результат": 2157,
  "«": 2158,
  "▁поэт": 2159,
  "▁узнать": 2160,
  "▁Москва": 2161,
  "▁York": 2162,
  "ющим": 2163,
  "▁Кон": 2164,
  "▁духа": 2165,
  "▁лице": 2166,
  "▁срок": 2167,
  "il": 2168,
  "▁дорогу": 2169,
  "▁вечером": 2170,
  "▁узнал": 2171,
  "▁друзей": 2172,
  "▁life": 2173,
  "▁work": 2174,
  "▁1945": 2175,
  "▁обществе": 2176,
  "▁последних": 2177,
  "▁прекрасно": 2178,
  "▁улице": 2179,
  "▁позднее": 2180,
  "▁жизнью": 2181,
  "ism": 2182,
  "▁дали": 2183,
  "▁z": 2184,
  "▁неожиданно": 2185,
  "▁вода": 2186,
  "▁видов": 2187,
  "▁years": 2188,
  "▁down": 2189,
  "бо": 2190,
  "}": 2191,
  "▁вечер": 2192,
  "▁лежит": 2193,
  "▁голове": 2194,
  "▁традиции": 2195,
  "▁говорится": 2196,
  "▁Мир": 2197,
  "▁мимо": 2198,
  "▁des": 2199,
  "ment": 2200,
  "▁великого": 2201,
  "мен": 2202,
  "▁кое": 2203,
  "▁боевой": 2204,
  "вид": 2205,
  "▁принимать": 2206,
  "▁армию": 2207,
  "ды": 2208,
  "»:": 2209,
  "▁лицом": 2210,
  "▁член": 2211,
  "▁евреев": 2212,
  "▁промышленности": 2213,
  "ор": 2214,
  "▁Нам": 2215,
  "▁церковь": 2216,
  "омъ": 2217,
  "].": 2218,
  "▁Второй": 2219,
  "▁Россию": 2220,
  "▁Руси": 2221,
  "▁сделали": 2222,
  "▁отъ": 2223,
  "▁привести": 2224,
  "▁Ли": 2225,
  "изма": 2226,
  "▁район": 2227,
  "▁вопросов": 2228,
  "▁последнего": 2229,
  "as": 2230,
  "▁сожалению": 2231,
  "▁брата": 2232,
  "▁миру": 2233,
  "▁кровь": 2234,
  "▁политических": 2235,
  "”,": 2236,
  "▁Италии": 2237,
  "▁фронте": 2238,
  "▁войсками": 2239,
  "at": 2240,
  "▁пер": 2241,
  "▁центре": 2242,
  "▁воздух": 2243,
  "▁They": 2244,
  "▁сказано": 2245,
  "▁жили": 2246,
  "▁периода": 2247,
  "▁итоге": 2248,
  "▁работает": 2249,
  "▁буквально": 2250,
  "▁семь": 2251,
  "▁момента": 2252,
  "▁идей": 2253,
  "▁выход": 2254,
  "▁первая": 2255,
  "▁хлеб": 2256,
  "▁недели": 2257,
  "▁same": 2258,
  "лет": 2259,
  "\\": 2260,
  "▁трудом": 2261,
  "▁следовательно": 2262,
  "▁находятся": 2263,
  "▁Особенно": 2264,
  "▁суть": 2265,
  "стр": 2266,
  "▁немало": 2267,
  "ющихся": 2268,
  "▁солнце": 2269,
  "▁заключается": 2270,
  "▁ваш": 2271,
  "▁машин": 2272,
  "▁объяснить": 2273,
  "▁редко": 2274,
  "▁нашел": 2275,
  "▁use": 2276,
  "▁семье": 2277,
  "енных": 2278,
  "▁военные": 2279,
  "▁Люди": 2280,
  "▁рот": 2281,
  "▁форма": 2282,
  "▁живет": 2283,
  "▁хотели": 2284,
  "▁Рас": 2285,
  "▁результаты": 2286,
  "▁пошли": 2287,
  "▁опыта": 2288,
  "▁рост": 2289,
  "ший": 2290,
  "ус": 2291,
  "▁небо": 2292,
  "▁Человек": 2293,
  "ации": 2294,
  "▁появились": 2295,
  "▁причине": 2296,
  "▁последнее": 2297,
  "ница": 2298,
  "▁кораблей": 2299,
  "▁вернуться": 2300,
  "▁иностранных": 2301,
  "мо": 2302,
  "▁танков": 2303,
  "▁представление": 2304,
  "▁рублей": 2305,
  "лен": 2306,
  "ович": 2307,
  "▁писатель": 2308,
  "▁Петра": 2309,
  "Да": 2310,
  "▁минуту": 2311,
  "▁напротив": 2312,
  "▁стояли": 2313,
  "▁7.": 2314,
  "▁If": 2315,
  "▁en": 2316,
  "▁сотни": 2317,
  "▁действовать": 2318,
  "▁вывод": 2319,
  "▁одни": 2320,
  "▁миллионов": 2321,
  "▁составляет": 2322,
  "ine": 2323,
  "▁видит": 2324,
  "▁существование": 2325,
  "▁большого": 2326,
  "▁потери": 2327,
  "ch": 2328,
  "»),": 2329,
  "▁ближе": 2330,
  "▁имела": 2331,
  "▁показал": 2332,
  "▁небольшой": 2333,
  "▁пытался": 2334,
  "▁служить": 2335,
  "▁начать": 2336,
  "▁словом": 2337,
  "▁вопроса": 2338,
  "▁отсутствие": 2339,
  "▁Та": 2340,
  "▁вида": 2341,
  "▁make": 2342,
  "▁go": 2343,
  "▁якобы": 2344,
  "10": 2345,
  "ера": 2346,
  "▁содержание": 2347,
  "▁такими": 2348,
  "ар": 2349,
  "▁сути": 2350,
  "▁тихо": 2351,
  "▁those": 2352,
  "ve": 2353,
  "▁берег": 2354,
  "▁современной": 2355,
  "▁будущем": 2356,
  "▁To": 2357,
  "▁1939": 2358,
  "▁Чем": 2359,
  "цу": 2360,
  "▁понятно": 2361,
  "▁own": 2362,
  "▁Однажды": 2363,
  "▁знак": 2364,
  "▁отправился": 2365,
  "▁тобой": 2366,
  "▁самим": 2367,
  "▁get": 2368,
  "▁основании": 2369,
  "ne": 2370,
  "▁Азии": 2371,
  "▁Первый": 2372,
  "▁мужа": 2373,
  "▁зачем": 2374,
  "▁стены": 2375,
  "▁under": 2376,
  "ющее": 2377,
  "▁хуже": 2378,
  "▁веры": 2379,
  "▁long": 2380,
  "ive": 2381,
  "▁крупных": 2382,
  "▁поведения": 2383,
  "пере": 2384,
  "▁мест": 2385,
  "▁VI": 2386,
  "▁делу": 2387,
  "et": 2388,
  "▁немецких": 2389,
  "▁вел": 2390,
  "▁назвать": 2391,
  "▁представителей": 2392,
  "▁показывает": 2393,
  "▁XVIII": 2394,
  "▁статьи": 2395,
  "▁сидел": 2396,
  "▁скорость": 2397,
  "▁ре": 2398,
  "▁Согласно": 2399,
  "▁острова": 2400,
  "ist": 2401,
  "▁нередко": 2402,
  "▁принято": 2403,
  "▁будущее": 2404,
  "▁сквозь": 2405,
  "▁другая": 2406,
  "▁вами": 2407,
  "▁should": 2408,
  "▁службу": 2409,
  "▁сомнения": 2410,
  "▁органов": 2411,
  "▁концу": 2412,
  "▁веке": 2413,
  "▁al": 2414,
  "▁успел": 2415,
  "▁император": 2416,
  "▁систем": 2417,
  "▁остались": 2418,
  "1.": 2419,
  "действительности": 2420,
  "ид": 2421,
  "▁Три": 2422,
  "▁основных": 2423,
  "▁Ла": 2424,
  "▁1919": 2425,
  "ении": 2426,
  "▁Иванович": 2427,
  "▁всякий": 2428,
  "00": 2429,
  "▁ведет": 2430,
  "ден": 2431,
  "▁способность": 2432,
  "▁элементов": 2433,
  "жа": 2434,
  "▁мозга": 2435,
  "▁показать": 2436,
  "▁зло": 2437,
  "▁включая": 2438,
  "▁члены": 2439,
  "▁вследствие": 2440,
  "▁никого": 2441,
  "▁пар": 2442,
  "»;": 2443,
  "▁огня": 2444,
  "▁понятия": 2445,
  "▁Гитлер": 2446,
  "▁имеется": 2447,
  "▁орудий": 2448,
  "▁цвета": 2449,
  "▁муж": 2450,
  "▁представления": 2451,
  "▁собою": 2452,
  "▁веков": 2453,
  "▁ею": 2454,
  "▁метод": 2455,
  "▁великий": 2456,
  "▁всяком": 2457,
  "▁человеческого": 2458,
  "▁успешно": 2459,
  "ете": 2460,
  "▁отдела": 2461,
  "▁человечества": 2462,
  "ian": 2463,
  "▁Вместе": 2464,
  "▁прошлого": 2465,
  "▁двери": 2466,
  "▁моим": 2467,
  "▁ряда": 2468,
  "▁вынужден": 2469,
  "▁мер": 2470,
  "▁поход": 2471,
  "▁вышли": 2472,
  "так": 2473,
  "▁произведения": 2474,
  "▁область": 2475,
  "лу": 2476,
  "▁проблема": 2477,
  "▁Кар": 2478,
  "▁70": 2479,
  "ющиеся": 2480,
  "▁подробно": 2481,
  "▁руб": 2482,
  "▁стихи": 2483,
  "ant": 2484,
  "▁Армии": 2485,
  "вшегося": 2486,
  "▁Re": 2487,
  "▁неделю": 2488,
  "▁оттуда": 2489,
  "▁качества": 2490,
  "▁газеты": 2491,
  "▁страну": 2492,
  "▁ваши": 2493,
  "▁несомненно": 2494,
  "ена": 2495,
  "▁жены": 2496,
  "el": 2497,
  "▁выйти": 2498,
  "▁Земли": 2499,
  "▁площади": 2500,
  "▁понятие": 2501,
  "▁делают": 2502,
  "▁поведение": 2503,
  "▁сущности": 2504,
  "▁долларов": 2505,
  "▁самая": 2506,
  "вторых": 2507,
  "▁появился": 2508,
  "▁вашей": 2509,
  "▁определить": 2510,
  "сон": 2511,
  "▁воли": 2512,
  "прав": 2513,
  "▁подобных": 2514,
  "▁смотреть": 2515,
  "▁полковник": 2516,
  "▁случаев": 2517,
  "▁пространство": 2518,
  "▁будущего": 2519,
  "▁мм": 2520,
  "лы": 2521,
  "▁возле": 2522,
  "q": 2523,
  "▁борьба": 2524,
  "-2": 2525,
  "▁обоих": 2526,
  "стве": 2527,
  "▁сильнее": 2528,
  "▁наверное": 2529,
  "▁знают": 2530,
  "▁понимал": 2531,
  "▁самолетов": 2532,
  "▁подумал": 2533,
  "тон": 2534,
  "▁1940": 2535,
  "▁рассказал": 2536,
  "▁выражение": 2537,
  "▁начинается": 2538,
  "▁История": 2539,
  "▁ваше": 2540,
  "▁читать": 2541,
  "▁отношениях": 2542,
  "▁мною": 2543,
  "▁вижу": 2544,
  "▁being": 2545,
  "▁собственно": 2546,
  "▁бог": 2547,
  "▁Ленина": 2548,
  "▁именем": 2549,
  "▁сел": 2550,
  "▁боль": 2551,
  "3.": 2552,
  "▁Павел": 2553,
  "▁«...": 2554,
  "▁победы": 2555,
  "▁тип": 2556,
  "▁h": 2557,
  "and": 2558,
  "U": 2559,
  "▁армий": 2560,
  "▁рассказ": 2561,
  "▁граждан": 2562,
  "▁§": 2563,
  "щ": 2564,
  "▁успех": 2565,
  "▁литературе": 2566,
  "▁целый": 2567,
  "▁внимательно": 2568,
  "▁Значит": 2569,
  "▁war": 2570,
  "▁основания": 2571,
  "▁человеческой": 2572,
  "▁класс": 2573,
  "вшей": 2574,
  "▁уверен": 2575,
  "▁Ибо": 2576,
  "▁религии": 2577,
  "▁прошлом": 2578,
  "пре": 2579,
  "▁понимать": 2580,
  "▁Y": 2581,
  "▁day": 2582,
  "▁пространства": 2583,
  "ска": 2584,
  "▁крест": 2585,
  "▁искусство": 2586,
  "▁командира": 2587,
  "▁8.": 2588,
  "▁j": 2589,
  "▁задач": 2590,
  "▁необходимость": 2591,
  "▁сможет": 2592,
  "ана": 2593,
  "▁произнес": 2594,
  "▁любил": 2595,
  "▁роман": 2596,
  "▁задачу": 2597,
  "ге": 2598,
  "▁техники": 2599,
  "▁Церкви": 2600,
  "▁Сергей": 2601,
  "▁эпоху": 2602,
  "▁причины": 2603,
  "▁нашли": 2604,
  "▁угодно": 2605,
  "▁сообщил": 2606,
  "▁соч": 2607,
  "▁курс": 2608,
  "лей": 2609,
  "▁борьбу": 2610,
  "▁принадлежит": 2611,
  "▁Господа": 2612,
  "▁третий": 2613,
  "▁считают": 2614,
  "▁дают": 2615,
  "▁союз": 2616,
  "▁главный": 2617,
  "▁влияния": 2618,
  "▁роста": 2619,
  "▁массы": 2620,
  "▁отметить": 2621,
  "▁used": 2622,
  "▁хозяйства": 2623,
  "▁следующее": 2624,
  "▁считали": 2625,
  "▁тщательно": 2626,
  "▁прибыл": 2627,
  "▁советского": 2628,
  "▁Лев": 2629,
  "em": 2630,
  "▁сравнению": 2631,
  "▁You": 2632,
  "ак": 2633,
  "▁Кор": 2634,
  "▁встречи": 2635,
  "▁good": 2636,
  "▁80": 2637,
  "▁know": 2638,
  "▁самолет": 2639,
  "▁попытки": 2640,
  "▁защиты": 2641,
  "▁солдаты": 2642,
  "▁ком": 2643,
  "истов": 2644,
  "▁знаете": 2645,
  "▁помню": 2646,
  "▁завтра": 2647,
  "▁названием": 2648,
  "▁There": 2649,
  "▁флот": 2650,
  "▁провести": 2651,
  "▁население": 2652,
  "▁De": 2653,
  "▁Нью": 2654,
  "▁десяти": 2655,
  "▁высокой": 2656,
  "▁свободу": 2657,
  "▁ситуация": 2658,
  "▁делал": 2659,
  "▁предложение": 2660,
  "нос": 2661,
  "▁способности": 2662,
  "Y": 2663,
  "ir": 2664,
  "▁корабль": 2665,
  "▁y": 2666,
  "▁Им": 2667,
  "▁закона": 2668,
  "▁Гор": 2669,
  "город": 2670,
  "▁государств": 2671,
  "▁СПб": 2672,
  "▁вопросу": 2673,
  "▁нужны": 2674,
  "▁делом": 2675,
  "▁условий": 2676,
  "▁последней": 2677,
  "Если": 2678,
  "▁верно": 2679,
  "▁сей": 2680,
  "▁половине": 2681,
  "▁шум": 2682,
  "▁рамках": 2683,
  "▁посредством": 2684,
  "▁успеха": 2685,
  "▁внутренних": 2686,
  "▁нос": 2687,
  "▁приходит": 2688,
  "бу": 2689,
  "▁информацию": 2690,
  "▁пару": 2691,
  "▁должности": 2692,
  "иль": 2693,
  "▁тяжело": 2694,
  "▁игры": 2695,
  "▁ад": 2696,
  "▁мужчин": 2697,
  "мир": 2698,
  "▁воздуха": 2699,
  "▁круг": 2700,
  "▁иной": 2701,
  "-1": 2702,
  "▁разумеется": 2703,
  "▁письме": 2704,
  "▁служит": 2705,
  "▁part": 2706,
  "▁вариант": 2707,
  "ям": 2708,
  "▁дальнейшем": 2709,
  "▁отряда": 2710,
  "▁новым": 2711,
  "▁материал": 2712,
  "вшейся": 2713,
  "▁гл": 2714,
  "▁вызывает": 2715,
  "▁1920": 2716,
  "Мы": 2717,
  "▁хотят": 2718,
  "▁берега": 2719,
  "дер": 2720,
  "▁строго": 2721,
  "▁сказали": 2722,
  "▁мама": 2723,
  "▁Разве": 2724,
  "вал": 2725,
  "▁(1": 2726,
  "▁политика": 2727,
  "ate": 2728,
  "▁пришла": 2729,
  "▁какъ": 2730,
  "▁вышла": 2731,
  "▁Богом": 2732,
  "▁создание": 2733,
  "▁Великой": 2734,
  "ща": 2735,
  "▁целей": 2736,
  "▁авиации": 2737,
  "▁внезапно": 2738,
  "▁километров": 2739,
  "ел": 2740,
  "пер": 2741,
  "▁Мар": 2742,
  "ству": 2743,
  "▁вплоть": 2744,
  "▁данной": 2745,
  "▁северо": 2746,
  "▁предмет": 2747,
  "▁St": 2748,
  "▁заниматься": 2749,
  "шь": 2750,
  "Как": 2751,
  "▁off": 2752,
  "▁днем": 2753,
  "▁государственной": 2754,
  "▁соответственно": 2755,
  "▁самих": 2756,
  "бы": 2757,
  "▁разведки": 2758,
  "▁девушка": 2759,
  "▁слышал": 2760,
  "▁активно": 2761,
  "ала": 2762,
  "▁Press": 2763,
  "▁друзья": 2764,
  "▁товарищ": 2765,
  "▁добиться": 2766,
  "▁новая": 2767,
  "ешься": 2768,
  "▁связано": 2769,
  "▁La": 2770,
  "▁корабли": 2771,
  "▁подготовки": 2772,
  "▁Ар": 2773,
  "▁имея": 2774,
  "▁Сан": 2775,
  "▁называли": 2776,
  "ическую": 2777,
  "▁must": 2778,
  "os": 2779,
  "▁Андрей": 2780,
  "наго": 2781,
  "▁воде": 2782,
  "▁внешней": 2783,
  "▁впереди": 2784,
  "▁500": 2785,
  "▁граф": 2786,
  "▁основной": 2787,
  "▁On": 2788,
  "▁бою": 2789,
  "▁района": 2790,
  "▁хочется": 2791,
  "▁подобные": 2792,
  "▁вели": 2793,
  "▁любого": 2794,
  "▁пара": 2795,
  "▁Хорошо": 2796,
  "▁специально": 2797,
  "ностью": 2798,
  "▁ал": 2799,
  "▁each": 2800,
  "▁началась": 2801,
  "▁исследований": 2802,
  "▁достижения": 2803,
  "▁XVII": 2804,
  "▁данным": 2805,
  "аль": 2806,
  "▁прием": 2807,
  "▁наступления": 2808,
  "▁командование": 2809,
  "▁готовы": 2810,
  "▁реальности": 2811,
  "▁300": 2812,
  "▁основные": 2813,
  "▁судьба": 2814,
  "▁многое": 2815,
  "▁Пер": 2816,
  "▁никому": 2817,
  "▁возраста": 2818,
  "▁станции": 2819,
  "–19": 2820,
  "▁назначен": 2821,
  "▁программы": 2822,
  "▁признать": 2823,
  "▁контроль": 2824,
  "▁XVI": 2825,
  "▁вашего": 2826,
  "ur": 2827,
  "▁воздухе": 2828,
  "шу": 2829,
  "▁школе": 2830,
  "▁идут": 2831,
  "▁still": 2832,
  "▁Ре": 2833,
  "▁Иисуса": 2834,
  "Ъ": 2835,
  "▁судов": 2836,
  "▁живут": 2837,
  "▁Дж": 2838,
  "▁усилия": 2839,
  "▁леса": 2840,
  "▁опасности": 2841,
  "▁совет": 2842,
  "▁оставалось": 2843,
  "▁связаны": 2844,
  "▁народу": 2845,
  "▁установить": 2846,
  "▁врагов": 2847,
  "стер": 2848,
  "▁чувств": 2849,
  "▁переход": 2850,
  "▁отдельные": 2851,
  "18": 2852,
  "вшая": 2853,
  "▁образование": 2854,
  "▁корабля": 2855,
  "▁Василий": 2856,
  "▁Далее": 2857,
  "▁three": 2858,
  "▁du": 2859,
  "▁навсегда": 2860,
  "▁Союз": 2861,
  "▁экономики": 2862,
  "na": 2863,
  "▁анализ": 2864,
  "▁заранее": 2865,
  "▁законы": 2866,
  "▁разум": 2867,
  "▁шести": 2868,
  "▁документы": 2869,
  "овский": 2870,
  "▁недостаточно": 2871,
  "▁поздно": 2872,
  "▁ждать": 2873,
  "▁3)": 2874,
  "▁внутренней": 2875,
  "▁руководство": 2876,
  "▁принцип": 2877,
  "▁вес": 2878,
  "▁восемь": 2879,
  "],": 2880,
  "▁молодых": 2881,
  "▁обе": 2882,
  "▁эффект": 2883,
  "▁строй": 2884,
  "▁ветер": 2885,
  "емых": 2886,
  "▁поставить": 2887,
  "▁рано": 2888,
  "▁мужчины": 2889,
  "▁сорок": 2890,
  "▁легче": 2891,
  "енная": 2892,
  "▁следующие": 2893,
  "▁When": 2894,
  "▁нежели": 2895,
  "▁становятся": 2896,
  "▁Пред": 2897,
  "▁отвечал": 2898,
  "овъ": 2899,
  "▁дивизия": 2900,
  "▁оставил": 2901,
  "овую": 2902,
  "▁Японии": 2903,
  "▁Париж": 2904,
  "▁желания": 2905,
  "25": 2906,
  "▁самостоятельно": 2907,
  "‐": 2908,
  "альная": 2909,
  "▁получила": 2910,
  "▁остальных": 2911,
  "Й": 2912,
  "▁главных": 2913,
  "▁теми": 2914,
  "▁счастье": 2915,
  "▁попросил": 2916,
  "▁группу": 2917,
  "▁оставить": 2918,
  "▁следовало": 2919,
  "▁местных": 2920,
  "Z": 2921,
  "▁социальной": 2922,
  "▁главного": 2923,
  "▁per": 2924,
  "▁комнате": 2925,
  "▁й": 2926,
  "ness": 2927,
  "▁остров": 2928,
  "▁отсюда": 2929,
  "▁men": 2930,
  "нем": 2931,
  "▁артиллерии": 2932,
  "▁сопротивление": 2933,
  "▁бригады": 2934,
  "бер": 2935,
  "▁She": 2936,
  "▁обратился": 2937,
  "▁плане": 2938,
  "ившись": 2939,
  "Что": 2940,
  "овый": 2941,
  "сов": 2942,
  "▁полном": 2943,
  "▁согласился": 2944,
  "▁Российской": 2945,
  "▁песни": 2946,
  "▁играть": 2947,
  "жи": 2948,
  "▁сон": 2949,
  "▁35": 2950,
  "▁веру": 2951,
  "son": 2952,
  "▁дым": 2953,
  "▁тотчас": 2954,
  "est": 2955,
  "▁Прежде": 2956,
  "▁Иисус": 2957,
  "▁сохранить": 2958,
  "▁полное": 2959,
  "▁обеспечить": 2960,
  "▁ног": 2961,
  "▁Пушкин": 2962,
  "▁ди": 2963,
  "▁двор": 2964,
  "ющийся": 2965,
  "чу": 2966,
  "▁Сначала": 2967,
  "▁горе": 2968,
  "▁Отец": 2969,
  "▁особо": 2970,
  "▁примеру": 2971,
  "▁отнюдь": 2972,
  "▁take": 2973,
  "ация": 2974,
  "пред": 2975,
  "▁договор": 2976,
  "нуть": 2977,
  "▁относятся": 2978,
  "▁сего": 2979,
  "▁end": 2980,
  "Вы": 2981,
  "▁лейтенант": 2982,
  "▁родителей": 2983,
  "▁возрасте": 2984,
  "▁An": 2985,
  "▁приехал": 2986,
  "вар": 2987,
  "▁Украины": 2988,
  "▁смогли": 2989,
  "▁земель": 2990,
  "▁вкус": 2991,
  "4.": 2992,
  "▁мед": 2993,
  "▁совета": 2994,
  "▁любом": 2995,
  "▁Был": 2996,
  "?..": 2997,
  "▁дворе": 2998,
  "▁твой": 2999,
  "▁смысла": 3000,
  "▁количества": 3001,
  "ie": 3002,
  "альные": 3003,
  "▁прямой": 3004,
  "▁ответственность": 3005,
  "▁боли": 3006,
  "▁знаешь": 3007,
  "▁президент": 3008,
  "▁страна": 3009,
  "▁бога": 3010,
  "лов": 3011,
  "▁отдал": 3012,
  "▁читал": 3013,
  "▁правления": 3014,
  "▁Париже": 3015,
  "▁деревни": 3016,
  "▁both": 3017,
  "▁might": 3018,
  "▁смотрел": 3019,
  "▁1937": 3020,
  "▁попал": 3021,
  "▁черты": 3022,
  "▁War": 3023,
  "▁комнату": 3024,
  "▁ушел": 3025,
  "▁элементы": 3026,
  "▁древних": 3027,
  "▁направление": 3028,
  "▁дочери": 3029,
  "овое": 3030,
  "кова": 3031,
  "▁огнем": 3032,
  "▁будете": 3033,
  "▁университета": 3034,
  "ших": 3035,
  "▁ред": 3036,
  "▁понимаю": 3037,
  "▁хлеба": 3038,
  "емые": 3039,
  "▁Америки": 3040,
  "ry": 3041,
  "▁against": 3042,
  "▁впрочем": 3043,
  "исты": 3044,
  "▁открыл": 3045,
  "▁Несколько": 3046,
  "▁знаком": 3047,
  "▁общее": 3048,
  "▁руководством": 3049,
  "▁страха": 3050,
  "▁University": 3051,
  "гор": 3052,
  "▁правила": 3053,
  "дар": 3054,
  "▁радость": 3055,
  "▁интересы": 3056,
  "шего": 3057,
  "▁назвал": 3058,
  "▁9.": 3059,
  "▁Мой": 3060,
  "▁ученых": 3061,
  "тели": 3062,
  "▁использования": 3063,
  "▁края": 3064,
  "При": 3065,
  "▁управление": 3066,
  "▁начиная": 3067,
  "▁Мак": 3068,
  "нь": 3069,
  "▁центра": 3070,
  "▁явления": 3071,
  "хъ": 3072,
  "▁тридцать": 3073,
  "▁цен": 3074,
  "▁вряд": 3075,
  "▁сверх": 3076,
  "▁орудия": 3077,
  "▁предложения": 3078,
  "▁хотите": 3079,
  "кор": 3080,
  "▁right": 3081,
  "▁героя": 3082,
  "id": 3083,
  "▁пожалуй": 3084,
  "▁собственных": 3085,
  "▁перевод": 3086,
  "▁Рим": 3087,
  "▁должность": 3088,
  "▁двое": 3089,
  "▁родился": 3090,
  "▁противник": 3091,
  "▁представители": 3092,
  "45": 3093,
  "ило": 3094,
  "чик": 3095,
  "▁соответствует": 3096,
  "ce": 3097,
  "▁звезд": 3098,
  "▁делали": 3099,
  "▁great": 3100,
  "▁представляют": 3101,
  "▁обладает": 3102,
  "▁собственного": 3103,
  "▁нужна": 3104,
  "é": 3105,
  "▁точку": 3106,
  "▁богов": 3107,
  "▁каждая": 3108,
  "ary": 3109,
  "▁офицер": 3110,
  "▁отдел": 3111,
  "▁каждому": 3112,
  "▁Никто": 3113,
  "▁юго": 3114,
  "▁исключением": 3115,
  "шая": 3116,
  "▁губ": 3117,
  "▁Много": 3118,
  "▁бывший": 3119,
  "▁вечера": 3120,
  "▁любит": 3121,
  "▁скорости": 3122,
  "▁появилась": 3123,
  "▁партия": 3124,
  "ров": 3125,
  "▁послал": 3126,
  "▁текста": 3127,
  "▁завод": 3128,
  "▁Индии": 3129,
  "▁Просто": 3130,
  "▁судьбы": 3131,
  "▁картины": 3132,
  "▁РФ": 3133,
  "▁вещества": 3134,
  "▁отвечает": 3135,
  "▁поэта": 3136,
  "▁here": 3137,
  "енной": 3138,
  "▁строя": 3139,
  "▁другому": 3140,
  "▁ощущение": 3141,
  "▁too": 3142,
  "▁приняли": 3143,
  "▁come": 3144,
  "шие": 3145,
  "▁модели": 3146,
  "▁кн": 3147,
  "▁At": 3148,
  "ta": 3149,
  "▁Всё": 3150,
  "▁another": 3151,
  "пол": 3152,
  "▁бытия": 3153,
  "▁передать": 3154,
  "▁миром": 3155,
  "▁вз": 3156,
  "▁150": 3157,
  "нием": 3158,
  "▁while": 3159,
  "▁получается": 3160,
  "▁тему": 3161,
  "Это": 3162,
  "▁Гитлера": 3163,
  "ён": 3164,
  "▁близко": 3165,
  "▁армией": 3166,
  "▁Николая": 3167,
  "▁минуты": 3168,
  "▁Христос": 3169,
  "▁реакции": 3170,
  "▁ребенок": 3171,
  "тен": 3172,
  "слав": 3173,
  "▁живых": 3174,
  "▁причиной": 3175,
  "▁существуют": 3176,
  "▁команды": 3177,
  "▁моему": 3178,
  "▁порой": 3179,
  "▁ситуацию": 3180,
  "▁крепости": 3181,
  "▁главной": 3182,
  "▁дар": 3183,
  "▁груди": 3184,
  "ющую": 3185,
  "тор": 3186,
  "бе": 3187,
  "▁Одна": 3188,
  "▁подошел": 3189,
  "▁London": 3190,
  "▁НКВД": 3191,
  "▁роз": 3192,
  "▁домов": 3193,
  "аго": 3194,
  "▁имена": 3195,
  "кам": 3196,
  "▁известный": 3197,
  "▁Отсюда": 3198,
  "▁номер": 3199,
  "▁нашему": 3200,
  "▁<...>": 3201,
  "ів": 3202,
  "▁истины": 3203,
  "цами": 3204,
  "▁быстрее": 3205,
  "▁never": 3206,
  "мин": 3207,
  "▁изменить": 3208,
  "ван": 3209,
  "▁появляется": 3210,
  "▁Такие": 3211,
  "▁теория": 3212,
  "▁организма": 3213,
  "▁ц": 3214,
  "▁стремление": 3215,
  "▁производство": 3216,
  "▁говорилось": 3217,
  "▁летом": 3218,
  "▁утро": 3219,
  "▁Оп": 3220,
  "▁решительно": 3221,
  "▁радости": 3222,
  "▁мужчина": 3223,
  "ает": 3224,
  "▁представитель": 3225,
  "▁di": 3226,
  "▁лесу": 3227,
  "▁простой": 3228,
  "сы": 3229,
  "▁министра": 3230,
  "▁комиссии": 3231,
  "▁Кстати": 3232,
  "▁1938": 3233,
  "▁просил": 3234,
  "▁пространстве": 3235,
  "хо": 3236,
  "un": 3237,
  "20": 3238,
  "▁провел": 3239,
  "▁Ничего": 3240,
  "альный": 3241,
  "▁посмотрел": 3242,
  "▁служил": 3243,
  "теля": 3244,
  "▁позицию": 3245,
  "▁опасность": 3246,
  "▁жители": 3247,
  "▁выходит": 3248,
  "▁Le": 3249,
  "▁die": 3250,
  "▁президента": 3251,
  "фа": 3252,
  "▁машину": 3253,
  "▁камень": 3254,
  "▁материалов": 3255,
  "мор": 3256,
  "▁little": 3257,
  "▁меж": 3258,
  "▁энергия": 3259,
  "▁Де": 3260,
  "мат": 3261,
  "ун": 3262,
  "▁печати": 3263,
  "▁different": 3264,
  "▁свойства": 3265,
  "{": 3266,
  "нер": 3267,
  "▁Алексей": 3268,
  "▁часы": 3269,
  "▁похоже": 3270,
  "▁found": 3271,
  "▁интересов": 3272,
  "▁среды": 3273,
  "▁семи": 3274,
  "▁5-": 3275,
  "оз": 3276,
  "▁материалы": 3277,
  "▁источник": 3278,
  "▁советские": 3279,
  "▁документов": 3280,
  "▁доктор": 3281,
  "▁погиб": 3282,
  "▁выхода": 3283,
  "▁Следовательно": 3284,
  "▁масс": 3285,
  "воз": 3286,
  "▁большинства": 3287,
  "▁чувствовал": 3288,
  "▁зная": 3289,
  "▁влиянием": 3290,
  "▁American": 3291,
  "▁век": 3292,
  "▁батальона": 3293,
  "▁So": 3294,
  "йтесь": 3295,
  "▁ученые": 3296,
  "▁пытались": 3297,
  "▁place": 3298,
  "▁структуры": 3299,
  "▁Борис": 3300,
  "▁практике": 3301,
  "▁пройти": 3302,
  "▁оставаться": 3303,
  "▁2000": 3304,
  "▁прибыли": 3305,
  "▁современных": 3306,
  "вшим": 3307,
  "▁планы": 3308,
  "40": 3309,
  "▁встреча": 3310,
  "▁Ответ": 3311,
  "▁указывает": 3312,
  "▁Карл": 3313,
  "▁don": 3314,
  "▁Такое": 3315,
  "▁безусловно": 3316,
  "▁неё": 3317,
  "11": 3318,
  "ницы": 3319,
  "▁явление": 3320,
  "▁поддержку": 3321,
  "▁o": 3322,
  "ция": 3323,
  "▁каждым": 3324,
  "▁нужен": 3325,
  "▁Над": 3326,
  "▁голова": 3327,
  "▁дабы": 3328,
  "▁подход": 3329,
  "ран": 3330,
  "▁многом": 3331,
  "▁направления": 3332,
  "▁Нужно": 3333,
  "▁Лишь": 3334,
  "изации": 3335,
  "▁волны": 3336,
  "▁солнца": 3337,
  "▁игра": 3338,
  "be": 3339,
  "▁избежать": 3340,
  "▁взяли": 3341,
  "▁Сколько": 3342,
  "етесь": 3343,
  "▁Ивана": 3344,
  "▁рассказывал": 3345,
  "▁военный": 3346,
  "▁хочешь": 3347,
  "▁принимает": 3348,
  "▁свидетельствует": 3349,
  "▁проходит": 3350,
  "▁способом": 3351,
  "▁семья": 3352,
  "▁каждое": 3353,
  "оп": 3354,
  "ата": 3355,
  "▁called": 3356,
  "▁половины": 3357,
  "▁правил": 3358,
  "im": 3359,
  "▁картину": 3360,
  "▁начинают": 3361,
  "ели": 3362,
  "ад": 3363,
  "дов": 3364,
  "▁батальон": 3365,
  "▁столетия": 3366,
  "▁учения": 3367,
  "▁Мария": 3368,
  "▁руководства": 3369,
  "▁имеем": 3370,
  "▁порт": 3371,
  "▁орган": 3372,
  "▁атаки": 3373,
  "▁переговоры": 3374,
  "▁ответа": 3375,
  "▁Ле": 3376,
  "▁кур": 3377,
  "▁законов": 3378,
  "▁большинстве": 3379,
  "государственного": 3380,
  "ad": 3381,
  "▁Советской": 3382,
  "▁рабочего": 3383,
  "▁прошел": 3384,
  "▁получает": 3385,
  "▁писателя": 3386,
  "▁ста": 3387,
  "▁моем": 3388,
  "цов": 3389,
  "▁участников": 3390,
  "▁спать": 3391,
  "▁профессор": 3392,
  "мм": 3393,
  "▁здания": 3394,
  "▁Такой": 3395,
  "▁развитии": 3396,
  "▁уйти": 3397,
  "ies": 3398,
  "▁вошел": 3399,
  "▁храм": 3400,
  "▁ПО": 3401,
  "▁ярко": 3402,
  "ні": 3403,
  "▁соединения": 3404,
  "чин": 3405,
  "▁Генерал": 3406,
  "▁громко": 3407,
  "▁лагеря": 3408,
  "▁знание": 3409,
  "▁представляется": 3410,
  "▁крупные": 3411,
  "▁происходило": 3412,
  "▁преимущественно": 3413,
  "▁number": 3414,
  "▁Су": 3415,
  "▁высшей": 3416,
  "▁старый": 3417,
  "▁came": 3418,
  "▁всякой": 3419,
  "▁вслед": 3420,
  "▁группе": 3421,
  "▁Действительно": 3422,
  "▁герой": 3423,
  "▁принес": 3424,
  "▁объявил": 3425,
  "▁втором": 3426,
  "пор": 3427,
  "ания": 3428,
  "»?": 3429,
  "▁лошадей": 3430,
  "▁главы": 3431,
  "▁будешь": 3432,
  "▁полиции": 3433,
  "▁чел": 3434,
  "▁мнения": 3435,
  "▁способен": 3436,
  "▁VII": 3437,
  "▁помимо": 3438,
  "▁происхождения": 3439,
  "▁Автор": 3440,
  "▁понимание": 3441,
  "▁without": 3442,
  "▁стояла": 3443,
  "▁школу": 3444,
  "▁Виктор": 3445,
  "ню": 3446,
  "▁давать": 3447,
  "▁вошли": 3448,
  "▁отказался": 3449,
  "кая": 3450,
  "▁городах": 3451,
  "▁будь": 3452,
  "▁поставил": 3453,
  "▁le": 3454,
  "ющими": 3455,
  "▁театра": 3456,
  "▁1914": 3457,
  "▁мышления": 3458,
  "▁сообщения": 3459,
  "▁Также": 3460,
  "▁статье": 3461,
  "▁учение": 3462,
  "▁around": 3463,
  "▁посмотреть": 3464,
  "пи": 3465,
  "▁45": 3466,
  "▁during": 3467,
  "ma": 3468,
  "шим": 3469,
  "▁оставался": 3470,
  "ению": 3471,
  "это": 3472,
  "▁фильм": 3473,
  "▁властью": 3474,
  "▁местности": 3475,
  "жен": 3476,
  "12": 3477,
  "age": 3478,
  "▁победу": 3479,
  "▁методы": 3480,
  "▁полного": 3481,
  "▁открыто": 3482,
  "од": 3483,
  "▁источников": 3484,
  "▁окна": 3485,
  "▁Америке": 3486,
  "▁старший": 3487,
  "▁продолжает": 3488,
  "например": 3489,
  "скаго": 3490,
  "тов": 3491,
  "▁dis": 3492,
  "▁независимо": 3493,
  "▁прошло": 3494,
  "▁русским": 3495,
  "▁рассматривать": 3496,
  "▁среде": 3497,
  "▁господин": 3498,
  "▁фоне": 3499,
  "▁считается": 3500,
  "▁Q": 3501,
  "▁список": 3502,
  "▁романа": 3503,
  "▁голоса": 3504,
  "вен": 3505,
  "▁сфере": 3506,
  "▁Западной": 3507,
  "Об": 3508,
  "мон": 3509,
  "▁пойти": 3510,
  "50": 3511,
  "▁началось": 3512,
  "ію": 3513,
  "▁точка": 3514,
  "▁вторая": 3515,
  "▁частично": 3516,
  "▁своё": 3517,
  "▁собственные": 3518,
  "▁слегка": 3519,
  "▁применения": 3520,
  "рос": 3521,
  "▁союзников": 3522,
  "ton": 3523,
  "▁глава": 3524,
  "▁причина": 3525,
  "▁КПСС": 3526,
  "▁later": 3527,
  "▁серьезно": 3528,
  "▁страшно": 3529,
  "▁нравится": 3530,
  "▁американских": 3531,
  "бор": 3532,
  "ous": 3533,
  "▁идею": 3534,
  "▁неизбежно": 3535,
  "▁отличается": 3536,
  "▁кг": 3537,
  "▁спор": 3538,
  "ter": 3539,
  "▁волю": 3540,
  "ир": 3541,
  "▁определения": 3542,
  "▁политические": 3543,
  "▁данного": 3544,
  "▁цивилизации": 3545,
  "▁имело": 3546,
  "▁угол": 3547,
  "▁получения": 3548,
  "▁гибели": 3549,
  "▁держать": 3550,
  "▁объем": 3551,
  "▁Два": 3552,
  "la": 3553,
  "▁подобного": 3554,
  "▁зато": 3555,
  "▁90": 3556,
  "▁государственных": 3557,
  "▁написать": 3558,
  "▁полный": 3559,
  "▁написано": 3560,
  "▁Иванов": 3561,
  "▁самолета": 3562,
  "▁требуется": 3563,
  "▁сравнительно": 3564,
  "▁социальных": 3565,
  "▁села": 3566,
  "▁самую": 3567,
  "вшаяся": 3568,
  "▁реке": 3569,
  "ины": 3570,
  "ают": 3571,
  "▁здоровье": 3572,
  "▁Ку": 3573,
  "▁Vol": 3574,
  "▁участия": 3575,
  "▁адрес": 3576,
  "▁Св": 3577,
  "▁министр": 3578,
  "▁живой": 3579,
  "рон": 3580,
  "▁плана": 3581,
  "▁понимания": 3582,
  "▁журнал": 3583,
  "▁организаций": 3584,
  "▁конечном": 3585,
  "▁веществ": 3586,
  "ka": 3587,
  "▁32": 3588,
  "▁вред": 3589,
  "▁Род": 3590,
  "▁set": 3591,
  "▁требования": 3592,
  "▁зла": 3593,
  "5.": 3594,
  "▁Всего": 3595,
  "▁чай": 3596,
  "без": 3597,
  "▁стоят": 3598,
  "▁Пре": 3599,
  "▁изд": 3600,
  "▁волн": 3601,
  "ирует": 3602,
  "▁сверху": 3603,
  "▁Северной": 3604,
  "▁надежды": 3605,
  "co": 3606,
  "▁писателей": 3607,
  "▁Вопрос": 3608,
  "▁находилась": 3609,
  "зи": 3610,
  "ину": 3611,
  "▁близ": 3612,
  "▁скажем": 3613,
  "▁политику": 3614,
  "▁папа": 3615,
  "▁помогает": 3616,
  "▁способны": 3617,
  "▁Пар": 3618,
  "▁войско": 3619,
  "▁дивизий": 3620,
  "se": 3621,
  "▁интересно": 3622,
  "▁ген": 3623,
  "▁Soviet": 3624,
  "▁офицеры": 3625,
  "▁Be": 3626,
  "▁гости": 3627,
  "▁странно": 3628,
  "▁торговли": 3629,
  "▁политике": 3630,
  "▁недо": 3631,
  "▁рад": 3632,
  "▁женой": 3633,
  "io": 3634,
  "▁социально": 3635,
  "▁55": 3636,
  "▁продолжать": 3637,
  "▁бумаги": 3638,
  "▁четко": 3639,
  "▁пределы": 3640,
  "▁целях": 3641,
  "▁few": 3642,
  "▁волосы": 3643,
  "▁last": 3644,
  "▁лучших": 3645,
  "▁навстречу": 3646,
  "▁жив": 3647,
  "▁морской": 3648,
  "▁Дон": 3649,
  "▁увидели": 3650,
  "▁Иоанн": 3651,
  "▁Испании": 3652,
  "▁Вер": 3653,
  "▁огромное": 3654,
  "▁существу": 3655,
  "▁кабинет": 3656,
  "ling": 3657,
  "▁проводить": 3658,
  "▁машина": 3659,
  "▁вопросам": 3660,
  "хан": 3661,
  "все": 3662,
  "▁Мин": 3663,
  "▁завода": 3664,
  "▁факты": 3665,
  "▁бо": 3666,
  "▁познания": 3667,
  "▁политического": 3668,
  "▁сад": 3669,
  "▁ходить": 3670,
  "▁деревне": 3671,
  "30": 3672,
  "▁прошли": 3673,
  "▁содержания": 3674,
  "▁всяких": 3675,
  "▁строительства": 3676,
  "▁роты": 3677,
  "▁решить": 3678,
  "▁ничем": 3679,
  "▁двадцати": 3680,
  "▁услышал": 3681,
  "▁сумел": 3682,
  "▁верить": 3683,
  "▁существа": 3684,
  "▁ничто": 3685,
  "▁system": 3686,
  "▁везде": 3687,
  "me": 3688,
  "итесь": 3689,
  "▁знала": 3690,
  "▁Пушкина": 3691,
  "▁поражение": 3692,
  "вод": 3693,
  "▁делам": 3694,
  "▁делах": 3695,
  "▁воинов": 3696,
  "▁рассказывает": 3697,
  "▁связанные": 3698,
  "▁немецкой": 3699,
  "От": 3700,
  "▁need": 3701,
  "▁знаний": 3702,
  "▁неоднократно": 3703,
  "▁родители": 3704,
  "▁6-": 3705,
  "▁общественного": 3706,
  "▁театр": 3707,
  "▁нес": 3708,
  "no": 3709,
  "▁мозг": 3710,
  "▁значительной": 3711,
  "ление": 3712,
  "▁am": 3713,
  "▁единственный": 3714,
  "▁началом": 3715,
  "▁старых": 3716,
  "▁left": 3717,
  "▁рабочие": 3718,
  "▁Вместо": 3719,
  "мет": 3720,
  "▁Бар": 3721,
  "лом": 3722,
  "▁называет": 3723,
  "▁кризис": 3724,
  "▁основу": 3725,
  "▁границу": 3726,
  "▁создал": 3727,
  "▁намного": 3728,
  "▁долг": 3729,
  "ген": 3730,
  "кий": 3731,
  "▁содержит": 3732,
  "▁картина": 3733,
  "▁Первая": 3734,
  "▁энергию": 3735,
  "▁(2": 3736,
  "▁Николаевич": 3737,
  "▁последовательно": 3738,
  "▁ходу": 3739,
  "▁встал": 3740,
  "▁Ор": 3741,
  "стей": 3742,
  "▁революция": 3743,
  "Про": 3744,
  "▁удара": 3745,
  "▁поколения": 3746,
  "▁Мор": 3747,
  "▁анализа": 3748,
  "ирование": 3749,
  "▁отчасти": 3750,
  "▁Бо": 3751,
  "▁отказаться": 3752,
  "15": 3753,
  "▁ужас": 3754,
  "▁нечего": 3755,
  "▁масса": 3756,
  "▁модель": 3757,
  "▁Пол": 3758,
  "▁Ан": 3759,
  "они": 3760,
  "▁свыше": 3761,
  "▁Причем": 3762,
  "▁XV": 3763,
  "▁кстати": 3764,
  "▁преступления": 3765,
  "▁процессов": 3766,
  "▁названия": 3767,
  "ци": 3768,
  "▁$": 3769,
  "эн": 3770,
  "▁Киев": 3771,
  "▁недель": 3772,
  "ёт": 3773,
  "▁вещь": 3774,
  "▁голосом": 3775,
  "▁какими": 3776,
  "com": 3777,
  "овского": 3778,
  "▁непременно": 3779,
  "▁мае": 3780,
  "▁XII": 3781,
  "▁ценности": 3782,
  "▁лагерь": 3783,
  "▁Кур": 3784,
  "▁органы": 3785,
  "▁республики": 3786,
  "ход": 3787,
  "▁разума": 3788,
  "▁воле": 3789,
  "19": 3790,
  "▁Германия": 3791,
  "▁определяется": 3792,
  "▁Russian": 3793,
  "ушка": 3794,
  "▁окончания": 3795,
  "▁брать": 3796,
  "▁Сен": 3797,
  "▁Петербург": 3798,
  "ср": 3799,
  "▁ответить": 3800,
  "▁потерял": 3801,
  "▁Па": 3802,
  "▁остаться": 3803,
  "хи": 3804,
  "▁контроля": 3805,
  "▁виды": 3806,
  "▁многочисленные": 3807,
  "ated": 3808,
  "▁Время": 3809,
  "▁наука": 3810,
  "дел": 3811,
  "▁расстояние": 3812,
  "▁state": 3813,
  "▁настоящий": 3814,
  "▁комитета": 3815,
  "образ": 3816,
  "▁данный": 3817,
  "▁обеих": 3818,
  "▁вчера": 3819,
  "▁ваших": 3820,
  "▁общий": 3821,
  "▁point": 3822,
  "▁личного": 3823,
  "▁судить": 3824,
  "▁продолжали": 3825,
  "ent": 3826,
  "▁Разумеется": 3827,
  "▁Наиболее": 3828,
  "кина": 3829,
  "цам": 3830,
  "цем": 3831,
  "▁’": 3832,
  "▁Благодаря": 3833,
  "ним": 3834,
  "▁пределах": 3835,
  "▁авторитет": 3836,
  "▁example": 3837,
  "▁поэзии": 3838,
  "▁службе": 3839,
  "▁СС": 3840,
  "▁научно": 3841,
  "▁тесно": 3842,
  "▁10.": 3843,
  "▁спросила": 3844,
  "▁every": 3845,
  "ион": 3846,
  "ще": 3847,
  "▁свободно": 3848,
  "▁высоты": 3849,
  "▁заметить": 3850,
  "▁say": 3851,
  "▁след": 3852,
  "▁11.": 3853,
  "▁pre": 3854,
  "▁процентов": 3855,
  "▁Само": 3856,
  "▁добро": 3857,
  "альных": 3858,
  "▁работой": 3859,
  "▁вина": 3860,
  "▁командованием": 3861,
  "▁изучения": 3862,
  "▁обл": 3863,
  "▁руке": 3864,
  "▁Джон": 3865,
  "▁Ба": 3866,
  "▁следующим": 3867,
  "ющейся": 3868,
  "▁Зачем": 3869,
  "▁болезнь": 3870,
  "▁особого": 3871,
  "▁ваша": 3872,
  "▁экономической": 3873,
  "▁Бер": 3874,
  "▁German": 3875,
  "▁духовной": 3876,
  "▁онъ": 3877,
  "▁поднял": 3878,
  "овал": 3879,
  "▁природа": 3880,
  "ции": 3881,
  "ическим": 3882,
  "▁института": 3883,
  "▁power": 3884,
  "▁рассказать": 3885,
  "▁великой": 3886,
  "▁поток": 3887,
  "том": 3888,
  "ныя": 3889,
  "▁подобное": 3890,
  "▁край": 3891,
  "▁think": 3892,
  "▁играет": 3893,
  "▁русском": 3894,
  "▁1921": 3895,
  "▁дерева": 3896,
  "▁Ха": 3897,
  "▁far": 3898,
  "нес": 3899,
  "▁XIV": 3900,
  "▁ежедневно": 3901,
  "▁рыб": 3902,
  "▁Paris": 3903,
  "▁описание": 3904,
  "ланд": 3905,
  "▁неизвестно": 3906,
  "▁маленький": 3907,
  "▁народного": 3908,
  "▁операций": 3909,
  "▁достиг": 3910,
  "▁последствия": 3911,
  "▁комплекс": 3912,
  "▁сообщение": 3913,
  "▁целиком": 3914,
  "▁Земле": 3915,
  "▁творчества": 3916,
  "▁конфликт": 3917,
  "бр": 3918,
  "▁можешь": 3919,
  "▁прочих": 3920,
  "▁крепко": 3921,
  "▁каждую": 3922,
  "▁организация": 3923,
  "▁встретил": 3924,
  "▁again": 3925,
  "▁наличие": 3926,
  "енного": 3927,
  "▁видом": 3928,
  "иков": 3929,
  "▁линию": 3930,
  "▁договора": 3931,
  "~": 3932,
  "▁современного": 3933,
  "▁здоровья": 3934,
  "▁осталась": 3935,
  "нный": 3936,
  "▁личность": 3937,
  "▁добавил": 3938,
  "▁поддержки": 3939,
  "▁решений": 3940,
  "▁оружием": 3941,
  "▁продуктов": 3942,
  "▁останется": 3943,
  "▁мыслей": 3944,
  "▁).": 3945,
  "▁взрыв": 3946,
  "▁раздел": 3947,
  "▁термин": 3948,
  "▁работали": 3949,
  "емый": 3950,
  "land": 3951,
  "▁ошибки": 3952,
  "▁озера": 3953,
  "▁известных": 3954,
  "▁врач": 3955,
  "▁ворот": 3956,
  "▁стен": 3957,
  "▁Ка": 3958,
  "ав": 3959,
  "▁Отечественной": 3960,
  "▁Китая": 3961,
  "▁справедливо": 3962,
  "▁великих": 3963,
  "▁собственности": 3964,
  "▁НА": 3965,
  "▁52": 3966,
  "up": 3967,
  "▁вклад": 3968,
  "▁говорила": 3969,
  "▁проекта": 3970,
  "▁sin": 3971,
  "▁культура": 3972,
  "▁занимался": 3973,
  "▁меч": 3974,
  "▁65": 3975,
  "▁важное": 3976,
  "8.": 3977,
  "▁лодки": 3978,
  "▁мальчик": 3979,
  "▁спас": 3980,
  "▁растений": 3981,
  "▁Сибири": 3982,
  "▁престол": 3983,
  "▁связанных": 3984,
  "▁материала": 3985,
  "▁обстоятельства": 3986,
  "▁святого": 3987,
  "▁понимает": 3988,
  "▁обнаружил": 3989,
  "щи": 3990,
  "▁small": 3991,
  "▁черт": 3992,
  "▁Наши": 3993,
  "▁обязан": 3994,
  "▁атаку": 3995,
  "▁find": 3996,
  "▁отделения": 3997,
  "▁детьми": 3998,
  "▁вспомнить": 3999,
  "men": 4000,
  "▁зале": 4001,
  "&": 4002,
  "▁утверждает": 4003,
  "ул": 4004,
  "▁территорию": 4005,
  "▁хотела": 4006,
  "▁защиту": 4007,
  "▁расстоянии": 4008,
  "▁боевые": 4009,
  "ида": 4010,
  "▁действует": 4011,
  "▁56": 4012,
  "▁Ра": 4013,
  "▁режима": 4014,
  "▁Очевидно": 4015,
  "▁твердо": 4016,
  "ung": 4017,
  "кс": 4018,
  "▁документ": 4019,
  "▁люблю": 4020,
  "▁работников": 4021,
  "пе": 4022,
  "▁Востоке": 4023,
  "▁пришло": 4024,
  "▁площадь": 4025,
  "▁правом": 4026,
  "▁одежды": 4027,
  "ten": 4028,
  "▁немецкие": 4029,
  "▁Вообще": 4030,
  "▁pp": 4031,
  "▁авторов": 4032,
  "▁некогда": 4033,
  "▁pro": 4034,
  "▁наблюдения": 4035,
  "ёр": 4036,
  "▁средствами": 4037,
  "ань": 4038,
  "лит": 4039,
  "▁старого": 4040,
  "▁Въ": 4041,
  "▁записи": 4042,
  "?”": 4043,
  "▁улицы": 4044,
  "зы": 4045,
  "▁духе": 4046,
  "li": 4047,
  "▁заметно": 4048,
  "ts": 4049,
  "▁старой": 4050,
  "▁Ах": 4051,
  "▁количестве": 4052,
  "▁оказаться": 4053,
  "▁36": 4054,
  "▁пункт": 4055,
  "вой": 4056,
  "▁Обычно": 4057,
  "чер": 4058,
  "▁реальность": 4059,
  "ём": 4060,
  "▁выступил": 4061,
  "▁поверхность": 4062,
  "▁элемент": 4063,
  "▁правду": 4064,
  "ющегося": 4065,
  "очка": 4066,
  "▁различия": 4067,
  "▁смертью": 4068,
  "▁отдать": 4069,
  "▁обучения": 4070,
  "▁выглядит": 4071,
  "▁молча": 4072,
  "▁связан": 4073,
  "▁образа": 4074,
  "▁Нас": 4075,
  "▁процессы": 4076,
  "суд": 4077,
  "▁белых": 4078,
  "▁счастья": 4079,
  "Все": 4080,
  "▁Большинство": 4081,
  "-3": 4082,
  "▁неба": 4083,
  "ол": 4084,
  "▁точке": 4085,
  "▁национальной": 4086,
  "▁дорогой": 4087,
  "▁научных": 4088,
  "▁враг": 4089,
  "▁обязанности": 4090,
  "▁old": 4091,
  "чат": 4092,
  "▁Ван": 4093,
  "▁хватает": 4094,
  "▁Великого": 4095,
  "▁показали": 4096,
  "▁районах": 4097,
  "▁що": 4098,
  "илось": 4099,
  "▁запад": 4100,
  "▁существенно": 4101,
  "▁душ": 4102,
  "▁поражения": 4103,
  "▁Такая": 4104,
  "▁результатов": 4105,
  "▁Указ": 4106,
  "▁очередной": 4107,
  "▁святых": 4108,
  "▁передал": 4109,
  "▁старые": 4110,
  "▁something": 4111,
  "he": 4112,
  "▁ми": 4113,
  "▁Анна": 4114,
  "▁явился": 4115,
  "▁силах": 4116,
  "▁дорог": 4117,
  "▁прочим": 4118,
  "▁34": 4119,
  "▁собрание": 4120,
  "▁прийти": 4121,
  "▁ответственности": 4122,
  "ty": 4123,
  "▁использование": 4124,
  "▁собор": 4125,
  "▁Восточной": 4126,
  "▁проведения": 4127,
  "▁принимал": 4128,
  "▁выполнять": 4129,
  "▁тепло": 4130,
  "▁перейти": 4131,
  "▁54": 4132,
  "43": 4133,
  "▁привело": 4134,
  "гр": 4135,
  "▁темы": 4136,
  "▁обеспечения": 4137,
  "▁хороший": 4138,
  "▁достичь": 4139,
  "17": 4140,
  "▁почувствовал": 4141,
  "▁коп": 4142,
  "▁волос": 4143,
  "▁проблему": 4144,
  "▁велел": 4145,
  "▁обмен": 4146,
  "▁пищи": 4147,
  "▁собрания": 4148,
  "No": 4149,
  "▁существо": 4150,
  "дом": 4151,
  "ступ": 4152,
  "▁data": 4153,
  "ν": 4154,
  "▁сопротивления": 4155,
  "КА": 4156,
  "▁святой": 4157,
  "овыми": 4158,
  "гер": 4159,
  "▁сидит": 4160,
  "вес": 4161,
  "▁боях": 4162,
  "▁стола": 4163,
  "▁трудности": 4164,
  "▁сильный": 4165,
  "▁Ту": 4166,
  "▁любовью": 4167,
  "▁одних": 4168,
  "▁Речь": 4169,
  "▁Верховного": 4170,
  "▁встрече": 4171,
  "▁Великий": 4172,
  "ас": 4173,
  "▁огромные": 4174,
  "▁сущность": 4175,
  "▁Жизнь": 4176,
  "▁братьев": 4177,
  "нул": 4178,
  "▁Были": 4179,
  "▁Берлин": 4180,
  "ge": 4181,
  "▁имеются": 4182,
  "▁want": 4183,
  "▁известны": 4184,
  "▁предположить": 4185,
  "▁функция": 4186,
  "14": 4187,
  "▁name": 4188,
  "пар": 4189,
  "для": 4190,
  "▁предприятия": 4191,
  "▁комнаты": 4192,
  "фер": 4193,
  "▁human": 4194,
  "▁давление": 4195,
  "▁co": 4196,
  "▁округа": 4197,
  "▁зал": 4198,
  "▁высокого": 4199,
  "▁символ": 4200,
  "▁больных": 4201,
  "▁доказать": 4202,
  "▁отлично": 4203,
  "▁Одно": 4204,
  "▁уничтожить": 4205,
  "ite": 4206,
  "▁газет": 4207,
  "▁оси": 4208,
  "▁пошла": 4209,
  "Q": 4210,
  "▁звук": 4211,
  "▁восстания": 4212,
  "▁пытается": 4213,
  "▁племен": 4214,
  "ент": 4215,
  "▁Зато": 4216,
  "ган": 4217,
  "9.": 4218,
  "нут": 4219,
  "▁Сын": 4220,
  "▁командования": 4221,
  "▁рука": 4222,
  "▁Си": 4223,
  "▁молодого": 4224,
  "енным": 4225,
  "▁жену": 4226,
  "▁Польши": 4227,
  "▁журнала": 4228,
  "▁наверняка": 4229,
  "▁спасти": 4230,
  "▁бывшего": 4231,
  "▁himself": 4232,
  "▁выполнения": 4233,
  "▁гражданской": 4234,
  "▁силе": 4235,
  "▁Город": 4236,
  "▁высокий": 4237,
  "▁исторической": 4238,
  "▁портрет": 4239,
  "ченко": 4240,
  "▁учителя": 4241,
  "▁степень": 4242,
  "▁контакт": 4243,
  "!\"": 4244,
  "ант": 4245,
  "▁считаю": 4246,
  "дра": 4247,
  "▁пользоваться": 4248,
  "ита": 4249,
  "28": 4250,
  "▁дорога": 4251,
  "▁языком": 4252,
  "▁большевиков": 4253,
  "▁лошади": 4254,
  "▁настоящего": 4255,
  "▁ногами": 4256,
  "▁объект": 4257,
  "▁столом": 4258,
  "▁Пан": 4259,
  "▁hand": 4260,
  "мана": 4261,
  "ены": 4262,
  "▁глубине": 4263,
  "▁художник": 4264,
  "▁давали": 4265,
  "телей": 4266,
  "?\"": 4267,
  "41": 4268,
  "▁Эй": 4269,
  "тан": 4270,
  "ву": 4271,
  "6.": 4272,
  "▁огромный": 4273,
  "▁девушки": 4274,
  "▁набор": 4275,
  "▁возможностей": 4276,
  "сер": 4277,
  "▁se": 4278,
  "нные": 4279,
  "▁33": 4280,
  "▁пан": 4281,
  "▁пора": 4282,
  "▁75": 4283,
  "▁произведений": 4284,
  "▁Con": 4285,
  "▁often": 4286,
  "▁оставались": 4287,
  "▁создает": 4288,
  "ul": 4289,
  "▁привели": 4290,
  "▁поднялся": 4291,
  "▁сделано": 4292,
  "йся": 4293,
  "▁put": 4294,
  "13": 4295,
  "▁парень": 4296,
  "▁home": 4297,
  "▁сестра": 4298,
  "▁противоположно": 4299,
  "▁входит": 4300,
  "▁командиров": 4301,
  "▁случаи": 4302,
  "▁разрешения": 4303,
  "▁позиций": 4304,
  "▁воздействия": 4305,
  "▁давал": 4306,
  "▁бар": 4307,
  "▁героев": 4308,
  "▁старался": 4309,
  "▁премьер": 4310,
  "▁храма": 4311,
  "▁thought": 4312,
  "▁звезды": 4313,
  "▁немецкого": 4314,
  "▁Ин": 4315,
  "▁form": 4316,
  "▁выступает": 4317,
  "ура": 4318,
  "▁Почти": 4319,
  "▁VIII": 4320,
  "▁конференции": 4321,
  "▁важных": 4322,
  "▁Слово": 4323,
  "лив": 4324,
  "▁марте": 4325,
  "▁общих": 4326,
  "▁особой": 4327,
  "▁майор": 4328,
  "▁любое": 4329,
  "▁августе": 4330,
  "▁went": 4331,
  "▁took": 4332,
  "▁полную": 4333,
  "▁средство": 4334,
  "▁сыном": 4335,
  "▁Михайлович": 4336,
  "▁нападения": 4337,
  "▁book": 4338,
  "37": 4339,
  "ol": 4340,
  "▁high": 4341,
  "▁изображения": 4342,
  "▁твои": 4343,
  "▁важным": 4344,
  "▁Советский": 4345,
  "▁Вся": 4346,
  "▁эволюции": 4347,
  "35": 4348,
  "ическом": 4349,
  "лег": 4350,
  "▁400": 4351,
  "▁лечения": 4352,
  "▁объектов": 4353,
  "▁кости": 4354,
  "%": 4355,
  "▁принципе": 4356,
  "▁предметы": 4357,
  "▁ин": 4358,
  "телем": 4359,
  "▁God": 4360,
  "▁сюжет": 4361,
  "▁вв": 4362,
  "▁выражения": 4363,
  "▁скажу": 4364,
  "▁взгляды": 4365,
  "▁планеты": 4366,
  "▁голода": 4367,
  "▁120": 4368,
  "▁снег": 4369,
  "▁1936": 4370,
  "ance": 4371,
  "брос": 4372,
  "▁американской": 4373,
  "▁сети": 4374,
  "▁вечно": 4375,
  "▁дому": 4376,
  "▁(3": 4377,
  "▁глядя": 4378,
  "▁оценки": 4379,
  "итель": 4380,
  "ически": 4381,
  "▁заставить": 4382,
  "▁бур": 4383,
  "42": 4384,
  "▁order": 4385,
  "▁always": 4386,
  "▁XIII": 4387,
  "▁1922": 4388,
  "38": 4389,
  "▁классов": 4390,
  "▁информация": 4391,
  "ov": 4392,
  "▁растения": 4393,
  "▁возможным": 4394,
  "▁появления": 4395,
  "▁придет": 4396,
  "▁поможет": 4397,
  "▁танки": 4398,
  "▁IX": 4399,
  "▁away": 4400,
  "▁кол": 4401,
  "▁хватало": 4402,
  "сс": 4403,
  "▁десятки": 4404,
  "▁вызвать": 4405,
  "▁вопросом": 4406,
  "▁дерево": 4407,
  "▁1991": 4408,
  "▁попасть": 4409,
  "▁голод": 4410,
  "29": 4411,
  "▁регулярно": 4412,
  "▁предприятий": 4413,
  "▁Китай": 4414,
  "▁держав": 4415,
  "▁1930": 4416,
  "▁Вселенной": 4417,
  "▁ю": 4418,
  "ti": 4419,
  "▁исторических": 4420,
  "▁сотрудников": 4421,
  "▁взглядом": 4422,
  "▁правой": 4423,
  "▁John": 4424,
  "▁1933": 4425,
  "▁перехода": 4426,
  "▁фото": 4427,
  "▁группой": 4428,
  "▁изменение": 4429,
  "▁fact": 4430,
  "▁счастью": 4431,
  "▁случая": 4432,
  "▁монастыря": 4433,
  "▁сложно": 4434,
  "енное": 4435,
  "▁остановился": 4436,
  "▁разу": 4437,
  "▁Тебе": 4438,
  "▁устройства": 4439,
  "▁стар": 4440,
  "▁многим": 4441,
  "▁движении": 4442,
  "▁партизан": 4443,
  "▁Мало": 4444,
  "▁старик": 4445,
  "▁являлся": 4446,
  "▁называть": 4447,
  "▁задачей": 4448,
  "▁обстановке": 4449,
  "▁наряду": 4450,
  "▁новом": 4451,
  "▁народы": 4452,
  "▁единственным": 4453,
  "▁товарищей": 4454,
  "▁тел": 4455,
  "▁Ма": 4456,
  "▁бросил": 4457,
  "▁определение": 4458,
  "▁праздник": 4459,
  "там": 4460,
  "▁судьбу": 4461,
  "ание": 4462,
  "▁связана": 4463,
  "▁множества": 4464,
  "Ы": 4465,
  "▁формирования": 4466,
  "▁немецкий": 4467,
  "44": 4468,
  "▁]": 4469,
  "▁изменений": 4470,
  "▁грех": 4471,
  "▁Ал": 4472,
  "▁полков": 4473,
  "▁кара": 4474,
  "ему": 4475,
  "▁братья": 4476,
  "▁режим": 4477,
  "▁сидели": 4478,
  "джи": 4479,
  "▁Нельзя": 4480,
  "▁отряды": 4481,
  "▁брак": 4482,
  "▁ихъ": 4483,
  "▁Больше": 4484,
  "сом": 4485,
  "▁Одним": 4486,
  "рен": 4487,
  "▁внутреннего": 4488,
  "▁u": 4489,
  "▁мост": 4490,
  "▁прошлое": 4491,
  "▁вынуждены": 4492,
  "▁вера": 4493,
  "▁Новый": 4494,
  "▁институт": 4495,
  "▁Ди": 4496,
  "▁убит": 4497,
  "▁меньшей": 4498,
  "▁небе": 4499,
  "▁ехать": 4500,
  "▁художника": 4501,
  "▁лист": 4502,
  "▁Иоанна": 4503,
  "▁осторожно": 4504,
  "▁союза": 4505,
  "▁человеке": 4506,
  "ень": 4507,
  "ред": 4508,
  "▁существовать": 4509,
  "▁отцом": 4510,
  "▁воспоминания": 4511,
  "▁His": 4512,
  "▁общественной": 4513,
  "▁case": 4514,
  "▁третьего": 4515,
  "▁участке": 4516,
  "▁здание": 4517,
  "зна": 4518,
  "▁клетки": 4519,
  "▁Одновременно": 4520,
  "▁пить": 4521,
  "▁Васильевич": 4522,
  "▁кор": 4523,
  "▁стремится": 4524,
  "▁западных": 4525,
  "еров": 4526,
  "▁сообщает": 4527,
  "▁уравнения": 4528,
  "▁One": 4529,
  "▁XI": 4530,
  "▁север": 4531,
  "▁организм": 4532,
  "▁питания": 4533,
  "▁запас": 4534,
  "▁семью": 4535,
  "▁открытия": 4536,
  "ино": 4537,
  "▁совершил": 4538,
  "7.": 4539,
  "go": 4540,
  "▁Кара": 4541,
  "▁особое": 4542,
  "▁общественных": 4543,
  "▁вспоминал": 4544,
  "▁человеческих": 4545,
  "▁товарищи": 4546,
  "▁детям": 4547,
  "▁получать": 4548,
  "▁встречаются": 4549,
  "▁усилий": 4550,
  "▁ожидать": 4551,
  "▁жертв": 4552,
  "жив": 4553,
  "▁практики": 4554,
  "▁телом": 4555,
  "▁best": 4556,
  "зо": 4557,
  "▁Павла": 4558,
  "▁высоте": 4559,
  "▁молодые": 4560,
  "▁1905": 4561,
  "▁занимает": 4562,
  "чет": 4563,
  "инский": 4564,
  "▁девять": 4565,
  "сен": 4566,
  "чен": 4567,
  "▁необходимым": 4568,
  "Ты": 4569,
  "▁поддерживать": 4570,
  "▁удастся": 4571,
  "▁пехоты": 4572,
  "▁недалеко": 4573,
  "▁Марк": 4574,
  "▁дворец": 4575,
  "▁Свет": 4576,
  "▁What": 4577,
  "шка": 4578,
  "▁природу": 4579,
  "▁Востока": 4580,
  "▁детали": 4581,
  "▁словах": 4582,
  "▁смотрит": 4583,
  "▁гнев": 4584,
  "one": 4585,
  "▁убийства": 4586,
  "▁взрыва": 4587,
  "▁head": 4588,
  "▁аппарат": 4589,
  "▁личной": 4590,
  "жу": 4591,
  "▁спасения": 4592,
  "▁событие": 4593,
  "▁кампании": 4594,
  "▁выступления": 4595,
  "▁начальником": 4596,
  "£": 4597,
  "фе": 4598,
  "лер": 4599,
  "▁выбора": 4600,
  "▁отказ": 4601,
  "▁going": 4602,
  "▁58": 4603,
  "стар": 4604,
  "▁Этим": 4605,
  "▁явлений": 4606,
  "рез": 4607,
  "кан": 4608,
  "▁историк": 4609,
  "▁английский": 4610,
  "▁Лондон": 4611,
  "▁юг": 4612,
  "ировал": 4613,
  "дин": 4614,
  "▁встречается": 4615,
  "▁замуж": 4616,
  "▁интервью": 4617,
  "▁делается": 4618,
  "▁ракет": 4619,
  "▁дважды": 4620,
  "▁полным": 4621,
  "‘": 4622,
  "▁даст": 4623,
  "ора": 4624,
  "▁французский": 4625,
  "▁секунд": 4626,
  "▁пребывания": 4627,
  "▁пойдет": 4628,
  "▁христиан": 4629,
  "▁распоряжение": 4630,
  "▁сознании": 4631,
  "▁штат": 4632,
  "▁Какой": 4633,
  "▁обще": 4634,
  "▁заключение": 4635,
  "▁КП": 4636,
  "▁ответила": 4637,
  "▁накануне": 4638,
  "▁общения": 4639,
  "▁бывают": 4640,
  "39": 4641,
  "▁Эр": 4642,
  "▁желая": 4643,
  "▁Китае": 4644,
  "▁строительство": 4645,
  "ius": 4646,
  "▁получилось": 4647,
  "▁остаются": 4648,
  "▁country": 4649,
  "▁переговоров": 4650,
  "▁кожи": 4651,
  "▁страдания": 4652,
  "▁специалистов": 4653,
  "▁одежду": 4654,
  "▁привел": 4655,
  "▁думает": 4656,
  "▁ма": 4657,
  "▁вступил": 4658,
  "▁попытка": 4659,
  "▁обстоятельство": 4660,
  "▁ведут": 4661,
  "▁жертву": 4662,
  "вали": 4663,
  "ющаяся": 4664,
  "Со": 4665,
  "▁открыть": 4666,
  "▁самолеты": 4667,
  "▁университет": 4668,
  "если": 4669,
  "▁things": 4670,
  "▁занятия": 4671,
  "▁64": 4672,
  "▁монастырь": 4673,
  "▁создании": 4674,
  "▁реку": 4675,
  "▁вере": 4676,
  "▁напоминает": 4677,
  "▁военным": 4678,
  "скій": 4679,
  "▁одинаково": 4680,
  "тин": 4681,
  "▁качество": 4682,
  "▁многочисленных": 4683,
  "▁тени": 4684,
  "вшимся": 4685,
  "▁проще": 4686,
  "▁Украине": 4687,
  "ri": 4688,
  "▁связей": 4689,
  "▁12.": 4690,
  "▁Бор": 4691,
  "▁лежал": 4692,
  "▁составляют": 4693,
  "▁Точно": 4694,
  "24": 4695,
  "▁since": 4696,
  "▁появление": 4697,
  "нных": 4698,
  "▁передачи": 4699,
  "▁славян": 4700,
  "▁электро": 4701,
  "▁Другие": 4702,
  "▁утверждение": 4703,
  "▁бойцов": 4704,
  "лад": 4705,
  "▁Дух": 4706,
  "▁запах": 4707,
  "▁всякое": 4708,
  "▁сне": 4709,
  "▁Петрович": 4710,
  "▁статей": 4711,
  "▁французской": 4712,
  "нин": 4713,
  "▁предметов": 4714,
  "▁механизм": 4715,
  "▁купить": 4716,
  "▁весной": 4717,
  "▁скоростью": 4718,
  "▁губернии": 4719,
  "-4": 4720,
  "▁does": 4721,
  "▁вернулись": 4722,
  "▁экспедиции": 4723,
  "▁обстоятельств": 4724,
  "▁показалось": 4725,
  "▁убить": 4726,
  "▁ВКП": 4727,
  "▁исследование": 4728,
  "▁Часть": 4729,
  "▁сторона": 4730,
  "▁команда": 4731,
  "▁вооруженных": 4732,
  "▁вспомнил": 4733,
  "▁взаимодействия": 4734,
  "▁попытался": 4735,
  "ица": 4736,
  "▁необходимые": 4737,
  "▁отцу": 4738,
  "▁деревьев": 4739,
  "▁ждет": 4740,
  "▁культуре": 4741,
  "▁науке": 4742,
  "альной": 4743,
  "▁весело": 4744,
  "▁источником": 4745,
  "▁сентябре": 4746,
  "▁бороться": 4747,
  "▁im": 4748,
  "▁январе": 4749,
  "ak": 4750,
  "▁выполнить": 4751,
  "▁правительственн": 4752,
  "ово": 4753,
  "▁напряжения": 4754,
  "ro": 4755,
  "▁издания": 4756,
  "▁кровью": 4757,
  "▁духовного": 4758,
  "ѳ": 4759,
  "▁Дмитрий": 4760,
  "▁Великобритании": 4761,
  "ler": 4762,
  "▁Духа": 4763,
  "▁описания": 4764,
  "▁That": 4765,
  "▁Владимира": 4766,
  "▁пору": 4767,
  "ner": 4768,
  "▁48": 4769,
  "▁твоей": 4770,
  "▁считая": 4771,
  "▁осенью": 4772,
  "▁нашими": 4773,
  "▁кофе": 4774,
  "16": 4775,
  "▁улицу": 4776,
  "▁писем": 4777,
  "▁бомб": 4778,
  "▁Russia": 4779,
  "пут": 4780,
  "▁government": 4781,
  "▁капитана": 4782,
  "▁среднего": 4783,
  "▁became": 4784,
  "▁железной": 4785,
  "▁спиной": 4786,
  "▁Федор": 4787,
  "▁следы": 4788,
  "▁октябре": 4789,
  "▁белые": 4790,
  "▁важные": 4791,
  "▁войн": 4792,
  "Из": 4793,
  "ною": 4794,
  "▁провинции": 4795,
  "▁высших": 4796,
  "▁туман": 4797,
  "▁участвовал": 4798,
  "▁распространение": 4799,
  "▁некоторым": 4800,
  "чит": 4801,
  "▁председатель": 4802,
  "▁Ср": 4803,
  "ур": 4804,
  "▁early": 4805,
  "▁большими": 4806,
  "▁океан": 4807,
  "▁Казалось": 4808,
  "▁точнее": 4809,
  "дон": 4810,
  "▁Следует": 4811,
  "▁месту": 4812,
  "ish": 4813,
  "ющимся": 4814,
  "▁Наш": 4815,
  "▁декабре": 4816,
  "▁сцене": 4817,
  "▁Александрович": 4818,
  "▁членом": 4819,
  "que": 4820,
  "ard": 4821,
  "ств": 4822,
  "▁главнокомандующ": 4823,
  "▁научной": 4824,
  "▁тонн": 4825,
  "уз": 4826,
  "▁применение": 4827,
  "ni": 4828,
  "▁возраст": 4829,
  "нув": 4830,
  "▁инженер": 4831,
  "▁жертвы": 4832,
  "▁Оба": 4833,
  "▁коня": 4834,
  "▁имею": 4835,
  "ируют": 4836,
  "▁Гар": 4837,
  "рок": 4838,
  "▁утверждал": 4839,
  "36": 4840,
  "▁городу": 4841,
  "▁сутки": 4842,
  "▁прошу": 4843,
  "▁твоя": 4844,
  "!)": 4845,
  "75": 4846,
  "▁Запада": 4847,
  "▁двора": 4848,
  "▁Дом": 4849,
  "▁доступ": 4850,
  "ig": 4851,
  "▁следующем": 4852,
  "▁important": 4853,
  "имся": 4854,
  "▁функций": 4855,
  "▁стадии": 4856,
  "▁ворота": 4857,
  "▁обед": 4858,
  "▁пушки": 4859,
  "▁деятель": 4860,
  "▁назначения": 4861,
  "▁вернуть": 4862,
  "▁фильма": 4863,
  "▁хозяин": 4864,
  "▁контр": 4865,
  "ес": 4866,
  "▁Россией": 4867,
  "▁ВВС": 4868,
  "ху": 4869,
  "син": 4870,
  "▁аппарата": 4871,
  "21": 4872,
  "▁социал": 4873,
  "▁сна": 4874,
  "▁строить": 4875,
  "ед": 4876,
  "▁птиц": 4877,
  "▁Помимо": 4878,
  "▁прошла": 4879,
  "▁кадров": 4880,
  "▁Ис": 4881,
  "▁секретарь": 4882,
  "▁началу": 4883,
  "con": 4884,
  "▁внутрь": 4885,
  "▁37": 4886,
  "▁акт": 4887,
  "▁учитель": 4888,
  "▁долю": 4889,
  "▁второе": 4890,
  "▁продукты": 4891,
  "▁настроение": 4892,
  "▁чём": 4893,
  "▁49": 4894,
  "яр": 4895,
  "60": 4896,
  "▁оп": 4897,
  "▁Южной": 4898,
  "▁Петербурге": 4899,
  "▁удовольствие": 4900,
  "▁высоких": 4901,
  "▁английского": 4902,
  "▁выводу": 4903,
  "▁определенной": 4904,
  "▁public": 4905,
  "▁карты": 4906,
  "▁20-": 4907,
  "▁ср": 4908,
  "▁окажется": 4909,
  "▁суток": 4910,
  "▁свод": 4911,
  "▁избран": 4912,
  "▁ногу": 4913,
  "▁until": 4914,
  "сад": 4915,
  "▁двигаться": 4916,
  "▁уме": 4917,
  "▁острове": 4918,
  "▁\\": 4919,
  "▁World": 4920,
  "▁границе": 4921,
  "▁детства": 4922,
  "▁используется": 4923,
  "▁Западе": 4924,
  "▁Рима": 4925,
  "▁реакция": 4926,
  "less": 4927,
  "Но": 4928,
  "▁единого": 4929,
  "ence": 4930,
  "▁играл": 4931,
  "шин": 4932,
  "▁дала": 4933,
  "▁цветов": 4934,
  "▁французского": 4935,
  "▁социального": 4936,
  "▁народом": 4937,
  "▁занять": 4938,
  "▁ровно": 4939,
  "енную": 4940,
  "▁second": 4941,
  "▁крепость": 4942,
  "▁наказания": 4943,
  "▁Марии": 4944,
  "▁large": 4945,
  "ru": 4946,
  "▁мечта": 4947,
  "▁мгновение": 4948,
  "аться": 4949,
  "—19": 4950,
  "▁подготовке": 4951,
  "▁пе": 4952,
  "▁положил": 4953,
  "▁этапе": 4954,
  "▁повсюду": 4955,
  "▁бои": 4956,
  "▁развитию": 4957,
  "▁non": 4958,
  "▁руководителей": 4959,
  "▁ранга": 4960,
  "▁океана": 4961,
  "пан": 4962,
  "▁заключения": 4963,
  "▁окно": 4964,
  "▁цепи": 4965,
  "▁пытаясь": 4966,
  "год": 4967,
  "▁4)": 4968,
  "▁Ян": 4969,
  "лок": 4970,
  "▁левой": 4971,
  "▁столицы": 4972,
  "▁золота": 4973,
  "вшееся": 4974,
  "готов": 4975,
  "▁Какие": 4976,
  "▁причинам": 4977,
  "▁разными": 4978,
  "▁Церковь": 4979,
  "▁Первой": 4980,
  "▁литература": 4981,
  "▁успехом": 4982,
  "▁All": 4983,
  "▁next": 4984,
  "▁трое": 4985,
  "▁Неужели": 4986,
  "▁директор": 4987,
  "▁отдыха": 4988,
  "▁обстоятельствах": 4989,
  "▁поняли": 4990,
  "яв": 4991,
  "▁1934": 4992,
  "▁полета": 4993,
  "кар": 4994,
  "▁полку": 4995,
  "рав": 4996,
  "▁возникают": 4997,
  "▁удивительно": 4998,
  "▁авторы": 4999,
  "▁срочно": 5000,
  "▁общим": 5001,
  "▁бежать": 5002,
  "▁категории": 5003,
  "da": 5004,
  "▁молитвы": 5005,
  "2)": 5006,
  "▁учиться": 5007,
  "33": 5008,
  "▁определенные": 5009,
  "▁берет": 5010,
  "▁успели": 5011,
  "▁забыл": 5012,
  "▁профессиональны": 5013,
  "▁1960": 5014,
  "▁капитала": 5015,
  "шки": 5016,
  "▁Земля": 5017,
  "▁принципы": 5018,
  "▁КГБ": 5019,
  "▁less": 5020,
  "тур": 5021,
  "▁иное": 5022,
  "▁товаров": 5023,
  "▁великим": 5024,
  "▁подумать": 5025,
  "▁сигнал": 5026,
  "вит": 5027,
  "▁Командир": 5028,
  "▁ра": 5029,
  "▁изображение": 5030,
  "▁откровенно": 5031,
  "▁стремительно": 5032,
  "▁Святого": 5033,
  "34": 5034,
  "▁большом": 5035,
  "▁Маркс": 5036,
  "▁зачастую": 5037,
  "27": 5038,
  "▁духом": 5039,
  "▁местные": 5040,
  "▁минимум": 5041,
  "▁Прим": 5042,
  "▁лучшие": 5043,
  "ful": 5044,
  "▁Мол": 5045,
  "▁философ": 5046,
  "▁совместно": 5047,
  "▁Вероятно": 5048,
  "▁позади": 5049,
  "▁Co": 5050,
  "▁сражения": 5051,
  "▁59": 5052,
  "▁наблюдать": 5053,
  "▁РСФСР": 5054,
  "▁сделала": 5055,
  "90": 5056,
  "▁твое": 5057,
  "▁38": 5058,
  "Он": 5059,
  "▁1929": 5060,
  "▁платье": 5061,
  "▁ходил": 5062,
  "▁узнали": 5063,
  "▁57": 5064,
  "▁Совет": 5065,
  "▁любые": 5066,
  "Ну": 5067,
  "▁работают": 5068,
  "▁Михаила": 5069,
  "▁апреле": 5070,
  "▁единство": 5071,
  "▁дворца": 5072,
  "▁июне": 5073,
  "▁Весь": 5074,
  "▁Ру": 5075,
  "▁освобождения": 5076,
  "▁золото": 5077,
  "▁секрет": 5078,
  "▁вод": 5079,
  "▁спрашивает": 5080,
  "▁собак": 5081,
  "▁Куда": 5082,
  "ирования": 5083,
  "▁Академии": 5084,
  "▁Константин": 5085,
  "▁видя": 5086,
  "▁перемен": 5087,
  "▁телефон": 5088,
  "▁читатель": 5089,
  "▁нации": 5090,
  "▁газ": 5091,
  "ii": 5092,
  "▁показывают": 5093,
  "▁пятьдесят": 5094,
  "▁определенных": 5095,
  "тро": 5096,
  "▁восстановить": 5097,
  "▁пределами": 5098,
  "▁статью": 5099,
  "▁1915": 5100,
  "▁тремя": 5101,
  "▁сумму": 5102,
  "▁школа": 5103,
  "▁войти": 5104,
  "▁8-": 5105,
  "▁царю": 5106,
  "▁Die": 5107,
  "▁предварительно": 5108,
  "▁Бен": 5109,
  "▁1990": 5110,
  "▁июле": 5111,
  "▁собирался": 5112,
  "▁графа": 5113,
  "▁Новгород": 5114,
  "▁казаков": 5115,
  "овской": 5116,
  "инг": 5117,
  "▁План": 5118,
  "▁0.": 5119,
  "▁Га": 5120,
  "▁сильным": 5121,
  "ized": 5122,
  "▁миг": 5123,
  "▁Франция": 5124,
  "ология": 5125,
  "▁Бу": 5126,
  "▁границ": 5127,
  "кра": 5128,
  "▁шар": 5129,
  "▁city": 5130,
  "▁планов": 5131,
  "▁русская": 5132,
  "▁появляются": 5133,
  "▁близких": 5134,
  "▁ушли": 5135,
  "▁мастер": 5136,
  "ировали": 5137,
  "▁1935": 5138,
  "▁некий": 5139,
  "▁na": 5140,
  "▁цикл": 5141,
  "▁Бур": 5142,
  "▁бывших": 5143,
  "ством": 5144,
  "▁сбор": 5145,
  "▁Первые": 5146,
  "▁честно": 5147,
  "▁Ман": 5148,
  "▁63": 5149,
  "▁компания": 5150,
  "еля": 5151,
  "▁реформ": 5152,
  "▁воздействие": 5153,
  "бес": 5154,
  "▁восьми": 5155,
  "▁демократии": 5156,
  "▁национального": 5157,
  "▁решать": 5158,
  "▁water": 5159,
  "▁упал": 5160,
  "▁восток": 5161,
  "▁political": 5162,
  "▁деревья": 5163,
  "▁грудь": 5164,
  "▁жен": 5165,
  "▁though": 5166,
  "▁оборону": 5167,
  "▁Би": 5168,
  "▁академии": 5169,
  "▁определяет": 5170,
  "▁шло": 5171,
  "▁Первое": 5172,
  "▁половина": 5173,
  "▁пожар": 5174,
  "▁отчет": 5175,
  "▁Стар": 5176,
  "▁Наполеон": 5177,
  "▁используя": 5178,
  "▁большее": 5179,
  "▁концепции": 5180,
  "▁night": 5181,
  "▁помог": 5182,
  "▁подразделения": 5183,
  "▁мо": 5184,
  "▁официально": 5185,
  "▁собственную": 5186,
  "▁делами": 5187,
  "▁высшего": 5188,
  "▁программ": 5189,
  "зе": 5190,
  "▁ребята": 5191,
  "▁www": 5192,
  "▁просит": 5193,
  "▁арестован": 5194,
  "46": 5195,
  "▁участок": 5196,
  "▁мелких": 5197,
  "▁высокие": 5198,
  "den": 5199,
  "▁победа": 5200,
  "▁тексте": 5201,
  "▁слушать": 5202,
  "▁1916": 5203,
  "▁стене": 5204,
  "▁огромной": 5205,
  "▁основы": 5206,
  "▁остатки": 5207,
  "▁Моя": 5208,
  "▁0,": 5209,
  "▁ран": 5210,
  "▁статус": 5211,
  "▁слава": 5212,
  "▁батареи": 5213,
  "▁слабо": 5214,
  "▁краю": 5215,
  "▁языков": 5216,
  "▁Крым": 5217,
  "мар": 5218,
  "▁структур": 5219,
  "▁ордена": 5220,
  "▁крестьяне": 5221,
  "55": 5222,
  "ощ": 5223,
  "▁нём": 5224,
  "▁методов": 5225,
  "▁российской": 5226,
  "▁мгновенно": 5227,
  "▁га": 5228,
  "▁произведение": 5229,
  "▁этап": 5230,
  "▁1946": 5231,
  "ост": 5232,
  "▁команду": 5233,
  "▁танк": 5234,
  "▁обещал": 5235,
  "▁реализации": 5236,
  "▁американского": 5237,
  "▁following": 5238,
  "▁точек": 5239,
  "▁information": 5240,
  "▁предполагает": 5241,
  "▁year": 5242,
  "23": 5243,
  "▁лоб": 5244,
  "▁похода": 5245,
  "ныхъ": 5246,
  "▁собрать": 5247,
  "▁par": 5248,
  "чки": 5249,
  "▁морских": 5250,
  "изация": 5251,
  "▁использовали": 5252,
  "▁ткани": 5253,
  "▁справа": 5254,
  "▁справедливости": 5255,
  "кал": 5256,
  "▁кризиса": 5257,
  "▁ощущения": 5258,
  "▁century": 5259,
  "▁видела": 5260,
  "▁скажет": 5261,
  "▁Al": 5262,
  "▁возник": 5263,
  "▁боев": 5264,
  "ьные": 5265,
  "▁66": 5266,
  "▁рек": 5267,
  "▁Святой": 5268,
  "▁свобода": 5269,
  "▁1923": 5270,
  "▁давления": 5271,
  "▁числу": 5272,
  "▁государь": 5273,
  "▁Вдруг": 5274,
  "32": 5275,
  "▁отправил": 5276,
  "▁известной": 5277,
  "▁using": 5278,
  "▁царство": 5279,
  "▁получают": 5280,
  "▁(18": 5281,
  "▁(4": 5282,
  "▁поворот": 5283,
  "▁дам": 5284,
  "▁учеников": 5285,
  "▁Главное": 5286,
  "▁побережье": 5287,
  "▁Сер": 5288,
  "▁sub": 5289,
  "▁покой": 5290,
  "▁битвы": 5291,
  "▁улыбнулся": 5292,
  "гар": 5293,
  "▁носит": 5294,
  "іі": 5295,
  "▁охраны": 5296,
  "▁зуб": 5297,
  "▁отцов": 5298,
  "эт": 5299,
  "▁возвращения": 5300,
  "мест": 5301,
  "▁государя": 5302,
  "▁known": 5303,
  "▁1925": 5304,
  "▁told": 5305,
  "мед": 5306,
  "▁половину": 5307,
  "22": 5308,
  "▁доказательства": 5309,
  "▁предстояло": 5310,
  "▁рус": 5311,
  "▁1924": 5312,
  "▁охотно": 5313,
  "щий": 5314,
  "▁газета": 5315,
  "▁европейских": 5316,
  "▁доклад": 5317,
  "▁side": 5318,
  "▁евреи": 5319,
  "▁театре": 5320,
  "▁among": 5321,
  "▁Мон": 5322,
  "зем": 5323,
  "▁Господи": 5324,
  "▁оставив": 5325,
  "▁продукции": 5326,
  "▁используют": 5327,
  "▁начались": 5328,
  "▁upon": 5329,
  "▁советский": 5330,
  "▁заставляет": 5331,
  "▁беседы": 5332,
  "▁звание": 5333,
  "▁выяснилось": 5334,
  "▁дыхание": 5335,
  "▁Солнце": 5336,
  "▁тяжелые": 5337,
  "▁light": 5338,
  "▁Роман": 5339,
  "▁груз": 5340,
  "▁квартире": 5341,
  "ra": 5342,
  "48": 5343,
  "▁Григорий": 5344,
  "▁Юго": 5345,
  "евич": 5346,
  "-5": 5347,
  "рам": 5348,
  "▁изначально": 5349,
  "уль": 5350,
  "▁находит": 5351,
  "▁By": 5352,
  "леп": 5353,
  "▁проявляется": 5354,
  "▁партий": 5355,
  "▁камни": 5356,
  "▁полковника": 5357,
  "▁Книга": 5358,
  "▁НЕ": 5359,
  "▁комитет": 5360,
  "▁целое": 5361,
  "▁квартиру": 5362,
  "▁феврале": 5363,
  "▁получали": 5364,
  "▁ученый": 5365,
  "▁начался": 5366,
  "▁хорошие": 5367,
  "ике": 5368,
  "2,": 5369,
  "▁транспорт": 5370,
  "▁снять": 5371,
  "▁вызвал": 5372,
  "▁западной": 5373,
  "▁различными": 5374,
  "▁death": 5375,
  "▁кивнул": 5376,
  "▁родов": 5377,
  "дор": 5378,
  "▁1000": 5379,
  "▁местного": 5380,
  "Ка": 5381,
  "▁days": 5382,
  "▁действиях": 5383,
  "▁within": 5384,
  "станов": 5385,
  "▁вопреки": 5386,
  "▁1956": 5387,
  "▁искренне": 5388,
  "▁полки": 5389,
  "▁Император": 5390,
  "▁History": 5391,
  "▁пищу": 5392,
  "26": 5393,
  "▁воля": 5394,
  "▁твоего": 5395,
  "▁von": 5396,
  "ею": 5397,
  "▁Ново": 5398,
  "▁чувствовать": 5399,
  "▁Мо": 5400,
  "▁источники": 5401,
  "▁Другой": 5402,
  "▁приятно": 5403,
  "▁приблизительно": 5404,
  "▁управлять": 5405,
  "ять": 5406,
  "▁родной": 5407,
  "▁властей": 5408,
  "▁given": 5409,
  "▁слез": 5410,
  "▁епископ": 5411,
  "эр": 5412,
  "▁станут": 5413,
  "▁отправились": 5414,
  "фи": 5415,
  "еле": 5416,
  "do": 5417,
  "▁создавать": 5418,
  "▁организовать": 5419,
  "▁once": 5420,
  "▁got": 5421,
  "▁представлял": 5422,
  "▁неизменно": 5423,
  "▁выс": 5424,
  "▁статья": 5425,
  "гл": 5426,
  "▁сферы": 5427,
  "▁ждал": 5428,
  "▁построить": 5429,
  "▁обратиться": 5430,
  "▁получал": 5431,
  "▁сведений": 5432,
  "евой": 5433,
  "▁Ген": 5434,
  "▁судя": 5435,
  "▁Порт": 5436,
  "/2": 5437,
  "очек": 5438,
  "▁признаки": 5439,
  "▁ряде": 5440,
  "▁восприятия": 5441,
  "ует": 5442,
  "До": 5443,
  "▁ноябре": 5444,
  "▁Большой": 5445,
  "▁сельскохозяйств": 5446,
  "▁поднять": 5447,
  "▁Гер": 5448,
  "▁древней": 5449,
  "▁известен": 5450,
  "▁середины": 5451,
  "▁командовал": 5452,
  "▁искусстве": 5453,
  "▁многими": 5454,
  "▁обнаружили": 5455,
  "▁версии": 5456,
  "▁борт": 5457,
  "дель": 5458,
  "▁офицера": 5459,
  "▁Бес": 5460,
  "▁уходит": 5461,
  "31": 5462,
  "▁допустить": 5463,
  "▁began": 5464,
  "▁лег": 5465,
  "▁хотим": 5466,
  "▁означало": 5467,
  "▁воскликнул": 5468,
  "▁земной": 5469,
  "▁ex": 5470,
  "ting": 5471,
  "▁прогресс": 5472,
  "▁позволяют": 5473,
  "▁30-": 5474,
  "▁династии": 5475,
  "▁слезы": 5476,
  "ром": 5477,
  "▁42": 5478,
  "▁фигуры": 5479,
  "▁Юрий": 5480,
  "▁1932": 5481,
  "▁путей": 5482,
  "▁ветра": 5483,
  "▁возникла": 5484,
  "▁чудо": 5485,
  "▁пра": 5486,
  "è": 5487,
  "▁следовать": 5488,
  "▁look": 5489,
  "▁находиться": 5490,
  "▁собаки": 5491,
  "цен": 5492,
  "тр": 5493,
  "▁программу": 5494,
  "▁получаем": 5495,
  "▁сыновей": 5496,
  "▁добровольно": 5497,
  "▁углу": 5498,
  "▁благополучно": 5499,
  "▁линия": 5500,
  "▁слева": 5501,
  "▁равна": 5502,
  "▁рабочий": 5503,
  "▁Видимо": 5504,
  "ея": 5505,
  "▁укрепления": 5506,
  "▁ѵ": 5507,
  "ut": 5508,
  "лия": 5509,
  "▁понимали": 5510,
  "▁£": 5511,
  "▁Германию": 5512,
  "▁стиль": 5513,
  "остью": 5514,
  "▁мясо": 5515,
  "▁базы": 5516,
  "вшими": 5517,
  "▁людях": 5518,
  "▁поступил": 5519,
  "▁покоя": 5520,
  "▁экономического": 5521,
  "▁оставили": 5522,
  "▁67": 5523,
  "ари": 5524,
  "ацию": 5525,
  "▁нигде": 5526,
  "▁Тур": 5527,
  "▁гостей": 5528,
  "▁типов": 5529,
  "▁объекта": 5530,
  "▁испытания": 5531,
  "▁сильное": 5532,
  "▁редактор": 5533,
  "▁судьбе": 5534,
  "▁open": 5535,
  "▁клуб": 5536,
  "▁составляли": 5537,
  "▁чести": 5538,
  "▁решила": 5539,
  "▁Часто": 5540,
  "▁подходит": 5541,
  "майор": 5542,
  "▁пал": 5543,
  "▁пола": 5544,
  "▁скот": 5545,
  "▁исторического": 5546,
  "рат": 5547,
  "▁профессионально": 5548,
  "нев": 5549,
  "ors": 5550,
  "▁девочка": 5551,
  "▁критики": 5552,
  "▁Чу": 5553,
  "▁проявления": 5554,
  "▁ценностей": 5555,
  "▁следствие": 5556,
  "▁птицы": 5557,
  "нная": 5558,
  "един": 5559,
  "▁become": 5560,
  "▁социализма": 5561,
  "лейтенант": 5562,
  "▁газете": 5563,
  "▁вино": 5564,
  "▁Кам": 5565,
  "▁установки": 5566,
  "▁такому": 5567,
  "▁древности": 5568,
  "вот": 5569,
  "49": 5570,
  "▁известного": 5571,
  "▁квадрат": 5572,
  "▁general": 5573,
  "▁вышло": 5574,
  "вшее": 5575,
  "▁существ": 5576,
  "▁капиталистическ": 5577,
  "▁Ленинград": 5578,
  "▁13.": 5579,
  "▁любят": 5580,
  "▁ценность": 5581,
  "▁Московского": 5582,
  "▁звуки": 5583,
  "ьная": 5584,
  "иц": 5585,
  "еб": 5586,
  "▁Греции": 5587,
  "▁тон": 5588,
  "▁любить": 5589,
  "▁заболевания": 5590,
  "тра": 5591,
  "▁воспользоваться": 5592,
  "▁командующий": 5593,
  "еж": 5594,
  "▁женщину": 5595,
  "▁славу": 5596,
  "▁машине": 5597,
  "сил": 5598,
  "▁полтора": 5599,
  "▁добавить": 5600,
  "▁появилось": 5601,
  "▁народных": 5602,
  "▁ранен": 5603,
  "свет": 5604,
  "вел": 5605,
  "▁программа": 5606,
  "▁ла": 5607,
  "▁(19": 5608,
  "ряд": 5609,
  "$": 5610,
  "▁Ь": 5611,
  "▁Хар": 5612,
  "▁72": 5613,
  "▁line": 5614,
  "▁стоять": 5615,
  "▁61": 5616,
  "рик": 5617,
  "▁старшего": 5618,
  "▁американский": 5619,
  "▁массу": 5620,
  "▁частях": 5621,
  "▁гос": 5622,
  "▁Ев": 5623,
  "▁моменты": 5624,
  "▁плоскости": 5625,
  "line": 5626,
  "дан": 5627,
  "▁побед": 5628,
  "ук": 5629,
  "▁утверждать": 5630,
  "▁прочие": 5631,
  "уса": 5632,
  "▁остановить": 5633,
  "▁круга": 5634,
  "▁землей": 5635,
  "▁занял": 5636,
  "▁Лондоне": 5637,
  "▁жене": 5638,
  "▁перешел": 5639,
  "емого": 5640,
  "▁владения": 5641,
  "▁добра": 5642,
  "▁обращения": 5643,
  "▁person": 5644,
  "▁газа": 5645,
  "▁Op": 5646,
  "▁объяснения": 5647,
  "▁room": 5648,
  "▁предлагает": 5649,
  "▁гибель": 5650,
  "▁курса": 5651,
  "▁від": 5652,
  "▁называл": 5653,
  "▁миф": 5654,
  "▁Гу": 5655,
  "▁After": 5656,
  "▁help": 5657,
  "▁музыки": 5658,
  "▁друзьями": 5659,
  "лем": 5660,
  "▁особый": 5661,
  "▁сознательно": 5662,
  "▁Утром": 5663,
  "▁видят": 5664,
  "▁вначале": 5665,
  "▁чин": 5666,
  "▁Санкт": 5667,
  "▁материи": 5668,
  "▁практика": 5669,
  "▁Бел": 5670,
  "▁Федерации": 5671,
  "▁областях": 5672,
  "берг": 5673,
  "▁темно": 5674,
  "▁Думаю": 5675,
  "ier": 5676,
  "▁Ком": 5677,
  "▁просить": 5678,
  "▁любую": 5679,
  "▁cit": 5680,
  "дав": 5681,
  "стро": 5682,
  "▁городом": 5683,
  "бра": 5684,
  "▁запрет": 5685,
  "▁Риме": 5686,
  "фу": 5687,
  "▁среднем": 5688,
  "»...": 5689,
  "▁долгое": 5690,
  "▁совершить": 5691,
  "иде": 5692,
  "▁Ки": 5693,
  "▁Хан": 5694,
  "▁раб": 5695,
  "▁53": 5696,
  "▁присутствии": 5697,
  "▁поисках": 5698,
  "▁авто": 5699,
  "▁пород": 5700,
  "▁пояс": 5701,
  "Когда": 5702,
  "емой": 5703,
  "▁результатом": 5704,
  "▁жила": 5705,
  "▁председателя": 5706,
  "▁Хо": 5707,
  "▁Тор": 5708,
  "зор": 5709,
  "▁принимали": 5710,
  "▁Толстой": 5711,
  "sh": 5712,
  "оль": 5713,
  "▁бизнес": 5714,
  "▁умел": 5715,
  "ез": 5716,
  "▁потребности": 5717,
  "▁Интересно": 5718,
  "чист": 5719,
  "▁риск": 5720,
  "▁духов": 5721,
  "▁зимой": 5722,
  "▁заявление": 5723,
  "▁сестры": 5724,
  "▁cos": 5725,
  "▁издание": 5726,
  "▁разговора": 5727,
  "▁бесконечно": 5728,
  "дет": 5729,
  "еры": 5730,
  "▁ждали": 5731,
  "▁белый": 5732,
  "▁войной": 5733,
  "▁живот": 5734,
  "▁Лучше": 5735,
  "▁судно": 5736,
  "ову": 5737,
  "▁факторов": 5738,
  "▁последним": 5739,
  "ley": 5740,
  "▁настроения": 5741,
  "▁хорошего": 5742,
  "сто": 5743,
  "▁царства": 5744,
  "▁62": 5745,
  "▁учетом": 5746,
  "ach": 5747,
  "▁использовал": 5748,
  "▁собственным": 5749,
  "▁партию": 5750,
  "ca": 5751,
  "▁Народ": 5752,
  "▁центром": 5753,
  "▁Го": 5754,
  "▁1928": 5755,
  "пы": 5756,
  "настоящему": 5757,
  "▁1926": 5758,
  "▁мор": 5759,
  "▁сцены": 5760,
  "▁частиц": 5761,
  "▁дождь": 5762,
  "▁былъ": 5763,
  "▁ущерб": 5764,
  "▁военную": 5765,
  "▁уехал": 5766,
  "атор": 5767,
  "▁Карла": 5768,
  "▁46": 5769,
  "лат": 5770,
  "▁1953": 5771,
  "▁реальной": 5772,
  "2].": 5773,
  "▁величины": 5774,
  "▁British": 5775,
  "▁ходили": 5776,
  "▁Солнца": 5777,
  "▁противником": 5778,
  "▁очереди": 5779,
  "▁практику": 5780,
  "▁студентов": 5781,
  "▁средней": 5782,
  "▁course": 5783,
  "▁Чего": 5784,
  "▁склад": 5785,
  "▁four": 5786,
  "▁смотрели": 5787,
  "ae": 5788,
  "▁объясняется": 5789,
  "лев": 5790,
  "▁юге": 5791,
  "▁ведения": 5792,
  "▁новыми": 5793,
  "▁невольно": 5794,
  "▁недолго": 5795,
  "зер": 5796,
  "▁напряжение": 5797,
  "▁тыл": 5798,
  "▁пи": 5799,
  "▁удовольствием": 5800,
  "ny": 5801,
  "ическими": 5802,
  "▁history": 5803,
  "▁Ей": 5804,
  "▁указания": 5805,
  "rs": 5806,
  "став": 5807,
  "▁проверить": 5808,
  "▁Лу": 5809,
  "▁real": 5810,
  "ниц": 5811,
  "▁Божий": 5812,
  "▁68": 5813,
  "▁ставит": 5814,
  "▁Германией": 5815,
  "▁музыка": 5816,
  "▁нож": 5817,
  "7].": 5818,
  "▁Северо": 5819,
  "▁слав": 5820,
  "▁тяжелых": 5821,
  "инского": 5822,
  "▁особых": 5823,
  "▁сыну": 5824,
  "▁захватить": 5825,
  "1].": 5826,
  "▁Or": 5827,
  "▁1927": 5828,
  "бин": 5829,
  "▁видите": 5830,
  "▁however": 5831,
  "95": 5832,
  "пис": 5833,
  "▁дано": 5834,
  "56": 5835,
  "▁нужды": 5836,
  "▁°": 5837,
  "▁АН": 5838,
  "4].": 5839,
  "▁Вторая": 5840,
  "▁Кол": 5841,
  "▁вторую": 5842,
  "▁существовало": 5843,
  "▁Естественно": 5844,
  "3].": 5845,
  "очки": 5846,
  "5].": 5847,
  "▁сочинения": 5848,
  "▁ed": 5849,
  "▁Иначе": 5850,
  "▁Максим": 5851,
  "▁отдельно": 5852,
  "ci": 5853,
  "▁раненых": 5854,
  "▁поезд": 5855,
  "рин": 5856,
  "▁possible": 5857,
  "▁рынка": 5858,
  "▁двенадцать": 5859,
  "▁толпы": 5860,
  "ального": 5861,
  "▁Лен": 5862,
  "ac": 5863,
  "▁children": 5864,
  "▁con": 5865,
  "▁фактов": 5866,
  "▁пленных": 5867,
  "ical": 5868,
  "47": 5869,
  "Так": 5870,
  "▁зоны": 5871,
  "▁российских": 5872,
  "▁подъ": 5873,
  "тельный": 5874,
  "▁рынок": 5875,
  "▁татар": 5876,
  "▁шоссе": 5877,
  "▁My": 5878,
  "▁ЗА": 5879,
  "▁повод": 5880,
  "▁военное": 5881,
  "ьный": 5882,
  "//": 5883,
  "▁строки": 5884,
  "dy": 5885,
  "▁непрерывно": 5886,
  "аты": 5887,
  "65": 5888,
  "▁повел": 5889,
  "▁температуры": 5890,
  "▁плечи": 5891,
  "▁читателя": 5892,
  "▁(16": 5893,
  "▁хорошее": 5894,
  "▁лагере": 5895,
  "▁богатства": 5896,
  "„": 5897,
  "▁(15": 5898,
  "▁утверждения": 5899,
  "2]": 5900,
  "пр": 5901,
  "▁Берлине": 5902,
  "▁достоинства": 5903,
  "▁страсти": 5904,
  "sch": 5905,
  "ted": 5906,
  "▁активности": 5907,
  "▁переводе": 5908,
  "▁разрыв": 5909,
  "70": 5910,
  "9].": 5911,
  "▁чувствует": 5912,
  "рак": 5913,
  "▁отличаются": 5914,
  "▁молодежи": 5915,
  "град": 5916,
  "▁последнюю": 5917,
  "▁характеристики": 5918,
  "▁способы": 5919,
  "▁районов": 5920,
  "▁желает": 5921,
  "▁est": 5922,
  "▁думали": 5923,
  "▁Мама": 5924,
  "нье": 5925,
  "▁следующего": 5926,
  "▁привык": 5927,
  "кер": 5928,
  "ьте": 5929,
  "Ре": 5930,
  "▁вблизи": 5931,
  "стран": 5932,
  "▁наличии": 5933,
  "▁закону": 5934,
  "▁Работа": 5935,
  "летний": 5936,
  "ap": 5937,
  "▁восстание": 5938,
  "▁тылу": 5939,
  "▁39": 5940,
  "▁попали": 5941,
  "ющему": 5942,
  "▁мастера": 5943,
  "▁главные": 5944,
  "per": 5945,
  "▁выпуск": 5946,
  "▁командующего": 5947,
  "▁холод": 5948,
  "pe": 5949,
  "▁чьи": 5950,
  "▁любых": 5951,
  "▁областей": 5952,
  "▁танковой": 5953,
  "▁описывает": 5954,
  "-18": 5955,
  "▁несколькими": 5956,
  "▁Вечером": 5957,
  "▁перешли": 5958,
  "▁Ге": 5959,
  "▁психологии": 5960,
  "▁family": 5961,
  "▁инструмент": 5962,
  "ируя": 5963,
  "▁спину": 5964,
  "▁источника": 5965,
  "▁air": 5966,
  "▁избавиться": 5967,
  "▁выводы": 5968,
  "▁предметом": 5969,
  "щем": 5970,
  "▁образы": 5971,
  "▁заместитель": 5972,
  "▁являлись": 5973,
  "▁детстве": 5974,
  "▁новому": 5975,
  "▁ch": 5976,
  "лез": 5977,
  "▁глав": 5978,
  "▁забыть": 5979,
  "эй": 5980,
  "▁интересах": 5981,
  "▁7-": 5982,
  "▁писали": 5983,
  "▁аль": 5984,
  "▁самыми": 5985,
  "▁Петров": 5986,
  "▁независимость": 5987,
  "▁третьей": 5988,
  "▁Me": 5989,
  "ze": 5990,
  "▁собственный": 5991,
  "▁give": 5992,
  "▁1957": 5993,
  "▁Вар": 5994,
  "ющееся": 5995,
  "▁понимают": 5996,
  "▁1950": 5997,
  "▁house": 5998,
  "▁став": 5999,
  "▁1961": 6000,
  "юр": 6001,
  "▁цены": 6002,
  "▁мат": 6003,
  "▁русскими": 6004,
  "▁Ша": 6005,
  "▁верх": 6006,
  "▁годами": 6007,
  "еть": 6008,
  "ума": 6009,
  "▁следующей": 6010,
  "▁Са": 6011,
  "▁свойств": 6012,
  "▁указал": 6013,
  "▁Ху": 6014,
  "▁коммунистов": 6015,
  "▁яко": 6016,
  "▁лицу": 6017,
  "Вот": 6018,
  "▁казни": 6019,
  "▁These": 6020,
  "вол": 6021,
  "▁англичан": 6022,
  "лик": 6023,
  "▁дне": 6024,
  "▁предстоит": 6025,
  "▁призыв": 6026,
  "▁сидеть": 6027,
  "—18": 6028,
  "▁Скорее": 6029,
  "▁горах": 6030,
  "▁присутствие": 6031,
  "▁путешествие": 6032,
  "▁важный": 6033,
  "▁падения": 6034,
  "▁доход": 6035,
  "▁целого": 6036,
  "▁семей": 6037,
  "▁оставалась": 6038,
  "▁получив": 6039,
  "▁ресурсов": 6040,
  "▁блок": 6041,
  "▁Польше": 6042,
  "▁физики": 6043,
  "▁двум": 6044,
  "▁мелкие": 6045,
  "▁товар": 6046,
  "▁десятков": 6047,
  "▁обладают": 6048,
  "▁объяснил": 6049,
  "▁камня": 6050,
  "пал": 6051,
  "руч": 6052,
  "▁человечество": 6053,
  "▁следующих": 6054,
  "▁Мои": 6055,
  "емая": 6056,
  "▁эпизод": 6057,
  "▁нормы": 6058,
  "бар": 6059,
  "▁объяснение": 6060,
  "▁обвинения": 6061,
  "▁народной": 6062,
  "▁вход": 6063,
  "▁Царь": 6064,
  "▁бригада": 6065,
  "▁соответствующие": 6066,
  "▁звучит": 6067,
  "80": 6068,
  "▁главная": 6069,
  "▁дав": 6070,
  "▁признание": 6071,
  "шему": 6072,
  "▁основным": 6073,
  "▁class": 6074,
  "▁комиссар": 6075,
  "au": 6076,
  "▁дворян": 6077,
  "▁рок": 6078,
  "▁тридцати": 6079,
  "▁эмоции": 6080,
  "▁удается": 6081,
  "▁соединений": 6082,
  "▁body": 6083,
  "нья": 6084,
  "▁слухи": 6085,
  "▁69": 6086,
  "▁Около": 6087,
  "▁славы": 6088,
  "▁14.": 6089,
  "▁всячески": 6090,
  "▁Наверное": 6091,
  "6].": 6092,
  "▁Эту": 6093,
  "▁реально": 6094,
  "▁}": 6095,
  "▁правительством": 6096,
  "▁44": 6097,
  "▁устройство": 6098,
  "кос": 6099,
  "▁бюро": 6100,
  "лог": 6101,
  "▁Политбюро": 6102,
  "▁бывало": 6103,
  "▁1931": 6104,
  "▁частями": 6105,
  "4]": 6106,
  "▁military": 6107,
  "▁проводил": 6108,
  "▁простых": 6109,
  "▁теорию": 6110,
  "II": 6111,
  "▁удавалось": 6112,
  "()": 6113,
  "▁повести": 6114,
  "▁1948": 6115,
  "▁христианства": 6116,
  "▁государством": 6117,
  "▁изучение": 6118,
  "▁1962": 6119,
  "▁войскам": 6120,
  "▁Мер": 6121,
  "▁вашу": 6122,
  "by": 6123,
  "▁последняя": 6124,
  "▁имущества": 6125,
  "▁столе": 6126,
  "▁врагом": 6127,
  "▁титул": 6128,
  "▁Мал": 6129,
  "▁занимались": 6130,
  "▁реформы": 6131,
  "▁берегов": 6132,
  "лить": 6133,
  "▁Гос": 6134,
  "8].": 6135,
  "мол": 6136,
  "▁культ": 6137,
  "▁ремонт": 6138,
  "!”": 6139,
  "▁столице": 6140,
  "▁нарушения": 6141,
  "▁оценить": 6142,
  "▁играли": 6143,
  "▁Man": 6144,
  "▁государственный": 6145,
  "▁хозяйство": 6146,
  "▁обращение": 6147,
  "▁снарядов": 6148,
  "лож": 6149,
  "▁помнить": 6150,
  "▁See": 6151,
  "iv": 6152,
  "коп": 6153,
  "▁car": 6154,
  "▁разобраться": 6155,
  "▁нач": 6156,
  "▁культур": 6157,
  "▁рай": 6158,
  "ались": 6159,
  "ens": 6160,
  "▁English": 6161,
  "рад": 6162,
  "▁убил": 6163,
  "▁задание": 6164,
  "ался": 6165,
  "▁держал": 6166,
  "лас": 6167,
  "▁текстов": 6168,
  "▁масла": 6169,
  "▁бомбы": 6170,
  "▁крикнул": 6171,
  "▁along": 6172,
  "▁мальчика": 6173,
  "▁vol": 6174,
  "▁полно": 6175,
  "si": 6176,
  "▁собственное": 6177,
  "▁общие": 6178,
  "▁князей": 6179,
  "▁древние": 6180,
  "▁выступал": 6181,
  "▁Май": 6182,
  "▁соглашения": 6183,
  "▁миллиона": 6184,
  "▁better": 6185,
  "ke": 6186,
  "▁85": 6187,
  "вшую": 6188,
  "▁Али": 6189,
  "▁Ar": 6190,
  "ват": 6191,
  "99": 6192,
  "pa": 6193,
  "▁свидетельствуют": 6194,
  "▁состояла": 6195,
  "▁городской": 6196,
  "▁политический": 6197,
  "быт": 6198,
  "▁ever": 6199,
  "ς": 6200,
  "▁профессора": 6201,
  "▁сомнений": 6202,
  "▁провели": 6203,
  "▁клеток": 6204,
  "щие": 6205,
  "▁Сил": 6206,
  "▁Русь": 6207,
  "▁Жуков": 6208,
  "▁Начальник": 6209,
  "▁получится": 6210,
  "▁рабочей": 6211,
  "▁депутатов": 6212,
  "▁43": 6213,
  "▁Позже": 6214,
  "▁отсутствия": 6215,
  "▁французских": 6216,
  "▁технологии": 6217,
  "▁серии": 6218,
  "▁задания": 6219,
  "▁Иосиф": 6220,
  "lin": 6221,
  "нят": 6222,
  "▁увидев": 6223,
  "▁настоящей": 6224,
  "оны": 6225,
  "▁оборот": 6226,
  "▁съезда": 6227,
  "▁чувствую": 6228,
  "▁already": 6229,
  "▁смогут": 6230,
  "▁1964": 6231,
  "▁поговорить": 6232,
  "шем": 6233,
  "▁экономических": 6234,
  "▁базе": 6235,
  "▁журнале": 6236,
  "▁осуществить": 6237,
  "▁приговор": 6238,
  "▁Филипп": 6239,
  "▁1989": 6240,
  "альным": 6241,
  "▁происхождение": 6242,
  "▁принятия": 6243,
  "▁предков": 6244,
  "▁отметил": 6245,
  "▁радостью": 6246,
  "▁250": 6247,
  "▁плот": 6248,
  "ря": 6249,
  "▁ман": 6250,
  "телю": 6251,
  "щей": 6252,
  "▁такъ": 6253,
  "▁состоял": 6254,
  "ium": 6255,
  "▁десант": 6256,
  "▁Военно": 6257,
  "▁уверенность": 6258,
  "▁школ": 6259,
  "▁сильные": 6260,
  "лан": 6261,
  "▁собака": 6262,
  "▁прим": 6263,
  "шее": 6264,
  "▁уравнение": 6265,
  "▁control": 6266,
  "уют": 6267,
  "▁Тер": 6268,
  "▁пожалуйста": 6269,
  "ya": 6270,
  "▁ряды": 6271,
  "▁небольшие": 6272,
  "▁тема": 6273,
  "▁возникновения": 6274,
  "▁игру": 6275,
  "▁1993": 6276,
  "▁различие": 6277,
  "▁постели": 6278,
  "▁бежал": 6279,
  "▁ново": 6280,
  "▁1970": 6281,
  "▁mind": 6282,
  "▁потеря": 6283,
  "▁увидела": 6284,
  "▁известные": 6285,
  "ah": 6286,
  "▁конструкции": 6287,
  "▁вызов": 6288,
  "▁фигура": 6289,
  "вать": 6290,
  "▁целую": 6291,
  "▁Ст": 6292,
  "▁q": 6293,
  "▁герои": 6294,
  "▁представлен": 6295,
  "▁Суд": 6296,
  "▁преодолеть": 6297,
  "▁возможных": 6298,
  "▁1947": 6299,
  "пас": 6300,
  "бой": 6301,
  "▁others": 6302,
  "▁nothing": 6303,
  "▁знач": 6304,
  "▁умереть": 6305,
  "овали": 6306,
  "▁main": 6307,
  "▁основание": 6308,
  "▁рассказы": 6309,
  "▁побережья": 6310,
  "▁потеряли": 6311,
  "▁Жан": 6312,
  "▁ритм": 6313,
  "▁обнаружить": 6314,
  "▁сердцем": 6315,
  "▁легких": 6316,
  "лес": 6317,
  "ik": 6318,
  "85": 6319,
  "ьных": 6320,
  "▁тур": 6321,
  "▁Соединенных": 6322,
  "▁отчетливо": 6323,
  "tic": 6324,
  "▁выяснить": 6325,
  "▁several": 6326,
  "▁Спасибо": 6327,
  "▁истину": 6328,
  "▁Лит": 6329,
  "▁размеров": 6330,
  "▁красоты": 6331,
  "▁United": 6332,
  "ителей": 6333,
  "▁Наполеона": 6334,
  "▁племени": 6335,
  "▁let": 6336,
  "▁1963": 6337,
  "▁убедить": 6338,
  "▁масло": 6339,
  "▁грехов": 6340,
  "иса": 6341,
  "▁великое": 6342,
  "▁мотор": 6343,
  "▁Слова": 6344,
  "раж": 6345,
  "▁взят": 6346,
  "говор": 6347,
  "ally": 6348,
  "▁включает": 6349,
  "сп": 6350,
  "▁слух": 6351,
  "1]": 6352,
  "▁внизу": 6353,
  "▁хватит": 6354,
  "▁потребность": 6355,
  "lt": 6356,
  "нн": 6357,
  "▁максимально": 6358,
  "ai": 6359,
  "▁имущество": 6360,
  "▁облик": 6361,
  "▁мета": 6362,
  "гляд": 6363,
  "▁собрались": 6364,
  "крат": 6365,
  "▁согласие": 6366,
  "хотя": 6367,
  "▁зря": 6368,
  "▁function": 6369,
  "▁единства": 6370,
  "ьев": 6371,
  "▁Ibid": 6372,
  "▁структура": 6373,
  "ating": 6374,
  "▁посла": 6375,
  "▁узнав": 6376,
  "▁обратить": 6377,
  "▁ха": 6378,
  "▁whole": 6379,
  "lo": 6380,
  "▁Do": 6381,
  "анти": 6382,
  "▁кругу": 6383,
  "▁шагов": 6384,
  "▁didn": 6385,
  "▁мн": 6386,
  "▁Том": 6387,
  "▁просьбой": 6388,
  "▁создан": 6389,
  "▁черно": 6390,
  "end": 6391,
  "▁Василия": 6392,
  "▁границей": 6393,
  "▁требовалось": 6394,
  "▁saw": 6395,
  "дж": 6396,
  "▁рабов": 6397,
  "НО": 6398,
  "▁Восток": 6399,
  "▁серьезные": 6400,
  "▁слышать": 6401,
  "▁измерения": 6402,
  "пу": 6403,
  "▁операция": 6404,
  "▁удары": 6405,
  "▁масштаб": 6406,
  "▁занят": 6407,
  "▁местом": 6408,
  "вед": 6409,
  "▁объединения": 6410,
  "▁религиозных": 6411,
  "▁образу": 6412,
  "▁Необходимо": 6413,
  "▁резерв": 6414,
  "▁Впервые": 6415,
  "нс": 6416,
  "▁работах": 6417,
  "▁тюрьме": 6418,
  "▁собора": 6419,
  "▁Известно": 6420,
  "бур": 6421,
  "▁поставили": 6422,
  "▁подвиг": 6423,
  "▁христианской": 6424,
  "вест": 6425,
  "▁1958": 6426,
  "▁позволить": 6427,
  "▁системой": 6428,
  "▁обязаны": 6429,
  "▁1992": 6430,
  "онов": 6431,
  "▁41": 6432,
  "▁чувством": 6433,
  "3]": 6434,
  "▁расход": 6435,
  "▁Генрих": 6436,
  "▁77": 6437,
  "▁религия": 6438,
  "▁отрядов": 6439,
  "ó": 6440,
  "▁фамилии": 6441,
  "mer": 6442,
  "▁находилось": 6443,
  "ником": 6444,
  "▁раствор": 6445,
  "▁насилия": 6446,
  "▁предположение": 6447,
  "0].": 6448,
  "▁государстве": 6449,
  "▁важную": 6450,
  "▁островов": 6451,
  "▁Божия": 6452,
  "▁доктора": 6453,
  "▁несет": 6454,
  "oc": 6455,
  "▁покинуть": 6456,
  "ions": 6457,
  "▁имен": 6458,
  "▁расчет": 6459,
  "▁--": 6460,
  "▁Кан": 6461,
  "▁подъем": 6462,
  "▁внешних": 6463,
  "тельные": 6464,
  "ений": 6465,
  "▁asked": 6466,
  "▁ок": 6467,
  "▁освобождение": 6468,
  "▁снял": 6469,
  "▁совести": 6470,
  "▁Наша": 6471,
  "чка": 6472,
  "пад": 6473,
  "ki": 6474,
  "▁Екатерина": 6475,
  "▁times": 6476,
  "▁проход": 6477,
  "ске": 6478,
  "тельная": 6479,
  "▁организацию": 6480,
  "ex": 6481,
  "▁заседании": 6482,
  "▁создали": 6483,
  "▁стремился": 6484,
  "“.": 6485,
  "▁вон": 6486,
  "▁входили": 6487,
  "▁старались": 6488,
  "▁замок": 6489,
  "▁музыку": 6490,
  "рид": 6491,
  "▁микро": 6492,
  "▁знаменитый": 6493,
  "▁кусок": 6494,
  "▁лета": 6495,
  "ологии": 6496,
  "▁находим": 6497,
  "▁поняла": 6498,
  "ается": 6499,
  "▁(17": 6500,
  "вшуюся": 6501,
  "▁Запад": 6502,
  "▁автором": 6503,
  "▁автомобиль": 6504,
  "▁помогать": 6505,
  "58": 6506,
  "▁Ed": 6507,
  "▁пары": 6508,
  "▁ad": 6509,
  "▁высоту": 6510,
  "▁600": 6511,
  "▁направил": 6512,
  "▁Европу": 6513,
  "▁див": 6514,
  "нт": 6515,
  "рей": 6516,
  "▁10-": 6517,
  "▁вице": 6518,
  "▁притом": 6519,
  "ине": 6520,
  "▁social": 6521,
  "тек": 6522,
  "▁сеть": 6523,
  "▁Израиля": 6524,
  "закон": 6525,
  "▁крик": 6526,
  "▁позиция": 6527,
  "▁1959": 6528,
  "▁рынке": 6529,
  "▁приказу": 6530,
  "▁Ум": 6531,
  "▁уст": 6532,
  "out": 6533,
  "▁Закон": 6534,
  "▁73": 6535,
  "▁Англия": 6536,
  "▁зубы": 6537,
  "▁путешествия": 6538,
  "▁переходит": 6539,
  "▁больно": 6540,
  "▁учреждения": 6541,
  "▁Ред": 6542,
  "▁становились": 6543,
  "▁Боже": 6544,
  "▁подхода": 6545,
  "▁наряд": 6546,
  "▁музей": 6547,
  "ушки": 6548,
  "▁служат": 6549,
  "▁достигает": 6550,
  "▁ключ": 6551,
  "▁оказать": 6552,
  "▁капитал": 6553,
  "▁взглядов": 6554,
  "▁фотографии": 6555,
  "▁Se": 6556,
  "шую": 6557,
  "▁отмечал": 6558,
  "▁Дальше": 6559,
  "▁1913": 6560,
  "▁выразить": 6561,
  "▁фигур": 6562,
  "▁almost": 6563,
  "In": 6564,
  "▁кругом": 6565,
  "▁представлений": 6566,
  "бед": 6567,
  "▁поддержке": 6568,
  "▁всюду": 6569,
  "▁занятий": 6570,
  "▁движением": 6571,
  "▁черные": 6572,
  "▁чиновников": 6573,
  "▁собирались": 6574,
  "ток": 6575,
  "ьную": 6576,
  "▁Й": 6577,
  "▁Ло": 6578,
  "▁enough": 6579,
  "▁общины": 6580,
  "tu": 6581,
  "▁внутренние": 6582,
  "▁министров": 6583,
  "▁шт": 6584,
  "5]": 6585,
  "сан": 6586,
  "▁случаю": 6587,
  "▁Толстого": 6588,
  "▁Египта": 6589,
  "▁rather": 6590,
  "▁остро": 6591,
  "▁простор": 6592,
  "▁глубины": 6593,
  "▁young": 6594,
  "▁present": 6595,
  "▁заменить": 6596,
  "▁приходят": 6597,
  "▁растет": 6598,
  "▁больного": 6599,
  "▁архив": 6600,
  "▁сочинений": 6601,
  "▁какому": 6602,
  "ial": 6603,
  "▁маленькие": 6604,
  "▁понятий": 6605,
  "▁остальное": 6606,
  "▁журналист": 6607,
  "▁Олег": 6608,
  "ьи": 6609,
  "▁матерью": 6610,
  "след": 6611,
  "▁соглашение": 6612,
  "▁Journal": 6613,
  "▁1980": 6614,
  "▁Мать": 6615,
  "▁условии": 6616,
  "▁kind": 6617,
  "ina": 6618,
  "▁ракеты": 6619,
  "▁объясняет": 6620,
  "▁королю": 6621,
  "▁распоряжении": 6622,
  "▁врача": 6623,
  "▁требуют": 6624,
  "ї": 6625,
  "▁отправиться": 6626,
  "▁рамки": 6627,
  "ини": 6628,
  "▁9-": 6629,
  "▁фактор": 6630,
  "▁читателей": 6631,
  "▁представляли": 6632,
  "Там": 6633,
  "лина": 6634,
  "▁стоило": 6635,
  "▁окружения": 6636,
  "▁родину": 6637,
  "▁принести": 6638,
  "▁глубокой": 6639,
  "▁words": 6640,
  "▁специальных": 6641,
  "▁least": 6642,
  "▁упорно": 6643,
  "▁трудов": 6644,
  "▁вовремя": 6645,
  "▁47": 6646,
  "летнего": 6647,
  "▁американские": 6648,
  "▁51": 6649,
  "▁счете": 6650,
  "▁group": 6651,
  "▁целые": 6652,
  "▁основа": 6653,
  "кур": 6654,
  "▁надежда": 6655,
  "▁смело": 6656,
  "▁некоторой": 6657,
  "▁кот": 6658,
  "▁чисел": 6659,
  "▁Письмо": 6660,
  "▁правительству": 6661,
  "▁принципиально": 6662,
  "▁заняли": 6663,
  "▁командиром": 6664,
  "▁законодательств": 6665,
  "щик": 6666,
  "▁физической": 6667,
  "▁согласия": 6668,
  "▁Египет": 6669,
  "7]": 6670,
  "▁окончил": 6671,
  "▁проб": 6672,
  "лі": 6673,
  "▁полет": 6674,
  "▁Опять": 6675,
  "▁убийство": 6676,
  "▁автоматически": 6677,
  "▁французов": 6678,
  "▁неправильно": 6679,
  "▁Ши": 6680,
  "▁опытом": 6681,
  "▁День": 6682,
  "▁песен": 6683,
  "▁разница": 6684,
  "▁созданию": 6685,
  "▁сахар": 6686,
  "▁means": 6687,
  "▁Роберт": 6688,
  "▁сотен": 6689,
  "▁ввиду": 6690,
  "▁разным": 6691,
  "▁контексте": 6692,
  "▁экипаж": 6693,
  "▁Вид": 6694,
  "дал": 6695,
  "▁Джордж": 6696,
  "▁своём": 6697,
  "▁Мари": 6698,
  "▁законом": 6699,
  "▁блага": 6700,
  "▁сборник": 6701,
  "▁ставить": 6702,
  "▁подошли": 6703,
  "▁Откуда": 6704,
  "▁ожидал": 6705,
  "▁выбрать": 6706,
  "ber": 6707,
  "▁продолжение": 6708,
  "▁идеологии": 6709,
  "ара": 6710,
  "▁плечами": 6711,
  "▁лето": 6712,
  "▁активность": 6713,
  "▁участвовать": 6714,
  "▁Любовь": 6715,
  "▁хозяина": 6716,
  "▁квартиры": 6717,
  "▁Отца": 6718,
  "9]": 6719,
  "сте": 6720,
  "▁окружающей": 6721,
  "▁ряду": 6722,
  "▁Кажется": 6723,
  "▁Какая": 6724,
  "53": 6725,
  "▁требовал": 6726,
  "▁Первым": 6727,
  "▁богатство": 6728,
  "▁лодок": 6729,
  "▁1968": 6730,
  "▁обыкновенно": 6731,
  "▁возвращается": 6732,
  "▁мятеж": 6733,
  "▁река": 6734,
  "▁философия": 6735,
  "ада": 6736,
  "▁вооружения": 6737,
  "▁приносит": 6738,
  "уд": 6739,
  "▁ne": 6740,
  "▁разговоры": 6741,
  "▁потерь": 6742,
  "1,": 6743,
  "▁погибли": 6744,
  "▁колонны": 6745,
  "▁пятнадцать": 6746,
  "▁воины": 6747,
  "▁local": 6748,
  "▁рукописи": 6749,
  "▁плоды": 6750,
  "▁лошадь": 6751,
  "▁шанс": 6752,
  "▁вопросе": 6753,
  "▁поли": 6754,
  "▁примет": 6755,
  "▁первыми": 6756,
  "▁личных": 6757,
  "▁1949": 6758,
  "▁сохранения": 6759,
  "▁платить": 6760,
  "▁миль": 6761,
  "▁дед": 6762,
  "▁пир": 6763,
  "▁зависимость": 6764,
  "▁частных": 6765,
  "▁ле": 6766,
  "▁колени": 6767,
  "▁национальных": 6768,
  "▁температура": 6769,
  "▁вооружение": 6770,
  "▁капитализма": 6771,
  "▁El": 6772,
  "▁поездки": 6773,
  "▁©": 6774,
  "▁говорим": 6775,
  "▁временно": 6776,
  "▁высоким": 6777,
  "▁предлагал": 6778,
  "▁нормально": 6779,
  "▁германской": 6780,
  "▁поехал": 6781,
  "▁фирмы": 6782,
  "▁десятилетия": 6783,
  "▁центральной": 6784,
  "97": 6785,
  "▁готовности": 6786,
  "▁read": 6787,
  "іемъ": 6788,
  "▁half": 6789,
  "▁process": 6790,
  "▁умеет": 6791,
  "▁Ex": 6792,
  "64": 6793,
  "▁отмечает": 6794,
  "▁74": 6795,
  "▁ищет": 6796,
  "▁социальные": 6797,
  "ek": 6798,
  "di": 6799,
  "▁деревню": 6800,
  "аз": 6801,
  "▁английских": 6802,
  "ику": 6803,
  "▁животные": 6804,
  "▁тайны": 6805,
  "▁шагом": 6806,
  "ицы": 6807,
  "▁удовольствия": 6808,
  "▁примеры": 6809,
  "зов": 6810,
  "Нет": 6811,
  "▁States": 6812,
  "▁убежден": 6813,
  "иш": 6814,
  "▁происходят": 6815,
  "▁Na": 6816,
  "▁type": 6817,
  "▁еду": 6818,
  "▁конфликта": 6819,
  "▁собрал": 6820,
  "sen": 6821,
  "á": 6822,
  "▁великие": 6823,
  "▁стоя": 6824,
  "▁ошибок": 6825,
  "▁служба": 6826,
  "▁малых": 6827,
  "▁вол": 6828,
  "▁био": 6829,
  "í": 6830,
  "▁столицу": 6831,
  "▁сражение": 6832,
  "▁Последний": 6833,
  "оне": 6834,
  "▁принципов": 6835,
  "▁достигли": 6836,
  "▁исполнение": 6837,
  "6]": 6838,
  "▁верхней": 6839,
  "▁исходя": 6840,
  "▁члена": 6841,
  "▁тока": 6842,
  "▁отвечать": 6843,
  "▁училище": 6844,
  "▁71": 6845,
  "▁проходили": 6846,
  "▁противоречия": 6847,
  "▁указ": 6848,
  "▁старше": 6849,
  "▁законам": 6850,
  "▁наказание": 6851,
  "▁сообщить": 6852,
  "▁спец": 6853,
  "▁игр": 6854,
  "▁запись": 6855,
  "▁Андрея": 6856,
  "ä": 6857,
  "▁past": 6858,
  "мысл": 6859,
  "▁глас": 6860,
  "▁потенциал": 6861,
  "ology": 6862,
  "▁душой": 6863,
  "▁смогла": 6864,
  "▁последнем": 6865,
  "▁незаметно": 6866,
  "▁заряд": 6867,
  "▁пунктов": 6868,
  "▁seen": 6869,
  "▁Люб": 6870,
  "кол": 6871,
  "▁сложных": 6872,
  "▁спросить": 6873,
  "ud": 6874,
  "▁общин": 6875,
  "▁признаков": 6876,
  "▁золотой": 6877,
  "▁операцию": 6878,
  "▁поколение": 6879,
  "ow": 6880,
  "где": 6881,
  "альную": 6882,
  "▁защищать": 6883,
  "Ма": 6884,
  "ало": 6885,
  "▁держа": 6886,
  "▁change": 6887,
  "щу": 6888,
  "▁превращается": 6889,
  "▁1912": 6890,
  "▁ел": 6891,
  "▁itself": 6892,
  "Ко": 6893,
  "▁политическую": 6894,
  "▁сзади": 6895,
  "рус": 6896,
  "▁78": 6897,
  "▁son": 6898,
  "Ѵ": 6899,
  "▁радостно": 6900,
  "96": 6901,
  "▁селе": 6902,
  "▁Ваше": 6903,
  "▁университете": 6904,
  "▁действовали": 6905,
  "▁секретаря": 6906,
  "▁парад": 6907,
  "▁глубину": 6908,
  "▁носить": 6909,
  "нія": 6910,
  "зу": 6911,
  "є": 6912,
  "ницу": 6913,
  "▁редакции": 6914,
  "щая": 6915,
  "▁women": 6916,
  "▁полная": 6917,
  "51": 6918,
  "▁French": 6919,
  "▁англичане": 6920,
  "ял": 6921,
  "▁постоянной": 6922,
  "▁изо": 6923,
  "▁76": 6924,
  "▁пытаются": 6925,
  "▁Then": 6926,
  "▁Напротив": 6927,
  "▁луч": 6928,
  "▁внешнего": 6929,
  "▁трав": 6930,
  "ити": 6931,
  "▁ар": 6932,
  "ations": 6933,
  "▁value": 6934,
  "▁тюрьмы": 6935,
  "бит": 6936,
  "▁оснований": 6937,
  "сл": 6938,
  "▁нанести": 6939,
  "▁английской": 6940,
  "▁прорыв": 6941,
  "▁дву": 6942,
  "▁обратил": 6943,
  "▁Дар": 6944,
  "ana": 6945,
  "ета": 6946,
  "▁Год": 6947,
  "▁рассказывать": 6948,
  "▁истина": 6949,
  "▁европейской": 6950,
  "▁го": 6951,
  "▁автомат": 6952,
  "▁товары": 6953,
  "ab": 6954,
  "як": 6955,
  "▁Аль": 6956,
  "▁согласиться": 6957,
  "▁протест": 6958,
  "▁трон": 6959,
  "▁точности": 6960,
  "▁служили": 6961,
  "▁научного": 6962,
  "▁губы": 6963,
  "if": 6964,
  "of": 6965,
  "▁продолжала": 6966,
  "▁севере": 6967,
  "пит": 6968,
  "▁соответствующих": 6969,
  "▁стихов": 6970,
  "▁относиться": 6971,
  "▁post": 6972,
  "68": 6973,
  "▁доля": 6974,
  "▁free": 6975,
  "▁потребовал": 6976,
  "▁светом": 6977,
  "▁обучение": 6978,
  "▁Трудно": 6979,
  "▁рассказа": 6980,
  "ице": 6981,
  "▁болезней": 6982,
  "▁никуда": 6983,
  "нной": 6984,
  "▁short": 6985,
  "инов": 6986,
  "▁self": 6987,
  "▁Pro": 6988,
  "▁рыбы": 6989,
  "Йорк": 6990,
  "▁sense": 6991,
  "8]": 6992,
  "▁суммы": 6993,
  "▁вероятность": 6994,
  "▁еды": 6995,
  "▁отделение": 6996,
  "▁Африке": 6997,
  "▁эксперимент": 6998,
  "les": 6999,
  "▁тяжелой": 7000,
  "▁куб": 7001,
  "▁действием": 7002,
  "▁1906": 7003,
  "▁рос": 7004,
  "▁1955": 7005,
  "▁своя": 7006,
  "▁администрации": 7007,
  "▁открыли": 7008,
  "▁стиле": 7009,
  "▁меняется": 7010,
  "▁коллег": 7011,
  "▁верил": 7012,
  "57": 7013,
  "▁писала": 7014,
  "▁внутренний": 7015,
  "▁сложности": 7016,
  "емъ": 7017,
  "▁THE": 7018,
  "tion": 7019,
  "▁значении": 7020,
  "▁исход": 7021,
  "▁становилось": 7022,
  "▁ежегодно": 7023,
  "▁метода": 7024,
  "▁цветы": 7025,
  "▁Roman": 7026,
  "▁исследователи": 7027,
  "▁Центр": 7028,
  "▁лежат": 7029,
  "▁команд": 7030,
  "▁ненависть": 7031,
  "po": 7032,
  "▁объекты": 7033,
  "▁упражнения": 7034,
  "▁событиях": 7035,
  "▁директора": 7036,
  "▁full": 7037,
  "▁общую": 7038,
  "▁Спустя": 7039,
  "▁примером": 7040,
  "аю": 7041,
  "▁хвост": 7042,
  "▁Ясно": 7043,
  "▁взяла": 7044,
  "▁белой": 7045,
  "▁сумма": 7046,
  "▁Африки": 7047,
  "Во": 7048,
  "▁зоне": 7049,
  "ft": 7050,
  "чувств": 7051,
  "▁съезд": 7052,
  "69": 7053,
  "▁мяса": 7054,
  "▁question": 7055,
  "▁Никогда": 7056,
  "ницей": 7057,
  "▁Давайте": 7058,
  "▁пыль": 7059,
  "▁father": 7060,
  "▁толпа": 7061,
  "▁лад": 7062,
  "▁господа": 7063,
  "▁разрешение": 7064,
  "▁равен": 7065,
  "▁мудрости": 7066,
  "▁германских": 7067,
  "▁(5": 7068,
  "ization": 7069,
  "▁воскрес": 7070,
  "▁занимал": 7071,
  "▁Кн": 7072,
  "▁ток": 7073,
  "ОВ": 7074,
  "нѣ": 7075,
  "▁view": 7076,
  "nd": 7077,
  "нский": 7078,
  "▁84": 7079,
  "▁Важно": 7080,
  "▁обеда": 7081,
  "▁всякие": 7082,
  "▁первоначально": 7083,
  "▁смех": 7084,
  "▁разно": 7085,
  "▁together": 7086,
  "▁нарушение": 7087,
  "альное": 7088,
  "▁маленькой": 7089,
  "▁направился": 7090,
  "▁бор": 7091,
  "▁камней": 7092,
  "▁сход": 7093,
  "▁обстановка": 7094,
  "▁code": 7095,
  "▁покинул": 7096,
  "▁структуру": 7097,
  "▁мирового": 7098,
  "ron": 7099,
  "▁themselves": 7100,
  "▁сцену": 7101,
  "▁space": 7102,
  "▁Израиль": 7103,
  "▁Нового": 7104,
  "щего": 7105,
  "мал": 7106,
  "▁членами": 7107,
  "▁расположение": 7108,
  "▁специальные": 7109,
  "▁Ch": 7110,
  "59": 7111,
  "▁энергией": 7112,
  "▁трудящихся": 7113,
  "стрел": 7114,
  "бол": 7115,
  "куп": 7116,
  "▁независимости": 7117,
  "▁рез": 7118,
  "▁гарнизон": 7119,
  "▁Ай": 7120,
  "▁обращается": 7121,
  "▁пригласил": 7122,
  "▁пожал": 7123,
  "▁May": 7124,
  "▁верст": 7125,
  "▁мистер": 7126,
  "▁встретить": 7127,
  "ап": 7128,
  "▁формально": 7129,
  "чив": 7130,
  "▁научиться": 7131,
  "пт": 7132,
  "▁готова": 7133,
  "▁окружающих": 7134,
  "▁чрез": 7135,
  "▁угрозы": 7136,
  "вшимися": 7137,
  "▁отражение": 7138,
  "▁американцы": 7139,
  "▁уши": 7140,
  "▁really": 7141,
  "▁открытие": 7142,
  "очной": 7143,
  "▁общая": 7144,
  "▁стараясь": 7145,
  "▁весел": 7146,
  "само": 7147,
  "▁чтения": 7148,
  "▁including": 7149,
  "еп": 7150,
  "▁урок": 7151,
  "гин": 7152,
  "▁карту": 7153,
  "▁82": 7154,
  "▁принят": 7155,
  "▁деятельностью": 7156,
  "▁май": 7157,
  "▁88": 7158,
  "▁доложил": 7159,
  "▁количеством": 7160,
  "▁thing": 7161,
  "▁российского": 7162,
  "▁черной": 7163,
  "▁ро": 7164,
  "▁Un": 7165,
  "0]": 7166,
  "▁использует": 7167,
  "▁встречу": 7168,
  "▁стратегии": 7169,
  "▁страной": 7170,
  "ления": 7171,
  "▁духовных": 7172,
  "▁плоти": 7173,
  "▁движений": 7174,
  "▁врачей": 7175,
  "▁военнопленных": 7176,
  "▁работала": 7177,
  "▁намерения": 7178,
  "▁цифры": 7179,
  "▁Europe": 7180,
  "них": 7181,
  "98": 7182,
  "▁похож": 7183,
  "▁мероприятия": 7184,
  "▁массив": 7185,
  "▁числом": 7186,
  "▁посол": 7187,
  "▁поста": 7188,
  "ities": 7189,
  "въ": 7190,
  "▁95": 7191,
  "▁справиться": 7192,
  "▁подготовку": 7193,
  "▁воевать": 7194,
  "▁тексты": 7195,
  "▁решении": 7196,
  "▁половиной": 7197,
  "▁магазин": 7198,
  "▁слушал": 7199,
  "▁сторонников": 7200,
  "ure": 7201,
  "▁сельского": 7202,
  "▁выходить": 7203,
  "▁пользовались": 7204,
  "▁огромную": 7205,
  "▁играют": 7206,
  "66": 7207,
  "▁Some": 7208,
  "иста": 7209,
  "сты": 7210,
  "жит": 7211,
  "▁fire": 7212,
  "led": 7213,
  "▁кругов": 7214,
  "▁стремились": 7215,
  "▁вспоминает": 7216,
  "▁орден": 7217,
  "▁простым": 7218,
  "▁посту": 7219,
  "▁секунду": 7220,
  "▁кладбище": 7221,
  "щиков": 7222,
  "воль": 7223,
  "▁60-": 7224,
  "▁les": 7225,
  "емое": 7226,
  "кров": 7227,
  "▁знаки": 7228,
  "▁Понятно": 7229,
  "▁Говорят": 7230,
  "▁формой": 7231,
  "слов": 7232,
  "▁юноша": 7233,
  "ош": 7234,
  "▁подготовка": 7235,
  "▁пользовался": 7236,
  "мена": 7237,
  "▁основой": 7238,
  "▁историки": 7239,
  "▁уверенно": 7240,
  "▁Центральной": 7241,
  "▁книгах": 7242,
  "▁черный": 7243,
  "▁талант": 7244,
  "▁приказа": 7245,
  "▁ударов": 7246,
  "▁велика": 7247,
  "▁назван": 7248,
  "tes": 7249,
  "▁норм": 7250,
  "▁заводе": 7251,
  "▁call": 7252,
  "раб": 7253,
  "▁размеры": 7254,
  "▁прекрасный": 7255,
  "▁условие": 7256,
  "▁товарища": 7257,
  "▁Вал": 7258,
  "▁считаться": 7259,
  "▁продукт": 7260,
  "▁National": 7261,
  "▁слой": 7262,
  "▁экспериментальн": 7263,
  "▁собственность": 7264,
  "енными": 7265,
  "▁принципа": 7266,
  "▁примеров": 7267,
  "▁продолжил": 7268,
  "▁Лю": 7269,
  "▁содержится": 7270,
  "▁ССР": 7271,
  "▁замечает": 7272,
  "▁забот": 7273,
  "▁параллельно": 7274,
  "▁land": 7275,
  "рой": 7276,
  "▁американцев": 7277,
  "▁лестнице": 7278,
  "▁протянул": 7279,
  "▁современные": 7280,
  "▁вашим": 7281,
  "▁1967": 7282,
  "▁Мед": 7283,
  "аж": 7284,
  "▁карте": 7285,
  "▁лед": 7286,
  "▁Воз": 7287,
  "▁мусульман": 7288,
  "▁недостаток": 7289,
  "▁свидетельства": 7290,
  "▁би": 7291,
  "▁Антон": 7292,
  "▁аэродром": 7293,
  "▁знакомых": 7294,
  "▁послан": 7295,
  "▁(1)": 7296,
  "▁принадлежат": 7297,
  "▁руководитель": 7298,
  "▁широкой": 7299,
  "▁17.": 7300,
  "кто": 7301,
  "▁код": 7302,
  "▁видишь": 7303,
  "▁осуществляется": 7304,
  "▁свидетельство": 7305,
  "▁1910": 7306,
  "▁продолжа": 7307,
  "▁творчество": 7308,
  "▁актер": 7309,
  "▁последующие": 7310,
  "▁произошла": 7311,
  "▁процент": 7312,
  "▁называемые": 7313,
  "▁романе": 7314,
  "▁da": 7315,
  "▁правды": 7316,
  "ющем": 7317,
  "▁немцами": 7318,
  "▁млрд": 7319,
  "▁support": 7320,
  "▁Герман": 7321,
  "▁царской": 7322,
  "mo": 7323,
  "▁Была": 7324,
  "▁фронтом": 7325,
  "▁исчез": 7326,
  "▁царем": 7327,
  "клад": 7328,
  "▁Давид": 7329,
  "ограф": 7330,
  "ці": 7331,
  "▁ру": 7332,
  "▁труды": 7333,
  "▁позволит": 7334,
  "иной": 7335,
  "▁печать": 7336,
  "веден": 7337,
  "▁поверить": 7338,
  "▁que": 7339,
  "▁удержать": 7340,
  "▁переворот": 7341,
  "ким": 7342,
  "▁люд": 7343,
  "ители": 7344,
  "▁сэр": 7345,
  "▁закончил": 7346,
  "▁пальцы": 7347,
  "▁хорошим": 7348,
  "▁враги": 7349,
  "▁интеллигенции": 7350,
  "совет": 7351,
  "▁свободе": 7352,
  "▁хор": 7353,
  "▁герцог": 7354,
  "▁упор": 7355,
  "▁тень": 7356,
  "▁Республики": 7357,
  "▁мотив": 7358,
  "ером": 7359,
  "ющимися": 7360,
  "▁вернее": 7361,
  "▁ma": 7362,
  "▁борту": 7363,
  "аны": 7364,
  "▁построения": 7365,
  "▁действиями": 7366,
  "▁able": 7367,
  "▁предмета": 7368,
  "▁Позднее": 7369,
  "sa": 7370,
  "▁памятник": 7371,
  "▁распространения": 7372,
  "ЕЙ": 7373,
  "▁вывести": 7374,
  "▁устав": 7375,
  "▁вызывают": 7376,
  "▁зовут": 7377,
  "▁помощник": 7378,
  "▁прочно": 7379,
  "▁определенного": 7380,
  "роз": 7381,
  "▁простые": 7382,
  "▁problem": 7383,
  "▁звали": 7384,
  "▁решению": 7385,
  "▁обход": 7386,
  "▁наблюдается": 7387,
  "▁принимают": 7388,
  "▁Иерусалим": 7389,
  "▁Турции": 7390,
  "▁существовании": 7391,
  "оса": 7392,
  "тем": 7393,
  "ено": 7394,
  "▁битве": 7395,
  "аф": 7396,
  "▁кожа": 7397,
  "▁Кир": 7398,
  "▁yet": 7399,
  "▁единой": 7400,
  "▁политическая": 7401,
  "▁Библии": 7402,
  "▁knew": 7403,
  "▁Благо": 7404,
  "▁течения": 7405,
  "▁прекратить": 7406,
  "▁залива": 7407,
  "▁канон": 7408,
  "▁сколь": 7409,
  "▁способов": 7410,
  "▁твоих": 7411,
  "тил": 7412,
  "глас": 7413,
  "▁привела": 7414,
  "▁den": 7415,
  "▁эмиграции": 7416,
  "▁входа": 7417,
  "няя": 7418,
  "▁плечо": 7419,
  "▁попытку": 7420,
  "▁конкретных": 7421,
  "▁произошел": 7422,
  "▁хан": 7423,
  "▁Ро": 7424,
  "▁79": 7425,
  "▁стакан": 7426,
  "▁inter": 7427,
  "▁1965": 7428,
  "ати": 7429,
  "▁настоящим": 7430,
  "•": 7431,
  "▁сорока": 7432,
  "низ": 7433,
  "▁бу": 7434,
  "▁Джо": 7435,
  "евский": 7436,
  "▁вступить": 7437,
  "▁чистой": 7438,
  "▁знаков": 7439,
  "78": 7440,
  "▁адмирал": 7441,
  "▁period": 7442,
  "▁полагал": 7443,
  "▁живописи": 7444,
  "▁Поли": 7445,
  "▁карман": 7446,
  "▁необходимых": 7447,
  "▁отсутствии": 7448,
  "шен": 7449,
  "▁ten": 7450,
  "▁требовали": 7451,
  "1)": 7452,
  "▁having": 7453,
  "▁1999": 7454,
  "▁танка": 7455,
  "▁done": 7456,
  "▁run": 7457,
  "шку": 7458,
  "▁учреждений": 7459,
  "▁находясь": 7460,
  "▁буржуазии": 7461,
  "▁министерства": 7462,
  "тай": 7463,
  "▁спасение": 7464,
  "▁телефону": 7465,
  "▁заявления": 7466,
  "▁обстановки": 7467,
  "▁расстояния": 7468,
  "▁пропаганды": 7469,
  "▁доказательств": 7470,
  "▁животного": 7471,
  "▁группировки": 7472,
  "▁собирается": 7473,
  "▁Тар": 7474,
  "▁Уж": 7475,
  "▁плюс": 7476,
  "▁Чер": 7477,
  "▁Рядом": 7478,
  "▁Ne": 7479,
  "▁Му": 7480,
  "▁лежали": 7481,
  "▁используются": 7482,
  "▁вела": 7483,
  "▁86": 7484,
  "▁Судя": 7485,
  "sp": 7486,
  "▁уничтожения": 7487,
  "гре": 7488,
  "▁транс": 7489,
  "▁образов": 7490,
  "вор": 7491,
  "▁насчет": 7492,
  "КИ": 7493,
  "лиз": 7494,
  "▁районы": 7495,
  "▁фронтов": 7496,
  "▁голосов": 7497,
  "▁плод": 7498,
  "▁сан": 7499,
  "▁Сразу": 7500,
  "▁известным": 7501,
  "дай": 7502,
  "▁стоимость": 7503,
  "▁кос": 7504,
  "▁искал": 7505,
  "▁true": 7506,
  "▁Се": 7507,
  "▁Русской": 7508,
  "▁Игорь": 7509,
  "54": 7510,
  "▁Бе": 7511,
  "▁вызвало": 7512,
  "▁направлен": 7513,
  "▁France": 7514,
  "рес": 7515,
  "рю": 7516,
  "▁сержант": 7517,
  "▁love": 7518,
  "▁хода": 7519,
  "▁дер": 7520,
  "▁ввести": 7521,
  "▁иных": 7522,
  "▁встретиться": 7523,
  "▁примере": 7524,
  "рет": 7525,
  "▁желал": 7526,
  "▁idea": 7527,
  "▁картин": 7528,
  "▁входят": 7529,
  "▁применять": 7530,
  "ВО": 7531,
  "▁частицы": 7532,
  "▁живого": 7533,
  "▁ушла": 7534,
  "▁слову": 7535,
  "▁clear": 7536,
  "▁воспоминаний": 7537,
  "▁боевого": 7538,
  "▁спал": 7539,
  "▁area": 7540,
  "94": 7541,
  "▁Шар": 7542,
  "цвет": 7543,
  "моему": 7544,
  "▁пушек": 7545,
  "▁пролетариата": 7546,
  "▁привлечь": 7547,
  "рем": 7548,
  "▁бок": 7549,
  "▁Вера": 7550,
  "овом": 7551,
  "▁штраф": 7552,
  "▁участники": 7553,
  "овича": 7554,
  "▁16.": 7555,
  "▁падает": 7556,
  "▁дальнейшего": 7557,
  "▁родственников": 7558,
  "▁front": 7559,
  "▁Пи": 7560,
  "“,": 7561,
  "▁Бра": 7562,
  "▁противо": 7563,
  "▁тов": 7564,
  "▁рубеж": 7565,
  "▁саду": 7566,
  "служ": 7567,
  "▁белого": 7568,
  "▁мужем": 7569,
  "▁Советов": 7570,
  "▁выделить": 7571,
  "▁единственной": 7572,
  "▁2008": 7573,
  "очный": 7574,
  "▁греха": 7575,
  "ang": 7576,
  "ивший": 7577,
  "▁стиля": 7578,
  "▁налогов": 7579,
  "▁return": 7580,
  "тар": 7581,
  "▁брака": 7582,
  "▁железа": 7583,
  "пят": 7584,
  "▁публикации": 7585,
  "нского": 7586,
  "▁дай": 7587,
  "▁нашла": 7588,
  "▁выпуска": 7589,
  "▁обладал": 7590,
  "▁продолжительно": 7591,
  "▁плат": 7592,
  "▁face": 7593,
  "▁81": 7594,
  "▁бюджет": 7595,
  "▁длиной": 7596,
  "▁свободного": 7597,
  "▁taken": 7598,
  "▁1995": 7599,
  "▁впечатления": 7600,
  "▁моста": 7601,
  "▁ранних": 7602,
  "▁воспитания": 7603,
  "▁королем": 7604,
  "▁расходы": 7605,
  "▁численность": 7606,
  "▁угрозу": 7607,
  "3)": 7608,
  "▁тюрьму": 7609,
  "▁Ми": 7610,
  "▁положить": 7611,
  "▁Кот": 7612,
  "▁опер": 7613,
  "▁кабинете": 7614,
  "▁германского": 7615,
  "▁колен": 7616,
  "Щ": 7617,
  "▁ос": 7618,
  "▁обычных": 7619,
  "▁1954": 7620,
  "▁молод": 7621,
  "▁букв": 7622,
  "▁глубже": 7623,
  "▁парламент": 7624,
  "93": 7625,
  "▁гнева": 7626,
  "▁2001": 7627,
  "▁Впоследствии": 7628,
  "▁месяцы": 7629,
  "▁заново": 7630,
  "▁чужой": 7631,
  "▁бросить": 7632,
  "▁племена": 7633,
  "▁отлича": 7634,
  "▁значительное": 7635,
  "▁заметили": 7636,
  "два": 7637,
  "▁судна": 7638,
  "ue": 7639,
  "▁маленьких": 7640,
  "▁боялся": 7641,
  "▁значительные": 7642,
  "▁назначение": 7643,
  "▁Лес": 7644,
  "▁показаться": 7645,
  "▁миллионы": 7646,
  "▁Русский": 7647,
  "▁признал": 7648,
  "▁промышленность": 7649,
  "▁Финляндии": 7650,
  "рев": 7651,
  "▁убили": 7652,
  "▁решено": 7653,
  "▁высказал": 7654,
  "▁нуждается": 7655,
  "▁башни": 7656,
  "▁корни": 7657,
  "▁Кал": 7658,
  "дели": 7659,
  "▁идёт": 7660,
  "▁обстановку": 7661,
  "▁прорыва": 7662,
  "▁1996": 7663,
  "▁мороз": 7664,
  "▁комиссия": 7665,
  "ice": 7666,
  "▁государственные": 7667,
  "овка": 7668,
  "▁красных": 7669,
  "▁Самое": 7670,
  "▁Две": 7671,
  "▁захватили": 7672,
  "полн": 7673,
  "▁длинные": 7674,
  "▁доверие": 7675,
  "Бог": 7676,
  "▁небольших": 7677,
  "▁считалось": 7678,
  "▁отправить": 7679,
  "▁скота": 7680,
  "▁животное": 7681,
  "ip": 7682,
  "▁Вып": 7683,
  "▁Ладно": 7684,
  "▁Францию": 7685,
  "ster": 7686,
  "67": 7687,
  "▁стоимости": 7688,
  "bo": 7689,
  "tra": 7690,
  "пло": 7691,
  "▁разрушения": 7692,
  "▁пил": 7693,
  "мут": 7694,
  "▁Юр": 7695,
  "См": 7696,
  "уда": 7697,
  "▁Какое": 7698,
  "плат": 7699,
  "зин": 7700,
  "▁получим": 7701,
  "▁функцию": 7702,
  "▁word": 7703,
  "▁критика": 7704,
  "▁деятелей": 7705,
  "▁мягко": 7706,
  "▁обычной": 7707,
  "▁общение": 7708,
  "▁(10": 7709,
  "▁возвращении": 7710,
  "▁монет": 7711,
  "▁техника": 7712,
  "ha": 7713,
  "▁зап": 7714,
  "▁беда": 7715,
  "▁думают": 7716,
  "▁certain": 7717,
  "ck": 7718,
  "▁ошибка": 7719,
  "вшему": 7720,
  "▁ритуал": 7721,
  "▁оказываются": 7722,
  "▁освобожден": 7723,
  "▁мил": 7724,
  "▁Dr": 7725,
  "▁взяв": 7726,
  "-10": 7727,
  "▁позволило": 7728,
  "▁показания": 7729,
  "▁женщине": 7730,
  "▁обороне": 7731,
  "▁99": 7732,
  "▁vi": 7733,
  "пов": 7734,
  "▁высокую": 7735,
  "▁сезон": 7736,
  "олог": 7737,
  "▁50-": 7738,
  "▁поистине": 7739,
  "НА": 7740,
  "▁вос": 7741,
  "▁Война": 7742,
  "▁осуществления": 7743,
  "▁политическим": 7744,
  "▁слышали": 7745,
  "▁принесли": 7746,
  "▁возникли": 7747,
  "▁музея": 7748,
  "сам": 7749,
  "шир": 7750,
  "▁1994": 7751,
  "▁лучшее": 7752,
  "▁ответы": 7753,
  "▁занимается": 7754,
  "▁Решение": 7755,
  "▁проч": 7756,
  "▁учитывать": 7757,
  "▁личный": 7758,
  "▁Буд": 7759,
  "▁военная": 7760,
  "▁Оказалось": 7761,
  "▁Кап": 7762,
  "we": 7763,
  "изу": 7764,
  "▁бед": 7765,
  "нд": 7766,
  "ема": 7767,
  "▁небес": 7768,
  "▁Фридрих": 7769,
  "▁повезло": 7770,
  "▁военном": 7771,
  "▁художников": 7772,
  "▁1952": 7773,
  "▁противников": 7774,
  "▁гидро": 7775,
  "▁поиски": 7776,
  "▁сильной": 7777,
  "▁братом": 7778,
  "▁кровати": 7779,
  "▁оппозиции": 7780,
  "▁феномен": 7781,
  "▁готовность": 7782,
  "▁крейсер": 7783,
  "▁град": 7784,
  "▁1998": 7785,
  "▁Маг": 7786,
  "▁Ильич": 7787,
  "▁высказывания": 7788,
  "▁130": 7789,
  "▁rest": 7790,
  "▁утверждают": 7791,
  "▁восстановления": 7792,
  "▁Павлович": 7793,
  "▁Князь": 7794,
  "▁1900": 7795,
  "▁87": 7796,
  "▁демон": 7797,
  "▁улыбкой": 7798,
  "нова": 7799,
  "▁Ещё": 7800,
  "▁сделав": 7801,
  "▁шаги": 7802,
  "▁Капитан": 7803,
  "▁определенный": 7804,
  "ring": 7805,
  "▁взгляда": 7806,
  "▁бытие": 7807,
  "▁следствием": 7808,
  "пп": 7809,
  "▁сможете": 7810,
  "▁Сталину": 7811,
  "▁скал": 7812,
  "ковский": 7813,
  "ича": 7814,
  "▁описал": 7815,
  "▁темноте": 7816,
  "▁вождя": 7817,
  "î": 7818,
  "▁князю": 7819,
  "▁развивается": 7820,
  "ище": 7821,
  "чиков": 7822,
  "мышлен": 7823,
  "▁подтвердил": 7824,
  "▁требование": 7825,
  "▁лит": 7826,
  "77": 7827,
  "ола": 7828,
  "▁keep": 7829,
  "▁труб": 7830,
  "▁учился": 7831,
  "кр": 7832,
  "▁епископа": 7833,
  "▁непри": 7834,
  "▁понимая": 7835,
  "добр": 7836,
  "▁пас": 7837,
  "▁буквы": 7838,
  "▁1973": 7839,
  "▁18.": 7840,
  "▁пролив": 7841,
  "вели": 7842,
  "▁ограничения": 7843,
  "▁лодка": 7844,
  "▁еле": 7845,
  "кие": 7846,
  "▁исследователей": 7847,
  "▁срока": 7848,
  "▁America": 7849,
  "▁выполнение": 7850,
  "▁боги": 7851,
  "▁обряд": 7852,
  "▁солдата": 7853,
  "▁приема": 7854,
  "▁руководил": 7855,
  "▁прежних": 7856,
  "дела": 7857,
  "-6": 7858,
  "иды": 7859,
  "▁образцов": 7860,
  "▁рота": 7861,
  "▁табл": 7862,
  "ог": 7863,
  "▁личные": 7864,
  "▁подарок": 7865,
  "▁деньгами": 7866,
  "▁лекции": 7867,
  "▁сложные": 7868,
  "фон": 7869,
  "▁Стр": 7870,
  "▁12-": 7871,
  "der": 7872,
  "▁убедиться": 7873,
  "▁(2)": 7874,
  "▁подполковник": 7875,
  "52": 7876,
  "шек": 7877,
  "▁op": 7878,
  "▁hard": 7879,
  "очные": 7880,
  "▁провал": 7881,
  "▁встреч": 7882,
  "▁кольцо": 7883,
  "▁экипажа": 7884,
  "▁принялся": 7885,
  "▁рассмотреть": 7886,
  "▁Мил": 7887,
  "▁главу": 7888,
  "▁From": 7889,
  "▁подводных": 7890,
  "▁Австрии": 7891,
  "▁Одни": 7892,
  "разному": 7893,
  "▁физических": 7894,
  "▁произвести": 7895,
  "▁лучший": 7896,
  "▁Едва": 7897,
  "▁Киеве": 7898,
  "иг": 7899,
  "▁северной": 7900,
  "▁вернулась": 7901,
  "ителя": 7902,
  "▁оттого": 7903,
  "▁ПРО": 7904,
  "▁милости": 7905,
  "63": 7906,
  "▁представил": 7907,
  "▁мудрость": 7908,
  "▁колебания": 7909,
  "▁твою": 7910,
  "бил": 7911,
  "▁казаки": 7912,
  "▁металла": 7913,
  "▁отчего": 7914,
  "▁историков": 7915,
  "▁прочь": 7916,
  "▁проблемой": 7917,
  "▁вызвали": 7918,
  "▁исполнения": 7919,
  "поль": 7920,
  "▁миссии": 7921,
  "▁видны": 7922,
  "▁маршал": 7923,
  "▁мышц": 7924,
  "ительный": 7925,
  "▁действуют": 7926,
  "▁волна": 7927,
  "▁подробности": 7928,
  "Под": 7929,
  "▁численности": 7930,
  "▁составить": 7931,
  "79": 7932,
  "▁красные": 7933,
  "▁вошла": 7934,
  "86": 7935,
  "рит": 7936,
  "▁неподалеку": 7937,
  "▁поступать": 7938,
  "89": 7939,
  "▁неплохо": 7940,
  "▁show": 7941,
  "▁ча": 7942,
  "▁мысленно": 7943,
  "▁force": 7944,
  "▁пап": 7945,
  "мпер": 7946,
  "▁остановиться": 7947,
  "▁ударил": 7948,
  "▁трубку": 7949,
  "▁мешает": 7950,
  "▁Ha": 7951,
  "▁версия": 7952,
  "▁вал": 7953,
  "▁Дома": 7954,
  "▁молекул": 7955,
  "▁приехали": 7956,
  "λ": 7957,
  "▁гвардии": 7958,
  "▁относились": 7959,
  "▁1972": 7960,
  "▁ногах": 7961,
  "mann": 7962,
  "▁обращаться": 7963,
  "▁называемый": 7964,
  "▁услышать": 7965,
  "ож": 7966,
  "▁качеств": 7967,
  "▁природой": 7968,
  "▁modern": 7969,
  "▁развитием": 7970,
  "лѣ": 7971,
  "щих": 7972,
  "▁аромат": 7973,
  "▁номера": 7974,
  "▁выразил": 7975,
  "▁повторил": 7976,
  "▁money": 7977,
  "▁че": 7978,
  "▁державы": 7979,
  "▁Сына": 7980,
  "▁единственное": 7981,
  "▁бить": 7982,
  "▁языках": 7983,
  "▁некоторыми": 7984,
  "▁неприятеля": 7985,
  "▁отправлен": 7986,
  "знач": 7987,
  "▁сторонам": 7988,
  "▁бросился": 7989,
  "▁шею": 7990,
  "▁увеличение": 7991,
  "▁why": 7992,
  "Ла": 7993,
  "int": 7994,
  "▁существовали": 7995,
  "▁действ": 7996,
  "▁отправили": 7997,
  "▁почве": 7998,
  "▁ver": 7999,
  "▁субъект": 8000,
  "▁Северного": 8001,
  "▁мышление": 8002,
  "▁Георгий": 8003,
  "▁1988": 8004,
  "▁создана": 8005,
  "▁Кавказ": 8006,
  "▁тайно": 8007,
  "▁common": 8008,
  "▁врачи": 8009,
  "▁поры": 8010,
  "▁Комитет": 8011,
  "▁2014": 8012,
  "▁як": 8013,
  "▁сп": 8014,
  "ub": 8015,
  "▁важнейших": 8016,
  "▁историей": 8017,
  "▁диалог": 8018,
  "▁дивизион": 8019,
  "▁soon": 8020,
  "▁прибыль": 8021,
  "▁Русские": 8022,
  "▁телеграф": 8023,
  "▁сделает": 8024,
  "▁помещения": 8025,
  "▁представителями": 8026,
  "▁целых": 8027,
  "ative": 8028,
  "▁говорите": 8029,
  "▁маленькая": 8030,
  "ела": 8031,
  "еш": 8032,
  "▁женщиной": 8033,
  "▁Хор": 8034,
  "вая": 8035,
  "▁созданы": 8036,
  "▁1969": 8037,
  "▁формирование": 8038,
  "▁Вернуться": 8039,
  "▁вашем": 8040,
  "▁Парижа": 8041,
  "61": 8042,
  "▁долга": 8043,
  "ε": 8044,
  "▁внешне": 8045,
  "▁1975": 8046,
  "▁улицах": 8047,
  "▁дев": 8048,
  "▁живым": 8049,
  "нич": 8050,
  "▁велико": 8051,
  "▁live": 8052,
  "▁необходимое": 8053,
  "▁единственно": 8054,
  "чев": 8055,
  "▁низ": 8056,
  "▁96": 8057,
  "▁невероятно": 8058,
  "▁яйца": 8059,
  "▁страниц": 8060,
  "▁приходили": 8061,
  "▁подписан": 8062,
  "▁late": 8063,
  "▁whether": 8064,
  "▁восточной": 8065,
  "▁вып": 8066,
  "▁15.": 8067,
  "▁сидя": 8068,
  "▁компьютер": 8069,
  "сона": 8070,
  "▁пункта": 8071,
  "▁Go": 8072,
  "▁представлять": 8073,
  "Те": 8074,
  "▁возникло": 8075,
  "▁пик": 8076,
  "уха": 8077,
  "▁изучать": 8078,
  "▁удачно": 8079,
  "▁(\"": 8080,
  "▁подразделений": 8081,
  "▁ужасно": 8082,
  "▁бояр": 8083,
  "▁освободить": 8084,
  "▁пошло": 8085,
  "▁наружу": 8086,
  "▁переживания": 8087,
  "▁огне": 8088,
  "▁массовой": 8089,
  "щему": 8090,
  "▁группами": 8091,
  "крыл": 8092,
  "▁умом": 8093,
  "▁(6": 8094,
  "чем": 8095,
  "▁красный": 8096,
  "▁Ольга": 8097,
  "▁производить": 8098,
  "▁уверены": 8099,
  "рі": 8100,
  "▁Скоро": 8101,
  "▁sur": 8102,
  "рия": 8103,
  "▁давай": 8104,
  "▁данное": 8105,
  "▁село": 8106,
  "▁поиск": 8107,
  "▁средством": 8108,
  "пил": 8109,
  "▁южной": 8110,
  "▁давайте": 8111,
  "▁трагедии": 8112,
  "▁произойдет": 8113,
  "▁service": 8114,
  "▁обер": 8115,
  "▁моменту": 8116,
  "▁милость": 8117,
  "▁золотом": 8118,
  "▁Абу": 8119,
  "▁Cambridge": 8120,
  "▁доказательство": 8121,
  "▁сперва": 8122,
  "▁канал": 8123,
  "▁Жив": 8124,
  "▁господство": 8125,
  "▁соединение": 8126,
  "▁подал": 8127,
  "▁обман": 8128,
  "▁near": 8129,
  "▁международных": 8130,
  "▁помещение": 8131,
  "▁заняться": 8132,
  "теле": 8133,
  "▁сооружения": 8134,
  "порт": 8135,
  "▁лучи": 8136,
  "тка": 8137,
  "▁молодым": 8138,
  "▁высот": 8139,
  "▁естественным": 8140,
  "▁короткий": 8141,
  "▁1,5": 8142,
  "▁морю": 8143,
  "▁хорошей": 8144,
  "▁международной": 8145,
  "74": 8146,
  "▁Существует": 8147,
  "-19": 8148,
  "Ис": 8149,
  "ü": 8150,
  "▁1997": 8151,
  "▁тысячу": 8152,
  "▁заставил": 8153,
  "▁надежду": 8154,
  "▁дядя": 8155,
  "▁участвовали": 8156,
  "▁носили": 8157,
  "▁трёх": 8158,
  "▁длины": 8159,
  "▁),": 8160,
  "▁схема": 8161,
  "▁удивился": 8162,
  "▁кап": 8163,
  "▁третья": 8164,
  "▁чинов": 8165,
  "▁1904": 8166,
  "▁пишут": 8167,
  "▁взрослых": 8168,
  "▁Будучи": 8169,
  "хим": 8170,
  "▁дольше": 8171,
  "▁Ver": 8172,
  "▁коротко": 8173,
  "▁single": 8174,
  "▁первому": 8175,
  "▁лечение": 8176,
  "▁story": 8177,
  "▁неверно": 8178,
  "▁Тай": 8179,
  "▁смогу": 8180,
  "▁Тебя": 8181,
  "▁ждут": 8182,
  "▁забывать": 8183,
  "▁зерна": 8184,
  "▁дат": 8185,
  "▁условно": 8186,
  "▁восприятие": 8187,
  "▁сл": 8188,
  "▁успехи": 8189,
  "▁2007": 8190,
  "▁физического": 8191,
  "▁Тан": 8192,
  "▁причину": 8193,
  "▁настойчиво": 8194,
  "▁дворце": 8195,
  "ja": 8196,
  "смотр": 8197,
  "tro": 8198,
  "▁приняла": 8199,
  "▁окон": 8200,
  "▁расти": 8201,
  "▁1979": 8202,
  "▁установления": 8203,
  "▁утвержден": 8204,
  "▁ло": 8205,
  "▁Сто": 8206,
  "▁пьесы": 8207,
  "gen": 8208,
  "▁проходил": 8209,
  "▁вопросах": 8210,
  "▁стену": 8211,
  "▁поколений": 8212,
  "ists": 8213,
  "71": 8214,
  "▁Красного": 8215,
  "гов": 8216,
  "▁Ду": 8217,
  "▁tell": 8218,
  "▁800": 8219,
  "▁спине": 8220,
  "▁способствует": 8221,
  "▁страницах": 8222,
  "▁вздохнул": 8223,
  "▁Король": 8224,
  "▁уста": 8225,
  "стра": 8226,
  "бен": 8227,
  "▁надеюсь": 8228,
  "▁занима": 8229,
  "▁произведен": 8230,
  "▁коллектив": 8231,
  "▁across": 8232,
  "▁нефти": 8233,
  "▁коллеги": 8234,
  "▁рассчитывать": 8235,
  "▁бывал": 8236,
  "▁жидкости": 8237,
  "▁Алексея": 8238,
  "рах": 8239,
  "▁выйдет": 8240,
  "▁учитывая": 8241,
  "▁голов": 8242,
  "▁показатель": 8243,
  "▁христианство": 8244,
  "▁уважение": 8245,
  "▁последующих": 8246,
  "▁носил": 8247,
  "▁кабинета": 8248,
  "глав": 8249,
  "гон": 8250,
  "▁двигатель": 8251,
  "▁мышцы": 8252,
  "▁заключить": 8253,
  "▁Ти": 8254,
  "уш": 8255,
  "лам": 8256,
  "▁жестоко": 8257,
  "▁гроз": 8258,
  "▁ду": 8259,
  "▁Пример": 8260,
  "▁обсуждения": 8261,
  "▁советским": 8262,
  "▁Большая": 8263,
  "▁весом": 8264,
  "ot": 8265,
  "▁er": 8266,
  "▁Цар": 8267,
  "▁РККА": 8268,
  "▁70-": 8269,
  "▁ожидания": 8270,
  "▁вариантов": 8271,
  "▁акцент": 8272,
  "▁свободной": 8273,
  "вис": 8274,
  "ящий": 8275,
  "▁сосед": 8276,
  "▁above": 8277,
  "▁больной": 8278,
  "▁отпуск": 8279,
  "зен": 8280,
  "▁присутствует": 8281,
  "▁испытаний": 8282,
  "чики": 8283,
  "ga": 8284,
  "▁Англию": 8285,
  "▁заболеваний": 8286,
  "▁позволил": 8287,
  "▁Сергеевич": 8288,
  "иб": 8289,
  "▁посреди": 8290,
  "so": 8291,
  "▁полезно": 8292,
  "▁линий": 8293,
  "▁1966": 8294,
  "▁послать": 8295,
  "лек": 8296,
  "▁средних": 8297,
  "▁агентов": 8298,
  "▁крас": 8299,
  "▁годом": 8300,
  "▁корм": 8301,
  "▁согласен": 8302,
  "▁83": 8303,
  "▁высокая": 8304,
  "кры": 8305,
  "▁лучшим": 8306,
  "▁заговор": 8307,
  "гла": 8308,
  "▁способна": 8309,
  "граф": 8310,
  "стями": 8311,
  "▁будущей": 8312,
  "▁смену": 8313,
  "▁специалисты": 8314,
  "▁вероятности": 8315,
  "зд": 8316,
  "▁устроить": 8317,
  "vi": 8318,
  "▁поддерживал": 8319,
  "▁относился": 8320,
  "форм": 8321,
  "центр": 8322,
  "▁современном": 8323,
  "▁Орлов": 8324,
  "▁2003": 8325,
  "▁деталей": 8326,
  "оч": 8327,
  "▁мощь": 8328,
  "▁сроки": 8329,
  "▁сильных": 8330,
  "▁сообщества": 8331,
  "очного": 8332,
  "▁поэтов": 8333,
  "▁англо": 8334,
  "▁богом": 8335,
  "▁Сама": 8336,
  "▁планет": 8337,
  "▁юности": 8338,
  "wa": 8339,
  "▁монастыре": 8340,
  "▁5)": 8341,
  "ража": 8342,
  "▁суде": 8343,
  "▁How": 8344,
  "▁думаете": 8345,
  "▁умерла": 8346,
  "▁правителя": 8347,
  "▁1911": 8348,
  "▁плав": 8349,
  "твор": 8350,
  "▁священник": 8351,
  "▁ти": 8352,
  "▁защитить": 8353,
  "▁ба": 8354,
  "▁движется": 8355,
  "▁непо": 8356,
  "▁богатых": 8357,
  "▁гору": 8358,
  "▁понимании": 8359,
  "▁взаимоотношения": 8360,
  "никами": 8361,
  "▁лаборатории": 8362,
  "анта": 8363,
  "all": 8364,
  "▁страницы": 8365,
  "▁надолго": 8366,
  "▁1985": 8367,
  "▁Леонид": 8368,
  "▁положено": 8369,
  "ee": 8370,
  "▁совершать": 8371,
  "▁созда": 8372,
  "▁дан": 8373,
  "▁лидеров": 8374,
  "▁важнее": 8375,
  "▁подряд": 8376,
  "▁хватило": 8377,
  "сар": 8378,
  "▁интереса": 8379,
  "▁любая": 8380,
  "▁обмена": 8381,
  "▁Марс": 8382,
  "▁человеческий": 8383,
  "▁sent": 8384,
  "чек": 8385,
  "▁’’": 8386,
  "▁недостатки": 8387,
  "етъ": 8388,
  "▁ученого": 8389,
  "▁грехи": 8390,
  "▁предложить": 8391,
  "анов": 8392,
  "▁назвали": 8393,
  "▁Последние": 8394,
  "▁Ак": 8395,
  "▁транспорта": 8396,
  "ans": 8397,
  "▁исключения": 8398,
  "▁местной": 8399,
  "▁русское": 8400,
  "▁режиссер": 8401,
  "тона": 8402,
  "▁угла": 8403,
  "голов": 8404,
  "▁особым": 8405,
  "▁Germany": 8406,
  "▁цикла": 8407,
  "▁деталь": 8408,
  "▁ул": 8409,
  "mon": 8410,
  "▁указать": 8411,
  "▁сотрудники": 8412,
  "▁имеющих": 8413,
  "▁диск": 8414,
  "▁Саша": 8415,
  "▁si": 8416,
  "▁показано": 8417,
  "▁пользы": 8418,
  "▁реже": 8419,
  "▁плотно": 8420,
  "▁2004": 8421,
  "▁разрыва": 8422,
  "▁лжи": 8423,
  "▁either": 8424,
  "▁_": 8425,
  "ющуюся": 8426,
  "▁следствия": 8427,
  "ins": 8428,
  "доб": 8429,
  "▁development": 8430,
  "▁це": 8431,
  "▁mother": 8432,
  "▁гр": 8433,
  "▁сказки": 8434,
  "▁1907": 8435,
  "ph": 8436,
  "▁образуют": 8437,
  "▁пароход": 8438,
  "-16": 8439,
  "▁аккуратно": 8440,
  "▁Изд": 8441,
  "вала": 8442,
  "▁холодной": 8443,
  "01": 8444,
  "▁городских": 8445,
  "▁листья": 8446,
  "▁1951": 8447,
  "▁ужаса": 8448,
  "▁религиозной": 8449,
  "▁огромным": 8450,
  "▁language": 8451,
  "▁gave": 8452,
  "▁древнего": 8453,
  "▁Ме": 8454,
  "▁жар": 8455,
  "▁семейства": 8456,
  "▁Фа": 8457,
  "▁суждения": 8458,
  "▁прихода": 8459,
  "▁эксплуатации": 8460,
  "▁ресурсы": 8461,
  "nt": 8462,
  "▁основная": 8463,
  "▁фраза": 8464,
  "▁напрасно": 8465,
  "▁sh": 8466,
  "▁1974": 8467,
  "▁Господу": 8468,
  "▁увидим": 8469,
  "▁anti": 8470,
  "▁кафе": 8471,
  "шит": 8472,
  "класс": 8473,
  "▁сложной": 8474,
  "эл": 8475,
  "▁Америка": 8476,
  "▁лучшего": 8477,
  "▁человеческое": 8478,
  "▁записал": 8479,
  "▁sp": 8480,
  "▁направить": 8481,
  "min": 8482,
  "▁восточных": 8483,
  "▁Немцы": 8484,
  "▁заводов": 8485,
  "▁Ос": 8486,
  "пл": 8487,
  "▁Вед": 8488,
  "▁назначил": 8489,
  "▁культуру": 8490,
  "▁подняться": 8491,
  "▁кредит": 8492,
  "▁торпед": 8493,
  "русски": 8494,
  "мент": 8495,
  "▁определенное": 8496,
  "▁вершины": 8497,
  "▁ребят": 8498,
  "▁захват": 8499,
  "▁добрый": 8500,
  "▁вечеру": 8501,
  "92": 8502,
  "▁привез": 8503,
  "▁концепция": 8504,
  "▁труп": 8505,
  "▁идее": 8506,
  "▁General": 8507,
  "▁муки": 8508,
  "▁увеличить": 8509,
  "▁Пу": 8510,
  "▁похожи": 8511,
  "▁правилам": 8512,
  "▁test": 8513,
  "▁игре": 8514,
  "▁position": 8515,
  "▁элемента": 8516,
  "▁наблюдал": 8517,
  "▁участка": 8518,
  "▁кров": 8519,
  "есь": 8520,
  "ишься": 8521,
  "ev": 8522,
  "▁matter": 8523,
  "рова": 8524,
  "▁человеческие": 8525,
  "▁холодно": 8526,
  "▁концерт": 8527,
  "▁умение": 8528,
  "онос": 8529,
  "▁начинать": 8530,
  "tor": 8531,
  "кою": 8532,
  "лип": 8533,
  "ацией": 8534,
  "▁ложь": 8535,
  "▁19.": 8536,
  "▁взвод": 8537,
  "▁встретили": 8538,
  "▁ha": 8539,
  "вшемся": 8540,
  "▁ge": 8541,
  "▁рассуждения": 8542,
  "▁1812": 8543,
  "▁Маркса": 8544,
  "опыт": 8545,
  "▁мл": 8546,
  "▁убедительно": 8547,
  "▁крупный": 8548,
  "▁канала": 8549,
  "▁выбрал": 8550,
  "▁nature": 8551,
  "тяж": 8552,
  "▁захвата": 8553,
  "ании": 8554,
  "ver": 8555,
  "нар": 8556,
  "▁whose": 8557,
  "▁размер": 8558,
  "▁ошибку": 8559,
  "▁найден": 8560,
  "▁молодости": 8561,
  "▁1971": 8562,
  "▁heart": 8563,
  "▁1976": 8564,
  "▁Божией": 8565,
  "пел": 8566,
  "▁странами": 8567,
  "▁отсутствует": 8568,
  "▁Сар": 8569,
  "▁Ge": 8570,
  "▁полях": 8571,
  "▁Фар": 8572,
  "▁широкое": 8573,
  "▁91": 8574,
  "▁окончании": 8575,
  "▁здорово": 8576,
  "▁искусств": 8577,
  "▁close": 8578,
  "▁категорически": 8579,
  "▁ценой": 8580,
  "▁раздался": 8581,
  "▁СО": 8582,
  "▁Васильев": 8583,
  "сек": 8584,
  "▁art": 8585,
  "▁объектом": 8586,
  "▁result": 8587,
  "▁направлениях": 8588,
  "▁размышления": 8589,
  "▁собственными": 8590,
  "Ё": 8591,
  "▁баланс": 8592,
  "▁заключенных": 8593,
  "▁разряд": 8594,
  "▁французы": 8595,
  "▁простого": 8596,
  "▁последствий": 8597,
  "▁принципу": 8598,
  "▁взаимодействие": 8599,
  "od": 8600,
  "▁Ka": 8601,
  "▁Платон": 8602,
  "▁Каждая": 8603,
  "▁Her": 8604,
  "▁Павлов": 8605,
  "▁Снова": 8606,
  "▁имеющие": 8607,
  "▁телу": 8608,
  "ТО": 8609,
  "▁советско": 8610,
  "▁признания": 8611,
  "▁qui": 8612,
  "▁five": 8613,
  "▁Генерального": 8614,
  "▁колебаний": 8615,
  "▁надеяться": 8616,
  "73": 8617,
  "▁благодарность": 8618,
  "▁Помню": 8619,
  "▁жир": 8620,
  "?)": 8621,
  "▁black": 8622,
  "og": 8623,
  "▁крупного": 8624,
  "▁оборудования": 8625,
  "▁вины": 8626,
  "▁стрельбы": 8627,
  "▁установлен": 8628,
  "ард": 8629,
  "▁мощи": 8630,
  "▁представлены": 8631,
  "▁супруга": 8632,
  "▁ходит": 8633,
  "▁убеждения": 8634,
  "▁Образ": 8635,
  "▁приобретает": 8636,
  "▁вину": 8637,
  "рек": 8638,
  "▁залив": 8639,
  "крашен": 8640,
  "▁вторым": 8641,
  "▁расположен": 8642,
  "▁Sch": 8643,
  "▁2005": 8644,
  "▁позор": 8645,
  "▁turn": 8646,
  "▁обязанностей": 8647,
  "▁птица": 8648,
  "▁тишина": 8649,
  "▁слоев": 8650,
  "▁истинно": 8651,
  "▁папы": 8652,
  "▁сказав": 8653,
  "▁Совершенно": 8654,
  "res": 8655,
  "▁заключалась": 8656,
  "▁карт": 8657,
  "▁условиям": 8658,
  "▁столкновения": 8659,
  "▁следить": 8660,
  "люб": 8661,
  "▁революцию": 8662,
  "▁сохранились": 8663,
  "кро": 8664,
  "▁ДНК": 8665,
  "усь": 8666,
  "▁стих": 8667,
  "▁наступает": 8668,
  "▁92": 8669,
  "▁ликвидации": 8670,
  "ba": 8671,
  "ць": 8672,
  "▁коем": 8673,
  "▁авиа": 8674,
  "▁wanted": 8675,
  "▁исторические": 8676,
  "▁народе": 8677,
  "▁93": 8678,
  "▁парт": 8679,
  "стор": 8680,
  "ніе": 8681,
  "▁соль": 8682,
  "ko": 8683,
  "▁морского": 8684,
  "▁соотношение": 8685,
  "▁открытым": 8686,
  "▁металл": 8687,
  "▁продолжают": 8688,
  "▁wrote": 8689,
  "ship": 8690,
  "▁приготовления": 8691,
  "▁Ваш": 8692,
  "▁обоз": 8693,
  "▁обработки": 8694,
  "▁участки": 8695,
  "▁возвращаться": 8696,
  "▁иного": 8697,
  "акт": 8698,
  "▁собрании": 8699,
  "▁русско": 8700,
  "▁Энгельс": 8701,
  "▁перестал": 8702,
  "▁West": 8703,
  "▁изображен": 8704,
  "▁поступить": 8705,
  "▁ab": 8706,
  "▁позвонил": 8707,
  "88": 8708,
  "▁комплекса": 8709,
  "▁творения": 8710,
  "▁повышение": 8711,
  "▁стрелять": 8712,
  "▁контролировать": 8713,
  "▁координат": 8714,
  "▁приход": 8715,
  "▁reason": 8716,
  "▁дорого": 8717,
  "▁низко": 8718,
  "▁ан": 8719,
  "▁аспект": 8720,
  "▁установил": 8721,
  "▁революционной": 8722,
  "Ар": 8723,
  "▁происходили": 8724,
  "▁расположены": 8725,
  "▁разного": 8726,
  "▁нижней": 8727,
  "▁упоминается": 8728,
  "▁вырос": 8729,
  "▁импульс": 8730,
  "▁черных": 8731,
  "▁отказа": 8732,
  "▁будущих": 8733,
  "▁лишен": 8734,
  "▁верю": 8735,
  "▁With": 8736,
  "ug": 8737,
  "▁купил": 8738,
  "▁исторический": 8739,
  "ыч": 8740,
  "▁пункты": 8741,
  "▁озеро": 8742,
  "▁160": 8743,
  "▁изделия": 8744,
  "▁производит": 8745,
  "▁признает": 8746,
  "▁89": 8747,
  "▁Джа": 8748,
  "▁добраться": 8749,
  "▁2002": 8750,
  "▁груд": 8751,
  "▁(12": 8752,
  "РА": 8753,
  "▁преимущества": 8754,
  "ьем": 8755,
  "▁быт": 8756,
  "▁1908": 8757,
  "▁отбор": 8758,
  "▁собственном": 8759,
  "Ин": 8760,
  "▁государственным": 8761,
  "▁1987": 8762,
  "инской": 8763,
  "▁программе": 8764,
  "иан": 8765,
  "▁сер": 8766,
  "▁фильме": 8767,
  "▁всерьез": 8768,
  "▁думала": 8769,
  "▁making": 8770,
  "ea": 8771,
  "овская": 8772,
  "▁ЦРУ": 8773,
  "▁Дела": 8774,
  "▁установлено": 8775,
  "▁Berlin": 8776,
  "▁Штатов": 8777,
  "▁способа": 8778,
  "жал": 8779,
  "▁богу": 8780,
  "▁принц": 8781,
  "ческая": 8782,
  "▁кратко": 8783,
  "ns": 8784,
  "▁любили": 8785,
  "▁97": 8786,
  "▁поезда": 8787,
  "▁варианты": 8788,
  "va": 8789,
  "▁указание": 8790,
  "▁опасно": 8791,
  "▁образе": 8792,
  "▁(14": 8793,
  "▁языки": 8794,
  "▁убитых": 8795,
  "▁проводили": 8796,
  "▁крем": 8797,
  "▁1986": 8798,
  "▁заняты": 8799,
  "▁поначалу": 8800,
  "▁Ленинграда": 8801,
  "▁мертвых": 8802,
  "...\"": 8803,
  "▁девушку": 8804,
  "ческой": 8805,
  "▁угроза": 8806,
  "▁девушек": 8807,
  "нец": 8808,
  "вет": 8809,
  "▁вслух": 8810,
  "▁подобной": 8811,
  "▁Давай": 8812,
  "▁руководители": 8813,
  "▁выбирать": 8814,
  "iz": 8815,
  "▁Перевод": 8816,
  "▁запасы": 8817,
  "▁советское": 8818,
  "▁партийных": 8819,
  "▁Папа": 8820,
  "▁стрелковой": 8821,
  "▁супер": 8822,
  "▁грани": 8823,
  "▁ударом": 8824,
  "▁бабушка": 8825,
  "▁послание": 8826,
  "инга": 8827,
  "▁постройки": 8828,
  "уя": 8829,
  "▁Матери": 8830,
  "▁черта": 8831,
  "▁Семен": 8832,
  "▁выборов": 8833,
  "▁признак": 8834,
  "разум": 8835,
  "▁небольшое": 8836,
  "▁требований": 8837,
  "▁Бал": 8838,
  "др": 8839,
  "▁сильного": 8840,
  "▁теряет": 8841,
  "▁углом": 8842,
  "▁склонны": 8843,
  "фин": 8844,
  "зон": 8845,
  "▁полчаса": 8846,
  "▁большевики": 8847,
  "2).": 8848,
  "▁выступить": 8849,
  "▁видимости": 8850,
  "▁Дан": 8851,
  "unt": 8852,
  "▁Комитета": 8853,
  "▁русскую": 8854,
  "▁Подобно": 8855,
  "били": 8856,
  "▁актив": 8857,
  "мп": 8858,
  "76": 8859,
  "▁Александров": 8860,
  "▁Степан": 8861,
  "▁1982": 8862,
  "тал": 8863,
  "▁eyes": 8864,
  "▁частной": 8865,
  "стой": 8866,
  "▁стекла": 8867,
  "▁Ча": 8868,
  "Re": 8869,
  "▁преступление": 8870,
  "▁anything": 8871,
  "▁оценке": 8872,
  "▁производстве": 8873,
  "▁безопасность": 8874,
  "▁противнику": 8875,
  "кат": 8876,
  "▁food": 8877,
  "▁оценка": 8878,
  "▁experience": 8879,
  "▁Достаточно": 8880,
  "▁экран": 8881,
  "▁поиска": 8882,
  "▁2010": 8883,
  "▁лейтенанта": 8884,
  "▁величина": 8885,
  "▁недовольство": 8886,
  "▁секс": 8887,
  "▁широкий": 8888,
  "Кто": 8889,
  "▁business": 8890,
  "▁разработки": 8891,
  "▁98": 8892,
  "▁танковых": 8893,
  "▁выступление": 8894,
  "▁1978": 8895,
  "▁фланг": 8896,
  "▁глубин": 8897,
  "бат": 8898,
  "чай": 8899,
  "работа": 8900,
  "очку": 8901,
  "▁звания": 8902,
  "sk": 8903,
  "оциалистического": 8904,
  "▁маневр": 8905,
  "▁услуг": 8906,
  "Кор": 8907,
  "▁el": 8908,
  "▁семьей": 8909,
  "▁Адам": 8910,
  "▁However": 8911,
  "▁фонд": 8912,
  "▁справедливость": 8913,
  "▁называемых": 8914,
  "▁Лет": 8915,
  "▁храме": 8916,
  "▁отказались": 8917,
  "▁попыток": 8918,
  "▁царей": 8919,
  "▁комнат": 8920,
  "▁огромная": 8921,
  "▁мяч": 8922,
  "▁звезда": 8923,
  "▁однозначно": 8924,
  "▁преимущество": 8925,
  "чика": 8926,
  "▁attack": 8927,
  "▁англ": 8928,
  "стат": 8929,
  "▁выборах": 8930,
  "езд": 8931,
  "De": 8932,
  "▁ступени": 8933,
  "цией": 8934,
  "▁тяжести": 8935,
  "▁лидер": 8936,
  "▁хорошая": 8937,
  "▁череп": 8938,
  "â": 8939,
  "our": 8940,
  "очная": 8941,
  "чок": 8942,
  "▁Ярослав": 8943,
  "▁гол": 8944,
  "▁Европа": 8945,
  "▁базу": 8946,
  "цион": 8947,
  "▁использованием": 8948,
  "сн": 8949,
  "▁отчаянно": 8950,
  "▁special": 8951,
  "▁воен": 8952,
  "▁ядра": 8953,
  "▁толку": 8954,
  "▁Mar": 8955,
  "▁Правительство": 8956,
  "fe": 8957,
  "▁Син": 8958,
  "▁эмоций": 8959,
  "▁осени": 8960,
  "Петербург": 8961,
  "▁предельно": 8962,
  "▁seemed": 8963,
  "▁испытывает": 8964,
  "▁успехов": 8965,
  "▁повышения": 8966,
  "▁брату": 8967,
  "▁1977": 8968,
  "▁споры": 8969,
  "луч": 8970,
  "яз": 8971,
  "▁зданий": 8972,
  "▁лежала": 8973,
  "▁непонятно": 8974,
  "▁схемы": 8975,
  "▁направлению": 8976,
  "▁страсть": 8977,
  "▁Генри": 8978,
  "▁Баб": 8979,
  "▁левом": 8980,
  "▁особые": 8981,
  "ование": 8982,
  "ких": 8983,
  "▁ненависти": 8984,
  "тя": 8985,
  "▁ль": 8986,
  "▁law": 8987,
  "▁изменилось": 8988,
  "▁патриот": 8989,
  "▁публично": 8990,
  "▁object": 8991,
  "министр": 8992,
  "▁государству": 8993,
  "▁moment": 8994,
  "▁описать": 8995,
  "▁советская": 8996,
  "▁открывает": 8997,
  "▁собирать": 8998,
  "▁единственная": 8999,
  "шев": 9000,
  "▁quite": 9001,
  "фр": 9002,
  "нную": 9003,
  "▁жаль": 9004,
  "▁major": 9005,
  "▁Наука": 9006,
  "▁барон": 9007,
  "част": 9008,
  "▁дум": 9009,
  "▁визит": 9010,
  "ep": 9011,
  "▁полосы": 9012,
  "du": 9013,
  "▁преобразования": 9014,
  "▁внутреннее": 9015,
  "▁бойцы": 9016,
  "▁turned": 9017,
  "▁способами": 9018,
  "IV": 9019,
  "▁девяти": 9020,
  "▁известна": 9021,
  "▁коров": 9022,
  "▁Этого": 9023,
  "▁Остальные": 9024,
  "▁вектор": 9025,
  "▁тенденция": 9026,
  "▁остановились": 9027,
  "▁Прошло": 9028,
  "▁методом": 9029,
  "ez": 9030,
  "op": 9031,
  "▁94": 9032,
  "▁Стоит": 9033,
  "▁ученик": 9034,
  "мета": 9035,
  "▁раны": 9036,
  "▁соответствующим": 9037,
  "▁получит": 9038,
  "аг": 9039,
  "▁являлась": 9040,
  "▁торжественно": 9041,
  "▁намерен": 9042,
  "▁формах": 9043,
  "▁кар": 9044,
  "▁отдых": 9045,
  "▁расходов": 9046,
  "▁облака": 9047,
  "▁господина": 9048,
  "▁севера": 9049,
  "▁отставку": 9050,
  "▁свойство": 9051,
  "▁травы": 9052,
  "▁особую": 9053,
  "▁проверки": 9054,
  "▁соседей": 9055,
  "душ": 9056,
  "▁парк": 9057,
  "▁замка": 9058,
  "▁Gu": 9059,
  "▁пос": 9060,
  "▁заключен": 9061,
  "▁перемены": 9062,
  "▁банка": 9063,
  "▁ребенком": 9064,
  "ируется": 9065,
  "▁вселенной": 9066,
  "▁лежа": 9067,
  "▁возглавил": 9068,
  "▁креп": 9069,
  "▁140": 9070,
  "▁добродетели": 9071,
  "▁длина": 9072,
  "▁смут": 9073,
  "▁вдвое": 9074,
  "▁лат": 9075,
  "▁попытаться": 9076,
  "своему": 9077,
  "верх": 9078,
  "▁поддержать": 9079,
  "▁Цит": 9080,
  "нок": 9081,
  "▁отход": 9082,
  "▁учит": 9083,
  "▁стихотворение": 9084,
  "▁прос": 9085,
  "▁cannot": 9086,
  "▁истребителей": 9087,
  "time": 9088,
  "▁контраст": 9089,
  "ере": 9090,
  "▁современников": 9091,
  "▁Army": 9092,
  "▁действовал": 9093,
  "ест": 9094,
  "▁стенах": 9095,
  "десят": 9096,
  "ением": 9097,
  "05": 9098,
  "▁небольшая": 9099,
  "▁Армия": 9100,
  "▁En": 9101,
  "▁завет": 9102,
  "дь": 9103,
  "▁нисколько": 9104,
  "чей": 9105,
  "▁глагол": 9106,
  "▁периодически": 9107,
  "▁слабость": 9108,
  "▁start": 9109,
  "ОН": 9110,
  "▁значений": 9111,
  "▁неудач": 9112,
  "84": 9113,
  "фор": 9114,
  "▁попросту": 9115,
  "▁Быть": 9116,
  "шись": 9117,
  "▁оценку": 9118,
  "▁ООН": 9119,
  "▁посетил": 9120,
  "ота": 9121,
  "▁Опыт": 9122,
  "▁соли": 9123,
  "▁училища": 9124,
  "▁песня": 9125,
  "▁помогают": 9126,
  "▁состоялся": 9127,
  "▁фразы": 9128,
  "▁среду": 9129,
  "▁пен": 9130,
  "▁стремления": 9131,
  "▁превратился": 9132,
  "нит": 9133,
  "▁Основные": 9134,
  "▁вражеских": 9135,
  "руб": 9136,
  "Па": 9137,
  "кого": 9138,
  "▁пальцем": 9139,
  "мина": 9140,
  "▁командиры": 9141,
  "ций": 9142,
  "▁приходил": 9143,
  "▁сотрудничества": 9144,
  "орган": 9145,
  "▁суп": 9146,
  "▁уничтожение": 9147,
  "▁звука": 9148,
  "▁участием": 9149,
  "▁газов": 9150,
  "▁генералов": 9151,
  "▁Троцкий": 9152,
  "▁социалистически": 9153,
  "▁советы": 9154,
  "▁скандал": 9155,
  "▁Швеции": 9156,
  "▁Рад": 9157,
  "▁съезде": 9158,
  "▁раннего": 9159,
  "▁называемой": 9160,
  "▁Per": 9161,
  "▁держит": 9162,
  "▁топ": 9163,
  "нице": 9164,
  "линг": 9165,
  "▁Ад": 9166,
  "▁поступки": 9167,
  "▁ислам": 9168,
  "▁отнести": 9169,
  "▁ареста": 9170,
  "▁постоянного": 9171,
  "сел": 9172,
  "eg": 9173,
  "ецкий": 9174,
  "▁огромного": 9175,
  "▁позволили": 9176,
  "▁Хрущев": 9177,
  "▁снабжения": 9178,
  "▁артиллерия": 9179,
  "▁овладеть": 9180,
  "ьер": 9181,
  "▁сие": 9182,
  "▁начинал": 9183,
  "▁боится": 9184,
  "▁научные": 9185,
  "▁Дай": 9186,
  "▁Долго": 9187,
  "▁использовании": 9188,
  "▁Mon": 9189,
  "▁структуре": 9190,
  "▁знаменитого": 9191,
  "▁русскому": 9192,
  "▁фунтов": 9193,
  "▁Русская": 9194,
  "▁воин": 9195,
  "▁долгие": 9196,
  "▁познакомился": 9197,
  "ани": 9198,
  "81": 9199,
  "▁Задача": 9200,
  "▁глубокий": 9201,
  "▁предложили": 9202,
  "▁называются": 9203,
  "▁ростом": 9204,
  "▁ед": 9205,
  "▁экономике": 9206,
  "дей": 9207,
  "▁морали": 9208,
  "▁идеал": 9209,
  "▁Жен": 9210,
  "▁руководителя": 9211,
  "▁политическое": 9212,
  "унд": 9213,
  "▁разведка": 9214,
  "Кон": 9215,
  "1).": 9216,
  "▁sea": 9217,
  "▁уголь": 9218,
  "▁флаг": 9219,
  "▁продолжается": 9220,
  "▁СМИ": 9221,
  "▁роду": 9222,
  "▁поставлен": 9223,
  "▁батарей": 9224,
  "▁обеспечивает": 9225,
  "▁попала": 9226,
  "▁насыщен": 9227,
  "▁оказывать": 9228,
  "▁греков": 9229,
  "бал": 9230,
  "▁Ага": 9231,
  "▁тяжелый": 9232,
  "▁исследователь": 9233,
  "▁земного": 9234,
  "▁указывают": 9235,
  "▁настоящая": 9236,
  "двор": 9237,
  "▁Новая": 9238,
  "▁стыд": 9239,
  "▁[...]": 9240,
  "▁рыба": 9241,
  "▁believe": 9242,
  "▁прочитал": 9243,
  "▁подобным": 9244,
  "▁Египте": 9245,
  "▁разделить": 9246,
  "нки": 9247,
  "▁надеялся": 9248,
  "▁Екатерины": 9249,
  "▁проявление": 9250,
  "▁2006": 9251,
  "ПО": 9252,
  "▁испытывал": 9253,
  "▁явились": 9254,
  "▁гром": 9255,
  "▁зала": 9256,
  "▁Ho": 9257,
  "▁Кер": 9258,
  "▁торговых": 9259,
  "▁изучению": 9260,
  "▁level": 9261,
  "ческий": 9262,
  "стан": 9263,
  "-7": 9264,
  "▁снизу": 9265,
  "▁ме": 9266,
  "▁Мен": 9267,
  "ально": 9268,
  "▁Фу": 9269,
  "▁пустыне": 9270,
  "▁возврат": 9271,
  "▁тыла": 9272,
  "▁Кос": 9273,
  "▁восстановление": 9274,
  "ica": 9275,
  "▁цепь": 9276,
  "▁участков": 9277,
  "▁Вчера": 9278,
  "▁Ѵ": 9279,
  "дам": 9280,
  "▁носят": 9281,
  "▁ужин": 9282,
  "▁направлены": 9283,
  "▁менять": 9284,
  "▁младший": 9285,
  "нг": 9286,
  "▁#": 9287,
  "▁Оказывается": 9288,
  "▁Рейн": 9289,
  "▁top": 9290,
  "▁добродетель": 9291,
  "▁разведку": 9292,
  "▁привыкли": 9293,
  "ell": 9294,
  "▁вопросами": 9295,
  "▁red": 9296,
  "▁Алексеев": 9297,
  "▁подошла": 9298,
  "▁обозначения": 9299,
  "▁двигателя": 9300,
  "▁11-": 9301,
  "▁лук": 9302,
  "То": 9303,
  "▁мечты": 9304,
  "▁перевода": 9305,
  "▁огромных": 9306,
  "▁колонии": 9307,
  "▁стороной": 9308,
  "Дж": 9309,
  "▁топлива": 9310,
  "▁ведущих": 9311,
  "▁производственны": 9312,
  "▁Бориса": 9313,
  "ize": 9314,
  "▁столб": 9315,
  "нное": 9316,
  "▁искр": 9317,
  "tre": 9318,
  "▁великому": 9319,
  "Раз": 9320,
  "▁художественной": 9321,
  "▁боюсь": 9322,
  "цию": 9323,
  "▁оставляет": 9324,
  "олит": 9325,
  "▁сообщили": 9326,
  "▁цену": 9327,
  "▁веса": 9328,
  "следовательность": 9329,
  "▁сотрудник": 9330,
  "à": 9331,
  "▁Яков": 9332,
  "▁марш": 9333,
  "пин": 9334,
  "▁Август": 9335,
  "▁тенденции": 9336,
  "▁Собственно": 9337,
  "▁юга": 9338,
  "▁вер": 9339,
  "▁допустим": 9340,
  "верен": 9341,
  "▁Белоруссии": 9342,
  "▁старика": 9343,
  "▁understand": 9344,
  "знаком": 9345,
  "▁объема": 9346,
  "▁четверть": 9347,
  "▁контрреволюцион": 9348,
  "▁подчеркнуть": 9349,
  "▁перспективы": 9350,
  "▁содержат": 9351,
  "▁весть": 9352,
  "▁1984": 9353,
  "▁шага": 9354,
  "жать": 9355,
  "▁сопровождении": 9356,
  "ec": 9357,
  "▁мероприятий": 9358,
  "▁распределения": 9359,
  "▁улицам": 9360,
  "▁мал": 9361,
  "бел": 9362,
  "▁счёт": 9363,
  "▁различным": 9364,
  "–18": 9365,
  "▁Москвой": 9366,
  "ведение": 9367,
  "▁небольшую": 9368,
  "▁Мат": 9369,
  "▁Главный": 9370,
  "▁песню": 9371,
  "вай": 9372,
  "ei": 9373,
  "истый": 9374,
  "▁поп": 9375,
  "▁фокус": 9376,
  "▁выгодно": 9377,
  "чество": 9378,
  "▁зам": 9379,
  "▁приведет": 9380,
  "▁Союзе": 9381,
  "▁Примерно": 9382,
  "▁студент": 9383,
  "▁Пришлось": 9384,
  "фф": 9385,
  "стен": 9386,
  "▁чтение": 9387,
  "▁классической": 9388,
  "▁Президент": 9389,
  "ide": 9390,
  "▁родине": 9391,
  "▁ОТ": 9392,
  "▁ци": 9393,
  "▁живое": 9394,
  "▁синтез": 9395,
  "▁определенно": 9396,
  "▁грузов": 9397,
  "оф": 9398,
  "▁особенностей": 9399,
  "▁всякую": 9400,
  "▁решился": 9401,
  "▁Московской": 9402,
  "▁становился": 9403,
  "лист": 9404,
  "▁Mo": 9405,
  "▁открыт": 9406,
  "▁конкретно": 9407,
  "бл": 9408,
  "83": 9409,
  "▁счастлив": 9410,
  "▁Ra": 9411,
  "дур": 9412,
  "▁forces": 9413,
  "атов": 9414,
  "▁защите": 9415,
  "▁1983": 9416,
  "▁дошли": 9417,
  "▁скончался": 9418,
  "вато": 9419,
  "▁1981": 9420,
  "▁князем": 9421,
  "▁дало": 9422,
  "▁физически": 9423,
  "▁знакомый": 9424,
  "▁ладно": 9425,
  "▁looked": 9426,
  "той": 9427,
  "tin": 9428,
  "▁воскресенье": 9429,
  "топ": 9430,
  "▁обычного": 9431,
  "▁льда": 9432,
  "▁white": 9433,
  "нять": 9434,
  "▁2009": 9435,
  "▁Брат": 9436,
  "▁формулы": 9437,
  "▁Начало": 9438,
  "▁экономические": 9439,
  "▁вашему": 9440,
  "тре": 9441,
  "▁Рос": 9442,
  "▁поклон": 9443,
  "чный": 9444,
  "▁прогресса": 9445,
  "▁думаешь": 9446,
  "▁команде": 9447,
  "▁нужным": 9448,
  "III": 9449,
  "▁ошибочно": 9450,
  "▁такова": 9451,
  "za": 9452,
  "ливо": 9453,
  "▁woman": 9454,
  "▁нападение": 9455,
  "цин": 9456,
  "▁главную": 9457,
  "▁Берлина": 9458,
  "▁Спас": 9459,
  "▁сходство": 9460,
  "▁строк": 9461,
  "▁Hitler": 9462,
  "▁сумели": 9463,
  "▁крыла": 9464,
  "айте": 9465,
  "▁brought": 9466,
  "▁интеллигент": 9467,
  "▁схватил": 9468,
  "▁дно": 9469,
  "▁энергично": 9470,
  "▁литературу": 9471,
  "▁посольства": 9472,
  "▁Bar": 9473,
  "▁Вильгельм": 9474,
  "▁необходимы": 9475,
  "▁баз": 9476,
  "ou": 9477,
  "▁произойти": 9478,
  "▁ор": 9479,
  "▁распоряжения": 9480,
  "гран": 9481,
  "▁ще": 9482,
  "▁мар": 9483,
  "ьным": 9484,
  "▁технических": 9485,
  "lu": 9486,
  "план": 9487,
  "▁Ростов": 9488,
  "▁понимаете": 9489,
  "▁del": 9490,
  "▁method": 9491,
  "▁верит": 9492,
  "▁Чи": 9493,
  "▁личным": 9494,
  "▁примера": 9495,
  "▁Черчилль": 9496,
  "▁устроен": 9497,
  "▁настоящем": 9498,
  "▁владе": 9499,
  "▁старая": 9500,
  "▁трубы": 9501,
  "▁возглавлял": 9502,
  "▁важной": 9503,
  "▁потока": 9504,
  "▁занимали": 9505,
  "лъ": 9506,
  "▁town": 9507,
  "▁составил": 9508,
  "▁Глав": 9509,
  "ицу": 9510,
  "▁Похоже": 9511,
  "▁глубокое": 9512,
  "Та": 9513,
  "▁арт": 9514,
  "▁сбора": 9515,
  "нской": 9516,
  "87": 9517,
  "▁Николаев": 9518,
  "▁model": 9519,
  "▁полей": 9520,
  "▁НАТО": 9521,
  "бек": 9522,
  "▁спрашивал": 9523,
  "▁организме": 9524,
  "▁всѣ": 9525,
  "НЫЙ": 9526,
  "▁population": 9527,
  "▁especially": 9528,
  "▁затрат": 9529,
  "▁штабе": 9530,
  "▁Америку": 9531,
  "нного": 9532,
  "▁управлении": 9533,
  "▁одежда": 9534,
  "▁усиления": 9535,
  "▁услуги": 9536,
  "▁дипломат": 9537,
  "!!!": 9538,
  "▁понимаем": 9539,
  "▁суб": 9540,
  "▁стихотворения": 9541,
  "▁Всем": 9542,
  "▁доходов": 9543,
  "мах": 9544,
  "▁similar": 9545,
  "▁felt": 9546,
  "▁Figure": 9547,
  "▁behind": 9548,
  "▁коли": 9549,
  "pro": 9550,
  "▁домом": 9551,
  "▁ориентирован": 9552,
  "▁бояться": 9553,
  "▁Is": 9554,
  "pm": 9555,
  "▁доволен": 9556,
  "▁доверия": 9557,
  "▁дневнике": 9558,
  "▁мастеров": 9559,
  "▁держаться": 9560,
  "▁Oxford": 9561,
  "▁пьян": 9562,
  "▁труднее": 9563,
  "▁Сов": 9564,
  "▁страхом": 9565,
  "▁субъекта": 9566,
  "веч": 9567,
  "▁Летом": 9568,
  "▁Завтра": 9569,
  "▁поспешил": 9570,
  "▁молоко": 9571,
  "▁состоялось": 9572,
  "бить": 9573,
  "▁заставили": 9574,
  "▁изнутри": 9575,
  "▁решением": 9576,
  "▁равновесия": 9577,
  "for": 9578,
  "лян": 9579,
  "цеп": 9580,
  "▁требовать": 9581,
  "▁исчезает": 9582,
  "100": 9583,
  "▁ак": 9584,
  "▁империя": 9585,
  "▁добрые": 9586,
  "▁благ": 9587,
  "▁Дю": 9588,
  "▁мужик": 9589,
  "▁административно": 9590,
  "▁находят": 9591,
  "жд": 9592,
  "▁Ур": 9593,
  "▁надел": 9594,
  "-15": 9595,
  "▁указывал": 9596,
  "▁врагу": 9597,
  "▁реакцию": 9598,
  "off": 9599,
  "▁академик": 9600,
  "▁рабочим": 9601,
  "▁уходить": 9602,
  "▁молодежь": 9603,
  "▁заблуждение": 9604,
  "▁Вокруг": 9605,
  "▁Ок": 9606,
  "▁представляла": 9607,
  "другому": 9608,
  "▁предположения": 9609,
  "82": 9610,
  "▁личное": 9611,
  "▁Анти": 9612,
  "port": 9613,
  "▁посты": 9614,
  "▁проклят": 9615,
  "▁нелегко": 9616,
  "▁большего": 9617,
  "▁отражает": 9618,
  "▁этаж": 9619,
  "▁Сергея": 9620,
  "▁Венгрии": 9621,
  "итов": 9622,
  "правил": 9623,
  "▁брал": 9624,
  "▁международного": 9625,
  "▁сидела": 9626,
  "▁поспешно": 9627,
  "▁писатели": 9628,
  "▁звон": 9629,
  "▁достал": 9630,
  "▁костюм": 9631,
  "▁пишу": 9632,
  "▁Насколько": 9633,
  "▁Chapter": 9634,
  "▁прежние": 9635,
  "▁возвращение": 9636,
  "▁пальцами": 9637,
  "ира": 9638,
  "▁четверти": 9639,
  "▁сможем": 9640,
  "▁значительную": 9641,
  "▁(8": 9642,
  "▁бежали": 9643,
  "ł": 9644,
  "▁составили": 9645,
  "▁совещание": 9646,
  "▁коры": 9647,
  "истые": 9648,
  "®": 9649,
  "▁age": 9650,
  "▁поражен": 9651,
  "▁костей": 9652,
  "▁давая": 9653,
  "▁составляла": 9654,
  "▁близости": 9655,
  "▁Достоевского": 9656,
  "▁Евгений": 9657,
  "▁полагать": 9658,
  "▁факта": 9659,
  "▁третьем": 9660,
  "▁опыте": 9661,
  "▁выступать": 9662,
  "▁ящик": 9663,
  "нина": 9664,
  "▁(7": 9665,
  "гур": 9666,
  "▁чья": 9667,
  "▁считался": 9668,
  "ческого": 9669,
  "▁прост": 9670,
  "▁колес": 9671,
  "▁длинный": 9672,
  "▁ухода": 9673,
  "▁пятидесяти": 9674,
  "▁настаивал": 9675,
  "▁Коль": 9676,
  "-17": 9677,
  "▁существовала": 9678,
  "▁жалко": 9679,
  "▁верность": 9680,
  "▁красно": 9681,
  "07": 9682,
  "▁градусов": 9683,
  "илл": 9684,
  "▁встать": 9685,
  "▁наполнен": 9686,
  "иты": 9687,
  "▁пророка": 9688,
  "▁Stalin": 9689,
  "▁эфир": 9690,
  "▁высшее": 9691,
  "▁республик": 9692,
  "▁наблюдение": 9693,
  "ö": 9694,
  "ix": 9695,
  "хана": 9696,
  "▁further": 9697,
  "ag": 9698,
  "▁даром": 9699,
  "▁враща": 9700,
  "▁ров": 9701,
  "▁велик": 9702,
  "▁проходят": 9703,
  "▁распространен": 9704,
  "нным": 9705,
  "▁захватил": 9706,
  "‚": 9707,
  "▁чудеса": 9708,
  "бан": 9709,
  "▁награжден": 9710,
  "▁180": 9711,
  "▁компаний": 9712,
  "лый": 9713,
  "▁дыхания": 9714,
  "▁чуд": 9715,
  "▁охран": 9716,
  "▁начнет": 9717,
  "▁гроб": 9718,
  "▁еврей": 9719,
  "▁фамилия": 9720,
  "тика": 9721,
  "пуст": 9722,
  "▁чей": 9723,
  "▁Шу": 9724,
  "▁обзор": 9725,
  "▁сыр": 9726,
  "▁потерять": 9727,
  "▁черного": 9728,
  "▁окружении": 9729,
  "ори": 9730,
  "▁приводят": 9731,
  "▁Эль": 9732,
  "▁городского": 9733,
  "▁”": 9734,
  "держ": 9735,
  "▁виноват": 9736,
  "Са": 9737,
  ",000": 9738,
  "▁чье": 9739,
  "▁сед": 9740,
  "джа": 9741,
  "▁эры": 9742,
  "▁являлось": 9743,
  "▁страданий": 9744,
  "▁стремятся": 9745,
  "Ни": 9746,
  "▁усовершенствова": 9747,
  "▁полит": 9748,
  "▁плащ": 9749,
  "▁факторы": 9750,
  "▁удел": 9751,
  "ыя": 9752,
  "цкий": 9753,
  "▁морем": 9754,
  "▁гв": 9755,
  "▁Хи": 9756,
  "▁ходом": 9757,
  "▁play": 9758,
  "▁Константинополь": 9759,
  "▁Министерства": 9760,
  "▁почвы": 9761,
  "are": 9762,
  "▁фразу": 9763,
  "ise": 9764,
  "▁Путь": 9765,
  "▁105": 9766,
  "▁feel": 9767,
  "▁пулемет": 9768,
  "▁выражением": 9769,
  "▁суждено": 9770,
  "▁беседу": 9771,
  "▁Дети": 9772,
  "▁великая": 9773,
  "▁Sa": 9774,
  "ическому": 9775,
  "▁югу": 9776,
  "62": 9777,
  "▁парня": 9778,
  "way": 9779,
  "▁Елена": 9780,
  "▁узлов": 9781,
  "▁турок": 9782,
  "▁повтор": 9783,
  "сель": 9784,
  "▁религиозные": 9785,
  "ады": 9786,
  "▁священника": 9787,
  "лова": 9788,
  "▁бывшие": 9789,
  "▁выстрел": 9790,
  "▁ожидании": 9791,
  "▁подписал": 9792,
  "ственный": 9793,
  "fa": 9794,
  "▁герцога": 9795,
  "▁Ас": 9796,
  "▁po": 9797,
  "▁плану": 9798,
  "▁Ab": 9799,
  "▁волнения": 9800,
  "▁Now": 9801,
  "▁Смерть": 9802,
  "▁слоя": 9803,
  "▁правый": 9804,
  "▁забыли": 9805,
  "▁Мое": 9806,
  "▁уважения": 9807,
  "▁August": 9808,
  "щен": 9809,
  "▁использовались": 9810,
  "▁1903": 9811,
  "▁эффективно": 9812,
  "▁key": 9813,
  "▁угрозой": 9814,
  "▁атаковать": 9815,
  "▁единиц": 9816,
  "ано": 9817,
  "▁формула": 9818,
  "▁ствол": 9819,
  "▁экспорт": 9820,
  "▁победе": 9821,
  "▁рубеже": 9822,
  "▁агрессии": 9823,
  "▁пламя": 9824,
  "▁артист": 9825,
  "арь": 9826,
  "▁помогли": 9827,
  "▁Пруссии": 9828,
  "▁легкой": 9829,
  "▁дальнейшее": 9830,
  "▁необычайно": 9831,
  "▁1909": 9832,
  "▁девочки": 9833,
  "▁удобно": 9834,
  "▁Бат": 9835,
  "▁наглядно": 9836,
  "▁обеспечение": 9837,
  "▁акции": 9838,
  "▁Положение": 9839,
  "σ": 9840,
  "▁дань": 9841,
  "▁пешком": 9842,
  "▁осужден": 9843,
  "▁ХХ": 9844,
  "▁желез": 9845,
  "▁simple": 9846,
  "▁маршрут": 9847,
  "▁ученики": 9848,
  "▁светло": 9849,
  "▁встретились": 9850,
  "яя": 9851,
  "▁престола": 9852,
  "▁объединение": 9853,
  "▁Сибирь": 9854,
  "▁почву": 9855,
  "над": 9856,
  "▁миллион": 9857,
  "▁одежде": 9858,
  "▁творчестве": 9859,
  "▁чи": 9860,
  "▁role": 9861,
  "Ба": 9862,
  "▁звуков": 9863,
  "▁сражаться": 9864,
  "▁перво": 9865,
  "▁биографии": 9866,
  "евым": 9867,
  "▁местами": 9868,
  "▁King": 9869,
  "▁ухо": 9870,
  "▁Анны": 9871,
  "▁создают": 9872,
  "▁небольшим": 9873,
  "▁particular": 9874,
  "▁проблеме": 9875,
  "▁слове": 9876,
  "▁летчик": 9877,
  "существ": 9878,
  "▁казался": 9879,
  "▁everything": 9880,
  "▁army": 9881,
  "▁встречались": 9882,
  "▁надпись": 9883,
  "▁st": 9884,
  "▁Чехов": 9885,
  "▁закричал": 9886,
  "▁продовольствия": 9887,
  "▁Бол": 9888,
  "▁пыли": 9889,
  "▁перенос": 9890,
  "пс": 9891,
  "▁перевести": 9892,
  "ительные": 9893,
  "▁Землю": 9894,
  "▁превратить": 9895,
  "▁Even": 9896,
  "▁сердцу": 9897,
  "запад": 9898,
  "▁прислал": 9899,
  "ставить": 9900,
  "▁живо": 9901,
  "▁big": 9902,
  "▁красной": 9903,
  "▁Петербурга": 9904,
  "дя": 9905,
  "see": 9906,
  "Су": 9907,
  "▁президентом": 9908,
  "▁явилось": 9909,
  "ичен": 9910,
  "▁центров": 9911,
  "ward": 9912,
  "лл": 9913,
  "▁выходили": 9914,
  "▁Илья": 9915,
  "вей": 9916,
  "жав": 9917,
  "▁сложнее": 9918,
  "▁полученные": 9919,
  "▁храмов": 9920,
  "лил": 9921,
  "▁дополнительные": 9922,
  "ичный": 9923,
  "▁желанием": 9924,
  "▁80-": 9925,
  "ег": 9926,
  "▁развиваться": 9927,
  "▁подальше": 9928,
  "▁21.": 9929,
  "▁следов": 9930,
  "▁министром": 9931,
  "▁добился": 9932,
  "▁туалет": 9933,
  "▁Дер": 9934,
  "▁лицами": 9935,
  "ger": 9936,
  "▁school": 9937,
  "▁выгод": 9938,
  "▁начальнику": 9939,
  "New": 9940,
  "▁скажи": 9941,
  "als": 9942,
  "▁110": 9943,
  "▁бизнеса": 9944,
  "▁страстно": 9945,
  "глаз": 9946,
  "▁состоялась": 9947,
  "▁населением": 9948,
  "▁принадлежности": 9949,
  "▁корабле": 9950,
  "▁заговорил": 9951,
  "▁Север": 9952,
  "▁кольца": 9953,
  "▁бат": 9954,
  "▁финансов": 9955,
  "▁хаос": 9956,
  "цел": 9957,
  "▁пальцев": 9958,
  "▁закончилась": 9959,
  "рабатыва": 9960,
  "учи": 9961,
  "▁кро": 9962,
  "▁обществ": 9963,
  "▁орденом": 9964,
  "▁уверенности": 9965,
  "▁Кун": 9966,
  "ип": 9967,
  "▁Аллах": 9968,
  "▁пользуются": 9969,
  "▁апостол": 9970,
  "уч": 9971,
  "▁профессии": 9972,
  "дев": 9973,
  "▁состоянию": 9974,
  "▁характерно": 9975,
  "▁дисциплины": 9976,
  "▁нервной": 9977,
  "▁характере": 9978,
  "ческие": 9979,
  "▁цена": 9980,
  "▁хирург": 9981,
  "ослов": 9982,
  "▁правитель": 9983,
  "▁дается": 9984,
  "▁ветви": 9985,
  "▁Федорович": 9986,
  "91": 9987,
  "▁основного": 9988,
  "▁полосе": 9989,
  "▁спасибо": 9990,
  "yn": 9991,
  "▁традиция": 9992,
  "▁оказывает": 9993,
  "▁мужество": 9994,
  "istic": 9995,
  "▁инициативе": 9996,
  "▁приемы": 9997,
  "▁Алексеевич": 9998,
  "▁премии": 9999,
  "▁Берия": 10000,
  "▁врагами": 10001,
  "чке": 10002,
  "▁заключил": 10003,
  "▁Постепенно": 10004,
  "▁заседания": 10005,
  "▁изучал": 10006,
  "▁живые": 10007,
  "▁рядах": 10008,
  "стям": 10009,
  "▁Главного": 10010,
  "очных": 10011,
  "щим": 10012,
  "бург": 10013,
  "hr": 10014,
  "▁правление": 10015,
  "▁ступень": 10016,
  "▁предоставить": 10017,
  "▁прочего": 10018,
  "▁125": 10019,
  "лага": 10020,
  "▁построил": 10021,
  "▁Ленинграде": 10022,
  "▁новости": 10023,
  "▁Председатель": 10024,
  "▁генералу": 10025,
  "одно": 10026,
  "▁Женщина": 10027,
  "▁широкие": 10028,
  "▁делая": 10029,
  "▁видео": 10030,
  "▁вершине": 10031,
  "▁образца": 10032,
  "▁Moscow": 10033,
  "свобод": 10034,
  "▁немецким": 10035,
  "дро": 10036,
  "▁доклада": 10037,
  "▁сомнение": 10038,
  "рн": 10039,
  "▁возразил": 10040,
  "▁спин": 10041,
  "▁North": 10042,
  "▁собственному": 10043,
  "▁2015": 10044,
  "▁Путин": 10045,
  "▁общественное": 10046,
  "▁постель": 10047,
  "▁римлян": 10048,
  "▁East": 10049,
  "▁выражает": 10050,
  "▁European": 10051,
  "▁пулеметов": 10052,
  "лива": 10053,
  "▁пациента": 10054,
  "▁читателю": 10055,
  "-12": 10056,
  "▁сообщал": 10057,
  "▁наклон": 10058,
  "▁персонажей": 10059,
  "▁мотивы": 10060,
  "▁working": 10061,
  "ini": 10062,
  "яс": 10063,
  "▁союзники": 10064,
  "▁давала": 10065,
  "▁грубо": 10066,
  "▁духовное": 10067,
  "трен": 10068,
  "▁организовал": 10069,
  "▁еврейского": 10070,
  "▁погода": 10071,
  "▁смотрят": 10072,
  "▁палец": 10073,
  "хожу": 10074,
  "▁представителя": 10075,
  "▁вторжения": 10076,
  "▁полагает": 10077,
  "▁ОБ": 10078,
  "верт": 10079,
  "ода": 10080,
  "▁следующую": 10081,
  "▁Пр": 10082,
  "ps": 10083,
  "▁военными": 10084,
  "▁падение": 10085,
  "тельную": 10086,
  "▁участии": 10087,
  "▁повернулся": 10088,
  "▁призван": 10089,
  "▁прежней": 10090,
  "▁Тип": 10091,
  "▁Доктор": 10092,
  "mm": 10093,
  "валь": 10094,
  "ino": 10095,
  "▁хана": 10096,
  "каз": 10097,
  "▁содержанием": 10098,
  "▁взаимно": 10099,
  "▁Крыма": 10100,
  "▁основ": 10101,
  "▁влияет": 10102,
  "нен": 10103,
  "▁летчиков": 10104,
  "▁обычным": 10105,
  "цо": 10106,
  "▁Вене": 10107,
  "▁сферу": 10108,
  "▁понимаешь": 10109,
  "▁превосходство": 10110,
  "▁кавалер": 10111,
  "▁подтверждает": 10112,
  "▁серьезных": 10113,
  "▁energy": 10114,
  "▁концентрации": 10115,
  "▁встретился": 10116,
  "▁шара": 10117,
  "▁увеличения": 10118,
  "▁Число": 10119,
  "▁предел": 10120,
  "▁спуска": 10121,
  "▁ПРИ": 10122,
  "▁напрямую": 10123,
  "▁известие": 10124,
  "▁Штаты": 10125,
  "▁красиво": 10126,
  "труд": 10127,
  "▁интересам": 10128,
  "▁катастрофы": 10129,
  "▁несут": 10130,
  "ern": 10131,
  "▁непосредственны": 10132,
  "▁внешним": 10133,
  "▁короткое": 10134,
  "▁theory": 10135,
  "▁Советская": 10136,
  "▁равных": 10137,
  "фт": 10138,
  "▁выехал": 10139,
  "▁левого": 10140,
  "▁достоинство": 10141,
  "▁оборудование": 10142,
  "▁атом": 10143,
  "▁прямого": 10144,
  "▁придумал": 10145,
  "▁высота": 10146,
  "▁спрос": 10147,
  "uc": 10148,
  "▁реального": 10149,
  "▁объяснял": 10150,
  "▁Ричард": 10151,
  "▁горло": 10152,
  "ą": 10153,
  "▁Мел": 10154,
  "ивать": 10155,
  "▁зрителей": 10156,
  "▁местность": 10157,
  "▁вещество": 10158,
  "▁противоречие": 10159,
  "▁летописи": 10160,
  "▁бред": 10161,
  "▁проведение": 10162,
  "▁учебных": 10163,
  "▁увы": 10164,
  "оза": 10165,
  "ff": 10166,
  "▁определенную": 10167,
  "▁целая": 10168,
  "▁терпеть": 10169,
  "ческих": 10170,
  "▁взглянул": 10171,
  "nes": 10172,
  "▁проникнуть": 10173,
  "▁партийной": 10174,
  "▁горько": 10175,
  "▁господ": 10176,
  "▁приняты": 10177,
  "▁учесть": 10178,
  "ьной": 10179,
  "▁прибор": 10180,
  "▁административны": 10181,
  "▁землях": 10182,
  "▁коммунизма": 10183,
  "▁освещен": 10184,
  "▁уважением": 10185,
  "▁немцам": 10186,
  "нах": 10187,
  "▁сохранять": 10188,
  "▁учителей": 10189,
  "▁способностей": 10190,
  "мель": 10191,
  "▁материальной": 10192,
  "▁клад": 10193,
  "▁брали": 10194,
  "ёл": 10195,
  "▁Дуб": 10196,
  "▁правого": 10197,
  "nie": 10198,
  "▁уроки": 10199,
  "▁потребления": 10200,
  "страива": 10201,
  "▁летчики": 10202,
  "und": 10203,
  "▁московских": 10204,
  "▁Королев": 10205,
  "▁сочетание": 10206,
  "US": 10207,
  "▁убор": 10208,
  "▁определил": 10209,
  "▁учил": 10210,
  "▁сем": 10211,
  "инь": 10212,
  "▁Цвет": 10213,
  "▁совокупность": 10214,
  "▁economic": 10215,
  "▁предыдущих": 10216,
  "▁хороших": 10217,
  "▁степи": 10218,
  "▁Ох": 10219,
  "▁Джона": 10220,
  "ахъ": 10221,
  "sin": 10222,
  "▁сражении": 10223,
  "▁заботы": 10224,
  "ствовать": 10225,
  "▁Коп": 10226,
  "▁Бай": 10227,
  "▁молитву": 10228,
  "▁записки": 10229,
  "tr": 10230,
  "▁положением": 10231,
  "▁открытой": 10232,
  "▁красота": 10233,
  "▁авиация": 10234,
  "▁проводит": 10235,
  "пра": 10236,
  "▁коль": 10237,
  "▁установка": 10238,
  "▁читает": 10239,
  "▁ground": 10240,
  "▁весны": 10241,
  "▁равны": 10242,
  "ложив": 10243,
  "▁надежде": 10244,
  "▁точностью": 10245,
  "▁угля": 10246,
  "▁Ca": 10247,
  "▁генералом": 10248,
  "▁женился": 10249,
  "▁вдали": 10250,
  "▁устроил": 10251,
  "▁коней": 10252,
  "▁давлением": 10253,
  "▁исчезли": 10254,
  "ившийся": 10255,
  "▁отличался": 10256,
  "▁хо": 10257,
  "▁Христе": 10258,
  "▁суше": 10259,
  "▁действиям": 10260,
  "▁захотел": 10261,
  "чина": 10262,
  "▁Сила": 10263,
  "▁математики": 10264,
  "▁сует": 10265,
  "▁МО": 10266,
  "3).": 10267,
  "▁слуг": 10268,
  "▁ИЗ": 10269,
  "▁напомнил": 10270,
  "▁молока": 10271,
  "▁Право": 10272,
  "▁ея": 10273,
  "▁попадает": 10274,
  "▁социалистическо": 10275,
  "▁Государственной": 10276,
  "ступив": 10277,
  "▁outside": 10278,
  "▁своевременно": 10279,
  "▁праву": 10280,
  "ьян": 10281,
  "тъ": 10282,
  "▁образец": 10283,
  "▁выступали": 10284,
  "телен": 10285,
  "▁подать": 10286,
  "▁ё": 10287,
  "▁поддержал": 10288,
  "▁высоком": 10289,
  "▁пыталась": 10290,
  "▁истине": 10291,
  "енно": 10292,
  "▁Римской": 10293,
  "▁принадлежал": 10294,
  "▁корень": 10295,
  "▁future": 10296,
  "▁определенным": 10297,
  "▁капли": 10298,
  "▁эпоха": 10299,
  "▁императору": 10300,
  "▁Войска": 10301,
  "▁State": 10302,
  "▁Ци": 10303,
  "▁зиму": 10304,
  "▁various": 10305,
  "▁эффективности": 10306,
  "▁банков": 10307,
  "▁продолжить": 10308,
  "▁преступлений": 10309,
  "▁отличались": 10310,
  "▁Питер": 10311,
  "▁размера": 10312,
  "▁Валентин": 10313,
  "▁курсе": 10314,
  "▁Граф": 10315,
  "▁слезами": 10316,
  "▁выходят": 10317,
  "ρ": 10318,
  "▁установили": 10319,
  "▁культурной": 10320,
  "▁свободных": 10321,
  "▁Раньше": 10322,
  "▁Пра": 10323,
  "▁столу": 10324,
  "ski": 10325,
  "▁Вин": 10326,
  "red": 10327,
  "▁приобрел": 10328,
  "▁Paul": 10329,
  "▁соблазн": 10330,
  "▁племя": 10331,
  "▁технологий": 10332,
  "▁МВД": 10333,
  "å": 10334,
  "▁совещания": 10335,
  "ключ": 10336,
  "▁распада": 10337,
  "▁французские": 10338,
  "▁запрос": 10339,
  "▁воздушных": 10340,
  "▁коридор": 10341,
  "▁просили": 10342,
  "чку": 10343,
  "▁императором": 10344,
  "▁Добро": 10345,
  "ran": 10346,
  "▁противном": 10347,
  "▁свидетельству": 10348,
  "▁Третий": 10349,
  "▁верили": 10350,
  "▁узел": 10351,
  "▁подобный": 10352,
  "тянут": 10353,
  "▁круги": 10354,
  "вести": 10355,
  "▁чет": 10356,
  "▁свободное": 10357,
  "▁Божие": 10358,
  "▁занимают": 10359,
  "▁Макс": 10360,
  "▁домах": 10361,
  "енс": 10362,
  "▁подойти": 10363,
  "▁hours": 10364,
  "▁Против": 10365,
  "▁науку": 10366,
  "▁разделе": 10367,
  "▁пойду": 10368,
  "▁носом": 10369,
  "▁посоветовал": 10370,
  "▁иди": 10371,
  "▁орудие": 10372,
  "▁постиг": 10373,
  "ess": 10374,
  "▁полон": 10375,
  "рост": 10376,
  "▁Него": 10377,
  "▁украшен": 10378,
  "отвор": 10379,
  "μ": 10380,
  "▁посвятил": 10381,
  "▁всякая": 10382,
  "двига": 10383,
  "▁князья": 10384,
  "▁звери": 10385,
  "▁разделение": 10386,
  "▁дверей": 10387,
  "ile": 10388,
  "▁разговоре": 10389,
  "метр": 10390,
  "▁расположения": 10391,
  "ающий": 10392,
  "пала": 10393,
  "▁территорий": 10394,
  "▁моими": 10395,
  "▁реальных": 10396,
  "▁Тра": 10397,
  "▁материальных": 10398,
  "рим": 10399,
  "▁несли": 10400,
  "▁Джеймс": 10401,
  "стоя": 10402,
  "▁построен": 10403,
  "▁Слав": 10404,
  "▁показала": 10405,
  "▁кухне": 10406,
  "▁внешний": 10407,
  "сок": 10408,
  "–17": 10409,
  "▁многократно": 10410,
  "▁кругах": 10411,
  "500": 10412,
  "▁Крест": 10413,
  "▁тезис": 10414,
  "4)": 10415,
  "▁мужу": 10416,
  "▁имелись": 10417,
  "▁Di": 10418,
  "▁востоке": 10419,
  "▁ходят": 10420,
  "Мир": 10421,
  "▁искали": 10422,
  "act": 10423,
  "▁традиций": 10424,
  "▁согласны": 10425,
  "\")": 10426,
  "▁Bo": 10427,
  "▁гражданских": 10428,
  "▁England": 10429,
  "▁выражается": 10430,
  "▁оккупации": 10431,
  "▁table": 10432,
  "▁ладони": 10433,
  "▁особенность": 10434,
  "только": 10435,
  "▁римского": 10436,
  "▁боеприпасов": 10437,
  "▁духу": 10438,
  "▁науч": 10439,
  "ons": 10440,
  "▁планете": 10441,
  "▁нею": 10442,
  "▁северу": 10443,
  "▁Тро": 10444,
  "▁длину": 10445,
  "▁child": 10446,
  "▁приобрести": 10447,
  "▁умирает": 10448,
  "▁San": 10449,
  "▁подготовить": 10450,
  "▁imp": 10451,
  "▁множеством": 10452,
  "нера": 10453,
  "cos": 10454,
  "▁публики": 10455,
  "▁просьбе": 10456,
  "друг": 10457,
  "▁дождя": 10458,
  "▁сравнении": 10459,
  "аса": 10460,
  "▁40-": 10461,
  "▁Great": 10462,
  "▁двенадцати": 10463,
  "ef": 10464,
  "▁развивать": 10465,
  "let": 10466,
  "▁идеей": 10467,
  "вшемуся": 10468,
  "иф": 10469,
  "▁берут": 10470,
  "▁столик": 10471,
  "▁Красная": 10472,
  "▁воспитание": 10473,
  "▁Петроград": 10474,
  "▁находящихся": 10475,
  "▁Кавказа": 10476,
  "▁Киева": 10477,
  "old": 10478,
  "▁публицист": 10479,
  "▁явилась": 10480,
  "▁ша": 10481,
  "▁22.": 10482,
  "▁национал": 10483,
  "▁маленького": 10484,
  "▁густо": 10485,
  "Мне": 10486,
  "You": 10487,
  "▁выглядел": 10488,
  "uk": 10489,
  "▁кислоты": 10490,
  "▁четверо": 10491,
  "▁проговорил": 10492,
  "▁предела": 10493,
  "руш": 10494,
  "set": 10495,
  "▁field": 10496,
  "▁спит": 10497,
  "▁evidence": 10498,
  "▁мыслью": 10499,
  "лежа": 10500,
  "▁крут": 10501,
  "▁подавлен": 10502,
  "атель": 10503,
  "▁эффективность": 10504,
  "▁малой": 10505,
  "▁квартир": 10506,
  "▁мут": 10507,
  "▁Мартин": 10508,
  "▁раздела": 10509,
  "ительно": 10510,
  "▁господства": 10511,
  "▁Луны": 10512,
  "▁железных": 10513,
  "We": 10514,
  "▁проявил": 10515,
  "▁южнее": 10516,
  "▁граждане": 10517,
  "▁логики": 10518,
  "▁периоды": 10519,
  "▁subject": 10520,
  "▁милиции": 10521,
  "▁Львов": 10522,
  "▁региона": 10523,
  "▁равной": 10524,
  "ающие": 10525,
  "▁напр": 10526,
  "▁слабости": 10527,
  "▁этаже": 10528,
  "▁просьбу": 10529,
  "▁прямым": 10530,
  "▁воображение": 10531,
  "▁небольшого": 10532,
  "▁рев": 10533,
  "η": 10534,
  "▁поручил": 10535,
  "▁щит": 10536,
  "▁японских": 10537,
  "▁пользуется": 10538,
  "▁мыслями": 10539,
  "ings": 10540,
  "▁Горбачев": 10541,
  "▁куски": 10542,
  "▁Новой": 10543,
  "▁снаружи": 10544,
  "▁проф": 10545,
  "▁90-": 10546,
  "есть": 10547,
  "▁sure": 10548,
  "▁мелко": 10549,
  "▁необходима": 10550,
  "su": 10551,
  "▁блока": 10552,
  "▁тяжелым": 10553,
  "▁Константина": 10554,
  "щики": 10555,
  "3,": 10556,
  "▁снега": 10557,
  "ere": 10558,
  "▁вскочил": 10559,
  "▁перешла": 10560,
  "иев": 10561,
  "▁зверя": 10562,
  "▁полгода": 10563,
  "ителем": 10564,
  "▁жизненно": 10565,
  "▁сделан": 10566,
  "▁любим": 10567,
  "▁(13": 10568,
  "▁else": 10569,
  "▁Ивановича": 10570,
  "▁наблюдатель": 10571,
  "▁мощный": 10572,
  "▁широком": 10573,
  "▁старости": 10574,
  "▁Er": 10575,
  "▁Lu": 10576,
  "▁левый": 10577,
  "▁Кле": 10578,
  "▁случается": 10579,
  "▁0,5": 10580,
  "▁порог": 10581,
  "▁близкие": 10582,
  "уча": 10583,
  "ложение": 10584,
  "▁study": 10585,
  "▁интер": 10586,
  "▁ши": 10587,
  "▁адмирала": 10588,
  "▁агент": 10589,
  "еро": 10590,
  "03": 10591,
  "философ": 10592,
  "▁кажутся": 10593,
  "▁странным": 10594,
  "иком": 10595,
  "▁action": 10596,
  "▁монах": 10597,
  "▁медицины": 10598,
  "▁совпадает": 10599,
  "▁километрах": 10600,
  "α": 10601,
  "fi": 10602,
  "▁привет": 10603,
  "▁достигла": 10604,
  "▁поврежден": 10605,
  "▁победить": 10606,
  "▁потребностей": 10607,
  "▁завоевания": 10608,
  "тел": 10609,
  "▁явля": 10610,
  "▁молот": 10611,
  "▁плодов": 10612,
  "▁молодая": 10613,
  "▁готовить": 10614,
  "▁рассказывали": 10615,
  "▁наступил": 10616,
  "цит": 10617,
  "▁Поль": 10618,
  "ования": 10619,
  "▁Эл": 10620,
  "▁двести": 10621,
  "▁паспорт": 10622,
  "ata": 10623,
  "▁польских": 10624,
  "▁Вит": 10625,
  "▁уз": 10626,
  "▁Слава": 10627,
  "▁лучшем": 10628,
  "▁23.": 10629,
  "▁двинулся": 10630,
  "▁максимум": 10631,
  "▁Цель": 10632,
  "▁предполагал": 10633,
  "▁поляков": 10634,
  "▁молитве": 10635,
  "▁Хуан": 10636,
  "▁тупик": 10637,
  "▁нужда": 10638,
  "ившихся": 10639,
  "▁скрыть": 10640,
  "эк": 10641,
  "▁психо": 10642,
  "кса": 10643,
  "▁Проблема": 10644,
  "▁Times": 10645,
  "▁постановления": 10646,
  "▁помогали": 10647,
  "▁двинулись": 10648,
  "▁революционного": 10649,
  "народ": 10650,
  "▁видение": 10651,
  "▁противостоять": 10652,
  "▁Боге": 10653,
  "▁деревень": 10654,
  "▁ангел": 10655,
  "▁Росс": 10656,
  "▁фр": 10657,
  "дея": 10658,
  "кл": 10659,
  "▁меру": 10660,
  "ИЙ": 10661,
  "▁national": 10662,
  "предел": 10663,
  "It": 10664,
  "▁примеч": 10665,
  "▁участник": 10666,
  "▁специалист": 10667,
  "▁бросились": 10668,
  "▁взглянуть": 10669,
  "▁сосуд": 10670,
  "▁массой": 10671,
  "один": 10672,
  "▁Средней": 10673,
  "▁органами": 10674,
  "▁произошли": 10675,
  "ируем": 10676,
  "▁решает": 10677,
  "▁опубликовал": 10678,
  "▁предполагалось": 10679,
  "▁маг": 10680,
  "▁пресс": 10681,
  "▁плохой": 10682,
  "▁пистолет": 10683,
  "▁роде": 10684,
  "стях": 10685,
  "▁применить": 10686,
  "▁китайской": 10687,
  "▁стремиться": 10688,
  "▁протокол": 10689,
  "▁мертв": 10690,
  "▁written": 10691,
  "▁глупо": 10692,
  "▁умело": 10693,
  "▁чистого": 10694,
  "▁кр": 10695,
  "▁шпион": 10696,
  "▁режиме": 10697,
  "▁строительстве": 10698,
  "▁чужих": 10699,
  "оре": 10700,
  "▁разрешить": 10701,
  "▁Гал": 10702,
  "▁lost": 10703,
  "▁сравнить": 10704,
  "▁обратном": 10705,
  "▁700": 10706,
  "▁альбом": 10707,
  "▁определению": 10708,
  "▁десятка": 10709,
  "▁благодати": 10710,
  "▁ближайшие": 10711,
  "▁held": 10712,
  "▁поднимается": 10713,
  "▁документа": 10714,
  "▁Товарищ": 10715,
  "▁probably": 10716,
  "▁перестали": 10717,
  "▁shall": 10718,
  "▁кожу": 10719,
  "▁слышно": 10720,
  "стать": 10721,
  "▁грустно": 10722,
  "Йорке": 10723,
  "▁Жена": 10724,
  "▁Центрального": 10725,
  "▁убивать": 10726,
  "▁атака": 10727,
  "пет": 10728,
  "▁заодно": 10729,
  "▁Сал": 10730,
  "▁эк": 10731,
  "▁list": 10732,
  "▁Ельцин": 10733,
  "▁Грузии": 10734,
  "▁||": 10735,
  "лон": 10736,
  "▁условием": 10737,
  "человек": 10738,
  "▁hands": 10739,
  "▁появится": 10740,
  "▁теме": 10741,
  "▁современный": 10742,
  "пат": 10743,
  "▁уровнем": 10744,
  "▁Рассмотрим": 10745,
  "▁важности": 10746,
  "вос": 10747,
  "▁March": 10748,
  "▁опираясь": 10749,
  "кую": 10750,
  "▁воспринимать": 10751,
  "▁Семенов": 10752,
  "оли": 10753,
  "▁пациентов": 10754,
  "▁жертвоприношени": 10755,
  "▁кирпич": 10756,
  "▁грязи": 10757,
  "▁зерно": 10758,
  "▁разведывательно": 10759,
  "▁рыбу": 10760,
  "▁ПВО": 10761,
  "▁bar": 10762,
  "▁Bd": 10763,
  "▁патриарх": 10764,
  "▁[1": 10765,
  "▁правую": 10766,
  "use": 10767,
  "▁настоящие": 10768,
  "▁друзьям": 10769,
  "▁Зем": 10770,
  "▁2012": 10771,
  "▁отдавать": 10772,
  "кле": 10773,
  "¤": 10774,
  "▁красного": 10775,
  "▁помогал": 10776,
  "щее": 10777,
  "▁определяют": 10778,
  "▁производится": 10779,
  "Де": 10780,
  "▁горных": 10781,
  "▁сесть": 10782,
  "▁вывел": 10783,
  "▁Вес": 10784,
  "▁дошло": 10785,
  "▁Union": 10786,
  "▁жертвой": 10787,
  "▁обычай": 10788,
  "евых": 10789,
  "▁разом": 10790,
  "▁ранней": 10791,
  "▁command": 10792,
  "▁сознанием": 10793,
  "дат": 10794,
  "▁специальной": 10795,
  "▁обязательства": 10796,
  "▁погибших": 10797,
  "▁соображения": 10798,
  "▁Андреев": 10799,
  "▁обещание": 10800,
  "▁ожидая": 10801,
  "кали": 10802,
  "▁sa": 10803,
  "▁Кра": 10804,
  "▁родных": 10805,
  "▁Car": 10806,
  "аем": 10807,
  "креп": 10808,
  "▁simply": 10809,
  "▁выполнен": 10810,
  "▁Крыму": 10811,
  "Ха": 10812,
  "ay": 10813,
  "▁истинного": 10814,
  "▁заседание": 10815,
  "ОМ": 10816,
  "▁некотором": 10817,
  "▁клин": 10818,
  "▁упоминает": 10819,
  "▁Совсем": 10820,
  "▁внешние": 10821,
  "▁рубежом": 10822,
  "▁меди": 10823,
  "▁необходимостью": 10824,
  "▁покое": 10825,
  "▁обычный": 10826,
  "▁технику": 10827,
  "▁схеме": 10828,
  "▁dead": 10829,
  "▁петь": 10830,
  "▁лидера": 10831,
  "▁вооруженные": 10832,
  "▁пройдет": 10833,
  "рд": 10834,
  "▁ГЛАВА": 10835,
  "тельной": 10836,
  "▁занятие": 10837,
  "▁совету": 10838,
  "▁удовлетворения": 10839,
  "4).": 10840,
  "▁Архангельск": 10841,
  "ично": 10842,
  "▁заслуживает": 10843,
  "ę": 10844,
  "▁высокое": 10845,
  "▁говоришь": 10846,
  "▁фундамент": 10847,
  "▁2011": 10848,
  "▁сотрудничество": 10849,
  "▁living": 10850,
  "▁выборы": 10851,
  "уна": 10852,
  "▁Прав": 10853,
  "▁пакет": 10854,
  "▁Старик": 10855,
  "▁Суворов": 10856,
  "▁предотвратить": 10857,
  "вержен": 10858,
  "▁контролем": 10859,
  "▁science": 10860,
  "бок": 10861,
  "▁лодку": 10862,
  "▁Robert": 10863,
  "▁собира": 10864,
  "▁любила": 10865,
  "▁греческого": 10866,
  "▁серебра": 10867,
  "▁пес": 10868,
  "her": 10869,
  "▁задолго": 10870,
  "▁автобус": 10871,
  "▁аргумент": 10872,
  "▁символом": 10873,
  "▁препятствия": 10874,
  "▁шее": 10875,
  "▁дискуссии": 10876,
  "▁бунт": 10877,
  "▁флотом": 10878,
  "▁Япония": 10879,
  "▁(11": 10880,
  "ЕН": 10881,
  "▁Обо": 10882,
  "▁духовные": 10883,
  "▁официальной": 10884,
  "▁Хоть": 10885,
  "He": 10886,
  "▁Света": 10887,
  "▁заместителя": 10888,
  "gt": 10889,
  "▁крестьянин": 10890,
  "▁сахара": 10891,
  "ИМ": 10892,
  "▁технике": 10893,
  "▁фрагмент": 10894,
  "▁102": 10895,
  "▁king": 10896,
  "▁избегать": 10897,
  "▁natural": 10898,
  "▁подо": 10899,
  "▁Томас": 10900,
  "▁белым": 10901,
  "▁отдохнуть": 10902,
  "мак": 10903,
  "▁вор": 10904,
  "еру": 10905,
  "летней": 10906,
  "▁16-": 10907,
[...]
