<unk>	0
<s>	0
</s>	0
[PAD]	0
[UNK]	0
[CLS]	0
[SEP]	0
[MASK]	0
,	-2.72025
.	-3.06444
▁и	-3.85466
▁в	-3.97815
▁на	-4.73777
▁не	-4.73789
▁с	-4.90257
а	-4.99162
-	-5.00315
▁что	-5.10365
▁—	-5.12006
▁«	-5.17232
е	-5.30412
:	-5.43246
и	-5.51755
▁по	-5.52355
▁(	-5.56366
▁к	-5.57704
▁	-5.61111
▁как	-5.71459
▁В	-5.75174
▁из	-5.78261
▁the	-5.80281
у	-5.81878
м	-5.83577
»	-5.83701
▁–	-5.86327
▁а	-5.86961
▁от	-5.87284
▁о	-5.92506
▁его	-5.92625
▁за	-5.93575
▁он	-6.00719
ы	-6.04036
▁у	-6.14657
й	-6.15767
▁я	-6.15768
;	-6.17723
▁это	-6.18522
s	-6.19619
▁для	-6.20862
)	-6.22869
▁же	-6.27242
?	-6.27828
▁но	-6.30924
х	-6.30964
▁of	-6.32048
ом	-6.32799
о	-6.34543
▁все	-6.37323
▁то	-6.37632
▁И	-6.38636
▁А	-6.43887
▁было	-6.44522
▁до	-6.50751
▁and	-6.50914
я	-6.51245
▁или	-6.51656
!	-6.55213
▁был	-6.56547
ов	-6.57156
▁при	-6.57305
▁их	-6.57783
▁так	-6.60295
».	-6.63423
▁to	-6.63761
▁С	-6.6721
то	-6.68686
▁бы	-6.69968
▁только	-6.70469
▁-	-6.70781
▁г	-6.73245
▁a	-6.73333
▁мы	-6.73807
...	-6.73994
ой	-6.7708
▁они	-6.78358
ъ	-6.80208
▁Но	-6.80236
▁in	-6.81881
▁вы	-6.88073
▁Я	-6.89665
▁чтобы	-6.90952
▁под	-6.91428
▁были	-6.93335
го	-6.93739
ми	-6.94349
»,	-6.94859
ся	-6.95325
▁ее	-6.9666
▁когда	-6.98202
ю	-6.9913
▁уже	-6.99834
▁время	-7.01054
▁во	-7.01188
▁еще	-7.03783
).	-7.07006
ами	-7.09691
▁со	-7.12498
▁она	-7.14637
▁На	-7.16655
▁того	-7.16773
ные	-7.17746
▁была	-7.18447
▁Он	-7.18737
▁ни	-7.18768
▁если	-7.19765
▁меня	-7.21198
▁которые	-7.22306
▁раз	-7.23142
▁том	-7.25285
ный	-7.25713
’	-7.25764
▁мне	-7.27467
ной	-7.28027
),	-7.28337
ных	-7.29531
▁быть	-7.29565
▁есть	-7.30989
▁этого	-7.3155
▁может	-7.3274
▁чем	-7.33031
в	-7.34654
▁более	-7.34917
▁"	-7.35128
▁об	-7.35216
▁этом	-7.35429
▁ему	-7.35692
▁даже	-7.36297
ая	-7.37103
▁Это	-7.37592
▁себя	-7.39152
▁По	-7.3952
▁года	-7.40804
▁где	-7.41827
▁К	-7.42689
▁М	-7.42873
▁ли	-7.45458
▁I	-7.45499
▁который	-7.47351
ная	-7.47549
▁можно	-7.47731
▁Не	-7.48251
▁после	-7.48695
ка	-7.48784
ного	-7.4893
▁У	-7.50069
▁очень	-7.50075
▁них	-7.50198
▁также	-7.5023
с	-7.50574
▁будет	-7.50643
▁без	-7.51498
▁тем	-7.53362
▁нас	-7.53748
ли	-7.53844
ого	-7.55484
▁that	-7.56913
л	-7.5714
▁т	-7.58984
▁всех	-7.59573
на	-7.63231
▁жизни	-7.63686
ет	-7.65201
ть	-7.65594
▁“	-7.67446
▁него	-7.67584
▁всего	-7.68078
▁О	-7.68124
▁про	-7.68384
▁is	-7.68777
▁между	-7.69018
▁себе	-7.69507
т	-7.69851
▁кто	-7.70945
▁1	-7.71486
▁этой	-7.71492
▁was	-7.72009
▁этот	-7.72103
▁ты	-7.72457
▁человек	-7.72577
▁лет	-7.7262
ий	-7.73779
ей	-7.74503
ным	-7.74624
▁своей	-7.74631
ки	-7.76395
▁The	-7.77839
▁Если	-7.78097
▁через	-7.78323
ые	-7.78349
но	-7.78644
ах	-7.78829
▁Как	-7.80398
—	-7.80951
▁один	-7.81241
▁эти	-7.82163
"	-7.82271
ed	-7.82437
ых	-7.82626
▁лишь	-7.82837
ную	-7.83638
▁нет	-7.8368
ую	-7.83704
▁for	-7.83965
▁[	-7.84226
ый	-7.84655
▁им	-7.85035
ем	-7.85798
▁больше	-7.86542
за	-7.8663
ное	-7.87635
ing	-7.89242
▁людей	-7.8994
ь	-7.90547
ым	-7.91674
▁При	-7.92113
▁своих	-7.92141
▁году	-7.92758
▁над	-7.92907
▁там	-7.93441
ам	-7.94268
▁несколько	-7.94705
▁Так	-7.95072
▁2	-7.96144
▁свою	-7.96185
▁сказал	-7.96606
'	-7.97393
▁За	-7.97577
t	-7.98154
▁with	-7.98254
▁времени	-7.98468
▁нам	-7.98753
▁потому	-7.99757
▁которых	-7.99926
▁as	-8.00355
e	-8.00636
▁П	-8.00641
ского	-8.01268
▁человека	-8.01616
▁много	-8.02129
▁on	-8.02198
▁Мы	-8.02309
▁перед	-8.02504
▁против	-8.03137
▁образом	-8.03756
▁здесь	-8.04068
не	-8.04289
▁день	-8.04805
▁своего	-8.04884
▁этих	-8.0492
ие	-8.05359
▁тогда	-8.05886
]	-8.05921
▁it	-8.06659
ский	-8.07003
В	-8.07781
▁всегда	-8.09553
/	-8.10622
▁которой	-8.10834
▁тот	-8.11078
▁просто	-8.11427
▁свои	-8.11547
▁которая	-8.11567
ской	-8.11758
▁вот	-8.1176
d	-8.11992
▁других	-8.12149
▁Когда	-8.12808
▁Г	-8.13043
▁Н	-8.13098
▁Все	-8.13771
му	-8.14139
▁два	-8.14464
▁Однако	-8.14569
А	-8.14665
▁да	-8.14704
ия	-8.14892
▁Они	-8.15302
▁ним	-8.15495
▁Да	-8.1584
▁войны	-8.1653
▁сам	-8.1666
▁=	-8.16797
н	-8.17174
▁жизнь	-8.18172
ку	-8.18316
сти	-8.18337
ое	-8.189
ии	-8.19141
▁пере	-8.19239
▁хотя	-8.19294
ными	-8.20263
▁теперь	-8.20286
▁является	-8.20322
ла	-8.20564
▁ничего	-8.20623
ном	-8.21407
▁люди	-8.21852
▁Вы	-8.22324
▁be	-8.22355
▁России	-8.23542
▁тех	-8.23781
▁Л	-8.24171
▁именно	-8.24331
▁by	-8.24427
▁случае	-8.25479
▁Что	-8.2565
(	-8.25784
к	-8.26005
ют	-8.26548
▁тоже	-8.26662
▁A	-8.26749
▁стал	-8.27036
▁собой	-8.2811
a	-8.29012
▁надо	-8.29242
ок	-8.29498
▁почти	-8.29578
▁те	-8.29605
▁стороны	-8.29935
▁такой	-8.29936
▁вас	-8.30054
▁he	-8.30712
▁3	-8.30928
▁Д	-8.3123
▁No	-8.32225
С	-8.32344
лись	-8.32901
▁мог	-8.33265
сть	-8.33788
▁Т	-8.34011
▁his	-8.34252
▁которого	-8.35744
▁другой	-8.35852
▁вместе	-8.36601
▁5	-8.36798
▁три	-8.37046
▁ней	-8.37128
▁могут	-8.37347
▁одной	-8.37439
▁дело	-8.3753
▁всем	-8.37582
”	-8.37803
▁Вот	-8.38017
▁должны	-8.38088
▁from	-8.38241
▁въ	-8.38617
▁потом	-8.38626
▁Она	-8.38643
▁S	-8.39088
▁тому	-8.3998
▁Для	-8.40415
▁тут	-8.40808
▁at	-8.40893
2	-8.40944
▁свое	-8.41231
▁двух	-8.41408
▁had	-8.41528
▁части	-8.41622
им	-8.41811
▁должен	-8.42139
▁4	-8.42559
▁пока	-8.42758
▁п	-8.42921
ется	-8.42961
▁you	-8.42991
д	-8.43177
▁нужно	-8.43187
▁вам	-8.43376
▁часть	-8.43448
▁Его	-8.43776
по	-8.44076
▁которое	-8.44283
п	-8.44572
▁p	-8.44978
▁Из	-8.45892
▁После	-8.46003
▁10	-8.46177
▁армии	-8.46537
▁or	-8.47705
▁своим	-8.47725
ию	-8.48186
▁какой	-8.48535
▁Б	-8.48764
ке	-8.48775
▁д	-8.49633
▁другие	-8.49977
▁СССР	-8.50037
▁сейчас	-8.50418
▁not	-8.50482
▁оно	-8.50644
▁Ф	-8.50757
▁место	-8.50863
▁слова	-8.50935
▁этим	-8.51154
▁чего	-8.51638
▁эту	-8.51785
ская	-8.51941
И	-8.51947
▁свой	-8.52427
▁одного	-8.5271
▁are	-8.52973
р	-8.53012
▁эта	-8.53132
▁an	-8.53182
y	-8.53427
i	-8.53496
▁истории	-8.53612
▁сказать	-8.54053
их	-8.54065
г	-8.54176
▁ей	-8.54273
б	-8.54371
▁хорошо	-8.55114
▁P	-8.5527
▁друг	-8.5557
▁6	-8.55588
ен	-8.56066
▁мир	-8.56178
▁никогда	-8.56305
▁говорит	-8.56409
▁мира	-8.56421
▁вопрос	-8.57152
▁тебя	-8.57279
лась	-8.57308
▁затем	-8.57746
ны	-8.58087
▁Во	-8.58165
er	-8.58607
▁ко	-8.59241
▁стали	-8.59247
ly	-8.59523
▁Р	-8.59623
нибудь	-8.60216
Я	-8.60289
▁имеет	-8.60293
>	-8.60715
▁часто	-8.609
▁всё	-8.62223
▁совершенно	-8.62387
▁менее	-8.62932
О	-8.62997
ло	-8.6342
▁работы	-8.63542
▁среди	-8.63547
ться	-8.63568
М	-8.64559
▁this	-8.64774
n	-8.64913
▁одно	-8.65009
▁м	-8.6514
▁власти	-8.65383
▁год	-8.65615
▁От	-8.65914
і	-8.66033
▁особенно	-8.66405
▁будут	-8.66749
ит	-8.66868
▁тебе	-8.66984
▁were	-8.67131
▁have	-8.6724
▁снова	-8.67757
▁/	-8.67955
▁могли	-8.68198
▁сразу	-8.68618
▁15	-8.69103
▁е	-8.69407
лся	-8.69416
ѣ	-8.69933
▁которую	-8.69945
▁самом	-8.70864
▁силы	-8.70937
▁р	-8.71435
▁нем	-8.71698
▁ведь	-8.71763
▁7	-8.7182
▁конце	-8.72001
▁следует	-8.72027
▁8	-8.72083
▁например	-8.72185
1	-8.7271
▁Ну	-8.73111
▁нашей	-8.73152
▁такое	-8.73597
▁конечно	-8.73734
▁Поэтому	-8.74079
ить	-8.7421
▁•	-8.74336
▁связи	-8.74798
▁котором	-8.74879
ские	-8.75276
▁таким	-8.75603
▁этому	-8.75863
▁совсем	-8.75932
▁II	-8.7625
▁вообще	-8.76277
▁однако	-8.77164
▁сделать	-8.77189
или	-8.77607
▁20	-8.77898
p	-8.7806
▁всей	-8.78098
от	-8.7815
▁пор	-8.78224
▁лучше	-8.78321
▁около	-8.78444
▁de	-8.78564
▁самого	-8.7869
ском	-8.78843
▁той	-8.79359
▁таких	-8.79382
▁сил	-8.79453
ских	-8.79622
!»	-8.79638
▁действительно	-8.79935
▁прежде	-8.80175
▁почему	-8.8032
▁12	-8.80493
▁деле	-8.81017
▁каждый	-8.81268
▁годы	-8.81394
ыми	-8.81404
▁момент	-8.81671
es	-8.81758
ность	-8.8194
▁but	-8.82236
ются	-8.82239
▁поэтому	-8.82635
▁дня	-8.8273
▁ними	-8.82777
▁такие	-8.82834
▁города	-8.82934
▁Е	-8.83128
▁страны	-8.83129
▁быстро	-8.83549
П	-8.83606
▁поскольку	-8.83636
та	-8.84028
o	-8.845
.)	-8.84516
▁одна	-8.84818
▁две	-8.85293
▁н	-8.85297
▁б	-8.85601
▁//	-8.85682
Г	-8.85807
▁In	-8.85869
К	-8.85947
▁C	-8.86078
▁Ты	-8.86173
▁руки	-8.86451
▁смерти	-8.86453
▁стало	-8.86524
▁То	-8.86868
ному	-8.86971
▁мой	-8.87107
▁which	-8.87236
▁пути	-8.87551
▁мало	-8.87853
▁дома	-8.87915
▁всю	-8.88263
▁they	-8.8846
▁9	-8.88857
▁своем	-8.8984
▁До	-8.8999
▁нельзя	-8.90114
▁гг	-8.90239
▁дела	-8.90432
ин	-8.90926
▁века	-8.91172
▁многие	-8.91475
▁мере	-8.91475
▁all	-8.91487
▁США	-8.91846
▁„	-8.92003
▁наши	-8.92106
▁качестве	-8.92271
ни	-8.92475
ния	-8.92526
либо	-8.92658
▁де	-8.92717
У	-8.92768
*	-8.9279
те	-8.93122
▁её	-8.93288
ности	-8.93365
▁слишком	-8.93577
▁their	-8.93688
▁войск	-8.9405
▁области	-8.94182
▁весьма	-8.9438
▁R	-8.94661
▁one	-8.94786
▁we	-8.94883
".	-8.94948
▁Там	-8.95084
▁первый	-8.95085
▁делать	-8.95268
▁будто	-8.95485
▁многих	-8.95738
▁говорил	-8.95943
▁течение	-8.96335
ев	-8.96357
▁виде	-8.96366
▁город	-8.9644
▁которым	-8.96505
▁начала	-8.96578
▁ибо	-8.96769
▁внимание	-8.96898
▁период	-8.96913
▁1.	-8.97026
m	-8.97112
ись	-8.9719
▁должно	-8.97235
▁весь	-8.97661
лось	-8.97726
▁достаточно	-8.97847
▁возможность	-8.97903
▁2.	-8.97979
▁M	-8.98086
▁куда	-8.98277
▁второй	-8.98372
▁такого	-8.98521
▁наших	-8.98587
▁J	-8.98615
▁дней	-8.98947
^	-8.98994
▁Под	-8.99155
al	-8.99191
▁глаза	-8.99577
▁V	-8.99733
▁ещё	-8.99748
ш	-8.99872
▁нее	-8.99957
ское	-9.00062
▁16	-9.00326
3	-9.00468
ко	-9.00913
▁роль	-9.01012
▁вполне	-9.01249
▁D	-9.01844
Л	-9.01962
–	-9.01982
▁мире	-9.02072
▁должна	-9.02117
▁выше	-9.02117
S	-9.02392
▁can	-9.02461
▁назад	-9.02489
▁никто	-9.02666
▁14	-9.02733
ят	-9.03042
▁+	-9.0306
▁11	-9.03074
▁тысяч	-9.03283
▁большой	-9.03754
▁противника	-9.03814
▁путь	-9.03867
ому	-9.03966
▁сторону	-9.0415
x	-9.04219
▁(«	-9.04296
▁L	-9.04801
ясь	-9.04869
▁‘	-9.05402
▁ж	-9.05496
▁развития	-9.05523
Д	-9.05594
▁генерал	-9.05635
Н	-9.05681
▁нашего	-9.05767
▁кого	-9.05772
▁рас	-9.05944
▁столь	-9.05964
);	-9.06193
­	-9.06442
▁месте	-9.06511
▁земли	-9.06697
ние	-9.06711
▁Тогда	-9.07294
▁системы	-9.07508
▁возможно	-9.07521
▁B	-9.07562
▁so	-9.07674
▁уж	-9.07728
▁какие	-9.07778
▁имя	-9.08487
▁30	-9.08565
▁некоторые	-9.08733
▁группы	-9.08775
▁G	-9.08782
▁наиболее	-9.08874
▁начале	-9.08926
▁числе	-9.08934
кой	-9.08967
▁слово	-9.08997
▁F	-9.09085
▁значит	-9.0929
▁работу	-9.09497
▁партии	-9.09526
▁Нет	-9.09593
да	-9.09634
▁результате	-9.09682
▁Здесь	-9.09859
▁кроме	-9.09909
▁детей	-9.09911
▁Э	-9.10124
▁говорить	-9.10154
▁либо	-9.10167
▁Только	-9.10397
▁Мне	-9.10569
▁идет	-9.10659
▁стала	-9.10735
▁действия	-9.10752
4	-9.10764
▁помощью	-9.10829
▁прямо	-9.11088
▁войска	-9.11198
▁Про	-9.11266
▁писал	-9.11465
▁Теперь	-9.11507
▁і	-9.11523
▁13	-9.11534
▁мысли	-9.11547
скую	-9.11885
▁самой	-9.12109
▁значение	-9.12165
▁удалось	-9.12202
▁стоит	-9.12202
▁своими	-9.12283
ил	-9.12427
ским	-9.12473
ков	-9.1256
▁места	-9.12631
▁нему	-9.1268
?»	-9.12708
▁вокруг	-9.12713
▁Таким	-9.12774
▁сами	-9.13566
▁рода	-9.13603
▁необходимо	-9.13617
▁иногда	-9.13711
▁та	-9.13795
▁книги	-9.13939
ч	-9.14352
▁наш	-9.14538
▁сегодня	-9.14954
см	-9.15046
▁трех	-9.15241
он	-9.15262
▁полностью	-9.15431
▁довольно	-9.1563
▁точно	-9.15661
▁самое	-9.15702
...»	-9.15802
▁точки	-9.15855
▁одним	-9.15857
Б	-9.16036
▁Бог	-9.16295
▁самым	-9.16458
▁народа	-9.16492
▁знал	-9.1654
▁кажется	-9.1665
▁сколько	-9.16777
▁знаю	-9.16854
▁рядом	-9.16913
▁л	-9.16933
▁N	-9.16999
▁Этот	-9.17041
▁зрения	-9.17211
▁would	-9.17216
b	-9.17613
▁государства	-9.17616
▁E	-9.1762
▁He	-9.17664
▁долго	-9.17959
▁наконец	-9.18014
ва	-9.18035
▁общества	-9.18083
ну	-9.18261
▁свет	-9.18411
▁получил	-9.18554
▁ответ	-9.18641
▁Эти	-9.1866
▁вдруг	-9.18775
▁степени	-9.18786
c	-9.18966
r	-9.19036
▁дом	-9.19101
▁начал	-9.19121
▁само	-9.19135
",	-9.19353
▁who	-9.19563
▁3.	-9.19564
in	-9.1964
▁положение	-9.19782
▁Бога	-9.19961
▁ту	-9.20176
▁обычно	-9.20186
▁Германии	-9.2039
▁друга	-9.20441
▁отношения	-9.20449
▁воды	-9.20533
▁хотел	-9.20604
ти	-9.20611
▁деятельности	-9.2074
▁спросил	-9.20857
Х	-9.2096
Т	-9.20973
▁more	-9.21125
з	-9.2124
en	-9.21371
▁вновь	-9.21604
▁>	-9.22171
ец	-9.22525
f	-9.2255
▁возможности	-9.22742
▁см	-9.22825
▁H	-9.22825
▁новые	-9.22873
до	-9.22984
▁опять	-9.23005
▁равно	-9.23006
▁моей	-9.23087
▁власть	-9.23113
▁Кроме	-9.2333
▁дальше	-9.23372
▁силу	-9.23417
▁становится	-9.23874
▁происходит	-9.23923
▁no	-9.23932
▁одну	-9.24001
▁тела	-9.24016
▁одном	-9.24157
▁др	-9.24254
▁первой	-9.24327
ова	-9.24371
таки	-9.24451
▁легко	-9.24506
ась	-9.24749
ство	-9.24878
Ф	-9.25077
▁отношении	-9.25159
▁ответил	-9.25193
▁самых	-9.25348
▁могу	-9.25435
▁her	-9.25477
▁постоянно	-9.25766
▁T	-9.25929
▁своему	-9.2598
▁народ	-9.26054
▁17	-9.26074
▁been	-9.26118
▁out	-9.26472
ком	-9.26584
▁Ю	-9.26586
▁дел	-9.26604
▁часов	-9.26973
сь	-9.27465
▁движения	-9.2751
▁*	-9.2752
▁э	-9.27817
Р	-9.27909
▁х	-9.28104
[	-9.28135
▁имени	-9.28173
▁Тем	-9.28323
▁голову	-9.2835
ер	-9.28394
l	-9.28708
▁нами	-9.2889
▁право	-9.28947
цы	-9.28966
▁условиях	-9.29228
из	-9.29254
I	-9.29258
са	-9.29277
▁речь	-9.29303
▁немного	-9.29379
ж	-9.29391
▁Эта	-9.2949
▁Ведь	-9.30037
▁стр	-9.30239
▁другим	-9.3025
▁me	-9.30581
▁d	-9.30701
▁конца	-9.3077
▁Со	-9.30933
▁являются	-9.31067
▁иметь	-9.31068
э	-9.31131
▁f	-9.31249
▁найти	-9.31261
▁стать	-9.31262
5	-9.31463
ц	-9.31473
▁разных	-9.31527
▁видел	-9.31561
A	-9.31664
▁25	-9.31803
▁раньше	-9.31845
▁Об	-9.31868
▁организации	-9.32043
▁деньги	-9.32262
▁число	-9.32459
▁меньше	-9.32567
▁четыре	-9.3262
▁жить	-9.32635
▁пришлось	-9.3265
▁сильно	-9.3275
ив	-9.32875
▁up	-9.33065
▁характер	-9.3316
▁It	-9.33329
▁фронта	-9.3345
▁населения	-9.33494
▁новых	-9.33563
▁решение	-9.33602
при	-9.33612
▁понять	-9.33699
▁некоторых	-9.33782
▁известно	-9.3382
0	-9.33911
▁about	-9.34006
▁18	-9.34049
▁очередь	-9.3421
▁my	-9.34694
▁далеко	-9.34723
▁цели	-9.34759
▁русских	-9.34868
▁has	-9.34871
▁количество	-9.34897
▁могла	-9.349
▁Еще	-9.34901
re	-9.3496
▁into	-9.35025
под	-9.35275
6	-9.35369
стью	-9.35501
▁благодаря	-9.35593
▁тело	-9.35651
ства	-9.35729
ось	-9.35741
▁земле	-9.35884
g	-9.35916
▁помощи	-9.36397
▁мной	-9.36547
▁W	-9.36707
▁пять	-9.36715
ник	-9.36762
▁имел	-9.36835
▁солдат	-9.36858
▁з	-9.37284
▁работе	-9.37306
C	-9.37306
▁мая	-9.37325
▁Х	-9.37434
▁дни	-9.37439
▁состав	-9.37446
us	-9.37754
ешь	-9.37819
▁will	-9.37909
▁скорее	-9.37981
З	-9.38037
▁them	-9.38061
▁находится	-9.38126
▁сын	-9.38148
▁невозможно	-9.38169
▁августа	-9.38478
▁пред	-9.38485
ра	-9.38518
▁вид	-9.3854
▁him	-9.38559
▁говоря	-9.3861
▁море	-9.38661
▁III	-9.38906
▁другом	-9.39123
▁См	-9.3918
▁июля	-9.3924
▁действий	-9.39272
▁виду	-9.39291
▁Затем	-9.39454
▁одновременно	-9.39629
▁сама	-9.39639
▁стране	-9.39699
▁состоянии	-9.39788
▁съ	-9.3981
ль	-9.39813
▁Кто	-9.3982
▁its	-9.39982
▁сделал	-9.40004
▁туда	-9.40097
▁внутри	-9.40263
▁стран	-9.40444
z	-9.40574
▁имеют	-9.40604
k	-9.40768
▁землю	-9.40776
▁мои	-9.40901
▁трудно	-9.40958
▁знает	-9.40976
▁каким	-9.41107
▁права	-9.41253
ф	-9.41278
▁давно	-9.41278
▁Ш	-9.41418
▁июня	-9.41443
▁смысле	-9.41484
▁дивизии	-9.41707
▁Москве	-9.41723
▁говорят	-9.41737
▁чуть	-9.41747
де	-9.41807
▁'	-9.42078
B	-9.42264
▁минут	-9.42296
▁различных	-9.42464
▁Именно	-9.42497
▁ночь	-9.42505
▁there	-9.42582
▁словно	-9.42582
▁нового	-9.42679
▁сердце	-9.43111
▁самый	-9.43231
▁любви	-9.43281
▁решил	-9.43354
▁time	-9.43519
▁территории	-9.43671
▁Франции	-9.43739
▁when	-9.43783
Е	-9.4409
▁иначе	-9.44227
▁каждого	-9.44557
▁дать	-9.44584
▁другого	-9.44633
▁do	-9.44693
ою	-9.44729
▁Хотя	-9.44798
▁русской	-9.44813
▁отец	-9.44831
▁вместо	-9.44923
▁руку	-9.45092
овой	-9.45221
▁хоть	-9.45392
▁Александр	-9.45398
▁души	-9.45466
▁революции	-9.45731
▁Конечно	-9.45821
▁Даже	-9.45979
вы	-9.4608
▁существует	-9.46088
▁которому	-9.46096
▁слов	-9.46104
▁X	-9.46211
▁ясно	-9.46466
▁сентября	-9.46751
h	-9.46951
▁первого	-9.47082
ца	-9.4709
▁отца	-9.47115
▁Чтобы	-9.47191
ст	-9.47207
▁моя	-9.47253
▁какое	-9.47289
▁новой	-9.47517
▁ради	-9.4767
▁other	-9.47764
▁культуры	-9.482
га	-9.4858
ля	-9.48669
▁новый	-9.48702
▁лицо	-9.48724
▁поле	-9.48801
▁управления	-9.48834
▁октября	-9.48902
▁K	-9.49021
▁марта	-9.49245
▁процесс	-9.49493
▁Потом	-9.49658
_	-9.49843
▁главе	-9.50025
▁гораздо	-9.50036
▁ряд	-9.50069
▁целью	-9.50078
▁несмотря	-9.50102
7	-9.50189
▁19	-9.50258
▁другими	-9.50584
▁церкви	-9.50622
▁мысль	-9.50622
▁вся	-9.5064
▁относительно	-9.50716
▁помощь	-9.50722
▁дал	-9.50773
▁всеми	-9.50797
ина	-9.50818
▁первых	-9.51066
▁t	-9.51184
▁взгляд	-9.51192
▁1-	-9.51257
▁моего	-9.51311
▁работа	-9.51314
▁лица	-9.5135
▁your	-9.51606
▁22	-9.51646
▁Их	-9.51681
ія	-9.5178
▁полка	-9.51949
скому	-9.51991
▁Через	-9.52009
or	-9.5221
▁нескольких	-9.52252
ша	-9.52278
▁полу	-9.52285
▁вопросы	-9.52294
▁образ	-9.52323
▁дает	-9.52597
ками	-9.52617
же	-9.52796
▁ч	-9.52832
▁s	-9.5286
▁такая	-9.53027
его	-9.5339
▁руках	-9.53453
во	-9.53501
▁столько	-9.53561
▁практически	-9.53685
▁<	-9.53835
▁50	-9.53844
ющие	-9.53863
▁пишет	-9.53896
▁решения	-9.53919
▁формы	-9.53978
▁also	-9.54112
▁правительства	-9.54126
▁проблемы	-9.5421
нее	-9.54248
▁типа	-9.54278
▁получить	-9.54381
▁if	-9.54435
По	-9.54446
▁2-	-9.54447
▁самые	-9.54563
▁можем	-9.54666
▁тыс	-9.54669
ал	-9.55085
ющих	-9.55186
▁война	-9.55198
j	-9.55249
▁военных	-9.55456
▁смысл	-9.55458
▁вперед	-9.55661
▁than	-9.55669
▁движение	-9.55696
ющий	-9.55875
ость	-9.55939
▁et	-9.5607
▁казалось	-9.5613
ма	-9.56202
▁настолько	-9.56348
th	-9.56368
▁сих	-9.56606
ня	-9.56615
▁опыт	-9.56643
▁января	-9.5676
▁письмо	-9.56808
▁24	-9.56876
▁ноября	-9.56905
▁причем	-9.56927
ик	-9.57064
▁годов	-9.57075
▁only	-9.57106
▁язык	-9.57327
▁использовать	-9.57383
.”	-9.57522
▁21	-9.57531
▁состояние	-9.5754
▁Например	-9.57604
▁труда	-9.5773
▁основе	-9.57766
ман	-9.5778
Не	-9.57841
▁вовсе	-9.57974
▁любой	-9.58014
P	-9.58175
▁история	-9.58234
▁людьми	-9.58455
▁знать	-9.58497
▁Один	-9.5852
▁путем	-9.58559
ре	-9.58588
▁оказался	-9.58716
▁Почему	-9.58759
▁непосредственно	-9.58807
▁частности	-9.58878
цев	-9.59073
▁what	-9.59091
▁4.	-9.59113
▁никаких	-9.59223
▁начали	-9.5934
▁Ни	-9.59408
▁голос	-9.59415
▁форме	-9.59418
ле	-9.59487
is	-9.5949
Ш	-9.59492
▁автор	-9.5952
▁вещи	-9.59612
=	-9.59716
▁борьбы	-9.59726
▁декабря	-9.59777
M	-9.59789
▁впервые	-9.59849
▁апреля	-9.59956
▁имели	-9.60005
▁%	-9.60123
▁женщины	-9.60207
▁скоро	-9.60225
▁план	-9.60272
▁человеком	-9.6032
▁Ч	-9.60355
▁правительство	-9.60386
▁могло	-9.60386
▁сказала	-9.60606
▁войне	-9.60619
▁n	-9.60629
ан	-9.60646
▁работать	-9.60682
▁увидел	-9.60691
про	-9.60716
▁множество	-9.60761
▁районе	-9.60773
▁вскоре	-9.609
▁счет	-9.60978
▁другое	-9.61054
▁час	-9.61113
▁людям	-9.61141
ши	-9.61403
▁over	-9.61478
▁любовь	-9.61485
▁some	-9.61496
▁будем	-9.61593
▁первые	-9.61768
▁23	-9.61854
▁she	-9.61883
▁could	-9.61947
▁1941	-9.61963
▁e	-9.62093
▁сначала	-9.62101
▁числа	-9.62143
▁случаях	-9.62342
▁З	-9.62378
▁мировой	-9.62534
▁видеть	-9.62704
▁ст	-9.62746
ите	-9.6277
▁пришел	-9.62814
▁пусть	-9.62879
D	-9.62889
F	-9.62999
w	-9.63065
▁100	-9.63083
▁сына	-9.63091
▁буду	-9.63249
▁книге	-9.63258
▁едва	-9.63412
▁ЦК	-9.6349
H	-9.63565
▁двумя	-9.63631
▁принять	-9.63635
▁целом	-9.63771
▁видно	-9.63803
▁огонь	-9.63921
▁линии	-9.64003
▁представляет	-9.64193
ение	-9.64395
▁войну	-9.64503
▁домой	-9.64593
▁всему	-9.64651
▁словами	-9.64842
▁удар	-9.64911
▁первую	-9.65038
▁идти	-9.65067
▁последние	-9.65215
u	-9.65233
.).	-9.65272
▁Иван	-9.65458
ты	-9.65508
▁Может	-9.65617
▁которыми	-9.65731
▁two	-9.65742
▁хочет	-9.65932
L	-9.6604
▁рабочих	-9.66133
▁говорили	-9.6632
▁система	-9.6642
вер	-9.66877
▁энергии	-9.66928
▁поводу	-9.66954
▁факт	-9.67066
▁русского	-9.67112
ье	-9.67138
йте	-9.67302
▁каких	-9.67447
▁прав	-9.67489
▁This	-9.67567
▁понял	-9.67581
▁b	-9.67697
овые	-9.67839
▁примерно	-9.67891
▁касается	-9.6801
▁матери	-9.68025
ation	-9.68029
▁начало	-9.68089
▁означает	-9.68128
▁c	-9.68135
▁правда	-9.68148
ья	-9.68172
▁мнению	-9.68288
▁царя	-9.68344
▁связь	-9.68414
▁доме	-9.68438
▁Сталин	-9.68438
ic	-9.68456
8	-9.68492
▁главным	-9.68564
▁m	-9.68645
▁Раз	-9.6877
▁отношение	-9.6883
▁остается	-9.68919
▁па	-9.69093
▁мать	-9.69099
ости	-9.69284
▁женщин	-9.69382
▁хочу	-9.69425
▁Или	-9.69494
▁мое	-9.69523
нии	-9.69547
▁смерть	-9.69653
v	-9.69699
▁наше	-9.69719
T	-9.69725
ников	-9.69776
ями	-9.69793
▁ф	-9.69808
▁брат	-9.6985
▁штаба	-9.69899
▁направлении	-9.70032
▁кому	-9.70146
▁вероятно	-9.70168
▁la	-9.70221
ней	-9.70273
▁искусства	-9.70385
▁делает	-9.70564
▁февраля	-9.70694
▁участие	-9.70694
▁армия	-9.70753
▁денег	-9.70771
▁Можно	-9.70828
▁like	-9.71068
▁городе	-9.7108
▁произошло	-9.7111
▁first	-9.71129
ее	-9.71146
ту	-9.71162
▁теории	-9.7122
▁таком	-9.71349
ич	-9.71375
▁операции	-9.71474
▁правило	-9.71513
со	-9.71608
▁состоит	-9.71697
▁согласно	-9.71761
▁вести	-9.72242
▁времена	-9.72289
▁дети	-9.72347
▁влияние	-9.72491
▁внимания	-9.72538
▁название	-9.72749
▁Глава	-9.7281
▁событий	-9.72831
▁средств	-9.72944
▁Сам	-9.7319
▁взял	-9.73372
На	-9.73376
▁случай	-9.73415
▁корпуса	-9.73522
ать	-9.73526
▁природы	-9.73544
▁развитие	-9.73642
▁28	-9.7374
▁26	-9.73862
рис	-9.73944
J	-9.73947
ion	-9.74101
▁постепенно	-9.74146
▁группа	-9.74154
»)	-9.74287
си	-9.74324
▁считать	-9.74362
▁Итак	-9.74434
ше	-9.74546
▁цель	-9.74578
овых	-9.74773
▁берегу	-9.74949
▁производства	-9.7495
▁семьи	-9.74958
▁никакого	-9.7497
▁бес	-9.75005
как	-9.75279
▁женщина	-9.75556
▁27	-9.7558
▁ситуации	-9.75611
▁явно	-9.75888
ис	-9.75982
▁готов	-9.76064
▁основном	-9.76066
▁первым	-9.7615
ими	-9.76193
▁моря	-9.76204
▁said	-9.76258
▁40	-9.76289
об	-9.76296
али	-9.76338
▁позиции	-9.76436
ения	-9.76443
▁взять	-9.76444
▁следующий	-9.76501
▁вроде	-9.76517
▁ноги	-9.7652
мер	-9.76549
▁i	-9.76658
▁наша	-9.76677
▁глаз	-9.76737
ск	-9.7675
▁Пере	-9.76797
▁Союза	-9.76801
▁0	-9.76887
▁каждой	-9.76936
▁обороны	-9.77008
▁IV	-9.77056
ится	-9.77146
▁жил	-9.77218
▁народов	-9.77281
▁концов	-9.77291
▁крайней	-9.77418
кин	-9.77428
▁чаще	-9.77443
▁ходе	-9.77488
ний	-9.77582
▁Есть	-9.77602
▁большую	-9.77604
▁U	-9.77743
▁большинство	-9.77757
▁Тут	-9.77826
▁временем	-9.78036
▁моих	-9.7804
V	-9.7815
ers	-9.78158
▁значительно	-9.78442
▁условия	-9.78444
▁отношений	-9.78451
▁оказалось	-9.78472
▁позже	-9.78516
ился	-9.78651
▁политики	-9.78672
▁информации	-9.78747
▁пользу	-9.78798
it	-9.78837
▁частей	-9.78848
▁ниже	-9.78888
ди	-9.78948
+	-9.78967
▁деятельность	-9.78969
▁закон	-9.78972
▁откуда	-9.79015
▁письма	-9.79047
▁десять	-9.7914
Ч	-9.79171
▁чувство	-9.79219
“	-9.79293
um	-9.79345
▁события	-9.79366
▁Наконец	-9.794
іе	-9.79404
▁Англии	-9.79462
▁очевидно	-9.79476
R	-9.79586
▁средства	-9.79586
ились	-9.79749
▁большое	-9.79864
▁важно	-9.79874
▁империи	-9.79901
▁большим	-9.80032
▁станет	-9.80065
▁последний	-9.80141
▁вышел	-9.80164
▁далее	-9.80182
▁Впрочем	-9.80188
▁воз	-9.80218
▁военной	-9.80231
▁историю	-9.80433
<	-9.8044
▁разные	-9.80504
раз	-9.8051
▁немедленно	-9.80521
▁оказались	-9.80545
▁сюда	-9.80622
▁re	-9.80666
▁бывает	-9.8075
▁человеку	-9.80818
▁какая	-9.80832
▁идеи	-9.80927
▁науки	-9.80952
ические	-9.81021
▁положения	-9.81101
▁частью	-9.81144
▁Ему	-9.81175
▁Ж	-9.81364
▁крови	-9.81631
▁пол	-9.81683
▁most	-9.81727
▁Россия	-9.82062
▁Правда	-9.82108
мы	-9.82116
▁Москву	-9.82132
▁these	-9.82214
ут	-9.82346
▁Уже	-9.82463
G	-9.82551
▁сила	-9.82645
▁лиц	-9.82694
▁отношению	-9.82719
вший	-9.82753
▁нечто	-9.82836
▁отличие	-9.82932
▁главное	-9.8308
▁ранее	-9.83105
▁советских	-9.83137
▁our	-9.83161
▁But	-9.83162
▁членов	-9.83165
▁Надо	-9.83165
Э	-9.832
W	-9.83231
ри	-9.83475
E	-9.8353
▁гор	-9.83653
▁задачи	-9.83658
an	-9.83675
▁un	-9.83714
▁написал	-9.83766
▁командир	-9.8382
▁роли	-9.83864
▁речи	-9.83937
▁большие	-9.84092
▁{	-9.84331
▁пре	-9.84457
▁исследования	-9.84464
▁труд	-9.84661
▁Николай	-9.84844
▁языка	-9.84863
▁XIX	-9.84937
▁такую	-9.85059
▁сторон	-9.85087
ат	-9.85197
▁воду	-9.85219
▁принял	-9.85246
▁света	-9.85281
тер	-9.85292
▁...	-9.85319
▁общем	-9.85371
▁часа	-9.85375
▁people	-9.85461
▁New	-9.85491
▁политической	-9.85603
▁силой	-9.85678
▁спустя	-9.85808
▁животных	-9.85836
▁стоял	-9.85837
▁вне	-9.85974
▁Европе	-9.8603
▁стороне	-9.86145
▁считал	-9.862
▁реки	-9.86238
ющей	-9.86372
ду	-9.86401
▁бой	-9.86518
ско	-9.86533
▁русские	-9.86598
▁резко	-9.86599
▁царь	-9.86622
▁какую	-9.86625
ическая	-9.86814
ью	-9.87177
▁Между	-9.87178
▁необходимости	-9.87393
▁then	-9.8744
ировать	-9.8756
▁месяцев	-9.87644
юсь	-9.8767
▁находился	-9.87737
▁къ	-9.87754
▁Европы	-9.87793
▁плохо	-9.87855
ющего	-9.87881
▁никак	-9.87955
▁such	-9.87963
нию	-9.88098
▁думаю	-9.88127
▁исключительно	-9.88142
man	-9.88155
ях	-9.88176
▁местах	-9.883
су	-9.88367
▁короля	-9.88435
▁языке	-9.88456
▁Сейчас	-9.88536
▁значения	-9.88559
▁We	-9.88628
вших	-9.88667
За	-9.88715
▁any	-9.89077
▁чувства	-9.8917
▁советской	-9.89213
▁знали	-9.89219
▁5.	-9.89283
▁Христа	-9.89355
енко	-9.89362
N	-9.89363
изм	-9.89441
▁какого	-9.89474
▁1)	-9.89621
вшихся	-9.89655
▁км	-9.89734
ила	-9.89791
▁пяти	-9.89866
▁29	-9.90049
▁представить	-9.90086
▁называется	-9.90163
▁двадцать	-9.90283
▁пример	-9.90311
чи	-9.90366
ги	-9.90402
▁1942	-9.90426
K	-9.90428
▁дороги	-9.90434
ники	-9.90437
▁новое	-9.90481
▁школы	-9.90551
▁ночью	-9.90675
▁четырех	-9.90683
▁заметил	-9.90726
▁ум	-9.90807
▁военного	-9.9084
ве	-9.90941
▁тысячи	-9.91107
▁жена	-9.91113
▁лично	-9.91187
▁шли	-9.91226
on	-9.91275
▁борьбе	-9.91276
▁умер	-9.91288
ity	-9.91436
▁генерала	-9.91565
▁глазами	-9.91569
▁Москвы	-9.91613
▁3-	-9.9162
▁O	-9.91751
st	-9.91781
▁князь	-9.91854
▁видели	-9.91909
ией	-9.91952
▁большей	-9.91968
би	-9.92054
▁получили	-9.92062
▁поля	-9.92093
▁Петр	-9.92219
илась	-9.92335
▁дух	-9.92512
▁приказ	-9.9256
!..	-9.92588
▁флота	-9.92605
▁личности	-9.92665
▁раза	-9.92744
▁сознания	-9.92768
▁позволяет	-9.92826
▁Пусть	-9.92872
▁мин	-9.92882
▁пошел	-9.92912
▁Господь	-9.92935
▁головой	-9.92988
▁приходилось	-9.92997
ической	-9.93009
▁помочь	-9.93038
▁new	-9.93156
▁врага	-9.93498
іи	-9.93532
▁создать	-9.93556
to	-9.93634
ры	-9.93687
▁медленно	-9.93787
род	-9.9382
▁крайне	-9.93837
▁уровне	-9.93839
▁see	-9.93874
▁насколько	-9.93982
Ю	-9.94017
▁Ее	-9.94039
что	-9.94063
▁изменения	-9.94116
▁машины	-9.94139
▁обязательно	-9.94139
▁чему	-9.94155
вшиеся	-9.94218
▁оба	-9.94229
▁Возможно	-9.94254
▁способ	-9.94266
▁конец	-9.94323
▁Владимир	-9.94329
▁дороге	-9.94396
▁службы	-9.94504
▁полной	-9.9451
▁уровень	-9.94603
ика	-9.94605
▁можете	-9.94654
▁Богу	-9.94761
9	-9.9481
▁начальник	-9.94925
▁вернулся	-9.95084
▁1917	-9.95143
▁боя	-9.95162
▁2)	-9.95169
▁книгу	-9.95304
▁составе	-9.9541
▁работ	-9.95437
▁анти	-9.9545
▁безопасности	-9.9547
Ь	-9.95678
▁глазах	-9.95696
▁Некоторые	-9.95885
▁памяти	-9.95911
▁000	-9.95941
▁сердца	-9.95977
тся	-9.96081
▁настоящее	-9.96085
°	-9.96089
▁зависимости	-9.96101
▁разговор	-9.9614
▁разве	-9.96288
▁начинает	-9.96292
▁русский	-9.9634
▁дверь	-9.96438
ического	-9.96539
па	-9.96587
▁Более	-9.96749
▁Среди	-9.9677
ро	-9.96772
”.	-9.96926
able	-9.96953
▁думать	-9.96995
▁соответствии	-9.97029
овая	-9.97098
▁порядок	-9.97116
▁отдельных	-9.97123
▁большая	-9.97147
ян	-9.9715
▁увидеть	-9.97151
́	-9.97173
ос	-9.9719
ический	-9.97214
▁кон	-9.97237
вшись	-9.97289
ек	-9.97394
▁приходится	-9.97477
▁мою	-9.97482
▁Пока	-9.97494
▁Многие	-9.97499
▁l	-9.97552
ющая	-9.97589
▁больших	-9.97621
▁состояния	-9.97791
▁after	-9.97833
▁данные	-9.97844
▁пост	-9.97878
▁Тот	-9.97886
нет	-9.97965
че	-9.97969
▁пришли	-9.98007
▁месяца	-9.98024
▁князя	-9.98079
.—	-9.981
▁заявил	-9.98152
▁думал	-9.98243
▁Перед	-9.98248
▁Без	-9.98249
▁1918	-9.98256
▁хотелось	-9.98265
▁систему	-9.98297
▁офицеров	-9.9831
2.	-9.98432
▁одному	-9.98462
▁знания	-9.98573
▁проблем	-9.98634
▁even	-9.98832
▁военно	-9.98897
▁фон	-9.98975
▁x	-9.99034
ках	-9.99156
▁первом	-9.9929
▁книг	-9.99348
лю	-9.99367
▁1943	-9.99377
▁суда	-9.99379
▁нашу	-9.99393
▁ребенка	-9.99407
▁шесть	-9.99544
▁оружие	-9.99567
вшие	-9.99654
▁земля	-9.99671
▁полк	-9.99717
▁обо	-9.99771
▁уровня	-9.99829
ѵ	-9.99853
ель	-9.9987
▁man	-9.99884
▁рук	-9.99902
▁общество	-10
▁рукой	-10.0011
▁другу	-10.0013
▁60	-10.0013
▁словам	-10.0014
▁v	-10.0017
▁приказал	-10.0026
▁4-	-10.0027
І	-10.0033
▁мнение	-10.0035
▁предложил	-10.0038
▁ход	-10.004
▁государство	-10.0041
▁различные	-10.0047
▁обратно	-10.0056
▁книга	-10.0056
▁будучи	-10.0068
▁зависит	-10.0069
▁чтоб	-10.0072
▁спокойно	-10.0074
емся	-10.0077
иться	-10.0077
ia	-10.008
▁функции	-10.0087
ум	-10.0114
▁where	-10.0116
ба	-10.0118
▁Ц	-10.0127
▁6.	-10.0129
▁Ленин	-10.013
▁Z	-10.0134
▁собственной	-10.0135
ча	-10.0142
▁поверхности	-10.0162
ника	-10.0166
▁желание	-10.0168
▁very	-10.0171
▁^	-10.0172
▁Оно	-10.0174
ё	-10.0174
O	-10.0187
▁работал	-10.0189
она	-10.0195
▁many	-10.0201
ических	-10.0204
▁литературы	-10.0204
▁утра	-10.0206
▁особенности	-10.0209
▁кем	-10.0214
▁)	-10.0219
▁порядка	-10.022
▁крестьян	-10.0222
▁Сталина	-10.0224
▁рождения	-10.0236
ятся	-10.0239
▁действие	-10.0241
):	-10.0243
нов	-10.0246
ll	-10.0252
овым	-10.0253
▁благо	-10.0269
ическое	-10.027
▁Красной	-10.0281
▁Александра	-10.0282
▁Советского	-10.0282
▁наук	-10.0292
▁центр	-10.0297
▁протяжении	-10.0301
▁шла	-10.0303
▁осталось	-10.0307
вин	-10.031
▁~	-10.0313
▁силами	-10.0314
▁боевых	-10.032
▁общего	-10.032
▁честь	-10.032
▁цвет	-10.032
▁оружия	-10.033
te	-10.0332
це	-10.0337
▁текст	-10.0341
▁широко	-10.0356
▁just	-10.0362
▁данных	-10.0362
▁way	-10.0371
▁вдоль	-10.0372
▁болезни	-10.0377
▁Несмотря	-10.0388
▁ума	-10.0394
▁оказывается	-10.0396
le	-10.0396
▁фронт	-10.0408
▁создания	-10.0416
▁w	-10.0428
▁этими	-10.0431
▁вниз	-10.0436
▁did	-10.044
▁компании	-10.0444
ха	-10.0447
▁душе	-10.0456
▁рис	-10.0457
▁впоследствии	-10.0461
▁интерес	-10.0465
▁Вам	-10.0475
▁ну	-10.0485
▁самому	-10.0496
▁1944	-10.0496
▁may	-10.0505
▁|	-10.0506
▁продолжал	-10.0507
▁through	-10.0511
▁наоборот	-10.0523
ием	-10.0523
три	-10.0527
▁сведения	-10.0532
▁лес	-10.0532
▁форм	-10.0534
▁порядке	-10.0535
▁придется	-10.0538
▁der	-10.0539
▁капитан	-10.0539
▁ночи	-10.0556
▁форму	-10.0558
▁знаем	-10.0564
▁нашем	-10.0565
ій	-10.0568
▁философии	-10.0568
▁r	-10.0569
▁руками	-10.0569
▁положении	-10.0577
▁никакой	-10.0578
ру	-10.0581
▁впечатление	-10.059
▁однажды	-10.0593
енный	-10.0594
▁странах	-10.0597
ики	-10.0598
|	-10.0599
▁оказалась	-10.06
▁каждом	-10.0601
▁вещей	-10.0603
▁называют	-10.0605
▁Потому	-10.0608
гу	-10.0615
▁млн	-10.0616
видимому	-10.0624
▁And	-10.0628
▁чрезвычайно	-10.063
енные	-10.0646
▁сознание	-10.0646
▁приводит	-10.0653
▁Рис	-10.0657
ски	-10.0676
▁искать	-10.0678
мъ	-10.0679
▁правильно	-10.0681
▁Поскольку	-10.0688
▁Где	-10.0688
▁пр	-10.0696
▁утром	-10.0697
▁месяц	-10.0697
▁эпохи	-10.07
▁how	-10.0703
▁радио	-10.0706
▁род	-10.0706
▁новую	-10.0709
▁видимо	-10.0719
▁свете	-10.0726
овать	-10.0728
?!	-10.0735
▁другую	-10.0744
▁изъ	-10.0746
▁&	-10.0752
▁чисто	-10.0753
▁головы	-10.0753
▁смог	-10.0756
the	-10.0756
кон	-10.0769
▁образования	-10.0774
,—	-10.0782
скими	-10.0786
▁back	-10.0791
▁ими	-10.0795
,”	-10.0805
▁групп	-10.0813
ист	-10.0819
▁g	-10.0822
▁некоторое	-10.0825
▁Очень	-10.0825
▁городов	-10.0828
▁сто	-10.0828
▁наступление	-10.0831
▁суд	-10.0836
вшийся	-10.0838
▁автора	-10.084
▁меры	-10.0841
▁Каждый	-10.0843
▁случилось	-10.0843
▁ныне	-10.0867
▁требует	-10.0878
▁For	-10.0878
X	-10.0879
▁относится	-10.0881
▁естественно	-10.089
▁остался	-10.0898
▁времен	-10.0898
▁середине	-10.0903
▁дочь	-10.0906
▁стол	-10.0915
▁свободы	-10.0931
▁Ко	-10.094
▁шаг	-10.0953
▁XX	-10.0953
▁существования	-10.0954
▁As	-10.0957
ишь	-10.097
▁made	-10.0983
▁общей	-10.0991
▁Дело	-10.0998
▁начальника	-10.0998
▁глубоко	-10.1
▁процесса	-10.1002
The	-10.1004
первых	-10.1014
▁выбор	-10.1017
▁св	-10.1032
▁процессе	-10.1042
ева	-10.1042
▁видим	-10.1046
▁жителей	-10.1046
▁молодой	-10.105
▁between	-10.1051
▁немцы	-10.1053
▁данном	-10.1055
▁страх	-10.106
▁нашим	-10.1063
шей	-10.107
▁now	-10.1071
»).	-10.1074
▁world	-10.108
▁задача	-10.1081
▁Меня	-10.1084
▁король	-10.1092
▁недавно	-10.1093
▁первое	-10.1094
се	-10.1096
Ц	-10.1097
▁характера	-10.1099
ста	-10.1107
▁высоко	-10.1107
▁мол	-10.1135
▁всякого	-10.1138
▁говорю	-10.114
▁шел	-10.1146
▁писать	-10.1149
▁Вас	-10.115
▁абсолютно	-10.1155
Ж	-10.1164
▁кино	-10.117
▁Вскоре	-10.1176
▁200	-10.1184
▁причин	-10.1185
▁системе	-10.119
▁горы	-10.1194
▁класса	-10.12
▁метров	-10.12
▁границы	-10.1206
▁душа	-10.1216
▁плен	-10.1219
ar	-10.1219
▁before	-10.1223
▁находились	-10.1227
▁душу	-10.1228
▁штаб	-10.1238
am	-10.1248
▁вверх	-10.1257
▁возникает	-10.1263
▁остальные	-10.1271
▁because	-10.1281
▁годах	-10.1285
▁отряд	-10.1286
▁каком	-10.1292
▁Те	-10.1293
тель	-10.1297
▁немцев	-10.1302
▁фактически	-10.1309
▁случайно	-10.1314
▁состава	-10.132
▁идея	-10.1321
▁решили	-10.1322
▁корпус	-10.1332
▁окончательно	-10.1346
▁подобно	-10.1354
ового	-10.1356
▁well	-10.1357
вшего	-10.1358
рас	-10.1358
▁второго	-10.1363
▁31	-10.1364
▁und	-10.1382
▁Сегодня	-10.1389
de	-10.1396
ви	-10.1398
▁водой	-10.1402
▁Михаил	-10.1408
▁императора	-10.1409
▁считает	-10.1409
▁us	-10.1427
▁теле	-10.1427
прежнему	-10.1427
▁память	-10.1428
▁природе	-10.1431
▁ш	-10.1438
▁Было	-10.1443
▁проект	-10.1443
▁Иногда	-10.1444
лин	-10.1447
▁much	-10.146
▁І	-10.1461
▁k	-10.1469
▁Совета	-10.1471
▁результат	-10.1479
«	-10.1487
▁поэт	-10.1487
▁узнать	-10.149
▁Москва	-10.1491
▁York	-10.1491
ющим	-10.1492
▁Кон	-10.1494
▁духа	-10.1496
▁лице	-10.1506
▁срок	-10.1506
il	-10.152
▁дорогу	-10.1525
▁вечером	-10.1531
▁узнал	-10.1531
▁друзей	-10.1551
▁life	-10.1557
▁work	-10.1567
▁1945	-10.1568
▁обществе	-10.157
▁последних	-10.1572
▁прекрасно	-10.1596
▁улице	-10.1598
▁позднее	-10.1602
▁жизнью	-10.1611
ism	-10.1617
▁дали	-10.1617
▁z	-10.1625
▁неожиданно	-10.1627
▁вода	-10.1628
▁видов	-10.1637
▁years	-10.164
▁down	-10.1652
бо	-10.1658
}	-10.1659
▁вечер	-10.1659
▁лежит	-10.1672
▁голове	-10.1673
▁традиции	-10.168
▁говорится	-10.1684
▁Мир	-10.1684
▁мимо	-10.1697
▁des	-10.1702
ment	-10.1708
▁великого	-10.171
мен	-10.1713
▁кое	-10.1715
▁боевой	-10.1724
вид	-10.1725
▁принимать	-10.1727
▁армию	-10.1728
ды	-10.1735
»:	-10.1738
▁лицом	-10.175
▁член	-10.1764
▁евреев	-10.1769
▁промышленности	-10.1769
ор	-10.1777
▁Нам	-10.1779
▁церковь	-10.1782
омъ	-10.1783
].	-10.1784
▁Второй	-10.1792
▁Россию	-10.1794
▁Руси	-10.1796
▁сделали	-10.1797
▁отъ	-10.1804
▁привести	-10.1807
▁Ли	-10.1811
изма	-10.1814
▁район	-10.1814
▁вопросов	-10.1817
▁последнего	-10.182
as	-10.183
▁сожалению	-10.1833
▁брата	-10.1833
▁миру	-10.1847
▁кровь	-10.185
▁политических	-10.1851
”,	-10.1855
▁Италии	-10.1863
▁фронте	-10.187
▁войсками	-10.1871
at	-10.1875
▁пер	-10.1879
▁центре	-10.188
▁воздух	-10.1895
▁They	-10.1899
▁сказано	-10.19
▁жили	-10.1901
▁периода	-10.1904
▁итоге	-10.1915
▁работает	-10.1916
▁буквально	-10.192
▁семь	-10.1929
▁момента	-10.1929
▁идей	-10.1932
▁выход	-10.1933
▁первая	-10.1948
▁хлеб	-10.1949
▁недели	-10.195
▁same	-10.1956
лет	-10.1956
\	-10.1962
▁трудом	-10.1965
▁следовательно	-10.1971
▁находятся	-10.1972
▁Особенно	-10.1973
▁суть	-10.1974
стр	-10.1976
▁немало	-10.1989
ющихся	-10.199
▁солнце	-10.1995
▁заключается	-10.1995
▁ваш	-10.1997
▁машин	-10.2
▁объяснить	-10.2002
▁редко	-10.2003
▁нашел	-10.2003
▁use	-10.2007
▁семье	-10.201
енных	-10.2014
▁военные	-10.2016
▁Люди	-10.2023
▁рот	-10.2031
▁форма	-10.2034
▁живет	-10.204
▁хотели	-10.204
▁Рас	-10.2046
▁результаты	-10.2063
▁пошли	-10.2064
▁опыта	-10.2071
▁рост	-10.2072
ший	-10.2077
ус	-10.2079
▁небо	-10.2082
▁Человек	-10.2082
ации	-10.2083
▁появились	-10.2089
▁причине	-10.2097
▁последнее	-10.2103
ница	-10.2104
▁кораблей	-10.2108
▁вернуться	-10.2113
▁иностранных	-10.2118
мо	-10.2118
▁танков	-10.2124
▁представление	-10.2126
▁рублей	-10.2126
лен	-10.2129
ович	-10.2138
▁писатель	-10.2142
▁Петра	-10.2143
Да	-10.2144
▁минуту	-10.2147
▁напротив	-10.2148
▁стояли	-10.2148
▁7.	-10.2153
▁If	-10.2162
▁en	-10.2162
▁сотни	-10.2162
▁действовать	-10.2165
▁вывод	-10.2171
▁одни	-10.2177
▁миллионов	-10.2198
▁составляет	-10.2208
ine	-10.2213
▁видит	-10.2216
▁существование	-10.2216
▁большого	-10.2221
▁потери	-10.2225
ch	-10.2231
»),	-10.2234
▁ближе	-10.2237
▁имела	-10.2237
▁показал	-10.2249
▁небольшой	-10.2249
▁пытался	-10.2254
▁служить	-10.2254
▁начать	-10.2257
▁словом	-10.2268
▁вопроса	-10.2268
▁отсутствие	-10.2271
▁Та	-10.2276
▁вида	-10.2279
▁make	-10.228
▁go	-10.2281
▁якобы	-10.2282
10	-10.2297
ера	-10.2306
▁содержание	-10.2309
▁такими	-10.2312
ар	-10.2315
▁сути	-10.2316
▁тихо	-10.2338
▁those	-10.2343
ve	-10.2349
▁берег	-10.2353
▁современной	-10.2356
▁будущем	-10.2356
▁To	-10.2361
▁1939	-10.237
▁Чем	-10.2376
цу	-10.2383
▁понятно	-10.2383
▁own	-10.2383
▁Однажды	-10.2389
▁знак	-10.2389
▁отправился	-10.2399
▁тобой	-10.24
▁самим	-10.2408
▁get	-10.2409
▁основании	-10.2414
ne	-10.2415
▁Азии	-10.2433
▁Первый	-10.2433
▁мужа	-10.2435
▁зачем	-10.2435
▁стены	-10.2436
▁under	-10.2436
ющее	-10.2438
▁хуже	-10.2446
▁веры	-10.2447
▁long	-10.2454
ive	-10.2457
▁крупных	-10.2458
▁поведения	-10.247
пере	-10.2471
▁мест	-10.2471
▁VI	-10.2474
▁делу	-10.2481
et	-10.2483
▁немецких	-10.2483
▁вел	-10.2488
▁назвать	-10.2489
▁представителей	-10.2491
▁показывает	-10.2495
▁XVIII	-10.2499
▁статьи	-10.2504
▁сидел	-10.2504
▁скорость	-10.2505
▁ре	-10.2514
▁Согласно	-10.2522
▁острова	-10.2523
ist	-10.2524
▁нередко	-10.2528
▁принято	-10.253
▁будущее	-10.2534
▁сквозь	-10.2535
▁другая	-10.2541
▁вами	-10.2544
▁should	-10.2545
▁службу	-10.2552
▁сомнения	-10.2552
▁органов	-10.2554
▁концу	-10.2555
▁веке	-10.256
▁al	-10.2561
▁успел	-10.2561
▁император	-10.2562
▁систем	-10.2564
▁остались	-10.2575
1.	-10.259
действительности	-10.2593
ид	-10.26
▁Три	-10.2605
▁основных	-10.2605
▁Ла	-10.2608
▁1919	-10.2621
ении	-10.2623
▁Иванович	-10.2639
▁всякий	-10.264
00	-10.2645
▁ведет	-10.266
ден	-10.2661
▁способность	-10.2684
▁элементов	-10.2685
жа	-10.2688
▁мозга	-10.2691
▁показать	-10.2692
▁зло	-10.2696
▁включая	-10.2698
▁члены	-10.2698
▁вследствие	-10.2705
▁никого	-10.2705
▁пар	-10.271
»;	-10.2715
▁огня	-10.2719
▁понятия	-10.2723
▁Гитлер	-10.2732
▁имеется	-10.2734
▁орудий	-10.2737
▁цвета	-10.2745
▁муж	-10.2747
▁представления	-10.2754
▁собою	-10.2754
▁веков	-10.276
▁ею	-10.2764
▁метод	-10.2766
▁великий	-10.2768
▁всяком	-10.2768
▁человеческого	-10.2775
▁успешно	-10.2776
ете	-10.2776
▁отдела	-10.2776
▁человечества	-10.2784
ian	-10.2786
▁Вместе	-10.2792
▁прошлого	-10.2793
▁двери	-10.2804
▁моим	-10.2805
▁ряда	-10.2812
▁вынужден	-10.2819
▁мер	-10.2822
▁поход	-10.2825
▁вышли	-10.2825
так	-10.2828
▁произведения	-10.2832
▁область	-10.2834
лу	-10.2838
▁проблема	-10.2839
▁Кар	-10.2842
▁70	-10.2856
ющиеся	-10.2859
▁подробно	-10.2867
▁руб	-10.2868
▁стихи	-10.287
ant	-10.287
▁Армии	-10.2878
вшегося	-10.2886
▁Re	-10.2887
▁неделю	-10.2888
▁оттуда	-10.2892
▁качества	-10.2893
▁газеты	-10.2893
▁страну	-10.2894
▁ваши	-10.2907
▁несомненно	-10.2909
ена	-10.2909
▁жены	-10.291
el	-10.2911
▁выйти	-10.2913
▁Земли	-10.2913
▁площади	-10.2914
▁понятие	-10.2915
▁делают	-10.2919
▁поведение	-10.2927
▁сущности	-10.2935
▁долларов	-10.2936
▁самая	-10.2937
вторых	-10.2938
▁появился	-10.2939
▁вашей	-10.2941
▁определить	-10.2943
сон	-10.2943
▁воли	-10.2946
прав	-10.2949
▁подобных	-10.2949
▁смотреть	-10.2951
▁полковник	-10.2951
▁случаев	-10.2952
▁пространство	-10.2954
▁будущего	-10.2957
▁мм	-10.2963
лы	-10.2963
▁возле	-10.2964
q	-10.2975
▁борьба	-10.2997
-2	-10.3
▁обоих	-10.3005
стве	-10.3007
▁сильнее	-10.3014
▁наверное	-10.3021
▁знают	-10.3021
▁понимал	-10.3023
▁самолетов	-10.3026
▁подумал	-10.3026
тон	-10.3033
▁1940	-10.3037
▁рассказал	-10.3037
▁выражение	-10.3037
▁начинается	-10.3037
▁История	-10.3047
▁ваше	-10.3048
▁читать	-10.3048
▁отношениях	-10.3052
▁мною	-10.3054
▁вижу	-10.3066
▁being	-10.3066
▁собственно	-10.3067
▁бог	-10.3068
▁Ленина	-10.3072
▁именем	-10.3083
▁сел	-10.3086
▁боль	-10.3087
3.	-10.309
▁Павел	-10.3093
▁«...	-10.3096
▁победы	-10.3101
▁тип	-10.3102
▁h	-10.3102
and	-10.3102
U	-10.3106
▁армий	-10.3107
▁рассказ	-10.3111
▁граждан	-10.3114
▁§	-10.3117
щ	-10.312
▁успех	-10.3122
▁литературе	-10.3122
▁целый	-10.3123
▁внимательно	-10.3127
▁Значит	-10.3128
▁war	-10.3128
▁основания	-10.3135
▁человеческой	-10.3143
▁класс	-10.3144
вшей	-10.3148
▁уверен	-10.3148
▁Ибо	-10.315
▁религии	-10.3151
▁прошлом	-10.3154
пре	-10.3155
▁понимать	-10.3157
▁Y	-10.3158
▁day	-10.3162
▁пространства	-10.3164
ска	-10.3184
▁крест	-10.3195
▁искусство	-10.3196
▁командира	-10.3197
▁8.	-10.3205
▁j	-10.3207
▁задач	-10.3214
▁необходимость	-10.3217
▁сможет	-10.3223
ана	-10.3223
▁произнес	-10.3225
▁любил	-10.3226
▁роман	-10.3227
▁задачу	-10.3234
ге	-10.3237
▁техники	-10.3246
▁Церкви	-10.3248
▁Сергей	-10.3249
▁эпоху	-10.3252
▁причины	-10.3253
▁нашли	-10.3256
▁угодно	-10.3256
▁сообщил	-10.3269
▁соч	-10.3271
▁курс	-10.3272
лей	-10.3279
▁борьбу	-10.3283
▁принадлежит	-10.3291
▁Господа	-10.3296
▁третий	-10.3298
▁считают	-10.3299
▁дают	-10.3301
▁союз	-10.3303
▁главный	-10.3303
▁влияния	-10.3306
▁роста	-10.3311
▁массы	-10.3312
▁отметить	-10.3314
▁used	-10.3315
▁хозяйства	-10.3317
▁следующее	-10.3332
▁считали	-10.334
▁тщательно	-10.3344
▁прибыл	-10.335
▁советского	-10.3352
▁Лев	-10.3352
em	-10.3354
▁сравнению	-10.3355
▁You	-10.3355
ак	-10.3363
▁Кор	-10.3364
▁встречи	-10.3369
▁good	-10.3378
▁80	-10.3379
▁know	-10.3382
▁самолет	-10.3382
▁попытки	-10.3383
▁защиты	-10.3384
▁солдаты	-10.3389
▁ком	-10.3392
истов	-10.3396
▁знаете	-10.3397
▁помню	-10.34
▁завтра	-10.34
▁названием	-10.34
▁There	-10.3407
▁флот	-10.3412
▁провести	-10.3416
▁население	-10.3419
▁De	-10.3425
▁Нью	-10.3431
▁десяти	-10.3433
▁высокой	-10.3437
▁свободу	-10.3439
▁ситуация	-10.3443
▁делал	-10.3455
▁предложение	-10.3456
нос	-10.3461
▁способности	-10.3461
Y	-10.347
ir	-10.3471
▁корабль	-10.3472
▁y	-10.3472
▁Им	-10.3479
▁закона	-10.3481
▁Гор	-10.3484
город	-10.3484
▁государств	-10.3485
▁СПб	-10.3488
▁вопросу	-10.349
▁нужны	-10.3495
▁делом	-10.3497
▁условий	-10.351
▁последней	-10.3512
Если	-10.3513
▁верно	-10.3513
▁сей	-10.3514
▁половине	-10.3518
▁шум	-10.3518
▁рамках	-10.3519
▁посредством	-10.3522
▁успеха	-10.3523
▁внутренних	-10.3524
▁нос	-10.3526
▁приходит	-10.3528
бу	-10.3531
▁информацию	-10.3532
▁пару	-10.3538
▁должности	-10.3539
иль	-10.3545
▁тяжело	-10.3558
▁игры	-10.3565
▁ад	-10.3573
▁мужчин	-10.3573
мир	-10.3576
▁воздуха	-10.358
▁круг	-10.3582
▁иной	-10.3582
-1	-10.3587
▁разумеется	-10.3595
▁письме	-10.36
▁служит	-10.36
▁part	-10.3601
▁вариант	-10.3608
ям	-10.3615
▁дальнейшем	-10.3619
▁отряда	-10.362
▁новым	-10.3626
▁материал	-10.3628
вшейся	-10.363
▁гл	-10.363
▁вызывает	-10.3637
▁1920	-10.3641
Мы	-10.3656
▁хотят	-10.3658
▁берега	-10.366
дер	-10.3668
▁строго	-10.3671
▁сказали	-10.3675
▁мама	-10.368
▁Разве	-10.368
вал	-10.3683
▁(1	-10.3683
▁политика	-10.3689
ate	-10.3693
▁пришла	-10.3694
▁какъ	-10.3695
▁вышла	-10.3695
▁Богом	-10.3697
▁создание	-10.3708
▁Великой	-10.3708
ща	-10.3709
▁целей	-10.3711
▁авиации	-10.3712
▁внезапно	-10.3715
▁километров	-10.372
ел	-10.3735
пер	-10.3735
▁Мар	-10.3739
ству	-10.3741
▁вплоть	-10.3741
▁данной	-10.3742
▁северо	-10.3744
▁предмет	-10.3749
▁St	-10.3758
▁заниматься	-10.3764
шь	-10.3766
Как	-10.3774
▁off	-10.3778
▁днем	-10.3781
▁государственной	-10.3782
▁соответственно	-10.3796
▁самих	-10.3803
бы	-10.3807
▁разведки	-10.3812
▁девушка	-10.3812
▁слышал	-10.3813
▁активно	-10.3813
ала	-10.3823
▁Press	-10.3826
▁друзья	-10.3827
▁товарищ	-10.3829
▁добиться	-10.383
▁новая	-10.3832
ешься	-10.3835
▁связано	-10.3838
▁La	-10.3842
▁корабли	-10.3845
▁подготовки	-10.385
▁Ар	-10.3855
▁имея	-10.3858
▁Сан	-10.3859
▁называли	-10.3873
ическую	-10.3878
▁must	-10.3884
os	-10.3884
▁Андрей	-10.3884
наго	-10.3889
▁воде	-10.389
▁внешней	-10.3892
▁впереди	-10.39
▁500	-10.3908
▁граф	-10.391
▁основной	-10.3911
▁On	-10.3912
▁бою	-10.3915
▁района	-10.3915
▁хочется	-10.3916
▁подобные	-10.3918
▁вели	-10.3923
▁любого	-10.3926
▁пара	-10.3926
▁Хорошо	-10.3929
▁специально	-10.3931
ностью	-10.3939
▁ал	-10.394
▁each	-10.3944
▁началась	-10.3946
▁исследований	-10.3955
▁достижения	-10.3961
▁XVII	-10.3972
▁данным	-10.3974
аль	-10.3982
▁прием	-10.3983
▁наступления	-10.3984
▁командование	-10.3987
▁готовы	-10.3991
▁реальности	-10.3991
▁300	-10.3991
▁основные	-10.3993
▁судьба	-10.3994
▁многое	-10.3998
▁Пер	-10.4
▁никому	-10.4006
▁возраста	-10.4012
▁станции	-10.4015
–19	-10.4022
▁назначен	-10.4024
▁программы	-10.4025
▁признать	-10.4029
▁контроль	-10.4033
▁XVI	-10.4034
▁вашего	-10.4035
ur	-10.4039
▁воздухе	-10.4044
шу	-10.4051
▁школе	-10.4054
▁идут	-10.4056
▁still	-10.4065
▁Ре	-10.4071
▁Иисуса	-10.4072
Ъ	-10.4073
▁судов	-10.4076
▁живут	-10.4079
▁Дж	-10.408
▁усилия	-10.4083
▁леса	-10.409
▁опасности	-10.4099
▁совет	-10.4101
▁оставалось	-10.4103
▁связаны	-10.4115
▁народу	-10.4115
▁установить	-10.4123
▁врагов	-10.4123
стер	-10.4129
▁чувств	-10.4129
▁переход	-10.4131
▁отдельные	-10.4141
18	-10.4142
вшая	-10.4151
▁образование	-10.4152
▁корабля	-10.4162
▁Василий	-10.4164
▁Далее	-10.4168
▁three	-10.4172
▁du	-10.4172
▁навсегда	-10.4174
▁Союз	-10.4176
▁экономики	-10.4176
na	-10.4176
▁анализ	-10.418
▁заранее	-10.4181
▁законы	-10.4183
▁разум	-10.4187
▁шести	-10.4189
▁документы	-10.419
овский	-10.4191
▁недостаточно	-10.4192
▁поздно	-10.4194
▁ждать	-10.4194
▁3)	-10.42
▁внутренней	-10.42
▁руководство	-10.4204
▁принцип	-10.4204
▁вес	-10.421
▁восемь	-10.4211
],	-10.4215
▁молодых	-10.4226
▁обе	-10.423
▁эффект	-10.4236
▁строй	-10.424
▁ветер	-10.424
емых	-10.4247
▁поставить	-10.4249
▁рано	-10.4252
▁мужчины	-10.4252
▁сорок	-10.4252
▁легче	-10.4254
енная	-10.4256
▁следующие	-10.4257
▁When	-10.4262
▁нежели	-10.4263
▁становятся	-10.427
▁Пред	-10.427
▁отвечал	-10.427
овъ	-10.4272
▁дивизия	-10.4283
▁оставил	-10.4291
овую	-10.4292
▁Японии	-10.4297
▁Париж	-10.4299
▁желания	-10.4311
25	-10.4328
▁самостоятельно	-10.4329
‐	-10.433
альная	-10.4333
▁получила	-10.4336
▁остальных	-10.4336
Й	-10.434
▁главных	-10.4348
▁теми	-10.4348
▁счастье	-10.4349
▁попросил	-10.435
▁группу	-10.4353
▁оставить	-10.4355
▁следовало	-10.4356
▁местных	-10.4358
Z	-10.4359
▁социальной	-10.4365
▁главного	-10.4366
▁per	-10.4379
▁комнате	-10.4381
▁й	-10.4383
ness	-10.4387
▁остров	-10.439
▁отсюда	-10.4391
▁men	-10.4392
нем	-10.4394
▁артиллерии	-10.4397
▁сопротивление	-10.4399
▁бригады	-10.4405
бер	-10.4409
▁She	-10.441
▁обратился	-10.441
▁плане	-10.441
ившись	-10.4411
Что	-10.4411
овый	-10.4412
сов	-10.4416
▁полном	-10.4421
▁согласился	-10.4423
▁Российской	-10.4424
▁песни	-10.4425
▁играть	-10.4428
жи	-10.4429
▁сон	-10.4434
▁35	-10.4437
▁веру	-10.4439
son	-10.444
▁дым	-10.4443
▁тотчас	-10.4444
est	-10.4449
▁Прежде	-10.4449
▁Иисус	-10.4454
▁сохранить	-10.4457
▁полное	-10.4464
▁обеспечить	-10.447
▁ног	-10.4471
▁Пушкин	-10.4478
▁ди	-10.448
▁двор	-10.4487
ющийся	-10.4489
чу	-10.4499
▁Сначала	-10.4499
▁горе	-10.45
▁Отец	-10.45
▁особо	-10.4507
▁примеру	-10.4507
▁отнюдь	-10.4509
▁take	-10.4512
ация	-10.4512
пред	-10.4518
▁договор	-10.4521
нуть	-10.4524
▁относятся	-10.4524
▁сего	-10.4526
▁end	-10.4529
Вы	-10.4532
▁лейтенант	-10.4539
▁родителей	-10.4539
▁возрасте	-10.454
▁An	-10.4544
▁приехал	-10.4544
вар	-10.4547
▁Украины	-10.4549
▁смогли	-10.4555
▁земель	-10.4561
▁вкус	-10.4562
4.	-10.4573
▁мед	-10.4585
▁совета	-10.4587
▁любом	-10.4593
▁Был	-10.4595
?..	-10.4596
▁дворе	-10.4598
▁твой	-10.4598
▁смысла	-10.46
▁количества	-10.46
ie	-10.4601
альные	-10.4601
▁прямой	-10.4605
▁ответственность	-10.4605
▁боли	-10.4609
▁знаешь	-10.4611
▁президент	-10.4611
▁страна	-10.4619
▁бога	-10.4626
лов	-10.4628
▁отдал	-10.4631
▁читал	-10.4632
▁правления	-10.4641
▁Париже	-10.4648
▁деревни	-10.4652
▁both	-10.4659
▁might	-10.4663
▁смотрел	-10.4664
▁1937	-10.4664
▁попал	-10.4669
▁черты	-10.4669
▁War	-10.4674
▁комнату	-10.4677
▁ушел	-10.4679
▁элементы	-10.4679
▁древних	-10.4682
▁направление	-10.4682
▁дочери	-10.4682
овое	-10.4686
кова	-10.4688
▁огнем	-10.4693
▁будете	-10.4695
▁университета	-10.4699
ших	-10.47
▁ред	-10.4702
▁понимаю	-10.4703
▁хлеба	-10.4704
емые	-10.4705
▁Америки	-10.4711
ry	-10.4712
▁against	-10.4712
▁впрочем	-10.4715
исты	-10.4716
▁открыл	-10.4717
▁Несколько	-10.4717
▁знаком	-10.4719
▁общее	-10.4734
▁руководством	-10.4736
▁страха	-10.4753
▁University	-10.4754
гор	-10.4755
▁правила	-10.4763
дар	-10.4764
▁радость	-10.477
▁интересы	-10.477
шего	-10.4774
▁назвал	-10.4785
▁9.	-10.4787
▁Мой	-10.479
▁ученых	-10.4791
тели	-10.4792
▁использования	-10.4796
▁края	-10.4803
При	-10.4804
▁управление	-10.4806
▁начиная	-10.4812
▁Мак	-10.4813
нь	-10.4817
▁центра	-10.482
▁явления	-10.4821
хъ	-10.4821
▁тридцать	-10.4824
▁цен	-10.4826
▁вряд	-10.4828
▁сверх	-10.4833
▁орудия	-10.484
▁предложения	-10.4841
▁хотите	-10.4843
кор	-10.4855
▁right	-10.4865
▁героя	-10.4865
id	-10.4867
▁пожалуй	-10.4868
▁собственных	-10.4868
▁перевод	-10.4869
▁Рим	-10.4873
▁должность	-10.4877
▁двое	-10.4877
▁родился	-10.4877
▁противник	-10.4878
▁представители	-10.488
45	-10.4881
ило	-10.4884
чик	-10.4887
▁соответствует	-10.4891
ce	-10.4892
▁звезд	-10.4895
▁делали	-10.4897
▁great	-10.4903
▁представляют	-10.4907
▁обладает	-10.4911
▁собственного	-10.4915
▁нужна	-10.4916
é	-10.4916
▁точку	-10.492
▁богов	-10.4922
▁каждая	-10.4922
ary	-10.4929
▁офицер	-10.4929
▁отдел	-10.493
▁каждому	-10.4931
▁Никто	-10.4935
▁юго	-10.4937
▁исключением	-10.4941
шая	-10.4943
▁губ	-10.4944
▁Много	-10.4947
▁бывший	-10.4949
▁вечера	-10.495
▁любит	-10.4954
▁скорости	-10.4955
▁появилась	-10.4955
▁партия	-10.4966
ров	-10.4969
▁послал	-10.4972
▁текста	-10.4973
▁завод	-10.4974
▁Индии	-10.4977
▁Просто	-10.499
▁судьбы	-10.4994
▁картины	-10.4996
▁РФ	-10.4997
▁вещества	-10.5003
▁отвечает	-10.5004
▁поэта	-10.5004
▁here	-10.5006
енной	-10.5009
▁строя	-10.5012
▁другому	-10.5012
▁ощущение	-10.5014
▁too	-10.5016
▁приняли	-10.5016
▁come	-10.5019
шие	-10.5022
▁модели	-10.5024
▁кн	-10.5025
▁At	-10.5028
ta	-10.5029
▁Всё	-10.5031
▁another	-10.5031
пол	-10.5032
▁бытия	-10.5032
▁передать	-10.5036
▁миром	-10.5039
▁вз	-10.5049
▁150	-10.5049
нием	-10.5049
▁while	-10.505
▁получается	-10.5055
▁тему	-10.5055
Это	-10.5058
▁Гитлера	-10.5064
ён	-10.5065
▁близко	-10.507
▁армией	-10.5084
▁Николая	-10.5085
▁минуты	-10.5092
▁Христос	-10.5095
▁реакции	-10.5096
▁ребенок	-10.51
тен	-10.5101
слав	-10.5102
▁живых	-10.5107
▁причиной	-10.5108
▁существуют	-10.5108
▁команды	-10.5109
▁моему	-10.5111
▁порой	-10.5113
▁ситуацию	-10.5114
▁крепости	-10.5118
▁главной	-10.512
▁дар	-10.5123
▁груди	-10.5123
ющую	-10.5126
тор	-10.5126
бе	-10.5129
▁Одна	-10.5134
▁подошел	-10.5134
▁London	-10.5135
▁НКВД	-10.5136
▁роз	-10.5138
▁домов	-10.5138
аго	-10.5139
▁имена	-10.5141
кам	-10.5141
▁известный	-10.5144
▁Отсюда	-10.5146
▁номер	-10.5147
▁нашему	-10.5156
▁<...>	-10.5159
ів	-10.5161
▁истины	-10.5162
цами	-10.5168
▁быстрее	-10.5169
▁never	-10.517
мин	-10.5177
▁изменить	-10.5185
ван	-10.5186
▁появляется	-10.5187
▁Такие	-10.5187
▁теория	-10.5192
▁организма	-10.5199
▁ц	-10.5201
▁стремление	-10.5204
▁производство	-10.5206
▁говорилось	-10.5211
▁летом	-10.5215
▁утро	-10.5224
▁Оп	-10.5227
▁решительно	-10.523
▁радости	-10.523
▁мужчина	-10.5235
ает	-10.5236
▁представитель	-10.5237
▁di	-10.5237
▁лесу	-10.5239
▁простой	-10.524
сы	-10.5249
▁министра	-10.5257
▁комиссии	-10.5271
▁Кстати	-10.5281
▁1938	-10.5282
▁просил	-10.5284
▁пространстве	-10.5285
хо	-10.529
un	-10.529
20	-10.5293
▁провел	-10.5293
▁Ничего	-10.5294
альный	-10.5296
▁посмотрел	-10.5297
▁служил	-10.5298
теля	-10.5298
▁позицию	-10.5299
▁опасность	-10.53
▁жители	-10.5306
▁выходит	-10.5307
▁Le	-10.5308
▁die	-10.5308
▁президента	-10.5311
фа	-10.5316
▁машину	-10.5325
▁камень	-10.5327
▁материалов	-10.5327
мор	-10.5329
▁little	-10.5335
▁меж	-10.5335
▁энергия	-10.5338
▁Де	-10.534
мат	-10.5342
ун	-10.5342
▁печати	-10.5345
▁different	-10.5353
▁свойства	-10.5353
{	-10.5354
нер	-10.5364
▁Алексей	-10.5372
▁часы	-10.5376
▁похоже	-10.5384
▁found	-10.5387
▁интересов	-10.5388
▁среды	-10.5388
▁семи	-10.539
▁5-	-10.5392
оз	-10.5394
▁материалы	-10.5395
▁источник	-10.5404
▁советские	-10.5405
▁документов	-10.5407
▁доктор	-10.5409
▁погиб	-10.5414
▁выхода	-10.5417
▁Следовательно	-10.5417
▁масс	-10.5417
воз	-10.5417
▁большинства	-10.5418
▁чувствовал	-10.5419
▁зная	-10.5423
▁влиянием	-10.5427
▁American	-10.5428
▁век	-10.5432
▁батальона	-10.5436
▁So	-10.5437
йтесь	-10.5439
▁ученые	-10.5442
▁пытались	-10.5443
▁place	-10.5451
▁структуры	-10.5466
▁Борис	-10.547
▁практике	-10.5473
▁пройти	-10.5474
▁оставаться	-10.5474
▁2000	-10.5477
▁прибыли	-10.5477
▁современных	-10.5478
вшим	-10.5479
▁планы	-10.5481
40	-10.5481
▁встреча	-10.5484
▁Ответ	-10.5485
▁указывает	-10.5487
▁Карл	-10.5495
▁don	-10.55
▁Такое	-10.5501
▁безусловно	-10.5502
▁неё	-10.5511
11	-10.5513
ницы	-10.5514
▁явление	-10.552
▁поддержку	-10.5523
▁o	-10.553
ция	-10.554
▁каждым	-10.5543
▁нужен	-10.5548
▁Над	-10.5551
▁голова	-10.5553
▁дабы	-10.5556
▁подход	-10.5556
ран	-10.5558
▁многом	-10.5559
▁направления	-10.5565
▁Нужно	-10.5567
▁Лишь	-10.5572
изации	-10.5574
▁волны	-10.5574
▁солнца	-10.5577
▁игра	-10.559
be	-10.559
▁избежать	-10.5591
▁взяли	-10.5592
▁Сколько	-10.5594
етесь	-10.5602
▁Ивана	-10.5603
▁рассказывал	-10.5608
▁военный	-10.561
▁хочешь	-10.5612
▁принимает	-10.5616
▁свидетельствует	-10.5619
▁проходит	-10.562
▁способом	-10.5629
▁семья	-10.5632
▁каждое	-10.5634
оп	-10.5636
ата	-10.5637
▁called	-10.564
▁половины	-10.5642
▁правил	-10.5644
im	-10.5648
▁картину	-10.5651
▁начинают	-10.5659
ели	-10.566
ад	-10.5661
дов	-10.5662
▁батальон	-10.5666
▁столетия	-10.5666
▁учения	-10.5672
▁Мария	-10.5674
▁руководства	-10.5675
▁имеем	-10.5678
▁порт	-10.5682
▁орган	-10.5686
▁атаки	-10.5688
▁переговоры	-10.569
▁ответа	-10.5697
▁Ле	-10.5701
▁кур	-10.5701
▁законов	-10.5703
▁большинстве	-10.5703
государственного	-10.5711
ad	-10.5713
▁Советской	-10.5727
▁рабочего	-10.573
▁прошел	-10.5731
▁получает	-10.5736
▁писателя	-10.5736
▁ста	-10.5737
▁моем	-10.5738
цов	-10.5738
▁участников	-10.574
▁спать	-10.5748
▁профессор	-10.5749
мм	-10.575
▁здания	-10.5758
▁Такой	-10.5759
▁развитии	-10.576
▁уйти	-10.5764
ies	-10.5764
▁вошел	-10.5766
▁храм	-10.5776
▁ПО	-10.5778
▁ярко	-10.5788
ні	-10.579
▁соединения	-10.5794
чин	-10.5796
▁Генерал	-10.5799
▁громко	-10.5806
▁лагеря	-10.5809
▁знание	-10.581
▁представляется	-10.5822
▁крупные	-10.5826
▁происходило	-10.5827
▁преимущественно	-10.5828
▁number	-10.5833
▁Су	-10.5838
▁высшей	-10.5843
▁старый	-10.5843
▁came	-10.5844
▁всякой	-10.5846
▁вслед	-10.5848
▁группе	-10.5848
▁Действительно	-10.5848
▁герой	-10.585
▁принес	-10.5851
▁объявил	-10.5854
▁втором	-10.5857
пор	-10.5859
ания	-10.586
»?	-10.5861
▁лошадей	-10.5861
▁главы	-10.5862
▁будешь	-10.5862
▁полиции	-10.5863
▁чел	-10.5864
▁мнения	-10.5875
▁способен	-10.5876
▁VII	-10.5879
▁помимо	-10.588
▁происхождения	-10.5881
▁Автор	-10.589
▁понимание	-10.5893
▁without	-10.5894
▁стояла	-10.5894
▁школу	-10.5895
▁Виктор	-10.5897
ню	-10.5911
▁давать	-10.5912
▁вошли	-10.5912
▁отказался	-10.5914
кая	-10.5914
▁городах	-10.5915
▁будь	-10.5917
▁поставил	-10.5919
▁le	-10.592
ющими	-10.5922
▁театра	-10.5929
▁1914	-10.593
▁мышления	-10.5931
▁сообщения	-10.5937
▁Также	-10.5938
▁статье	-10.5939
▁учение	-10.5946
▁around	-10.5947
▁посмотреть	-10.5949
пи	-10.5957
▁45	-10.5965
▁during	-10.5973
ma	-10.5974
шим	-10.5976
▁оставался	-10.5978
ению	-10.5978
это	-10.598
▁фильм	-10.5981
▁властью	-10.5982
▁местности	-10.5983
жен	-10.5983
12	-10.5985
age	-10.5991
▁победу	-10.5992
▁методы	-10.5992
▁полного	-10.5993
▁открыто	-10.5995
од	-10.5995
▁источников	-10.5997
▁окна	-10.6009
▁Америке	-10.6012
▁старший	-10.6012
▁продолжает	-10.6016
например	-10.6016
скаго	-10.602
тов	-10.6023
▁dis	-10.6024
▁независимо	-10.6024
▁прошло	-10.6024
▁русским	-10.6026
▁рассматривать	-10.6027
▁среде	-10.6028
▁господин	-10.6035
▁фоне	-10.6038
▁считается	-10.6041
▁Q	-10.6041
▁список	-10.6042
▁романа	-10.6048
▁голоса	-10.6052
вен	-10.6054
▁сфере	-10.6056
▁Западной	-10.6058
Об	-10.606
мон	-10.606
▁пойти	-10.6061
50	-10.6063
▁началось	-10.6064
ію	-10.6068
▁точка	-10.6069
▁вторая	-10.6072
▁частично	-10.6073
▁своё	-10.6078
▁собственные	-10.6079
▁слегка	-10.6083
▁применения	-10.6084
рос	-10.6086
▁союзников	-10.6087
ton	-10.6088
▁глава	-10.6088
▁причина	-10.6088
▁КПСС	-10.609
▁later	-10.609
▁серьезно	-10.609
▁страшно	-10.6092
▁нравится	-10.6094
▁американских	-10.6101
бор	-10.6102
ous	-10.6103
▁идею	-10.6104
▁неизбежно	-10.6106
▁отличается	-10.6107
▁кг	-10.6108
▁спор	-10.6108
ter	-10.6109
▁волю	-10.611
ир	-10.6111
▁определения	-10.6113
▁политические	-10.6123
▁данного	-10.6134
▁цивилизации	-10.6138
▁имело	-10.6142
▁угол	-10.6143
▁получения	-10.6155
▁гибели	-10.6156
▁держать	-10.6159
▁объем	-10.616
▁Два	-10.6161
la	-10.6163
▁подобного	-10.6165
▁зато	-10.6165
▁90	-10.6166
▁государственных	-10.617
▁написать	-10.6177
▁полный	-10.6183
▁написано	-10.6183
▁Иванов	-10.6185
▁самолета	-10.619
▁требуется	-10.6191
▁сравнительно	-10.6193
▁социальных	-10.6195
▁села	-10.6202
▁самую	-10.6202
вшаяся	-10.6204
▁реке	-10.6209
ины	-10.6209
ают	-10.6214
▁здоровье	-10.6225
▁Ку	-10.6229
▁Vol	-10.6237
▁участия	-10.6237
▁адрес	-10.624
▁Св	-10.6245
▁министр	-10.6247
▁живой	-10.6252
рон	-10.6253
▁плана	-10.6253
▁понимания	-10.6254
▁журнал	-10.6255
▁организаций	-10.6255
▁конечном	-10.6259
▁веществ	-10.6259
ka	-10.6261
▁32	-10.6265
▁вред	-10.6265
▁Род	-10.6271
▁set	-10.6277
▁требования	-10.6277
▁зла	-10.6287
5.	-10.6288
▁Всего	-10.6291
▁чай	-10.6291
без	-10.6294
▁стоят	-10.6297
▁Пре	-10.6297
▁изд	-10.6305
▁волн	-10.6307
ирует	-10.6317
▁сверху	-10.6318
▁Северной	-10.6324
▁надежды	-10.633
co	-10.6337
▁писателей	-10.6338
▁Вопрос	-10.6339
▁находилась	-10.6342
зи	-10.6347
ину	-10.6353
▁близ	-10.6354
▁скажем	-10.636
▁политику	-10.6364
▁папа	-10.6367
▁помогает	-10.6368
▁способны	-10.6372
▁Пар	-10.6377
▁войско	-10.6384
▁дивизий	-10.6384
se	-10.639
▁интересно	-10.6401
▁ген	-10.6403
▁Soviet	-10.6404
▁офицеры	-10.6405
▁Be	-10.6408
▁гости	-10.641
▁странно	-10.6411
▁торговли	-10.6416
▁политике	-10.6417
▁недо	-10.6417
▁рад	-10.6419
▁женой	-10.6421
io	-10.6425
▁социально	-10.6428
▁55	-10.6432
▁продолжать	-10.6433
▁бумаги	-10.6434
▁четко	-10.6439
▁пределы	-10.644
▁целях	-10.6443
▁few	-10.6444
▁волосы	-10.6445
▁last	-10.6449
▁лучших	-10.6451
▁навстречу	-10.6452
▁жив	-10.6456
▁морской	-10.6466
▁Дон	-10.6467
▁увидели	-10.6468
▁Иоанн	-10.6468
▁Испании	-10.6469
▁Вер	-10.6471
▁огромное	-10.6474
▁существу	-10.6483
▁кабинет	-10.6484
ling	-10.6491
▁проводить	-10.6492
▁машина	-10.6494
▁вопросам	-10.6496
хан	-10.6496
все	-10.6497
▁Мин	-10.65
▁завода	-10.6507
▁факты	-10.6508
▁бо	-10.6509
▁познания	-10.6511
▁политического	-10.6511
▁сад	-10.6517
▁ходить	-10.6519
▁деревне	-10.6522
30	-10.6525
▁прошли	-10.6528
▁содержания	-10.653
▁всяких	-10.6536
▁строительства	-10.654
▁роты	-10.6544
▁решить	-10.6546
▁ничем	-10.6549
▁двадцати	-10.6553
▁услышал	-10.6554
▁сумел	-10.6557
▁верить	-10.6561
▁существа	-10.6562
▁ничто	-10.6563
▁system	-10.6563
▁везде	-10.6565
me	-10.6567
итесь	-10.6571
▁знала	-10.6575
▁Пушкина	-10.6576
▁поражение	-10.6577
вод	-10.6581
▁делам	-10.6582
▁делах	-10.6584
▁воинов	-10.6586
▁рассказывает	-10.6587
▁связанные	-10.6587
▁немецкой	-10.6588
От	-10.6594
▁need	-10.6599
▁знаний	-10.6602
▁неоднократно	-10.6602
▁родители	-10.6603
▁6-	-10.6603
▁общественного	-10.6605
▁театр	-10.6607
▁нес	-10.661
no	-10.6612
▁мозг	-10.6612
▁значительной	-10.6613
ление	-10.6614
▁am	-10.6615
▁единственный	-10.6618
▁началом	-10.6621
▁старых	-10.6621
▁left	-10.6622
▁рабочие	-10.6625
▁Вместо	-10.6627
мет	-10.663
▁Бар	-10.6635
лом	-10.6639
▁называет	-10.664
▁кризис	-10.6641
▁основу	-10.6642
▁границу	-10.6652
▁создал	-10.6654
▁намного	-10.6656
▁долг	-10.6662
ген	-10.6664
кий	-10.6664
▁содержит	-10.6665
▁картина	-10.6665
▁Первая	-10.6668
▁энергию	-10.6672
▁(2	-10.6674
▁Николаевич	-10.6675
▁последовательно	-10.6677
▁ходу	-10.6683
▁встал	-10.6685
▁Ор	-10.6685
стей	-10.6691
▁революция	-10.6693
Про	-10.6693
▁удара	-10.6695
▁поколения	-10.6696
▁Мор	-10.6696
▁анализа	-10.6697
ирование	-10.6701
▁отчасти	-10.6709
▁Бо	-10.6709
▁отказаться	-10.6712
15	-10.6713
▁ужас	-10.6716
▁нечего	-10.6717
▁масса	-10.6717
▁модель	-10.6727
▁Пол	-10.6728
▁Ан	-10.6731
они	-10.6738
▁свыше	-10.674
▁Причем	-10.6741
▁XV	-10.6746
▁кстати	-10.6747
▁преступления	-10.675
▁процессов	-10.6754
▁названия	-10.6755
ци	-10.6759
▁$	-10.6767
эн	-10.677
▁Киев	-10.6777
▁недель	-10.6777
ёт	-10.6779
▁вещь	-10.678
▁голосом	-10.6783
▁какими	-10.6786
com	-10.6791
овского	-10.6792
▁непременно	-10.6795
▁мае	-10.6796
▁XII	-10.6799
▁ценности	-10.6812
▁лагерь	-10.6813
▁Кур	-10.6813
▁органы	-10.6815
▁республики	-10.6815
ход	-10.6815
▁разума	-10.6815
▁воле	-10.6816
19	-10.6816
▁Германия	-10.6818
▁определяется	-10.6818
▁Russian	-10.682
ушка	-10.6824
▁окончания	-10.6826
▁брать	-10.6827
▁Сен	-10.683
▁Петербург	-10.6831
ср	-10.6833
▁ответить	-10.6835
▁потерял	-10.6835
▁Па	-10.6836
▁остаться	-10.6839
хи	-10.6839
▁контроля	-10.684
▁виды	-10.6841
▁многочисленные	-10.6842
ated	-10.6843
▁Время	-10.6846
▁наука	-10.6847
дел	-10.6849
▁расстояние	-10.6849
▁state	-10.6852
▁настоящий	-10.6854
▁комитета	-10.6859
образ	-10.6868
▁данный	-10.6868
▁обеих	-10.687
▁вчера	-10.6875
▁ваших	-10.6876
▁общий	-10.6876
▁point	-10.6876
▁личного	-10.6884
▁судить	-10.6887
▁продолжали	-10.6893
ent	-10.6895
▁Разумеется	-10.69
▁Наиболее	-10.6902
кина	-10.6903
цам	-10.6904
цем	-10.6905
▁’	-10.6906
▁Благодаря	-10.6907
ним	-10.6908
▁пределах	-10.691
▁авторитет	-10.6911
▁example	-10.6911
▁поэзии	-10.6913
▁службе	-10.6914
▁СС	-10.6914
▁научно	-10.6915
▁тесно	-10.6916
▁10.	-10.6917
▁спросила	-10.6919
▁every	-10.692
ион	-10.6922
ще	-10.6923
▁свободно	-10.6924
▁высоты	-10.6925
▁заметить	-10.6927
▁say	-10.6935
▁след	-10.6937
▁11.	-10.6938
▁pre	-10.6942
▁процентов	-10.6942
▁Само	-10.6948
▁добро	-10.695
альных	-10.695
▁работой	-10.6954
▁вина	-10.6955
▁командованием	-10.6958
▁изучения	-10.696
▁обл	-10.696
▁руке	-10.6961
▁Джон	-10.6961
▁Ба	-10.6963
▁следующим	-10.6964
ющейся	-10.6964
▁Зачем	-10.6967
▁болезнь	-10.6969
▁особого	-10.6969
▁ваша	-10.697
▁экономической	-10.697
▁Бер	-10.6971
▁German	-10.6971
▁духовной	-10.6975
▁онъ	-10.6978
▁поднял	-10.6982
овал	-10.6987
▁природа	-10.6988
ции	-10.6988
ическим	-10.6989
▁института	-10.6992
▁power	-10.6994
▁рассказать	-10.6995
▁великой	-10.6999
▁поток	-10.6999
том	-10.7001
ныя	-10.7006
▁подобное	-10.7008
▁край	-10.7011
▁think	-10.7012
▁играет	-10.7012
▁русском	-10.7016
▁1921	-10.7021
▁дерева	-10.7026
▁Ха	-10.7027
▁far	-10.7029
нес	-10.7031
▁XIV	-10.7042
▁ежедневно	-10.7043
▁рыб	-10.7046
▁Paris	-10.7048
▁описание	-10.7054
ланд	-10.7055
▁неизвестно	-10.7057
▁маленький	-10.7057
▁народного	-10.7061
▁операций	-10.7063
▁достиг	-10.7064
▁последствия	-10.7066
▁комплекс	-10.7067
▁сообщение	-10.7069
▁целиком	-10.707
▁Земле	-10.7076
▁творчества	-10.7078
▁конфликт	-10.7079
бр	-10.708
▁можешь	-10.7082
▁прочих	-10.709
▁крепко	-10.7093
▁каждую	-10.7093
▁организация	-10.7095
▁встретил	-10.7097
▁again	-10.7101
▁наличие	-10.7105
енного	-10.7106
▁видом	-10.7107
иков	-10.7107
▁линию	-10.7109
▁договора	-10.7114
~	-10.7118
▁современного	-10.712
▁здоровья	-10.712
▁осталась	-10.712
нный	-10.712
▁личность	-10.7125
▁добавил	-10.7127
▁поддержки	-10.7129
▁решений	-10.7129
▁оружием	-10.714
▁продуктов	-10.7146
▁останется	-10.7148
▁мыслей	-10.7149
▁).	-10.7152
▁взрыв	-10.7153
▁раздел	-10.7155
▁термин	-10.7155
▁работали	-10.7165
емый	-10.7167
land	-10.7168
▁ошибки	-10.7168
▁озера	-10.7171
▁известных	-10.7173
▁врач	-10.7175
▁ворот	-10.7178
▁стен	-10.718
▁Ка	-10.7181
ав	-10.7181
▁Отечественной	-10.7182
▁Китая	-10.7184
▁справедливо	-10.719
▁великих	-10.7192
▁собственности	-10.7193
▁НА	-10.7198
▁52	-10.7199
up	-10.72
▁вклад	-10.7206
▁говорила	-10.7209
▁проекта	-10.721
▁sin	-10.7213
▁культура	-10.7217
▁занимался	-10.7217
▁меч	-10.7221
▁65	-10.7223
▁важное	-10.7224
8.	-10.7228
▁лодки	-10.723
▁мальчик	-10.7232
▁спас	-10.7232
▁растений	-10.7233
▁Сибири	-10.7236
▁престол	-10.7237
▁связанных	-10.7238
▁материала	-10.7239
▁обстоятельства	-10.7242
▁святого	-10.7244
▁понимает	-10.7244
▁обнаружил	-10.7249
щи	-10.7251
▁small	-10.7252
▁черт	-10.7252
▁Наши	-10.7253
▁обязан	-10.7254
▁атаку	-10.7256
▁find	-10.7257
▁отделения	-10.7261
▁детьми	-10.7262
▁вспомнить	-10.7264
men	-10.7265
▁зале	-10.7266
&	-10.7268
▁утверждает	-10.7269
ул	-10.7272
▁территорию	-10.7274
▁хотела	-10.7274
▁защиту	-10.7275
▁расстоянии	-10.7276
▁боевые	-10.7283
ида	-10.7283
▁действует	-10.7284
▁56	-10.7289
▁Ра	-10.7292
▁режима	-10.7294
▁Очевидно	-10.7294
▁твердо	-10.7296
ung	-10.7297
кс	-10.73
▁документ	-10.7301
▁люблю	-10.7303
▁работников	-10.7304
пе	-10.7309
▁Востоке	-10.7311
▁пришло	-10.7312
▁площадь	-10.7313
▁правом	-10.7315
▁одежды	-10.7316
ten	-10.7317
▁немецкие	-10.7319
▁Вообще	-10.7321
▁pp	-10.7323
▁авторов	-10.7327
▁некогда	-10.7329
▁pro	-10.7332
▁наблюдения	-10.7338
ёр	-10.7339
▁средствами	-10.7339
ань	-10.734
лит	-10.734
▁старого	-10.7341
▁Въ	-10.7342
▁записи	-10.7353
?”	-10.7355
▁улицы	-10.7355
зы	-10.7356
▁духе	-10.7357
li	-10.7359
▁заметно	-10.7364
ts	-10.7364
▁старой	-10.7365
▁Ах	-10.7366
▁количестве	-10.7368
▁оказаться	-10.7372
▁36	-10.7376
▁пункт	-10.7379
вой	-10.738
▁Обычно	-10.7383
чер	-10.7387
▁реальность	-10.7388
ём	-10.7388
▁выступил	-10.7389
▁поверхность	-10.739
▁элемент	-10.7394
▁правду	-10.7395
ющегося	-10.7396
очка	-10.7397
▁различия	-10.7397
▁смертью	-10.7398
▁отдать	-10.7398
▁обучения	-10.7404
▁выглядит	-10.7405
▁молча	-10.7411
▁связан	-10.7417
▁образа	-10.7417
▁Нас	-10.7421
▁процессы	-10.7422
суд	-10.7426
▁белых	-10.7429
▁счастья	-10.7429
Все	-10.7434
▁Большинство	-10.7435
-3	-10.7437
▁неба	-10.7443
ол	-10.7444
▁точке	-10.7446
▁национальной	-10.745
▁дорогой	-10.7452
▁научных	-10.7452
▁враг	-10.7453
▁обязанности	-10.7456
▁old	-10.7456
чат	-10.7459
▁Ван	-10.7459
▁хватает	-10.746
▁Великого	-10.7462
▁показали	-10.7463
▁районах	-10.7464
▁що	-10.7465
илось	-10.7467
▁запад	-10.7468
▁существенно	-10.7469
▁душ	-10.7474
▁поражения	-10.7474
▁Такая	-10.748
▁результатов	-10.7483
▁Указ	-10.7486
▁очередной	-10.7487
▁святых	-10.7487
▁передал	-10.749
▁старые	-10.7493
▁something	-10.7495
he	-10.7497
▁ми	-10.7501
▁Анна	-10.7502
▁явился	-10.7502
▁силах	-10.7504
▁дорог	-10.7506
▁прочим	-10.7507
▁34	-10.7508
▁собрание	-10.751
▁прийти	-10.7511
▁ответственности	-10.7514
ty	-10.7518
▁использование	-10.7521
▁собор	-10.7524
▁Восточной	-10.7524
▁проведения	-10.7526
▁принимал	-10.7529
▁выполнять	-10.7529
▁тепло	-10.7534
▁перейти	-10.7537
▁54	-10.7537
43	-10.7542
▁привело	-10.7543
гр	-10.7543
▁темы	-10.7544
▁обеспечения	-10.7544
▁хороший	-10.7547
▁достичь	-10.7547
17	-10.7548
▁почувствовал	-10.7549
▁коп	-10.755
▁волос	-10.7552
▁проблему	-10.7555
▁велел	-10.7556
▁обмен	-10.7557
▁пищи	-10.756
▁собрания	-10.7565
No	-10.7565
▁существо	-10.7567
дом	-10.7567
ступ	-10.7572
▁data	-10.7574
ν	-10.7576
▁сопротивления	-10.7576
КА	-10.7577
▁святой	-10.758
овыми	-10.7581
гер	-10.7583
▁сидит	-10.7585
вес	-10.7587
▁боях	-10.7587
▁стола	-10.7588
▁трудности	-10.759
▁сильный	-10.7599
▁Ту	-10.76
▁любовью	-10.7601
▁одних	-10.7602
▁Речь	-10.7605
▁Верховного	-10.7606
▁встрече	-10.7608
▁Великий	-10.7609
ас	-10.7609
▁огромные	-10.7611
▁сущность	-10.7611
▁Жизнь	-10.7612
▁братьев	-10.7613
нул	-10.7615
▁Были	-10.7615
▁Берлин	-10.7617
ge	-10.7618
▁имеются	-10.762
▁want	-10.7625
▁известны	-10.7627
▁предположить	-10.7628
▁функция	-10.7633
14	-10.7633
▁name	-10.7636
пар	-10.7643
для	-10.7646
▁предприятия	-10.7649
▁комнаты	-10.765
фер	-10.765
▁human	-10.7651
▁давление	-10.7653
▁co	-10.7654
▁округа	-10.7658
▁зал	-10.7659
▁высокого	-10.7662
▁символ	-10.7663
▁больных	-10.7663
▁доказать	-10.7668
▁отлично	-10.7671
▁Одно	-10.7671
▁уничтожить	-10.7678
ite	-10.768
▁газет	-10.7689
▁оси	-10.7691
▁пошла	-10.7697
Q	-10.7697
▁звук	-10.77
▁восстания	-10.7703
▁пытается	-10.7703
▁племен	-10.7703
ент	-10.7705
▁Зато	-10.7707
ган	-10.7707
9.	-10.7712
нут	-10.7719
▁Сын	-10.772
▁командования	-10.7725
▁рука	-10.7726
▁Си	-10.7729
▁молодого	-10.7732
енным	-10.7733
▁жену	-10.7737
▁Польши	-10.7738
▁журнала	-10.7738
▁наверняка	-10.7742
▁спасти	-10.7745
▁бывшего	-10.7745
▁himself	-10.7749
▁выполнения	-10.7749
▁гражданской	-10.7751
▁силе	-10.7753
▁Город	-10.7753
▁высокий	-10.7756
▁исторической	-10.7757
▁портрет	-10.7758
ченко	-10.776
▁учителя	-10.7761
▁степень	-10.7764
▁контакт	-10.7765
!"	-10.7766
ант	-10.7767
▁считаю	-10.7767
дра	-10.777
▁пользоваться	-10.7772
ита	-10.7777
28	-10.7777
▁дорога	-10.7781
▁языком	-10.7782
▁большевиков	-10.7782
▁лошади	-10.7782
▁настоящего	-10.7789
▁ногами	-10.7791
▁объект	-10.7793
▁столом	-10.7796
▁Пан	-10.7797
▁hand	-10.7798
мана	-10.7798
ены	-10.78
▁глубине	-10.78
▁художник	-10.7801
▁давали	-10.7802
телей	-10.7806
?"	-10.7806
41	-10.7808
▁Эй	-10.781
тан	-10.7815
ву	-10.7816
6.	-10.7818
▁огромный	-10.7822
▁девушки	-10.7822
▁набор	-10.7826
▁возможностей	-10.7835
сер	-10.7835
▁se	-10.784
нные	-10.7844
▁33	-10.7849
▁пан	-10.7849
▁пора	-10.7854
▁75	-10.7855
▁произведений	-10.7859
▁Con	-10.786
▁often	-10.786
▁оставались	-10.7861
▁создает	-10.7862
ul	-10.7866
▁привели	-10.7868
▁поднялся	-10.7871
▁сделано	-10.7873
йся	-10.788
▁put	-10.7887
13	-10.789
▁парень	-10.7892
▁home	-10.7892
▁сестра	-10.7894
▁противоположно	-10.7896
▁входит	-10.7896
▁командиров	-10.7897
▁случаи	-10.7901
▁разрешения	-10.7901
▁позиций	-10.7904
▁воздействия	-10.7906
▁давал	-10.7908
▁бар	-10.7909
▁героев	-10.791
▁старался	-10.7913
▁премьер	-10.7914
▁храма	-10.7916
▁thought	-10.7917
▁звезды	-10.7918
▁немецкого	-10.7919
▁Ин	-10.792
▁form	-10.7921
▁выступает	-10.7924
ура	-10.7932
▁Почти	-10.7935
▁VIII	-10.7936
▁конференции	-10.794
▁важных	-10.7941
▁Слово	-10.7942
лив	-10.7947
▁марте	-10.7947
▁общих	-10.7948
▁особой	-10.7949
▁майор	-10.795
▁любое	-10.7957
▁августе	-10.796
▁went	-10.7961
▁took	-10.7963
▁полную	-10.7964
▁средство	-10.7965
▁сыном	-10.7966
▁Михайлович	-10.7968
▁нападения	-10.797
▁book	-10.7973
37	-10.7979
ol	-10.7979
▁high	-10.7981
▁изображения	-10.7981
▁твои	-10.7983
▁важным	-10.7987
▁Советский	-10.7988
▁Вся	-10.7989
▁эволюции	-10.7989
35	-10.7991
ическом	-10.7991
лег	-10.7991
▁400	-10.7994
▁лечения	-10.7995
▁объектов	-10.8002
▁кости	-10.8004
%	-10.8005
▁принципе	-10.8006
▁предметы	-10.8007
▁ин	-10.8007
телем	-10.8009
▁God	-10.8009
▁сюжет	-10.8011
▁вв	-10.8012
▁выражения	-10.8014
▁скажу	-10.8014
▁взгляды	-10.8019
▁планеты	-10.8021
▁голода	-10.8021
▁120	-10.8026
▁снег	-10.8026
▁1936	-10.8028
ance	-10.803
брос	-10.8036
▁американской	-10.8039
▁сети	-10.804
▁вечно	-10.804
▁дому	-10.8041
▁(3	-10.8043
▁глядя	-10.8043
▁оценки	-10.8045
итель	-10.805
ически	-10.8052
▁заставить	-10.8052
▁бур	-10.8053
42	-10.8054
▁order	-10.8055
▁always	-10.8056
▁XIII	-10.8057
▁1922	-10.8057
38	-10.806
▁классов	-10.8061
▁информация	-10.8062
ov	-10.8063
▁растения	-10.8067
▁возможным	-10.8068
▁появления	-10.8073
▁придет	-10.8074
▁поможет	-10.8074
▁танки	-10.8077
▁IX	-10.8079
▁away	-10.8085
▁кол	-10.8085
▁хватало	-10.8086
сс	-10.8094
▁десятки	-10.8096
▁вызвать	-10.8097
▁вопросом	-10.81
▁дерево	-10.8103
▁1991	-10.8103
▁попасть	-10.8104
▁голод	-10.8105
29	-10.8106
▁регулярно	-10.8107
▁предприятий	-10.8108
▁Китай	-10.8109
▁держав	-10.8112
▁1930	-10.8114
▁Вселенной	-10.8115
▁ю	-10.8117
ti	-10.8119
▁исторических	-10.8121
▁сотрудников	-10.8121
▁взглядом	-10.8123
▁правой	-10.8123
▁John	-10.8123
▁1933	-10.8126
▁перехода	-10.8126
▁фото	-10.8126
▁группой	-10.8138
▁изменение	-10.8138
▁fact	-10.8139
▁счастью	-10.8142
▁случая	-10.8148
▁монастыря	-10.8156
▁сложно	-10.8159
енное	-10.8159
▁остановился	-10.816
▁разу	-10.8163
▁Тебе	-10.8165
▁устройства	-10.8168
▁стар	-10.8171
▁многим	-10.8172
▁движении	-10.8173
▁партизан	-10.8174
▁Мало	-10.8178
▁старик	-10.8178
▁являлся	-10.8179
▁называть	-10.8179
▁задачей	-10.818
▁обстановке	-10.8181
▁наряду	-10.8186
▁новом	-10.8186
▁народы	-10.8187
▁единственным	-10.8188
▁товарищей	-10.8194
▁тел	-10.8195
▁Ма	-10.8197
▁бросил	-10.8199
▁определение	-10.82
▁праздник	-10.8201
там	-10.8202
▁судьбу	-10.8203
ание	-10.8204
▁связана	-10.8208
▁множества	-10.8212
Ы	-10.8212
▁формирования	-10.8214
▁немецкий	-10.8217
44	-10.8217
▁]	-10.8218
▁изменений	-10.8221
▁грех	-10.8221
▁Ал	-10.8222
▁полков	-10.8223
▁кара	-10.8226
ему	-10.8232
▁братья	-10.8233
▁режим	-10.8235
▁сидели	-10.8235
джи	-10.8238
▁Нельзя	-10.8241
▁отряды	-10.8246
▁брак	-10.8246
▁ихъ	-10.8251
▁Больше	-10.8251
сом	-10.8254
▁Одним	-10.8255
рен	-10.8256
▁внутреннего	-10.8259
▁u	-10.8259
▁мост	-10.8259
▁прошлое	-10.826
▁вынуждены	-10.8261
▁вера	-10.8262
▁Новый	-10.8263
▁институт	-10.8263
▁Ди	-10.8267
▁убит	-10.8269
▁меньшей	-10.827
▁небе	-10.8274
▁ехать	-10.8275
▁художника	-10.8276
▁лист	-10.8281
▁Иоанна	-10.8282
▁осторожно	-10.8286
▁союза	-10.8287
▁человеке	-10.8289
ень	-10.8289
ред	-10.8289
▁существовать	-10.8293
▁отцом	-10.8294
▁воспоминания	-10.8295
▁His	-10.8295
▁общественной	-10.8296
▁case	-10.8296
▁третьего	-10.8298
▁участке	-10.8298
▁здание	-10.8309
зна	-10.8311
▁клетки	-10.8312
▁Одновременно	-10.8317
▁пить	-10.832
▁Васильевич	-10.8323
▁кор	-10.8323
▁стремится	-10.8324
▁западных	-10.8327
еров	-10.833
▁сообщает	-10.8334
▁уравнения	-10.8334
▁One	-10.8337
▁XI	-10.8338
▁север	-10.8342
▁организм	-10.8342
▁питания	-10.8343
▁запас	-10.8347
▁семью	-10.8349
▁открытия	-10.8349
ино	-10.835
▁совершил	-10.8354
7.	-10.8354
go	-10.8356
▁Кара	-10.8362
▁особое	-10.8364
▁общественных	-10.8367
▁вспоминал	-10.8367
▁человеческих	-10.8369
▁товарищи	-10.837
▁детям	-10.837
▁получать	-10.837
▁встречаются	-10.8372
▁усилий	-10.8374
▁ожидать	-10.8374
▁жертв	-10.8376
жив	-10.8376
▁практики	-10.8382
▁телом	-10.8382
▁best	-10.8384
зо	-10.8384
▁Павла	-10.8384
▁высоте	-10.8388
▁молодые	-10.8389
▁1905	-10.839
▁занимает	-10.839
чет	-10.8392
инский	-10.8393
▁девять	-10.8393
сен	-10.8395
чен	-10.8399
▁необходимым	-10.8399
Ты	-10.8403
▁поддерживать	-10.8404
▁удастся	-10.8405
▁пехоты	-10.8406
▁недалеко	-10.8407
▁Марк	-10.8407
▁дворец	-10.8408
▁Свет	-10.8411
▁What	-10.8412
шка	-10.8414
▁природу	-10.8415
▁Востока	-10.8415
▁детали	-10.8415
▁словах	-10.8416
▁смотрит	-10.8417
▁гнев	-10.8418
one	-10.8419
▁убийства	-10.842
▁взрыва	-10.8423
▁head	-10.8427
▁аппарат	-10.8427
▁личной	-10.8428
жу	-10.843
▁спасения	-10.8436
▁событие	-10.8438
▁кампании	-10.8439
▁выступления	-10.8447
▁начальником	-10.8448
£	-10.8448
фе	-10.845
лер	-10.845
▁выбора	-10.8453
▁отказ	-10.8455
▁going	-10.846
▁58	-10.846
стар	-10.8462
▁Этим	-10.8462
▁явлений	-10.8462
рез	-10.8467
кан	-10.847
▁историк	-10.8476
▁английский	-10.8476
▁Лондон	-10.8483
▁юг	-10.8484
ировал	-10.8485
дин	-10.8487
▁встречается	-10.8487
▁замуж	-10.8488
▁интервью	-10.8488
▁делается	-10.8489
▁ракет	-10.8491
▁дважды	-10.8491
▁полным	-10.8492
‘	-10.8493
▁даст	-10.8494
ора	-10.8495
▁французский	-10.8506
▁секунд	-10.8506
▁пребывания	-10.8512
▁пойдет	-10.8512
▁христиан	-10.8512
▁распоряжение	-10.8514
▁сознании	-10.8515
▁штат	-10.8519
▁Какой	-10.8526
▁обще	-10.8528
▁заключение	-10.8528
▁КП	-10.8528
▁ответила	-10.8531
▁накануне	-10.8533
▁общения	-10.8534
▁бывают	-10.8539
39	-10.8542
▁Эр	-10.8546
▁желая	-10.8548
▁Китае	-10.8548
▁строительство	-10.8549
ius	-10.855
▁получилось	-10.8551
▁остаются	-10.8552
▁country	-10.8553
▁переговоров	-10.8554
▁кожи	-10.8554
▁страдания	-10.8555
▁специалистов	-10.8555
▁одежду	-10.8557
▁привел	-10.8559
▁думает	-10.8559
▁ма	-10.8567
▁вступил	-10.8568
▁попытка	-10.8568
▁обстоятельство	-10.8573
▁ведут	-10.8574
▁жертву	-10.8574
вали	-10.8574
ющаяся	-10.8576
Со	-10.8578
▁открыть	-10.8586
▁самолеты	-10.859
▁университет	-10.8591
если	-10.8593
▁things	-10.8595
▁занятия	-10.8596
▁64	-10.86
▁монастырь	-10.8601
▁создании	-10.8601
▁реку	-10.8601
▁вере	-10.8602
▁напоминает	-10.8602
▁военным	-10.8609
скій	-10.861
▁одинаково	-10.861
тин	-10.8611
▁качество	-10.8613
▁многочисленных	-10.8614
▁тени	-10.8615
вшимся	-10.8616
▁проще	-10.8616
▁Украине	-10.8623
ri	-10.8623
▁связей	-10.8625
▁12.	-10.8627
▁Бор	-10.8628
▁лежал	-10.8628
▁составляют	-10.8628
▁Точно	-10.8629
24	-10.8631
▁since	-10.8634
▁появление	-10.8636
нных	-10.8638
▁передачи	-10.8639
▁славян	-10.8639
▁электро	-10.8644
▁Другие	-10.8645
▁утверждение	-10.8645
▁бойцов	-10.865
лад	-10.8653
▁Дух	-10.8658
▁запах	-10.8658
▁всякое	-10.8662
▁сне	-10.8663
▁Петрович	-10.8665
▁статей	-10.8667
▁французской	-10.8667
нин	-10.8668
▁предметов	-10.8668
▁механизм	-10.8669
▁купить	-10.867
▁весной	-10.867
▁скоростью	-10.8671
▁губернии	-10.8674
-4	-10.8674
▁does	-10.8675
▁вернулись	-10.868
▁экспедиции	-10.8687
▁обстоятельств	-10.8688
▁показалось	-10.8689
▁убить	-10.869
▁ВКП	-10.8691
▁исследование	-10.8692
▁Часть	-10.8697
▁сторона	-10.87
▁команда	-10.87
▁вооруженных	-10.87
▁вспомнил	-10.8703
▁взаимодействия	-10.8704
▁попытался	-10.8706
ица	-10.8707
▁необходимые	-10.8707
▁отцу	-10.8707
▁деревьев	-10.8708
▁ждет	-10.871
▁культуре	-10.8711
▁науке	-10.8712
альной	-10.8712
▁весело	-10.8713
▁источником	-10.8714
▁сентябре	-10.8715
▁бороться	-10.8717
▁im	-10.8717
▁январе	-10.8717
ak	-10.8719
▁выполнить	-10.8719
▁правительственн	-10.8728
ово	-10.8728
▁напряжения	-10.873
ro	-10.8731
▁издания	-10.8731
▁кровью	-10.8731
▁духовного	-10.8731
ѳ	-10.8732
▁Дмитрий	-10.8735
▁Великобритании	-10.8735
ler	-10.8736
▁Духа	-10.8737
▁описания	-10.8737
▁That	-10.8741
▁Владимира	-10.8742
▁пору	-10.8742
ner	-10.8742
▁48	-10.8745
▁твоей	-10.875
▁считая	-10.8751
▁осенью	-10.8754
▁нашими	-10.8754
▁кофе	-10.8755
16	-10.8757
▁улицу	-10.8759
▁писем	-10.8761
▁бомб	-10.8761
▁Russia	-10.8765
пут	-10.8766
▁government	-10.8767
▁капитана	-10.8768
▁среднего	-10.8768
▁became	-10.877
▁железной	-10.8774
▁спиной	-10.8777
▁Федор	-10.8778
▁следы	-10.8779
▁октябре	-10.8779
▁белые	-10.8783
▁важные	-10.8783
▁войн	-10.8786
Из	-10.879
ною	-10.879
▁провинции	-10.879
▁высших	-10.8792
▁туман	-10.8792
▁участвовал	-10.8794
▁распространение	-10.8797
▁некоторым	-10.8797
чит	-10.8798
▁председатель	-10.8799
▁Ср	-10.88
ур	-10.8801
▁early	-10.8802
▁большими	-10.8805
▁океан	-10.8806
▁Казалось	-10.8807
▁точнее	-10.8809
дон	-10.8811
▁Следует	-10.8812
▁месту	-10.8814
ish	-10.8815
ющимся	-10.8817
▁Наш	-10.882
▁декабре	-10.882
▁сцене	-10.882
▁Александрович	-10.8821
▁членом	-10.8826
que	-10.8827
ard	-10.8829
ств	-10.8829
▁главнокомандующ	-10.883
▁научной	-10.8831
▁тонн	-10.8831
уз	-10.8831
▁применение	-10.8832
ni	-10.8832
▁возраст	-10.8835
нув	-10.8835
▁инженер	-10.8836
▁жертвы	-10.8836
▁Оба	-10.8838
▁коня	-10.8844
▁имею	-10.8845
ируют	-10.8845
▁Гар	-10.8846
рок	-10.8846
▁утверждал	-10.8847
36	-10.8857
▁городу	-10.8857
▁сутки	-10.8859
▁прошу	-10.886
▁твоя	-10.8861
!)	-10.8861
75	-10.8863
▁Запада	-10.887
▁двора	-10.8874
▁Дом	-10.8875
▁доступ	-10.8876
ig	-10.8877
▁следующем	-10.8877
▁important	-10.8881
имся	-10.8881
▁функций	-10.8882
▁стадии	-10.8883
▁ворота	-10.8885
▁обед	-10.8886
▁пушки	-10.8887
▁деятель	-10.8889
▁назначения	-10.8895
▁вернуть	-10.8897
▁фильма	-10.8899
▁хозяин	-10.8899
▁контр	-10.89
ес	-10.8905
▁Россией	-10.8906
▁ВВС	-10.891
ху	-10.891
син	-10.8912
▁аппарата	-10.8913
21	-10.8914
▁социал	-10.8915
▁сна	-10.8916
▁строить	-10.8917
ед	-10.892
▁птиц	-10.8921
▁Помимо	-10.8921
▁прошла	-10.8922
▁кадров	-10.8923
▁Ис	-10.8925
▁секретарь	-10.8927
▁началу	-10.8928
con	-10.8929
▁внутрь	-10.8933
▁37	-10.8933
▁акт	-10.8936
▁учитель	-10.8936
▁долю	-10.8939
▁второе	-10.8942
▁продукты	-10.8945
▁настроение	-10.8948
▁чём	-10.8951
▁49	-10.8957
яр	-10.896
60	-10.8963
▁оп	-10.8963
▁Южной	-10.8964
▁Петербурге	-10.8965
▁удовольствие	-10.897
▁высоких	-10.897
▁английского	-10.897
▁выводу	-10.897
▁определенной	-10.8974
▁public	-10.8974
▁карты	-10.8975
▁20-	-10.8976
▁ср	-10.8978
▁окажется	-10.8978
▁суток	-10.8979
▁свод	-10.8979
▁избран	-10.8983
▁ногу	-10.8984
▁until	-10.8985
сад	-10.8986
▁двигаться	-10.8991
▁уме	-10.8996
▁острове	-10.8997
▁\	-10.8997
▁World	-10.8998
▁границе	-10.8998
▁детства	-10.9001
▁используется	-10.9008
▁Западе	-10.901
▁Рима	-10.9012
▁реакция	-10.9015
less	-10.9017
Но	-10.9021
▁единого	-10.9022
ence	-10.9022
▁играл	-10.9022
шин	-10.9022
▁дала	-10.9023
▁цветов	-10.9024
▁французского	-10.9025
▁социального	-10.9029
▁народом	-10.903
▁занять	-10.9031
▁ровно	-10.9033
енную	-10.9034
▁second	-10.9034
▁крепость	-10.9035
▁наказания	-10.904
▁Марии	-10.904
▁large	-10.904
ru	-10.9047
▁мечта	-10.9049
▁мгновение	-10.9049
аться	-10.9051
—19	-10.9051
▁подготовке	-10.9052
▁пе	-10.9054
▁положил	-10.9054
▁этапе	-10.9054
▁повсюду	-10.906
▁бои	-10.9061
▁развитию	-10.9061
▁non	-10.9064
▁руководителей	-10.9067
▁ранга	-10.907
▁океана	-10.9071
пан	-10.9071
▁заключения	-10.9074
▁окно	-10.9076
▁цепи	-10.9076
▁пытаясь	-10.9078
год	-10.9079
▁4)	-10.908
▁Ян	-10.908
лок	-10.9081
▁левой	-10.9083
▁столицы	-10.9086
▁золота	-10.9087
вшееся	-10.9088
готов	-10.9091
▁Какие	-10.9094
▁причинам	-10.9095
▁разными	-10.9095
▁Церковь	-10.9095
▁Первой	-10.9096
▁литература	-10.9096
▁успехом	-10.9097
▁All	-10.9099
▁next	-10.91
▁трое	-10.9101
▁Неужели	-10.9101
▁директор	-10.9102
▁отдыха	-10.9104
▁обстоятельствах	-10.9106
▁поняли	-10.9107
яв	-10.9108
▁1934	-10.9109
▁полета	-10.9109
кар	-10.9111
▁полку	-10.9117
рав	-10.912
▁возникают	-10.9123
▁удивительно	-10.9131
▁авторы	-10.9132
▁срочно	-10.9132
▁общим	-10.9137
▁бежать	-10.9137
▁категории	-10.9141
da	-10.9142
▁молитвы	-10.9147
2)	-10.9147
▁учиться	-10.9157
33	-10.9157
▁определенные	-10.9157
▁берет	-10.916
▁успели	-10.9162
▁забыл	-10.9166
▁профессиональны	-10.9168
▁1960	-10.9168
▁капитала	-10.917
шки	-10.917
▁Земля	-10.9171
▁принципы	-10.9172
▁КГБ	-10.9176
▁less	-10.9179
тур	-10.918
▁иное	-10.9181
▁товаров	-10.9186
▁великим	-10.9187
▁подумать	-10.9188
▁сигнал	-10.9195
вит	-10.9195
▁Командир	-10.9197
▁ра	-10.9201
▁изображение	-10.9201
▁откровенно	-10.9207
▁стремительно	-10.921
▁Святого	-10.921
34	-10.921
▁большом	-10.9213
▁Маркс	-10.9213
▁зачастую	-10.9215
27	-10.9216
▁духом	-10.9217
▁местные	-10.9219
▁минимум	-10.922
▁Прим	-10.9222
▁лучшие	-10.9225
ful	-10.9226
▁Мол	-10.9226
▁философ	-10.9227
▁совместно	-10.9229
▁Вероятно	-10.9231
▁позади	-10.9231
▁Co	-10.9232
▁сражения	-10.9235
▁59	-10.9235
▁наблюдать	-10.9236
▁РСФСР	-10.9239
▁сделала	-10.9243
90	-10.9244
▁твое	-10.9244
▁38	-10.9245
Он	-10.9246
▁1929	-10.9247
▁платье	-10.9248
▁ходил	-10.925
▁узнали	-10.9251
▁57	-10.9254
▁Совет	-10.9255
▁любые	-10.9256
Ну	-10.9259
▁работают	-10.9262
▁Михаила	-10.9265
▁апреле	-10.9265
▁единство	-10.9266
▁дворца	-10.9268
▁июне	-10.9268
▁Весь	-10.9268
▁Ру	-10.9269
▁освобождения	-10.9271
▁золото	-10.9273
▁секрет	-10.9275
▁вод	-10.9275
▁спрашивает	-10.9276
▁собак	-10.928
▁Куда	-10.9281
ирования	-10.9283
▁Академии	-10.9284
▁Константин	-10.9286
▁видя	-10.9288
▁перемен	-10.9291
▁телефон	-10.9295
▁читатель	-10.9295
▁нации	-10.93
▁газ	-10.93
ii	-10.9301
▁показывают	-10.9301
▁пятьдесят	-10.9302
▁определенных	-10.9302
тро	-10.9303
▁восстановить	-10.9314
▁пределами	-10.9321
▁статью	-10.9324
▁1915	-10.9325
▁тремя	-10.9327
▁сумму	-10.9329
▁школа	-10.9329
▁войти	-10.933
▁8-	-10.9331
▁царю	-10.9332
▁Die	-10.9334
▁предварительно	-10.9337
▁Бен	-10.934
▁1990	-10.9341
▁июле	-10.9341
▁собирался	-10.9346
▁графа	-10.9353
▁Новгород	-10.9355
▁казаков	-10.9355
овской	-10.9355
инг	-10.9357
▁План	-10.9358
▁0.	-10.9358
▁Га	-10.9359
▁сильным	-10.9359
ized	-10.9359
▁миг	-10.936
▁Франция	-10.9361
ология	-10.9364
▁Бу	-10.9364
▁границ	-10.9365
кра	-10.9369
▁шар	-10.937
▁city	-10.937
▁планов	-10.9373
▁русская	-10.9375
▁появляются	-10.9379
▁близких	-10.9379
▁ушли	-10.938
▁мастер	-10.9381
ировали	-10.9381
▁1935	-10.9382
▁некий	-10.9383
▁na	-10.9385
▁цикл	-10.9386
▁Бур	-10.9388
▁бывших	-10.9389
ством	-10.939
▁сбор	-10.9392
▁Первые	-10.9394
▁честно	-10.94
▁Ман	-10.94
▁63	-10.9401
▁компания	-10.9401
еля	-10.9403
▁реформ	-10.9404
▁воздействие	-10.9404
бес	-10.9406
▁восьми	-10.9409
▁демократии	-10.9411
▁национального	-10.9411
▁решать	-10.9412
▁water	-10.9414
▁упал	-10.9421
▁восток	-10.9422
▁political	-10.9424
▁деревья	-10.9426
▁грудь	-10.9427
▁жен	-10.9428
▁though	-10.9429
▁оборону	-10.943
▁Би	-10.9433
▁академии	-10.9439
▁определяет	-10.9443
▁шло	-10.9447
▁Первое	-10.9448
▁половина	-10.9449
▁пожар	-10.9453
▁отчет	-10.9457
▁Стар	-10.9459
▁Наполеон	-10.9464
▁используя	-10.9466
▁большее	-10.9466
▁концепции	-10.9468
▁night	-10.947
▁помог	-10.9471
▁подразделения	-10.9472
▁мо	-10.9472
▁официально	-10.9474
▁собственную	-10.9476
▁делами	-10.9478
▁высшего	-10.9481
▁программ	-10.9481
зе	-10.9482
▁ребята	-10.9483
▁www	-10.9483
▁просит	-10.9484
▁арестован	-10.9485
46	-10.9486
▁участок	-10.9488
▁мелких	-10.9488
▁высокие	-10.9489
den	-10.9491
▁победа	-10.9492
▁тексте	-10.9493
▁слушать	-10.9494
▁1916	-10.9496
▁стене	-10.9496
▁огромной	-10.9499
▁основы	-10.95
▁остатки	-10.9502
▁Моя	-10.9503
▁0,	-10.9504
▁ран	-10.9507
▁статус	-10.9508
▁слава	-10.951
▁батареи	-10.9511
▁слабо	-10.9519
▁краю	-10.9519
▁языков	-10.9519
▁Крым	-10.9521
мар	-10.9521
▁структур	-10.9521
▁ордена	-10.9522
▁крестьяне	-10.9523
55	-10.9524
ощ	-10.9526
▁нём	-10.9528
▁методов	-10.953
▁российской	-10.9535
▁мгновенно	-10.9536
▁га	-10.9536
▁произведение	-10.9538
▁этап	-10.9543
▁1946	-10.9543
ост	-10.9544
▁команду	-10.9546
▁танк	-10.9546
▁обещал	-10.955
▁реализации	-10.9551
▁американского	-10.9551
▁following	-10.9552
▁точек	-10.9553
▁information	-10.9554
▁предполагает	-10.9554
▁year	-10.9558
23	-10.9561
▁лоб	-10.9561
▁похода	-10.9562
ныхъ	-10.9563
▁собрать	-10.9563
▁par	-10.9565
чки	-10.9568
▁морских	-10.957
изация	-10.957
▁использовали	-10.9571
▁ткани	-10.9572
▁справа	-10.9572
▁справедливости	-10.9572
кал	-10.9573
▁кризиса	-10.9574
▁ощущения	-10.9576
▁century	-10.9578
▁видела	-10.9579
▁скажет	-10.9581
▁Al	-10.9583
▁возник	-10.9584
▁боев	-10.9586
ьные	-10.9587
▁66	-10.9588
▁рек	-10.9588
▁Святой	-10.9589
▁свобода	-10.9593
▁1923	-10.9595
▁давления	-10.9596
▁числу	-10.9596
▁государь	-10.9599
▁Вдруг	-10.96
32	-10.96
▁отправил	-10.96
▁известной	-10.9604
▁using	-10.9605
▁царство	-10.9606
▁получают	-10.9606
▁(18	-10.9607
▁(4	-10.9607
▁поворот	-10.961
▁дам	-10.9611
▁учеников	-10.9612
▁Главное	-10.9615
▁побережье	-10.9615
▁Сер	-10.962
▁sub	-10.962
▁покой	-10.962
▁битвы	-10.9625
▁улыбнулся	-10.9626
гар	-10.9628
▁носит	-10.9629
іі	-10.9633
▁охраны	-10.9633
▁зуб	-10.9638
▁отцов	-10.9638
эт	-10.9638
▁возвращения	-10.9639
мест	-10.9639
▁государя	-10.964
▁known	-10.964
▁1925	-10.9642
▁told	-10.9643
мед	-10.9645
▁половину	-10.9645
22	-10.9647
▁доказательства	-10.9648
▁предстояло	-10.9649
▁рус	-10.965
▁1924	-10.9652
▁охотно	-10.9653
щий	-10.9654
▁газета	-10.9659
▁европейских	-10.9662
▁доклад	-10.9663
▁side	-10.9663
▁евреи	-10.9667
▁театре	-10.967
▁among	-10.967
▁Мон	-10.9676
зем	-10.9678
▁Господи	-10.968
▁оставив	-10.968
▁продукции	-10.9682
▁используют	-10.9685
▁начались	-10.9685
▁upon	-10.9685
▁советский	-10.9686
▁заставляет	-10.969
▁беседы	-10.969
▁звание	-10.9691
▁выяснилось	-10.9693
▁дыхание	-10.9694
▁Солнце	-10.9695
▁тяжелые	-10.97
▁light	-10.97
▁Роман	-10.9702
▁груз	-10.9702
▁квартире	-10.9703
ra	-10.9705
48	-10.9705
▁Григорий	-10.9708
▁Юго	-10.9709
евич	-10.971
-5	-10.971
рам	-10.9711
▁изначально	-10.9714
уль	-10.9715
▁находит	-10.9717
▁By	-10.9718
леп	-10.9721
▁проявляется	-10.9721
▁партий	-10.9722
▁камни	-10.9722
▁полковника	-10.9722
▁Книга	-10.9729
▁НЕ	-10.973
▁комитет	-10.973
▁целое	-10.9731
▁квартиру	-10.9735
▁феврале	-10.9736
▁получали	-10.9737
▁ученый	-10.9738
▁начался	-10.974
▁хорошие	-10.9741
ике	-10.9741
2,	-10.9741
▁транспорт	-10.9742
▁снять	-10.9743
▁вызвал	-10.9748
▁западной	-10.9754
▁различными	-10.9755
▁death	-10.9757
▁кивнул	-10.9757
▁родов	-10.9759
дор	-10.976
▁1000	-10.976
▁местного	-10.976
Ка	-10.9761
▁days	-10.9766
▁действиях	-10.9766
▁within	-10.9767
станов	-10.9767
▁вопреки	-10.977
▁1956	-10.9772
▁искренне	-10.9774
▁полки	-10.9774
▁Император	-10.9776
▁History	-10.9777
▁пищу	-10.9778
26	-10.9778
▁воля	-10.9782
▁твоего	-10.9782
▁von	-10.9787
ею	-10.9787
▁Ново	-10.9787
▁чувствовать	-10.9787
▁Мо	-10.9788
▁источники	-10.9788
▁Другой	-10.979
▁приятно	-10.9796
▁приблизительно	-10.9796
▁управлять	-10.9797
ять	-10.9797
▁родной	-10.9797
▁властей	-10.9798
▁given	-10.9801
▁слез	-10.9805
▁епископ	-10.9808
эр	-10.9808
▁станут	-10.9809
▁отправились	-10.9812
фи	-10.9812
еле	-10.9813
do	-10.9814
▁создавать	-10.9816
▁организовать	-10.9819
▁once	-10.982
▁got	-10.982
▁представлял	-10.9821
▁неизменно	-10.9821
▁выс	-10.9821
▁статья	-10.9823
гл	-10.9824
▁сферы	-10.9825
▁ждал	-10.9825
▁построить	-10.9827
▁обратиться	-10.9829
▁получал	-10.9836
▁сведений	-10.9837
евой	-10.9838
▁Ген	-10.9839
▁судя	-10.9839
▁Порт	-10.984
/2	-10.984
очек	-10.9842
▁признаки	-10.9842
▁ряде	-10.9844
▁восприятия	-10.9847
ует	-10.9849
До	-10.985
▁ноябре	-10.9853
▁Большой	-10.9853
▁сельскохозяйств	-10.9854
▁поднять	-10.9856
▁Гер	-10.9859
▁древней	-10.986
▁известен	-10.9861
▁середины	-10.9861
▁командовал	-10.9867
▁искусстве	-10.9867
▁многими	-10.9868
▁обнаружили	-10.9869
▁версии	-10.9871
▁борт	-10.9876
дель	-10.9876
▁офицера	-10.9876
▁Бес	-10.9878
▁уходит	-10.9885
31	-10.9887
▁допустить	-10.9891
▁began	-10.9892
▁лег	-10.9892
▁хотим	-10.9893
▁означало	-10.9898
▁воскликнул	-10.9899
▁земной	-10.9904
▁ex	-10.9904
ting	-10.9906
▁прогресс	-10.9906
▁позволяют	-10.9912
▁30-	-10.9912
▁династии	-10.9917
▁слезы	-10.9919
ром	-10.992
▁42	-10.9924
▁фигуры	-10.9924
▁Юрий	-10.9924
▁1932	-10.9924
▁путей	-10.9926
▁ветра	-10.9926
▁возникла	-10.9927
▁чудо	-10.9928
▁пра	-10.9928
è	-10.9931
▁следовать	-10.9934
▁look	-10.9936
▁находиться	-10.9938
▁собаки	-10.9939
цен	-10.9943
тр	-10.9947
▁программу	-10.9947
▁получаем	-10.9948
▁сыновей	-10.9949
▁добровольно	-10.9957
▁углу	-10.9957
▁благополучно	-10.9959
▁линия	-10.996
▁слева	-10.9962
▁равна	-10.9963
▁рабочий	-10.9963
▁Видимо	-10.9963
ея	-10.9964
▁укрепления	-10.9964
▁ѵ	-10.9965
ut	-10.9965
лия	-10.9966
▁понимали	-10.9967
▁£	-10.9968
▁Германию	-10.997
▁стиль	-10.9972
остью	-10.9973
▁мясо	-10.9974
▁базы	-10.9975
вшими	-10.9975
▁людях	-10.9976
▁поступил	-10.9976
▁покоя	-10.9977
▁экономического	-10.9978
▁оставили	-10.9979
▁67	-10.998
ари	-10.9981
ацию	-10.9982
▁нигде	-10.9982
▁Тур	-10.9983
▁гостей	-10.9984
▁типов	-10.9986
▁объекта	-10.9989
▁испытания	-10.9989
▁сильное	-10.9993
▁редактор	-10.9999
▁судьбе	-11.0001
▁open	-11.0004
▁клуб	-11.0009
▁составляли	-11.001
▁чести	-11.0011
▁решила	-11.0015
▁Часто	-11.0015
▁подходит	-11.0015
майор	-11.0015
▁пал	-11.0016
▁пола	-11.0017
▁скот	-11.0017
▁исторического	-11.0019
рат	-11.002
▁профессионально	-11.0021
нев	-11.0023
ors	-11.0023
▁девочка	-11.0024
▁критики	-11.0024
▁Чу	-11.0024
▁проявления	-11.0025
▁ценностей	-11.0031
▁следствие	-11.0033
▁птицы	-11.0033
нная	-11.0034
един	-11.004
▁become	-11.0041
▁социализма	-11.0042
лейтенант	-11.0044
▁газете	-11.0045
▁вино	-11.0046
▁Кам	-11.0046
▁установки	-11.0046
▁такому	-11.0049
▁древности	-11.0051
вот	-11.0052
49	-11.0053
▁известного	-11.0053
▁квадрат	-11.0053
▁general	-11.0058
▁вышло	-11.0059
вшее	-11.006
▁существ	-11.0061
▁капиталистическ	-11.0061
▁Ленинград	-11.0061
▁13.	-11.0062
▁любят	-11.0065
▁ценность	-11.0067
▁Московского	-11.0068
▁звуки	-11.0068
ьная	-11.0069
иц	-11.0069
еб	-11.0071
▁Греции	-11.0072
▁тон	-11.0072
▁любить	-11.0075
▁заболевания	-11.0075
тра	-11.0076
▁воспользоваться	-11.008
▁командующий	-11.0086
еж	-11.0089
▁женщину	-11.0094
▁славу	-11.0099
▁машине	-11.01
сил	-11.0102
▁полтора	-11.0102
▁добавить	-11.0102
▁появилось	-11.0103
▁народных	-11.0104
▁ранен	-11.0106
свет	-11.0107
вел	-11.0109
▁программа	-11.011
▁ла	-11.011
▁(19	-11.0112
ряд	-11.0113
$	-11.0113
▁Ь	-11.0113
▁Хар	-11.0114
▁72	-11.0115
▁line	-11.0118
▁стоять	-11.0119
▁61	-11.0124
рик	-11.0126
▁старшего	-11.0127
▁американский	-11.0128
▁массу	-11.0128
▁частях	-11.0128
▁гос	-11.0128
▁Ев	-11.013
▁моменты	-11.0132
▁плоскости	-11.0133
line	-11.0133
дан	-11.0134
▁побед	-11.0134
ук	-11.0135
▁утверждать	-11.0137
▁прочие	-11.0137
уса	-11.0143
▁остановить	-11.0147
▁круга	-11.0147
▁землей	-11.0148
▁занял	-11.0149
▁Лондоне	-11.0149
▁жене	-11.0151
▁перешел	-11.0152
емого	-11.0152
▁владения	-11.0154
▁добра	-11.0155
▁обращения	-11.0156
▁person	-11.0158
▁газа	-11.016
▁Op	-11.0161
▁объяснения	-11.0162
▁room	-11.0165
▁предлагает	-11.0168
▁гибель	-11.0169
▁курса	-11.0169
▁від	-11.0172
▁называл	-11.0174
▁миф	-11.0176
▁Гу	-11.0176
▁After	-11.0176
▁help	-11.018
▁музыки	-11.0184
▁друзьями	-11.0184
лем	-11.0185
▁особый	-11.0188
▁сознательно	-11.0189
▁Утром	-11.0192
▁видят	-11.0193
▁вначале	-11.0195
▁чин	-11.0198
▁Санкт	-11.0199
▁материи	-11.02
▁практика	-11.02
▁Бел	-11.0203
▁Федерации	-11.0203
▁областях	-11.0204
берг	-11.0204
▁темно	-11.0209
▁Думаю	-11.0209
ier	-11.0211
▁Ком	-11.0212
▁просить	-11.0214
▁любую	-11.0215
▁cit	-11.0218
дав	-11.0221
стро	-11.0222
▁городом	-11.0224
бра	-11.0225
▁запрет	-11.0227
▁Риме	-11.0227
фу	-11.0228
▁среднем	-11.0233
»...	-11.0234
▁долгое	-11.0236
▁совершить	-11.0237
иде	-11.0237
▁Ки	-11.0238
▁Хан	-11.0239
▁раб	-11.0242
▁53	-11.0244
▁присутствии	-11.0244
▁поисках	-11.0245
▁авто	-11.0246
▁пород	-11.0251
▁пояс	-11.0253
Когда	-11.0253
емой	-11.0256
▁результатом	-11.0259
▁жила	-11.0259
▁председателя	-11.026
▁Хо	-11.026
▁Тор	-11.0263
зор	-11.0263
▁принимали	-11.0264
▁Толстой	-11.0267
sh	-11.0268
оль	-11.0268
▁бизнес	-11.0271
▁умел	-11.0273
ез	-11.0274
▁потребности	-11.0275
▁Интересно	-11.0276
чист	-11.0276
▁риск	-11.0277
▁духов	-11.0282
▁зимой	-11.0284
▁заявление	-11.029
▁сестры	-11.0291
▁cos	-11.0292
▁издание	-11.0293
▁разговора	-11.0294
▁бесконечно	-11.0294
дет	-11.0296
еры	-11.0298
▁ждали	-11.0298
▁белый	-11.03
▁войной	-11.03
▁живот	-11.0301
▁Лучше	-11.0304
▁судно	-11.0305
ову	-11.0306
▁факторов	-11.0311
▁последним	-11.0313
ley	-11.0313
▁настроения	-11.0317
▁хорошего	-11.0317
сто	-11.0317
▁царства	-11.0319
▁62	-11.0319
▁учетом	-11.032
ach	-11.032
▁использовал	-11.0323
▁собственным	-11.0323
▁партию	-11.0324
ca	-11.0328
▁Народ	-11.033
▁центром	-11.0331
▁Го	-11.0331
▁1928	-11.0334
пы	-11.0335
настоящему	-11.0338
▁1926	-11.0339
▁мор	-11.0339
▁сцены	-11.0339
▁частиц	-11.034
▁дождь	-11.0341
▁былъ	-11.0344
▁ущерб	-11.0345
▁военную	-11.0345
▁уехал	-11.035
атор	-11.0352
▁Карла	-11.0354
▁46	-11.0356
лат	-11.0356
▁1953	-11.0358
▁реальной	-11.036
2].	-11.0361
▁величины	-11.0361
▁British	-11.0363
▁ходили	-11.0365
▁Солнца	-11.0366
▁противником	-11.0367
▁очереди	-11.0369
▁практику	-11.037
▁студентов	-11.0372
▁средней	-11.0372
▁course	-11.0374
▁Чего	-11.0377
▁склад	-11.0377
▁four	-11.0382
▁смотрели	-11.0382
ae	-11.0383
▁объясняется	-11.0384
лев	-11.0386
▁юге	-11.0387
▁ведения	-11.0388
▁новыми	-11.0389
▁невольно	-11.039
▁недолго	-11.039
зер	-11.0391
▁напряжение	-11.0391
▁тыл	-11.0392
▁пи	-11.0392
▁удовольствием	-11.0393
ny	-11.0398
ическими	-11.0398
▁history	-11.04
▁Ей	-11.04
▁указания	-11.0401
rs	-11.0403
став	-11.0404
▁проверить	-11.0405
▁Лу	-11.0406
▁real	-11.0407
ниц	-11.0407
▁Божий	-11.041
▁68	-11.0411
▁ставит	-11.0416
▁Германией	-11.0418
▁музыка	-11.0419
▁нож	-11.0421
7].	-11.0422
▁Северо	-11.0423
▁слав	-11.0424
▁тяжелых	-11.0424
инского	-11.0425
▁особых	-11.0426
▁сыну	-11.0428
▁захватить	-11.0433
1].	-11.0435
▁Or	-11.0435
▁1927	-11.0436
бин	-11.0437
▁видите	-11.0437
▁however	-11.0439
95	-11.0439
пис	-11.0439
▁дано	-11.044
56	-11.044
▁нужды	-11.0444
▁°	-11.0444
▁АН	-11.0444
4].	-11.0447
▁Вторая	-11.0447
▁Кол	-11.0448
▁вторую	-11.045
▁существовало	-11.045
▁Естественно	-11.0451
3].	-11.0452
очки	-11.0456
5].	-11.0456
▁сочинения	-11.0459
▁ed	-11.0462
▁Иначе	-11.0463
▁Максим	-11.0464
▁отдельно	-11.0467
ci	-11.0468
▁раненых	-11.047
▁поезд	-11.0472
рин	-11.0473
▁possible	-11.0474
▁рынка	-11.0475
▁двенадцать	-11.0476
▁толпы	-11.0476
ального	-11.0476
▁Лен	-11.0478
ac	-11.0479
▁children	-11.0485
▁con	-11.0486
▁фактов	-11.0488
▁пленных	-11.0489
ical	-11.049
47	-11.049
Так	-11.0494
▁зоны	-11.0496
▁российских	-11.0497
▁подъ	-11.0498
тельный	-11.0501
▁рынок	-11.0502
▁татар	-11.0505
▁шоссе	-11.0506
▁My	-11.0507
▁ЗА	-11.0508
▁повод	-11.051
▁военное	-11.0511
ьный	-11.0512
//	-11.0513
▁строки	-11.0514
dy	-11.0517
▁непрерывно	-11.0517
аты	-11.0518
65	-11.0518
▁повел	-11.052
▁температуры	-11.0521
▁плечи	-11.0522
▁читателя	-11.0524
▁(16	-11.0526
▁хорошее	-11.0527
▁лагере	-11.0529
▁богатства	-11.0529
„	-11.053
▁(15	-11.053
▁утверждения	-11.0531
2]	-11.0533
пр	-11.0535
▁Берлине	-11.0542
▁достоинства	-11.0543
▁страсти	-11.0543
sch	-11.0543
ted	-11.0544
▁активности	-11.0544
▁переводе	-11.0547
▁разрыв	-11.0547
70	-11.0548
9].	-11.0549
▁чувствует	-11.0549
рак	-11.055
▁отличаются	-11.0551
▁молодежи	-11.0553
град	-11.0554
▁последнюю	-11.0561
▁характеристики	-11.0567
▁способы	-11.0569
▁районов	-11.057
▁желает	-11.0571
▁est	-11.0575
▁думали	-11.0575
▁Мама	-11.0576
нье	-11.058
▁следующего	-11.0581
▁привык	-11.0581
кер	-11.0583
ьте	-11.0586
Ре	-11.0588
▁вблизи	-11.0589
стран	-11.0593
▁наличии	-11.0594
▁закону	-11.0595
▁Работа	-11.0596
летний	-11.0596
ap	-11.0597
▁восстание	-11.0598
▁тылу	-11.0598
▁39	-11.06
▁попали	-11.0602
ющему	-11.0605
▁мастера	-11.0607
▁главные	-11.0607
per	-11.0608
▁выпуск	-11.0608
▁командующего	-11.0608
▁холод	-11.0611
pe	-11.0612
▁чьи	-11.0612
▁любых	-11.0612
▁областей	-11.0614
▁танковой	-11.0614
▁описывает	-11.0614
-18	-11.0615
▁несколькими	-11.0616
▁Вечером	-11.0617
▁перешли	-11.0617
▁Ге	-11.0619
▁психологии	-11.0623
▁family	-11.0623
▁инструмент	-11.0625
ируя	-11.0626
▁спину	-11.0627
▁источника	-11.0627
▁air	-11.0628
▁избавиться	-11.0628
▁выводы	-11.0632
▁предметом	-11.0634
щем	-11.0634
▁образы	-11.0635
▁заместитель	-11.064
▁являлись	-11.064
▁детстве	-11.0641
▁новому	-11.0641
▁ch	-11.0642
лез	-11.0642
▁глав	-11.0644
▁забыть	-11.0645
эй	-11.0645
▁интересах	-11.0646
▁7-	-11.0648
▁писали	-11.0651
▁аль	-11.0654
▁самыми	-11.0654
▁Петров	-11.0656
▁независимость	-11.0661
▁третьей	-11.0662
▁Me	-11.0664
ze	-11.0664
▁собственный	-11.0665
▁give	-11.067
▁1957	-11.0672
▁Вар	-11.0675
ющееся	-11.0675
▁понимают	-11.0678
▁1950	-11.0679
▁house	-11.0683
▁став	-11.0684
▁1961	-11.0688
юр	-11.0689
▁цены	-11.0689
▁мат	-11.0693
▁русскими	-11.0695
▁Ша	-11.0696
▁верх	-11.0696
▁годами	-11.07
еть	-11.0702
ума	-11.0704
▁следующей	-11.0705
▁Са	-11.0705
▁свойств	-11.0706
▁указал	-11.0706
▁Ху	-11.0707
▁коммунистов	-11.0708
▁яко	-11.0708
▁лицу	-11.0709
Вот	-11.0713
▁казни	-11.0714
▁These	-11.0717
вол	-11.0718
▁англичан	-11.0721
лик	-11.0721
▁дне	-11.0722
▁предстоит	-11.0725
▁призыв	-11.0726
▁сидеть	-11.073
—18	-11.073
▁Скорее	-11.0731
▁горах	-11.0731
▁присутствие	-11.0733
▁путешествие	-11.0735
▁важный	-11.074
▁падения	-11.074
▁доход	-11.0741
▁целого	-11.0741
▁семей	-11.0743
▁оставалась	-11.0743
▁получив	-11.0743
▁ресурсов	-11.0744
▁блок	-11.0744
▁Польше	-11.0744
▁физики	-11.0744
▁двум	-11.0745
▁мелкие	-11.0745
▁товар	-11.0748
▁десятков	-11.0748
▁обладают	-11.0748
▁объяснил	-11.075
▁камня	-11.0752
пал	-11.0754
руч	-11.0756
▁человечество	-11.0758
▁следующих	-11.0759
▁Мои	-11.076
емая	-11.0764
▁эпизод	-11.0765
▁нормы	-11.0765
бар	-11.0766
▁объяснение	-11.0766
▁обвинения	-11.077
▁народной	-11.077
▁вход	-11.077
▁Царь	-11.0772
▁бригада	-11.0772
▁соответствующие	-11.0775
▁звучит	-11.078
80	-11.078
▁главная	-11.078
▁дав	-11.078
▁признание	-11.0781
шему	-11.0784
▁основным	-11.0786
▁class	-11.079
▁комиссар	-11.0792
au	-11.0793
▁дворян	-11.0795
▁рок	-11.0795
▁тридцати	-11.0796
▁эмоции	-11.0797
▁удается	-11.0799
▁соединений	-11.0802
▁body	-11.0804
нья	-11.0804
▁слухи	-11.0804
▁69	-11.0805
▁Около	-11.0806
▁славы	-11.0807
▁14.	-11.0809
▁всячески	-11.0811
▁Наверное	-11.0811
6].	-11.0817
▁Эту	-11.0817
▁реально	-11.0817
▁}	-11.0821
▁правительством	-11.0822
▁44	-11.0825
▁устройство	-11.0828
кос	-11.0829
▁бюро	-11.0833
лог	-11.0836
▁Политбюро	-11.0838
▁бывало	-11.0838
▁1931	-11.0838
▁частями	-11.0839
4]	-11.084
▁military	-11.0841
▁проводил	-11.0841
▁простых	-11.0843
▁теорию	-11.0844
II	-11.0844
▁удавалось	-11.0845
()	-11.0846
▁повести	-11.0847
▁1948	-11.0849
▁христианства	-11.085
▁государством	-11.0852
▁изучение	-11.0852
▁1962	-11.0853
▁войскам	-11.0854
▁Мер	-11.0858
▁вашу	-11.0859
by	-11.0859
▁последняя	-11.086
▁имущества	-11.086
▁столе	-11.0861
▁врагом	-11.0863
▁титул	-11.0864
▁Мал	-11.0864
▁занимались	-11.0864
▁реформы	-11.0867
▁берегов	-11.0867
лить	-11.0868
▁Гос	-11.0869
8].	-11.0872
мол	-11.0872
▁культ	-11.0873
▁ремонт	-11.0873
!”	-11.0874
▁столице	-11.0876
▁нарушения	-11.0877
▁оценить	-11.0877
▁играли	-11.0877
▁Man	-11.0879
▁государственный	-11.0879
▁хозяйство	-11.088
▁обращение	-11.088
▁снарядов	-11.0881
лож	-11.0881
▁помнить	-11.0882
▁See	-11.0883
iv	-11.0885
коп	-11.0886
▁car	-11.0887
▁разобраться	-11.0888
▁нач	-11.0888
▁культур	-11.0888
▁рай	-11.0889
ались	-11.0889
ens	-11.0891
▁English	-11.0893
рад	-11.0893
▁убил	-11.0893
▁задание	-11.0896
ался	-11.0898
▁держал	-11.09
лас	-11.0901
▁текстов	-11.0901
▁масла	-11.0901
▁бомбы	-11.0903
▁крикнул	-11.0905
▁along	-11.0907
▁мальчика	-11.0911
▁vol	-11.0913
▁полно	-11.0913
si	-11.0916
▁собственное	-11.0917
▁общие	-11.092
▁князей	-11.0921
▁древние	-11.0921
▁выступал	-11.0926
▁Май	-11.093
▁соглашения	-11.093
▁миллиона	-11.0931
▁better	-11.0932
ke	-11.0934
▁85	-11.0936
вшую	-11.0936
▁Али	-11.0937
▁Ar	-11.0938
ват	-11.0939
99	-11.094
pa	-11.094
▁свидетельствуют	-11.094
▁состояла	-11.094
▁городской	-11.0941
▁политический	-11.0944
быт	-11.0946
▁ever	-11.0948
ς	-11.0949
▁профессора	-11.095
▁сомнений	-11.095
▁провели	-11.0952
▁клеток	-11.0955
щие	-11.0956
▁Сил	-11.0957
▁Русь	-11.0959
▁Жуков	-11.096
▁Начальник	-11.0961
▁получится	-11.0962
▁рабочей	-11.0963
▁депутатов	-11.0967
▁43	-11.0969
▁Позже	-11.0971
▁отсутствия	-11.0972
▁французских	-11.0972
▁технологии	-11.0973
▁серии	-11.0974
▁задания	-11.0979
▁Иосиф	-11.0979
lin	-11.0982
нят	-11.0985
▁увидев	-11.099
▁настоящей	-11.0991
оны	-11.0993
▁оборот	-11.0994
▁съезда	-11.0995
▁чувствую	-11.0996
▁already	-11.0999
▁смогут	-11.1003
▁1964	-11.1004
▁поговорить	-11.1004
шем	-11.1005
▁экономических	-11.1006
▁базе	-11.101
▁журнале	-11.1012
▁осуществить	-11.1012
▁приговор	-11.1013
▁Филипп	-11.1013
▁1989	-11.1014
альным	-11.1015
▁происхождение	-11.1017
▁принятия	-11.1018
▁предков	-11.1018
▁отметил	-11.1018
▁радостью	-11.1026
▁250	-11.1026
▁плот	-11.1027
ря	-11.1027
▁ман	-11.1029
телю	-11.1029
щей	-11.1031
▁такъ	-11.1031
▁состоял	-11.1031
ium	-11.1031
▁десант	-11.1032
▁Военно	-11.1032
▁уверенность	-11.1033
▁школ	-11.1035
▁сильные	-11.1036
лан	-11.1041
▁собака	-11.1043
▁прим	-11.1043
шее	-11.1044
▁уравнение	-11.1046
▁control	-11.1048
уют	-11.105
▁Тер	-11.1052
▁пожалуйста	-11.1053
ya	-11.1056
▁ряды	-11.1056
▁небольшие	-11.1057
▁тема	-11.1059
▁возникновения	-11.1062
▁игру	-11.1063
▁1993	-11.1066
▁различие	-11.1066
▁постели	-11.1068
▁бежал	-11.1069
▁ново	-11.107
▁1970	-11.1071
▁mind	-11.1071
▁потеря	-11.1076
▁увидела	-11.108
▁известные	-11.1081
ah	-11.1082
▁конструкции	-11.1086
▁вызов	-11.1088
▁фигура	-11.1088
вать	-11.1093
▁целую	-11.1098
▁Ст	-11.1098
▁q	-11.1101
▁герои	-11.1103
▁представлен	-11.1103
▁Суд	-11.1103
▁преодолеть	-11.1103
▁возможных	-11.1108
▁1947	-11.1109
пас	-11.111
бой	-11.111
▁others	-11.1111
▁nothing	-11.1111
▁знач	-11.1111
▁умереть	-11.1115
овали	-11.1118
▁main	-11.1119
▁основание	-11.1122
▁рассказы	-11.1122
▁побережья	-11.1122
▁потеряли	-11.1126
▁Жан	-11.1127
▁ритм	-11.1128
▁обнаружить	-11.1129
▁сердцем	-11.1129
▁легких	-11.113
лес	-11.1131
ik	-11.1132
85	-11.1133
ьных	-11.1135
▁тур	-11.1138
▁Соединенных	-11.114
▁отчетливо	-11.1143
tic	-11.1143
▁выяснить	-11.1144
▁several	-11.1145
▁Спасибо	-11.1145
▁истину	-11.1146
▁Лит	-11.1148
▁размеров	-11.1148
▁красоты	-11.1149
▁United	-11.115
ителей	-11.1151
▁Наполеона	-11.1151
▁племени	-11.1154
▁let	-11.1156
▁1963	-11.1157
▁убедить	-11.1157
▁масло	-11.1159
▁грехов	-11.116
иса	-11.1163
▁великое	-11.1166
▁мотор	-11.1167
▁Слова	-11.1167
раж	-11.1168
▁взят	-11.1168
говор	-11.117
ally	-11.1171
▁включает	-11.1172
сп	-11.1172
▁слух	-11.1174
1]	-11.1178
▁внизу	-11.1179
▁хватит	-11.1179
▁потребность	-11.1181
lt	-11.1182
нн	-11.1185
▁максимально	-11.1186
ai	-11.1188
▁имущество	-11.1188
▁облик	-11.1188
▁мета	-11.1188
гляд	-11.1189
▁собрались	-11.119
крат	-11.119
▁согласие	-11.1192
хотя	-11.1193
▁зря	-11.1195
▁function	-11.1195
▁единства	-11.1198
ьев	-11.12
▁Ibid	-11.12
▁структура	-11.12
ating	-11.1202
▁посла	-11.1202
▁узнав	-11.1203
▁обратить	-11.1204
▁ха	-11.1204
▁whole	-11.1207
lo	-11.1208
▁Do	-11.1209
анти	-11.121
▁кругу	-11.1212
▁шагов	-11.1212
▁didn	-11.1212
▁мн	-11.1213
▁Том	-11.1213
▁просьбой	-11.1216
▁создан	-11.1217
▁черно	-11.122
end	-11.1221
▁Василия	-11.1222
▁границей	-11.1223
▁требовалось	-11.1223
▁saw	-11.1227
дж	-11.1228
▁рабов	-11.123
НО	-11.123
▁Восток	-11.1237
▁серьезные	-11.1239
▁слышать	-11.124
▁измерения	-11.1242
пу	-11.1242
▁операция	-11.1243
▁удары	-11.1243
▁масштаб	-11.1246
▁занят	-11.1247
▁местом	-11.1247
вед	-11.1249
▁объединения	-11.1252
▁религиозных	-11.1254
▁образу	-11.1254
▁Необходимо	-11.1256
▁резерв	-11.1259
▁Впервые	-11.126
нс	-11.1261
▁работах	-11.1261
▁тюрьме	-11.1261
▁собора	-11.1262
▁Известно	-11.1263
бур	-11.1265
▁поставили	-11.1265
▁подвиг	-11.1267
▁христианской	-11.127
вест	-11.1271
▁1958	-11.1272
▁позволить	-11.1274
▁системой	-11.1274
▁обязаны	-11.1275
▁1992	-11.1276
онов	-11.1276
▁41	-11.1277
▁чувством	-11.1277
3]	-11.1278
▁расход	-11.1278
▁Генрих	-11.1278
▁77	-11.1282
▁религия	-11.1283
▁отрядов	-11.1285
ó	-11.1287
▁фамилии	-11.1289
mer	-11.1291
▁находилось	-11.1294
ником	-11.1296
▁раствор	-11.1302
▁насилия	-11.1303
▁предположение	-11.1304
0].	-11.1304
▁государстве	-11.1305
▁важную	-11.1306
▁островов	-11.1307
▁Божия	-11.1309
▁доктора	-11.131
▁несет	-11.1311
oc	-11.1315
▁покинуть	-11.1317
ions	-11.1317
▁имен	-11.1318
▁расчет	-11.1318
▁--	-11.1319
▁Кан	-11.1319
▁подъем	-11.1322
▁внешних	-11.1326
тельные	-11.1326
ений	-11.1327
▁asked	-11.1328
▁ок	-11.1329
▁освобождение	-11.1329
▁снял	-11.133
▁совести	-11.1331
▁Наша	-11.1331
чка	-11.1333
пад	-11.1333
ki	-11.1334
▁Екатерина	-11.1334
▁times	-11.1335
▁проход	-11.1339
ске	-11.1339
тельная	-11.134
▁организацию	-11.1341
ex	-11.1343
▁заседании	-11.1343
▁создали	-11.1343
▁стремился	-11.1343
“.	-11.1347
▁вон	-11.1347
▁входили	-11.1349
▁старались	-11.1349
▁замок	-11.135
▁музыку	-11.1356
рид	-11.1356
▁микро	-11.1358
▁знаменитый	-11.1358
▁кусок	-11.1359
▁лета	-11.1359
ологии	-11.1359
▁находим	-11.1361
▁поняла	-11.1361
ается	-11.1362
▁(17	-11.1364
вшуюся	-11.1367
▁Запад	-11.137
▁автором	-11.1372
▁автомобиль	-11.1372
▁помогать	-11.1373
58	-11.1375
▁Ed	-11.1376
▁пары	-11.1377
▁ad	-11.1377
▁высоту	-11.1378
▁600	-11.138
▁направил	-11.138
▁Европу	-11.138
▁див	-11.1381
нт	-11.1381
рей	-11.1381
▁10-	-11.1383
▁вице	-11.1384
▁притом	-11.1384
ине	-11.1384
▁social	-11.1385
тек	-11.1386
▁сеть	-11.1388
▁Израиля	-11.1388
закон	-11.1389
▁крик	-11.1389
▁позиция	-11.1392
▁1959	-11.1395
▁рынке	-11.1395
▁приказу	-11.1396
▁Ум	-11.1398
▁уст	-11.1398
out	-11.1399
▁Закон	-11.14
▁73	-11.14
▁Англия	-11.14
▁зубы	-11.14
▁путешествия	-11.14
▁переходит	-11.1401
▁больно	-11.1402
▁учреждения	-11.1408
▁Ред	-11.1409
▁становились	-11.1409
▁Боже	-11.1413
▁подхода	-11.1415
▁наряд	-11.1419
▁музей	-11.1421
ушки	-11.1422
▁служат	-11.1422
▁достигает	-11.1425
▁ключ	-11.1425
▁оказать	-11.1425
▁капитал	-11.1425
▁взглядов	-11.1426
▁фотографии	-11.143
▁Se	-11.1431
шую	-11.1433
▁отмечал	-11.1433
▁Дальше	-11.1434
▁1913	-11.1434
▁выразить	-11.1435
▁фигур	-11.1435
▁almost	-11.1435
In	-11.1436
▁кругом	-11.1436
▁представлений	-11.1437
бед	-11.1437
▁поддержке	-11.144
▁всюду	-11.1442
▁занятий	-11.1444
▁движением	-11.1447
▁черные	-11.145
▁чиновников	-11.1451
▁собирались	-11.1451
ток	-11.1452
ьную	-11.1456
▁Й	-11.1457
▁Ло	-11.1458
▁enough	-11.1458
▁общины	-11.1458
tu	-11.1459
▁внутренние	-11.1464
▁министров	-11.1465
▁шт	-11.1465
5]	-11.1466
сан	-11.1466
▁случаю	-11.1467
▁Толстого	-11.1468
▁Египта	-11.1471
▁rather	-11.1471
▁остро	-11.1473
▁простор	-11.1473
▁глубины	-11.1475
▁young	-11.1478
▁present	-11.1478
▁заменить	-11.1478
▁приходят	-11.1479
▁растет	-11.148
▁больного	-11.1482
▁архив	-11.1485
▁сочинений	-11.1485
▁какому	-11.1487
ial	-11.1493
▁маленькие	-11.1495
▁понятий	-11.1496
▁остальное	-11.1496
▁журналист	-11.1496
▁Олег	-11.1497
ьи	-11.1498
▁матерью	-11.1499
след	-11.1501
▁соглашение	-11.1501
▁Journal	-11.1502
▁1980	-11.1502
▁Мать	-11.1504
▁условии	-11.1506
▁kind	-11.1508
ina	-11.1511
▁ракеты	-11.1513
▁объясняет	-11.1513
▁королю	-11.1515
▁распоряжении	-11.1515
▁врача	-11.1516
▁требуют	-11.1516
ї	-11.1516
▁отправиться	-11.1517
▁рамки	-11.1517
ини	-11.1518
▁9-	-11.1518
▁фактор	-11.1519
▁читателей	-11.152
▁представляли	-11.1521
Там	-11.1521
лина	-11.1521
▁стоило	-11.1523
▁окружения	-11.1525
▁родину	-11.1526
▁принести	-11.1527
▁глубокой	-11.1528
▁words	-11.1529
▁специальных	-11.153
▁least	-11.153
▁упорно	-11.1532
▁трудов	-11.1536
▁вовремя	-11.1536
▁47	-11.1536
летнего	-11.1537
▁американские	-11.1537
▁51	-11.1537
▁счете	-11.154
▁group	-11.1543
▁целые	-11.1546
▁основа	-11.155
кур	-11.1552
▁надежда	-11.1553
▁смело	-11.1556
▁некоторой	-11.1557
▁кот	-11.1558
▁чисел	-11.1558
▁Письмо	-11.1559
▁правительству	-11.1562
▁принципиально	-11.1563
▁заняли	-11.1563
▁командиром	-11.1564
▁законодательств	-11.1565
щик	-11.1565
▁физической	-11.1567
▁согласия	-11.1569
▁Египет	-11.1569
7]	-11.157
▁окончил	-11.157
▁проб	-11.1571
лі	-11.1572
▁полет	-11.1574
▁Опять	-11.1575
▁убийство	-11.1576
▁автоматически	-11.1576
▁французов	-11.1577
▁неправильно	-11.1577
▁Ши	-11.1577
▁опытом	-11.1578
▁День	-11.1579
▁песен	-11.1579
▁разница	-11.158
▁созданию	-11.1584
▁сахар	-11.1586
▁means	-11.1587
▁Роберт	-11.1588
▁сотен	-11.159
▁ввиду	-11.1595
▁разным	-11.1596
▁контексте	-11.1603
▁экипаж	-11.1606
▁Вид	-11.1607
дал	-11.1609
▁Джордж	-11.1614
▁своём	-11.1618
▁Мари	-11.162
▁законом	-11.162
▁блага	-11.1621
▁сборник	-11.1622
▁ставить	-11.1623
▁подошли	-11.163
▁Откуда	-11.1631
▁ожидал	-11.1631
▁выбрать	-11.1634
ber	-11.1634
▁продолжение	-11.1634
▁идеологии	-11.1635
ара	-11.1635
▁плечами	-11.164
▁лето	-11.1641
▁активность	-11.1642
▁участвовать	-11.1643
▁Любовь	-11.1647
▁хозяина	-11.1647
▁квартиры	-11.1648
▁Отца	-11.165
9]	-11.1653
сте	-11.1654
▁окружающей	-11.1655
▁ряду	-11.1656
▁Кажется	-11.1656
▁Какая	-11.1659
53	-11.1659
▁требовал	-11.1662
▁Первым	-11.1663
▁богатство	-11.1666
▁лодок	-11.1667
▁1968	-11.1668
▁обыкновенно	-11.1675
▁возвращается	-11.1677
▁мятеж	-11.168
▁река	-11.1681
▁философия	-11.1681
ада	-11.1681
▁вооружения	-11.1683
▁приносит	-11.1684
уд	-11.1684
▁ne	-11.1685
▁разговоры	-11.1686
▁потерь	-11.1687
1,	-11.1688
▁погибли	-11.1689
▁колонны	-11.169
▁пятнадцать	-11.1692
▁воины	-11.1693
▁local	-11.1693
▁рукописи	-11.1694
▁плоды	-11.1695
▁лошадь	-11.1696
▁шанс	-11.1699
▁вопросе	-11.1699
▁поли	-11.1699
▁примет	-11.17
▁первыми	-11.1701
▁личных	-11.1701
▁1949	-11.1702
▁сохранения	-11.1703
▁платить	-11.1706
▁миль	-11.1706
▁дед	-11.1706
▁пир	-11.171
▁зависимость	-11.1711
▁частных	-11.1713
▁ле	-11.1725
▁колени	-11.1725
▁национальных	-11.1726
▁температура	-11.1731
▁вооружение	-11.1732
▁капитализма	-11.1732
▁El	-11.1734
▁поездки	-11.1735
▁©	-11.1736
▁говорим	-11.1739
▁временно	-11.174
▁высоким	-11.174
▁предлагал	-11.174
▁нормально	-11.1742
▁германской	-11.1743
▁поехал	-11.1744
▁фирмы	-11.1745
▁десятилетия	-11.1746
▁центральной	-11.1747
97	-11.1747
▁готовности	-11.1747
▁read	-11.175
іемъ	-11.1751
▁half	-11.1752
▁process	-11.1752
▁умеет	-11.1753
▁Ex	-11.1754
64	-11.1754
▁отмечает	-11.1755
▁74	-11.1756
▁ищет	-11.1758
▁социальные	-11.1759
ek	-11.1763
di	-11.177
▁деревню	-11.1773
аз	-11.1773
▁английских	-11.1776
ику	-11.1776
▁животные	-11.1776
▁тайны	-11.1777
▁шагом	-11.1779
ицы	-11.178
▁удовольствия	-11.178
▁примеры	-11.178
зов	-11.178
Нет	-11.1787
▁States	-11.1787
▁убежден	-11.179
иш	-11.1791
▁происходят	-11.1791
▁Na	-11.1793
▁type	-11.1798
▁еду	-11.1799
▁конфликта	-11.1799
▁собрал	-11.18
sen	-11.18
á	-11.1802
▁великие	-11.1805
▁стоя	-11.1806
▁ошибок	-11.1807
▁служба	-11.1809
▁малых	-11.181
▁вол	-11.1811
▁био	-11.1812
í	-11.1813
▁столицу	-11.1814
▁сражение	-11.1814
▁Последний	-11.1815
оне	-11.1816
▁принципов	-11.1818
▁достигли	-11.1818
▁исполнение	-11.1819
6]	-11.1822
▁верхней	-11.1823
▁исходя	-11.1823
▁члена	-11.1823
▁тока	-11.1824
▁отвечать	-11.1824
▁училище	-11.1825
▁71	-11.1827
▁проходили	-11.1828
▁противоречия	-11.1829
▁указ	-11.183
▁старше	-11.183
▁законам	-11.1831
▁наказание	-11.1831
▁сообщить	-11.1832
▁спец	-11.1833
▁игр	-11.1834
▁запись	-11.1835
▁Андрея	-11.1838
ä	-11.1838
▁past	-11.1841
мысл	-11.1841
▁глас	-11.1841
▁потенциал	-11.1842
ology	-11.1842
▁душой	-11.1843
▁смогла	-11.1845
▁последнем	-11.1847
▁незаметно	-11.1849
▁заряд	-11.1851
▁пунктов	-11.1851
▁seen	-11.1852
▁Люб	-11.1854
кол	-11.1854
▁сложных	-11.1855
▁спросить	-11.1855
ud	-11.1857
▁общин	-11.1859
▁признаков	-11.1859
▁золотой	-11.1863
▁операцию	-11.1864
▁поколение	-11.1868
ow	-11.1868
где	-11.1868
альную	-11.1871
▁защищать	-11.1872
Ма	-11.1872
ало	-11.1872
▁держа	-11.1874
▁change	-11.1875
щу	-11.1876
▁превращается	-11.1877
▁1912	-11.1879
▁ел	-11.1881
▁itself	-11.1881
Ко	-11.1883
▁политическую	-11.1889
▁сзади	-11.1889
рус	-11.1891
▁78	-11.1891
▁son	-11.1891
Ѵ	-11.1892
▁радостно	-11.1893
96	-11.1893
▁селе	-11.1894
▁Ваше	-11.1896
▁университете	-11.1898
▁действовали	-11.1899
▁секретаря	-11.1901
▁парад	-11.1902
▁глубину	-11.1903
▁носить	-11.1909
нія	-11.1911
зу	-11.1912
є	-11.1913
ницу	-11.1916
▁редакции	-11.1917
щая	-11.1921
▁women	-11.1924
▁полная	-11.1924
51	-11.1925
▁French	-11.1928
▁англичане	-11.1929
ял	-11.1929
▁постоянной	-11.1931
▁изо	-11.1933
▁76	-11.1934
▁пытаются	-11.1936
▁Then	-11.1936
▁Напротив	-11.1937
▁луч	-11.1938
▁внешнего	-11.1938
▁трав	-11.1939
ити	-11.1943
▁ар	-11.1944
ations	-11.1946
▁value	-11.1948
▁тюрьмы	-11.1949
бит	-11.1953
▁оснований	-11.1956
сл	-11.1959
▁нанести	-11.1961
▁английской	-11.1964
▁прорыв	-11.1965
▁дву	-11.1966
▁обратил	-11.1966
▁Дар	-11.1967
ana	-11.1967
ета	-11.1968
▁Год	-11.1968
▁рассказывать	-11.197
▁истина	-11.1972
▁европейской	-11.1972
▁го	-11.1973
▁автомат	-11.1973
▁товары	-11.1973
ab	-11.1974
як	-11.1974
▁Аль	-11.1977
▁согласиться	-11.1978
▁протест	-11.1979
▁трон	-11.198
▁точности	-11.1982
▁служили	-11.1983
▁научного	-11.1986
▁губы	-11.1986
if	-11.1986
of	-11.1987
▁продолжала	-11.1991
▁севере	-11.1993
пит	-11.1994
▁соответствующих	-11.1995
▁стихов	-11.1996
▁относиться	-11.1998
▁post	-11.2002
68	-11.2005
▁доля	-11.2006
▁free	-11.2007
▁потребовал	-11.2008
▁светом	-11.2008
▁обучение	-11.201
▁Трудно	-11.2015
▁рассказа	-11.2015
ице	-11.2022
▁болезней	-11.2023
▁никуда	-11.2024
нной	-11.2027
▁short	-11.2027
инов	-11.2028
▁self	-11.2029
▁Pro	-11.2031
▁рыбы	-11.2033
Йорк	-11.2033
▁sense	-11.2033
8]	-11.2034
▁суммы	-11.2035
▁вероятность	-11.2035
▁еды	-11.2036
▁отделение	-11.2037
▁Африке	-11.2038
▁эксперимент	-11.2039
les	-11.2039
▁тяжелой	-11.2044
▁куб	-11.2045
▁действием	-11.2045
▁1906	-11.2046
▁рос	-11.205
▁1955	-11.2053
▁своя	-11.2054
▁администрации	-11.2055
▁открыли	-11.2055
▁стиле	-11.2056
▁меняется	-11.2059
▁коллег	-11.2059
▁верил	-11.206
57	-11.206
▁писала	-11.2062
▁внутренний	-11.2062
▁сложности	-11.2063
емъ	-11.2064
▁THE	-11.2064
tion	-11.2065
▁значении	-11.2065
▁исход	-11.2066
▁становилось	-11.2066
▁ежегодно	-11.2068
▁метода	-11.2069
▁цветы	-11.207
▁Roman	-11.2071
▁исследователи	-11.2071
▁Центр	-11.2071
▁лежат	-11.2072
▁команд	-11.2073
▁ненависть	-11.2073
po	-11.2075
▁объекты	-11.2075
▁упражнения	-11.2075
▁событиях	-11.2075
▁директора	-11.2076
▁full	-11.2077
▁общую	-11.208
▁Спустя	-11.2082
▁примером	-11.2085
аю	-11.2085
▁хвост	-11.2086
▁Ясно	-11.2087
▁взяла	-11.2087
▁белой	-11.209
▁сумма	-11.2092
▁Африки	-11.2097
Во	-11.2098
▁зоне	-11.2099
ft	-11.21
чувств	-11.2104
▁съезд	-11.2104
69	-11.2105
▁мяса	-11.2106
▁question	-11.2108
▁Никогда	-11.2108
ницей	-11.211
▁Давайте	-11.211
▁пыль	-11.2113
▁father	-11.2114
▁толпа	-11.2114
▁лад	-11.2115
▁господа	-11.2115
▁разрешение	-11.2116
▁равен	-11.2117
▁мудрости	-11.2118
▁германских	-11.212
▁(5	-11.2124
ization	-11.2124
▁воскрес	-11.2125
▁занимал	-11.2126
▁Кн	-11.2127
▁ток	-11.2127
ОВ	-11.2129
нѣ	-11.213
▁view	-11.2132
nd	-11.2132
нский	-11.2133
▁84	-11.2135
▁Важно	-11.2136
▁обеда	-11.2136
▁всякие	-11.2137
▁первоначально	-11.2138
▁смех	-11.2138
▁разно	-11.2139
▁together	-11.214
▁нарушение	-11.2141
альное	-11.2142
▁маленькой	-11.2144
▁направился	-11.2145
▁бор	-11.2149
▁камней	-11.215
▁сход	-11.2151
▁обстановка	-11.2152
▁code	-11.2154
▁покинул	-11.2155
▁структуру	-11.2155
▁мирового	-11.2155
ron	-11.2156
▁themselves	-11.2156
▁сцену	-11.2157
▁space	-11.2158
▁Израиль	-11.2159
▁Нового	-11.216
щего	-11.216
мал	-11.2161
▁членами	-11.2161
▁расположение	-11.2162
▁специальные	-11.2162
▁Ch	-11.2163
59	-11.2163
▁энергией	-11.2163
▁трудящихся	-11.2167
стрел	-11.2169
бол	-11.2173
куп	-11.2176
▁независимости	-11.2176
▁рез	-11.2179
▁гарнизон	-11.218
▁Ай	-11.2182
▁обращается	-11.2182
▁пригласил	-11.2185
▁пожал	-11.2189
▁May	-11.2192
▁верст	-11.2192
▁мистер	-11.2192
▁встретить	-11.2193
ап	-11.2194
▁формально	-11.2196
чив	-11.2197
▁научиться	-11.2205
пт	-11.2205
▁готова	-11.2205
▁окружающих	-11.2206
▁чрез	-11.2209
▁угрозы	-11.221
вшимися	-11.221
▁отражение	-11.2212
▁американцы	-11.2212
▁уши	-11.2213
▁really	-11.2213
▁открытие	-11.2215
очной	-11.2217
▁общая	-11.2218
▁стараясь	-11.2219
▁весел	-11.2219
само	-11.2223
▁чтения	-11.2223
▁including	-11.2226
еп	-11.2226
▁урок	-11.2227
гин	-11.2232
▁карту	-11.2233
▁82	-11.2234
▁принят	-11.2236
▁деятельностью	-11.2236
▁май	-11.2238
▁88	-11.2239
▁доложил	-11.2239
▁количеством	-11.224
▁thing	-11.2243
▁российского	-11.2246
▁черной	-11.2246
▁ро	-11.2247
▁Un	-11.2248
0]	-11.225
▁использует	-11.2253
▁встречу	-11.2256
▁стратегии	-11.2256
▁страной	-11.2258
ления	-11.2259
▁духовных	-11.2259
▁плоти	-11.2259
▁движений	-11.226
▁врачей	-11.2261
▁военнопленных	-11.2262
▁работала	-11.2264
▁намерения	-11.2264
▁цифры	-11.2265
▁Europe	-11.2266
них	-11.2268
98	-11.2269
▁похож	-11.227
▁мероприятия	-11.2271
▁массив	-11.2272
▁числом	-11.2272
▁посол	-11.2274
▁поста	-11.2277
ities	-11.2279
въ	-11.2279
▁95	-11.2281
▁справиться	-11.2283
▁подготовку	-11.2283
▁воевать	-11.2283
▁тексты	-11.2283
▁решении	-11.2284
▁половиной	-11.2285
▁магазин	-11.2288
▁слушал	-11.2289
▁сторонников	-11.2289
ure	-11.2293
▁сельского	-11.2294
▁выходить	-11.2295
▁пользовались	-11.2296
▁огромную	-11.2296
▁играют	-11.2297
66	-11.2297
▁Some	-11.2297
иста	-11.2298
сты	-11.2301
жит	-11.2303
▁fire	-11.2307
led	-11.2309
▁кругов	-11.2315
▁стремились	-11.2318
▁вспоминает	-11.2319
▁орден	-11.232
▁простым	-11.2322
▁посту	-11.2323
▁секунду	-11.2325
▁кладбище	-11.2326
щиков	-11.2328
воль	-11.2328
▁60-	-11.2328
▁les	-11.2329
емое	-11.2329
кров	-11.233
▁знаки	-11.233
▁Понятно	-11.2331
▁Говорят	-11.2333
▁формой	-11.2336
слов	-11.2336
▁юноша	-11.2336
ош	-11.2338
▁подготовка	-11.2339
▁пользовался	-11.2339
мена	-11.234
▁основой	-11.2341
▁историки	-11.2342
▁уверенно	-11.2343
▁Центральной	-11.2345
▁книгах	-11.2345
▁черный	-11.2345
▁талант	-11.2345
▁приказа	-11.2346
▁ударов	-11.2346
▁велика	-11.2348
▁назван	-11.2348
tes	-11.235
▁норм	-11.2353
▁заводе	-11.2354
▁call	-11.2355
раб	-11.2357
▁размеры	-11.2358
▁прекрасный	-11.2358
▁условие	-11.2358
▁товарища	-11.2358
▁Вал	-11.236
▁считаться	-11.2361
▁продукт	-11.2362
▁National	-11.2363
▁слой	-11.2363
▁экспериментальн	-11.2364
▁собственность	-11.2366
енными	-11.237
▁принципа	-11.2372
▁примеров	-11.2373
▁продолжил	-11.2373
▁Лю	-11.2373
▁содержится	-11.2375
▁ССР	-11.2375
▁замечает	-11.2376
▁забот	-11.2377
▁параллельно	-11.2377
▁land	-11.2382
рой	-11.2383
▁американцев	-11.2384
▁лестнице	-11.2386
▁протянул	-11.2386
▁современные	-11.2389
▁вашим	-11.2392
▁1967	-11.2392
▁Мед	-11.2393
аж	-11.2395
▁карте	-11.2396
▁лед	-11.2396
▁Воз	-11.2397
▁мусульман	-11.2398
▁недостаток	-11.2399
▁свидетельства	-11.24
▁би	-11.2402
▁Антон	-11.2403
▁аэродром	-11.2403
▁знакомых	-11.2405
▁послан	-11.2407
▁(1)	-11.2408
▁принадлежат	-11.2409
▁руководитель	-11.2409
▁широкой	-11.241
▁17.	-11.2412
кто	-11.2413
▁код	-11.2415
▁видишь	-11.2418
▁осуществляется	-11.2418
▁свидетельство	-11.242
▁1910	-11.242
▁продолжа	-11.242
▁творчество	-11.242
▁актер	-11.2423
▁последующие	-11.2423
▁произошла	-11.2423
▁процент	-11.2424
▁называемые	-11.2426
▁романе	-11.2427
▁da	-11.2427
▁правды	-11.2427
ющем	-11.2429
▁немцами	-11.2429
▁млрд	-11.2432
▁support	-11.2434
▁Герман	-11.2434
▁царской	-11.2435
mo	-11.2438
▁Была	-11.244
▁фронтом	-11.2441
▁исчез	-11.2445
▁царем	-11.2445
клад	-11.2446
▁Давид	-11.2446
ограф	-11.2448
ці	-11.245
▁ру	-11.2451
▁труды	-11.2452
▁позволит	-11.2452
иной	-11.2453
▁печать	-11.2453
веден	-11.2454
▁поверить	-11.2455
▁que	-11.2456
▁удержать	-11.2457
▁переворот	-11.2458
ким	-11.2459
▁люд	-11.246
ители	-11.246
▁сэр	-11.2464
▁закончил	-11.2466
▁пальцы	-11.2466
▁хорошим	-11.2467
▁враги	-11.2467
▁интеллигенции	-11.2468
совет	-11.2473
▁свободе	-11.2474
▁хор	-11.2477
▁герцог	-11.2478
▁упор	-11.2478
▁тень	-11.2478
▁Республики	-11.2479
▁мотив	-11.248
ером	-11.248
ющимися	-11.2483
▁вернее	-11.2483
▁ma	-11.2486
▁борту	-11.2486
аны	-11.2488
▁построения	-11.2489
▁действиями	-11.249
▁able	-11.2491
▁предмета	-11.2493
▁Позднее	-11.2493
sa	-11.2495
▁памятник	-11.2495
▁распространения	-11.2496
ЕЙ	-11.2498
▁вывести	-11.25
▁устав	-11.2501
▁вызывают	-11.2501
▁зовут	-11.2501
▁помощник	-11.2503
▁прочно	-11.2503
▁определенного	-11.2503
роз	-11.2503
▁простые	-11.2503
▁problem	-11.2504
▁звали	-11.2504
▁решению	-11.2505
▁обход	-11.2506
▁наблюдается	-11.2506
▁принимают	-11.2507
▁Иерусалим	-11.2507
▁Турции	-11.2508
▁существовании	-11.2508
оса	-11.2509
тем	-11.2509
ено	-11.2513
▁битве	-11.2513
аф	-11.2514
▁кожа	-11.2517
▁Кир	-11.2517
▁yet	-11.2517
▁единой	-11.2517
▁политическая	-11.2517
▁Библии	-11.2519
▁knew	-11.252
▁Благо	-11.2522
▁течения	-11.2523
▁прекратить	-11.2525
▁залива	-11.2526
▁канон	-11.2527
▁сколь	-11.2527
▁способов	-11.2527
▁твоих	-11.2528
тил	-11.2529
глас	-11.253
▁привела	-11.253
▁den	-11.2531
▁эмиграции	-11.2535
▁входа	-11.2536
няя	-11.2536
▁плечо	-11.2537
▁попытку	-11.2539
▁конкретных	-11.254
▁произошел	-11.2545
▁хан	-11.2546
▁Ро	-11.2547
▁79	-11.2547
▁стакан	-11.2547
▁inter	-11.2549
▁1965	-11.2551
ати	-11.2552
▁настоящим	-11.2553
•	-11.2556
▁сорока	-11.2558
низ	-11.2559
▁бу	-11.256
▁Джо	-11.256
евский	-11.2561
▁вступить	-11.2562
▁чистой	-11.2564
▁знаков	-11.2565
78	-11.2566
▁адмирал	-11.2568
▁period	-11.2569
▁полагал	-11.2569
▁живописи	-11.2569
▁Поли	-11.257
▁карман	-11.2574
▁необходимых	-11.2577
▁отсутствии	-11.2578
шен	-11.2581
▁ten	-11.2581
▁требовали	-11.2583
1)	-11.2584
▁having	-11.2585
▁1999	-11.2585
▁танка	-11.2588
▁done	-11.2588
▁run	-11.2588
шку	-11.2591
▁учреждений	-11.2591
▁находясь	-11.2592
▁буржуазии	-11.2592
▁министерства	-11.2595
тай	-11.26
▁спасение	-11.26
▁телефону	-11.2602
▁заявления	-11.2602
▁обстановки	-11.2603
▁расстояния	-11.2603
▁пропаганды	-11.2603
▁доказательств	-11.2604
▁животного	-11.2606
▁группировки	-11.2607
▁собирается	-11.2609
▁Тар	-11.261
▁Уж	-11.2611
▁плюс	-11.2611
▁Чер	-11.2615
▁Рядом	-11.2619
▁Ne	-11.2619
▁Му	-11.2621
▁лежали	-11.2623
▁используются	-11.2624
▁вела	-11.2626
▁86	-11.2628
▁Судя	-11.2628
sp	-11.2629
▁уничтожения	-11.2629
гре	-11.263
▁транс	-11.2631
▁образов	-11.2631
вор	-11.2631
▁насчет	-11.2634
КИ	-11.2635
лиз	-11.2635
▁районы	-11.2635
▁фронтов	-11.2636
▁голосов	-11.2637
▁плод	-11.2637
▁сан	-11.2639
▁Сразу	-11.2643
▁известным	-11.2644
дай	-11.2647
▁стоимость	-11.2647
▁кос	-11.2647
▁искал	-11.2651
▁true	-11.2653
▁Се	-11.2654
▁Русской	-11.2656
▁Игорь	-11.2658
54	-11.2661
▁Бе	-11.2661
▁вызвало	-11.2661
▁направлен	-11.2664
▁France	-11.2665
рес	-11.2665
рю	-11.2665
▁сержант	-11.2666
▁love	-11.2666
▁хода	-11.2667
▁дер	-11.2667
▁ввести	-11.2668
▁иных	-11.2669
▁встретиться	-11.267
▁примере	-11.2672
рет	-11.2675
▁желал	-11.2675
▁idea	-11.2676
▁картин	-11.2677
▁входят	-11.2681
▁применять	-11.2681
ВО	-11.2681
▁частицы	-11.2682
▁живого	-11.2683
▁ушла	-11.2683
▁слову	-11.2685
▁clear	-11.2686
▁воспоминаний	-11.2689
▁боевого	-11.2691
▁спал	-11.2692
▁area	-11.2692
94	-11.2692
▁Шар	-11.2695
цвет	-11.2697
моему	-11.2698
▁пушек	-11.27
▁пролетариата	-11.2701
▁привлечь	-11.2703
рем	-11.2703
▁бок	-11.2703
▁Вера	-11.2704
овом	-11.2704
▁штраф	-11.2705
▁участники	-11.2705
овича	-11.2707
▁16.	-11.2707
▁падает	-11.2709
▁дальнейшего	-11.2714
▁родственников	-11.2715
▁front	-11.2715
▁Пи	-11.2718
“,	-11.2718
▁Бра	-11.2721
▁противо	-11.2721
▁тов	-11.2722
▁рубеж	-11.2725
▁саду	-11.2726
служ	-11.2727
▁белого	-11.2727
▁мужем	-11.2732
▁Советов	-11.2732
▁выделить	-11.2738
▁единственной	-11.2739
▁2008	-11.274
очный	-11.2741
▁греха	-11.2741
ang	-11.2742
ивший	-11.2743
▁стиля	-11.2743
▁налогов	-11.2743
▁return	-11.2748
тар	-11.2748
▁брака	-11.2749
▁железа	-11.2749
пят	-11.275
▁публикации	-11.2753
нского	-11.2754
▁дай	-11.2755
▁нашла	-11.276
▁выпуска	-11.2761
▁обладал	-11.2763
▁продолжительно	-11.2763
▁плат	-11.2764
▁face	-11.2765
▁81	-11.2767
▁бюджет	-11.2767
▁длиной	-11.2767
▁свободного	-11.2768
▁taken	-11.2768
▁1995	-11.2768
▁впечатления	-11.2772
▁моста	-11.2773
▁ранних	-11.2775
▁воспитания	-11.2776
▁королем	-11.2777
▁расходы	-11.2778
▁численность	-11.2778
▁угрозу	-11.2778
3)	-11.2778
▁тюрьму	-11.2779
▁Ми	-11.2779
▁положить	-11.278
▁Кот	-11.2781
▁опер	-11.2785
▁кабинете	-11.2785
▁германского	-11.2786
▁колен	-11.2787
Щ	-11.2788
▁ос	-11.2788
▁обычных	-11.279
▁1954	-11.2792
▁молод	-11.2794
▁букв	-11.2795
▁глубже	-11.2796
▁парламент	-11.2796
93	-11.2797
▁гнева	-11.2799
▁2001	-11.28
▁Впоследствии	-11.2801
▁месяцы	-11.2801
▁заново	-11.2803
▁чужой	-11.2807
▁бросить	-11.2809
▁племена	-11.281
▁отлича	-11.2812
▁значительное	-11.2814
▁заметили	-11.2815
два	-11.2815
▁судна	-11.2815
ue	-11.2818
▁маленьких	-11.2819
▁боялся	-11.2821
▁значительные	-11.2822
▁назначение	-11.2824
▁Лес	-11.2825
▁показаться	-11.2826
▁миллионы	-11.2831
▁Русский	-11.2832
▁признал	-11.2832
▁промышленность	-11.2835
▁Финляндии	-11.2835
рев	-11.2836
▁убили	-11.2836
▁решено	-11.2837
▁высказал	-11.2838
▁нуждается	-11.2839
▁башни	-11.284
▁корни	-11.2841
▁Кал	-11.2842
дели	-11.2844
▁идёт	-11.2847
▁обстановку	-11.2847
▁прорыва	-11.2848
▁1996	-11.2851
▁мороз	-11.2851
▁комиссия	-11.2853
ice	-11.2854
▁государственные	-11.2854
овка	-11.2855
▁красных	-11.2856
▁Самое	-11.2857
▁Две	-11.2857
▁захватили	-11.2857
полн	-11.2858
▁длинные	-11.2859
▁доверие	-11.2859
Бог	-11.2859
▁небольших	-11.2859
▁считалось	-11.2861
▁отправить	-11.2864
▁скота	-11.2867
▁животное	-11.2868
ip	-11.2868
▁Вып	-11.2869
▁Ладно	-11.287
▁Францию	-11.287
ster	-11.2871
67	-11.2872
▁стоимости	-11.2874
bo	-11.2874
tra	-11.2876
пло	-11.2878
▁разрушения	-11.2879
▁пил	-11.288
мут	-11.2881
▁Юр	-11.2882
См	-11.2883
уда	-11.2883
▁Какое	-11.2885
плат	-11.2888
зин	-11.2888
▁получим	-11.2889
▁функцию	-11.2891
▁word	-11.2892
▁критика	-11.2893
▁деятелей	-11.2896
▁мягко	-11.2896
▁обычной	-11.2898
▁общение	-11.2899
▁(10	-11.29
▁возвращении	-11.2902
▁монет	-11.2903
▁техника	-11.2903
ha	-11.2903
▁зап	-11.2904
▁беда	-11.2904
▁думают	-11.2904
▁certain	-11.2906
ck	-11.2908
▁ошибка	-11.2908
вшему	-11.2908
▁ритуал	-11.291
▁оказываются	-11.291
▁освобожден	-11.2912
▁мил	-11.2916
▁Dr	-11.2916
▁взяв	-11.2919
-10	-11.292
▁позволило	-11.2921
▁показания	-11.2923
▁женщине	-11.2923
▁обороне	-11.2923
▁99	-11.2923
▁vi	-11.2924
пов	-11.2924
▁высокую	-11.2924
▁сезон	-11.2925
олог	-11.2928
▁50-	-11.2928
▁поистине	-11.2931
НА	-11.2932
▁вос	-11.2932
▁Война	-11.2933
▁осуществления	-11.2934
▁политическим	-11.2934
▁слышали	-11.2938
▁принесли	-11.294
▁возникли	-11.294
▁музея	-11.2942
сам	-11.2943
шир	-11.2948
▁1994	-11.2949
▁лучшее	-11.295
▁ответы	-11.295
▁занимается	-11.2951
▁Решение	-11.2952
▁проч	-11.2956
▁учитывать	-11.2956
▁личный	-11.2957
▁Буд	-11.2957
▁военная	-11.2958
▁Оказалось	-11.2958
▁Кап	-11.2959
we	-11.296
изу	-11.2962
▁бед	-11.2963
нд	-11.2963
ема	-11.2963
▁небес	-11.2964
▁Фридрих	-11.2965
▁повезло	-11.2966
▁военном	-11.2967
▁художников	-11.2968
▁1952	-11.2971
▁противников	-11.2974
▁гидро	-11.2975
▁поиски	-11.2975
▁сильной	-11.2976
▁братом	-11.2977
▁кровати	-11.2977
▁оппозиции	-11.2978
▁феномен	-11.2978
▁готовность	-11.2979
▁крейсер	-11.298
▁град	-11.2981
▁1998	-11.2982
▁Маг	-11.2983
▁Ильич	-11.2984
▁высказывания	-11.2985
▁130	-11.2985
▁rest	-11.2988
▁утверждают	-11.2989
▁восстановления	-11.299
▁Павлович	-11.2991
▁Князь	-11.2991
▁1900	-11.2991
▁87	-11.2992
▁демон	-11.2995
▁улыбкой	-11.2996
нова	-11.2996
▁Ещё	-11.2996
▁сделав	-11.2996
▁шаги	-11.2997
▁Капитан	-11.2997
▁определенный	-11.2998
ring	-11.2998
▁взгляда	-11.2998
▁бытие	-11.2999
▁следствием	-11.3
пп	-11.3
▁сможете	-11.3
▁Сталину	-11.3
▁скал	-11.3001
ковский	-11.3001
ича	-11.3002
▁описал	-11.3003
▁темноте	-11.3003
▁вождя	-11.3003
î	-11.3004
▁князю	-11.3004
▁развивается	-11.301
ище	-11.301
чиков	-11.3011
мышлен	-11.3011
▁подтвердил	-11.3011
▁требование	-11.3012
▁лит	-11.3013
77	-11.3013
ола	-11.3015
▁keep	-11.3017
▁труб	-11.3019
▁учился	-11.302
кр	-11.302
▁епископа	-11.302
▁непри	-11.3023
▁понимая	-11.3027
добр	-11.3027
▁пас	-11.3029
▁буквы	-11.303
▁1973	-11.303
▁18.	-11.3031
▁пролив	-11.3031
вели	-11.3033
▁ограничения	-11.3034
▁лодка	-11.3036
▁еле	-11.3037
кие	-11.304
▁исследователей	-11.304
▁срока	-11.3041
▁America	-11.3041
▁выполнение	-11.3042
▁боги	-11.3043
▁обряд	-11.3044
▁солдата	-11.3044
▁приема	-11.3046
▁руководил	-11.3046
▁прежних	-11.3046
дела	-11.3047
-6	-11.3047
иды	-11.3051
▁образцов	-11.3051
▁рота	-11.3053
▁табл	-11.3055
ог	-11.3055
▁личные	-11.306
▁подарок	-11.306
▁деньгами	-11.3063
▁лекции	-11.3063
▁сложные	-11.3064
фон	-11.3064
▁Стр	-11.3065
▁12-	-11.3066
der	-11.3066
▁убедиться	-11.3066
▁(2)	-11.3066
▁подполковник	-11.3067
52	-11.3067
шек	-11.3067
▁op	-11.307
▁hard	-11.307
очные	-11.3072
▁провал	-11.3072
▁встреч	-11.3073
▁кольцо	-11.3076
▁экипажа	-11.3076
▁принялся	-11.3076
▁рассмотреть	-11.3077
▁Мил	-11.3077
▁главу	-11.3078
▁From	-11.308
▁подводных	-11.308
▁Австрии	-11.3081
▁Одни	-11.3081
разному	-11.3084
▁физических	-11.3087
▁произвести	-11.3088
▁лучший	-11.3088
▁Едва	-11.309
▁Киеве	-11.3091
иг	-11.3092
▁северной	-11.3092
▁вернулась	-11.3092
ителя	-11.3093
▁оттого	-11.3093
▁ПРО	-11.3094
▁милости	-11.3095
63	-11.3095
▁представил	-11.3096
▁мудрость	-11.3097
▁колебания	-11.31
▁твою	-11.3101
бил	-11.3101
▁казаки	-11.3102
▁металла	-11.3102
▁отчего	-11.3103
▁историков	-11.3105
▁прочь	-11.3106
▁проблемой	-11.3106
▁вызвали	-11.3107
▁исполнения	-11.3107
поль	-11.3107
▁миссии	-11.3108
▁видны	-11.3109
▁маршал	-11.311
▁мышц	-11.311
ительный	-11.311
▁действуют	-11.3111
▁волна	-11.3111
▁подробности	-11.3112
Под	-11.3112
▁численности	-11.3112
▁составить	-11.3114
79	-11.3116
▁красные	-11.3117
▁вошла	-11.3117
86	-11.3122
рит	-11.3126
▁неподалеку	-11.3126
▁поступать	-11.3135
89	-11.3135
▁неплохо	-11.3135
▁show	-11.3135
▁ча	-11.3136
▁мысленно	-11.3138
▁force	-11.3139
▁пап	-11.3139
мпер	-11.3145
▁остановиться	-11.3148
▁ударил	-11.3155
▁трубку	-11.3159
▁мешает	-11.316
▁Ha	-11.3163
▁версия	-11.3166
▁вал	-11.3168
▁Дома	-11.3169
▁молекул	-11.3172
▁приехали	-11.3172
λ	-11.3174
▁гвардии	-11.3174
▁относились	-11.3175
▁1972	-11.3176
▁ногах	-11.3177
mann	-11.3178
▁обращаться	-11.3179
▁называемый	-11.3179
▁услышать	-11.3181
ож	-11.3181
▁качеств	-11.3183
▁природой	-11.3183
▁modern	-11.3185
▁развитием	-11.3185
лѣ	-11.3187
щих	-11.3187
▁аромат	-11.3188
▁номера	-11.3188
▁выразил	-11.3189
▁повторил	-11.3191
▁money	-11.3191
▁че	-11.3191
▁державы	-11.3192
▁Сына	-11.3194
▁единственное	-11.3195
▁бить	-11.3196
▁языках	-11.3196
▁некоторыми	-11.3199
▁неприятеля	-11.32
▁отправлен	-11.3202
знач	-11.3203
▁сторонам	-11.3205
▁бросился	-11.3205
▁шею	-11.3206
▁увеличение	-11.3206
▁why	-11.3206
Ла	-11.321
int	-11.3211
▁существовали	-11.3211
▁действ	-11.3212
▁отправили	-11.3213
▁почве	-11.3214
▁ver	-11.3215
▁субъект	-11.3216
▁Северного	-11.3217
▁мышление	-11.3217
▁Георгий	-11.3217
▁1988	-11.3217
▁создана	-11.3218
▁Кавказ	-11.3218
▁тайно	-11.3219
▁common	-11.3219
▁врачи	-11.3219
▁поры	-11.3219
▁Комитет	-11.3219
▁2014	-11.322
▁як	-11.3222
▁сп	-11.3223
ub	-11.3223
▁важнейших	-11.3224
▁историей	-11.3224
▁диалог	-11.3226
▁дивизион	-11.3226
▁soon	-11.3227
▁прибыль	-11.3228
▁Русские	-11.3229
▁телеграф	-11.3229
▁сделает	-11.323
▁помещения	-11.3231
▁представителями	-11.3232
▁целых	-11.3233
ative	-11.3234
▁говорите	-11.3234
▁маленькая	-11.3235
ела	-11.3236
еш	-11.3236
▁женщиной	-11.3237
▁Хор	-11.3237
вая	-11.3239
▁созданы	-11.3243
▁1969	-11.3245
▁формирование	-11.3245
▁Вернуться	-11.3245
▁вашем	-11.3245
▁Парижа	-11.3246
61	-11.3246
▁долга	-11.3247
ε	-11.3247
▁внешне	-11.3249
▁1975	-11.325
▁улицах	-11.325
▁дев	-11.3251
▁живым	-11.3251
нич	-11.3252
▁велико	-11.3252
▁live	-11.3253
▁необходимое	-11.3254
▁единственно	-11.3257
чев	-11.3259
▁низ	-11.3259
▁96	-11.326
▁невероятно	-11.3262
▁яйца	-11.3263
▁страниц	-11.3266
▁приходили	-11.3267
▁подписан	-11.3268
▁late	-11.3268
▁whether	-11.3269
▁восточной	-11.3271
▁вып	-11.3271
▁15.	-11.3272
▁сидя	-11.3272
▁компьютер	-11.3272
сона	-11.3275
▁пункта	-11.3276
▁Go	-11.3276
▁представлять	-11.3278
Те	-11.328
▁возникло	-11.3281
▁пик	-11.3282
уха	-11.3284
▁изучать	-11.3285
▁удачно	-11.3287
▁("	-11.3289
▁подразделений	-11.3289
▁ужасно	-11.329
▁бояр	-11.3293
▁освободить	-11.3294
▁пошло	-11.3296
▁наружу	-11.3297
▁переживания	-11.3298
▁огне	-11.3298
▁массовой	-11.3298
щему	-11.3298
▁группами	-11.3301
крыл	-11.3304
▁умом	-11.3305
▁(6	-11.3305
чем	-11.3312
▁красный	-11.3313
▁Ольга	-11.3315
▁производить	-11.3316
▁уверены	-11.3317
рі	-11.3319
▁Скоро	-11.332
▁sur	-11.332
рия	-11.3321
▁давай	-11.3321
▁данное	-11.3321
▁село	-11.3322
▁поиск	-11.3325
▁средством	-11.3326
пил	-11.3328
▁южной	-11.333
▁давайте	-11.333
▁трагедии	-11.3332
▁произойдет	-11.3333
▁service	-11.3333
▁обер	-11.3333
▁моменту	-11.3334
▁милость	-11.3336
▁золотом	-11.3337
▁Абу	-11.3342
▁Cambridge	-11.3343
▁доказательство	-11.3343
▁сперва	-11.3344
▁канал	-11.3344
▁Жив	-11.3347
▁господство	-11.3348
▁соединение	-11.3348
▁подал	-11.3349
▁обман	-11.335
▁near	-11.3353
▁международных	-11.3356
▁помещение	-11.3356
▁заняться	-11.3357
теле	-11.3357
▁сооружения	-11.3357
порт	-11.3357
▁лучи	-11.3358
тка	-11.336
▁молодым	-11.3361
▁высот	-11.3362
▁естественным	-11.3362
▁короткий	-11.3366
▁1,5	-11.3368
▁морю	-11.3369
▁хорошей	-11.3369
▁международной	-11.3369
74	-11.3372
▁Существует	-11.3372
-19	-11.3374
Ис	-11.3375
ü	-11.3376
▁1997	-11.338
▁тысячу	-11.338
▁заставил	-11.3382
▁надежду	-11.3384
▁дядя	-11.3386
▁участвовали	-11.3387
▁носили	-11.3388
▁трёх	-11.3389
▁длины	-11.3389
▁),	-11.339
▁схема	-11.339
▁удивился	-11.3391
▁кап	-11.3391
▁третья	-11.3394
▁чинов	-11.3395
▁1904	-11.3395
▁пишут	-11.3396
▁взрослых	-11.3398
▁Будучи	-11.3399
хим	-11.3401
▁дольше	-11.3402
▁Ver	-11.3402
▁коротко	-11.3403
▁single	-11.3403
▁первому	-11.3403
▁лечение	-11.3405
▁story	-11.3407
▁неверно	-11.3408
▁Тай	-11.3408
▁смогу	-11.3409
▁Тебя	-11.3411
▁ждут	-11.3411
▁забывать	-11.3411
▁зерна	-11.3415
▁дат	-11.3415
▁условно	-11.3415
▁восприятие	-11.3416
▁сл	-11.3416
▁успехи	-11.3419
▁2007	-11.3419
▁физического	-11.342
▁Тан	-11.342
▁причину	-11.342
▁настойчиво	-11.3421
▁дворце	-11.3422
ja	-11.3422
смотр	-11.3426
tro	-11.3426
▁приняла	-11.3427
▁окон	-11.3427
▁расти	-11.3428
▁1979	-11.3429
▁установления	-11.3431
▁утвержден	-11.3432
▁ло	-11.3434
▁Сто	-11.3435
▁пьесы	-11.3436
gen	-11.3436
▁проходил	-11.3437
▁вопросах	-11.3438
▁стену	-11.3438
▁поколений	-11.3439
ists	-11.3441
71	-11.3441
▁Красного	-11.3441
гов	-11.3442
▁Ду	-11.3444
▁tell	-11.3446
▁800	-11.3447
▁спине	-11.3447
▁способствует	-11.345
▁страницах	-11.3452
▁вздохнул	-11.3452
▁Король	-11.3452
▁уста	-11.3452
стра	-11.3453
бен	-11.3454
▁надеюсь	-11.3456
▁занима	-11.3458
▁произведен	-11.3459
▁коллектив	-11.3459
▁across	-11.346
▁нефти	-11.346
▁коллеги	-11.3462
▁рассчитывать	-11.3462
▁бывал	-11.3464
▁жидкости	-11.3464
▁Алексея	-11.3465
рах	-11.3466
▁выйдет	-11.3468
▁учитывая	-11.3469
▁голов	-11.3469
▁показатель	-11.347
▁христианство	-11.347
▁уважение	-11.347
▁последующих	-11.347
▁носил	-11.3472
▁кабинета	-11.3473
глав	-11.3475
гон	-11.3476
▁двигатель	-11.3478
▁мышцы	-11.3478
▁заключить	-11.3482
▁Ти	-11.3483
уш	-11.3483
лам	-11.3483
▁жестоко	-11.3484
▁гроз	-11.3484
▁ду	-11.3486
▁Пример	-11.3486
▁обсуждения	-11.3486
▁советским	-11.3486
▁Большая	-11.3486
▁весом	-11.3492
ot	-11.3492
▁er	-11.3493
▁Цар	-11.3493
▁РККА	-11.3494
▁70-	-11.3494
▁ожидания	-11.3495
▁вариантов	-11.3496
▁акцент	-11.3502
▁свободной	-11.3502
вис	-11.3504
ящий	-11.3506
▁сосед	-11.3506
▁above	-11.3506
▁больной	-11.3507
▁отпуск	-11.3508
зен	-11.3508
▁присутствует	-11.3508
▁испытаний	-11.3509
чики	-11.3509
ga	-11.3514
▁Англию	-11.3514
▁заболеваний	-11.3515
▁позволил	-11.3516
▁Сергеевич	-11.3518
иб	-11.3518
▁посреди	-11.352
so	-11.3521
▁полезно	-11.3522
▁линий	-11.3522
▁1966	-11.3522
▁послать	-11.3523
лек	-11.3523
▁средних	-11.3524
▁агентов	-11.3527
▁крас	-11.3527
▁годом	-11.3529
▁корм	-11.3529
▁согласен	-11.353
▁83	-11.3531
▁высокая	-11.3532
кры	-11.3534
▁лучшим	-11.3535
▁заговор	-11.3535
гла	-11.3536
▁способна	-11.3538
граф	-11.3538
стями	-11.3539
▁будущей	-11.3544
▁смену	-11.3546
▁специалисты	-11.3547
▁вероятности	-11.3548
зд	-11.3548
▁устроить	-11.3551
vi	-11.3552
▁поддерживал	-11.3553
▁относился	-11.3553
форм	-11.3554
центр	-11.3554
▁современном	-11.3555
▁Орлов	-11.3555
▁2003	-11.3556
▁деталей	-11.3556
оч	-11.3557
▁мощь	-11.3558
▁сроки	-11.3558
▁сильных	-11.3559
▁сообщества	-11.356
очного	-11.3562
▁поэтов	-11.3562
▁англо	-11.3562
▁богом	-11.3562
▁Сама	-11.3564
▁планет	-11.3565
▁юности	-11.3566
wa	-11.3566
▁монастыре	-11.3566
▁5)	-11.3567
ража	-11.3569
▁суде	-11.3569
▁How	-11.357
▁думаете	-11.357
▁умерла	-11.3571
▁правителя	-11.3572
▁1911	-11.3575
▁плав	-11.3577
твор	-11.3578
▁священник	-11.358
▁ти	-11.358
▁защитить	-11.3582
▁ба	-11.3582
▁движется	-11.3586
▁непо	-11.3587
▁богатых	-11.3587
▁гору	-11.3588
▁понимании	-11.3588
▁взаимоотношения	-11.3588
никами	-11.3589
▁лаборатории	-11.3591
анта	-11.3592
all	-11.3592
▁страницы	-11.3593
▁надолго	-11.3593
▁1985	-11.3593
▁Леонид	-11.3594
▁положено	-11.3595
ee	-11.3596
▁совершать	-11.3596
▁созда	-11.3597
▁дан	-11.3599
▁лидеров	-11.36
▁важнее	-11.3601
▁подряд	-11.3601
▁хватило	-11.3601
сар	-11.3601
▁интереса	-11.3601
▁любая	-11.3602
▁обмена	-11.3603
▁Марс	-11.3603
▁человеческий	-11.3604
▁sent	-11.3604
чек	-11.3605
▁’’	-11.3606
▁недостатки	-11.3606
етъ	-11.3609
▁ученого	-11.3609
▁грехи	-11.3609
▁предложить	-11.361
анов	-11.3611
▁назвали	-11.3612
▁Последние	-11.3616
▁Ак	-11.3616
▁транспорта	-11.3616
ans	-11.3617
▁исключения	-11.3619
▁местной	-11.3621
▁русское	-11.3621
▁режиссер	-11.3622
тона	-11.3623
▁угла	-11.3628
голов	-11.3628
▁особым	-11.363
▁Germany	-11.363
▁цикла	-11.3631
▁деталь	-11.3633
▁ул	-11.3634
mon	-11.3635
▁указать	-11.3639
▁сотрудники	-11.3639
▁имеющих	-11.364
▁диск	-11.364
▁Саша	-11.3641
▁si	-11.3642
▁показано	-11.3643
▁пользы	-11.3643
▁реже	-11.3644
▁плотно	-11.3645
▁2004	-11.3647
▁разрыва	-11.3648
▁лжи	-11.3649
▁either	-11.3649
▁_	-11.3649
ющуюся	-11.3651
▁следствия	-11.3653
ins	-11.3655
доб	-11.3656
▁development	-11.3656
▁це	-11.3656
▁mother	-11.3659
▁гр	-11.366
▁сказки	-11.3661
▁1907	-11.3661
ph	-11.3665
▁образуют	-11.3667
▁пароход	-11.3668
-16	-11.3669
▁аккуратно	-11.367
▁Изд	-11.367
вала	-11.3671
▁холодной	-11.3672
01	-11.3673
▁городских	-11.3676
▁листья	-11.3676
▁1951	-11.3677
▁ужаса	-11.3678
▁религиозной	-11.3678
▁огромным	-11.3678
▁language	-11.3679
▁gave	-11.3681
▁древнего	-11.3682
▁Ме	-11.3683
▁жар	-11.3684
▁семейства	-11.3685
▁Фа	-11.3686
▁суждения	-11.3687
▁прихода	-11.3688
▁эксплуатации	-11.3688
▁ресурсы	-11.3689
nt	-11.3689
▁основная	-11.369
▁фраза	-11.3691
▁напрасно	-11.3693
▁sh	-11.3694
▁1974	-11.3696
▁Господу	-11.3698
▁увидим	-11.3698
▁anti	-11.3698
▁кафе	-11.3699
шит	-11.3699
класс	-11.37
▁сложной	-11.37
эл	-11.3701
▁Америка	-11.3702
▁лучшего	-11.3702
▁человеческое	-11.3702
▁записал	-11.3704
▁sp	-11.3705
▁направить	-11.3705
min	-11.3706
▁восточных	-11.3708
▁Немцы	-11.3708
▁заводов	-11.371
▁Ос	-11.3712
пл	-11.3714
▁Вед	-11.3714
▁назначил	-11.3715
▁культуру	-11.3716
▁подняться	-11.3718
▁кредит	-11.3718
▁торпед	-11.3719
русски	-11.372
мент	-11.3722
▁определенное	-11.3722
▁вершины	-11.3723
▁ребят	-11.3723
▁захват	-11.3724
▁добрый	-11.3724
▁вечеру	-11.3726
92	-11.3726
▁привез	-11.3728
▁концепция	-11.373
▁труп	-11.3731
▁идее	-11.3732
▁General	-11.3733
▁муки	-11.3735
▁увеличить	-11.3735
▁Пу	-11.3736
▁похожи	-11.3736
▁правилам	-11.3738
▁test	-11.3742
▁игре	-11.3743
▁position	-11.3743
▁элемента	-11.3744
▁наблюдал	-11.3747
▁участка	-11.3751
▁кров	-11.3752
есь	-11.3756
ишься	-11.3757
ev	-11.3758
▁matter	-11.3758
рова	-11.376
▁человеческие	-11.3761
▁холодно	-11.3761
▁концерт	-11.3762
▁умение	-11.3762
онос	-11.3762
▁начинать	-11.3766
tor	-11.3766
кою	-11.3767
лип	-11.3767
ацией	-11.3769
▁ложь	-11.377
▁19.	-11.377
▁взвод	-11.3771
▁встретили	-11.3774
▁ha	-11.3775
вшемся	-11.3776
▁ge	-11.3779
▁рассуждения	-11.3779
▁1812	-11.3782
▁Маркса	-11.3783
опыт	-11.3783
▁мл	-11.3784
▁убедительно	-11.3785
▁крупный	-11.3785
▁канала	-11.3785
▁выбрал	-11.3786
▁nature	-11.3787
тяж	-11.3787
▁захвата	-11.3788
ании	-11.3789
ver	-11.379
нар	-11.379
▁whose	-11.3791
▁размер	-11.3793
▁ошибку	-11.3794
▁найден	-11.3795
▁молодости	-11.3795
▁1971	-11.3795
▁heart	-11.3796
▁1976	-11.38
▁Божией	-11.3801
пел	-11.3801
▁странами	-11.3802
▁отсутствует	-11.3802
▁Сар	-11.3804
▁Ge	-11.3804
▁полях	-11.3806
▁Фар	-11.3806
▁широкое	-11.3808
▁91	-11.3808
▁окончании	-11.381
▁здорово	-11.3811
▁искусств	-11.3812
▁close	-11.3812
▁категорически	-11.3812
▁ценой	-11.3814
▁раздался	-11.3815
▁СО	-11.3817
▁Васильев	-11.3819
сек	-11.382
▁art	-11.382
▁объектом	-11.3822
▁result	-11.3822
▁направлениях	-11.3823
▁размышления	-11.3823
▁собственными	-11.3823
Ё	-11.3825
▁баланс	-11.3825
▁заключенных	-11.3825
▁разряд	-11.3827
▁французы	-11.3828
▁простого	-11.3828
▁последствий	-11.3829
▁принципу	-11.3833
▁взаимодействие	-11.3835
od	-11.3835
▁Ka	-11.3836
▁Платон	-11.3836
▁Каждая	-11.3836
▁Her	-11.3837
▁Павлов	-11.3837
▁Снова	-11.3838
▁имеющие	-11.3838
▁телу	-11.3838
ТО	-11.384
▁советско	-11.3841
▁признания	-11.3841
▁qui	-11.3842
▁five	-11.3842
▁Генерального	-11.3843
▁колебаний	-11.3844
▁надеяться	-11.3845
73	-11.3847
▁благодарность	-11.3848
▁Помню	-11.3848
▁жир	-11.385
?)	-11.3852
▁black	-11.3853
og	-11.3854
▁крупного	-11.3854
▁оборудования	-11.3855
▁вины	-11.3861
▁стрельбы	-11.3861
▁установлен	-11.3862
ард	-11.3863
▁мощи	-11.3864
▁представлены	-11.3867
▁супруга	-11.3868
▁ходит	-11.387
▁убеждения	-11.3871
▁Образ	-11.3873
▁приобретает	-11.3874
▁вину	-11.3874
рек	-11.3876
▁залив	-11.3878
крашен	-11.388
▁вторым	-11.3883
▁расположен	-11.3883
▁Sch	-11.3884
▁2005	-11.3884
▁позор	-11.3885
▁turn	-11.3886
▁обязанностей	-11.3887
▁птица	-11.3888
▁тишина	-11.3888
▁слоев	-11.3889
▁истинно	-11.3889
▁папы	-11.389
▁сказав	-11.3891
▁Совершенно	-11.3891
res	-11.3892
▁заключалась	-11.3893
▁карт	-11.3893
▁условиям	-11.3895
▁столкновения	-11.3897
▁следить	-11.3897
люб	-11.3898
▁революцию	-11.39
▁сохранились	-11.3901
кро	-11.3901
▁ДНК	-11.3902
усь	-11.3902
▁стих	-11.3903
▁наступает	-11.3903
▁92	-11.3904
▁ликвидации	-11.3905
ba	-11.3906
ць	-11.391
▁коем	-11.3913
▁авиа	-11.3914
▁wanted	-11.3914
▁исторические	-11.3914
▁народе	-11.3914
▁93	-11.3917
▁парт	-11.3917
стор	-11.3919
ніе	-11.392
▁соль	-11.3921
ko	-11.3922
▁морского	-11.3922
▁соотношение	-11.3923
▁открытым	-11.3924
▁металл	-11.3925
▁продолжают	-11.3926
▁wrote	-11.3927
ship	-11.3928
▁приготовления	-11.3929
▁Ваш	-11.3929
▁обоз	-11.393
▁обработки	-11.3931
▁участки	-11.3932
▁возвращаться	-11.3932
▁иного	-11.3932
акт	-11.3933
▁собрании	-11.3933
▁русско	-11.3934
▁Энгельс	-11.3934
▁перестал	-11.3934
▁West	-11.3941
▁изображен	-11.3941
▁поступить	-11.3943
▁ab	-11.3943
▁позвонил	-11.3945
88	-11.3946
▁комплекса	-11.3946
▁творения	-11.3947
▁повышение	-11.3952
▁стрелять	-11.3953
▁контролировать	-11.3954
▁координат	-11.3956
▁приход	-11.3957
▁reason	-11.3959
▁дорого	-11.3959
▁низко	-11.396
▁ан	-11.396
▁аспект	-11.396
▁установил	-11.3962
▁революционной	-11.3963
Ар	-11.3965
▁происходили	-11.3965
▁расположены	-11.3966
▁разного	-11.3968
▁нижней	-11.3969
▁упоминается	-11.3969
▁вырос	-11.3971
▁импульс	-11.3971
▁черных	-11.3971
▁отказа	-11.3972
▁будущих	-11.3972
▁лишен	-11.3976
▁верю	-11.3976
▁With	-11.3976
ug	-11.3977
▁купил	-11.3977
▁исторический	-11.3977
ыч	-11.3979
▁пункты	-11.398
▁озеро	-11.3981
▁160	-11.3982
▁изделия	-11.3983
▁производит	-11.3984
▁признает	-11.3984
▁89	-11.3984
▁Джа	-11.3985
▁добраться	-11.3986
▁2002	-11.3986
▁груд	-11.3987
▁(12	-11.3992
РА	-11.3993
▁преимущества	-11.3993
ьем	-11.3994
▁быт	-11.3995
▁1908	-11.3997
▁отбор	-11.3999
▁собственном	-11.3999
Ин	-11.4001
▁государственным	-11.4001
▁1987	-11.4002
инской	-11.4004
▁программе	-11.4006
иан	-11.401
▁сер	-11.4011
▁фильме	-11.4012
▁всерьез	-11.4014
▁думала	-11.4014
▁making	-11.4015
ea	-11.4016
овская	-11.4017
▁ЦРУ	-11.4017
▁Дела	-11.4017
▁установлено	-11.4019
▁Berlin	-11.4019
▁Штатов	-11.402
▁способа	-11.4021
жал	-11.4022
▁богу	-11.4022
▁принц	-11.4023
ческая	-11.4024
▁кратко	-11.4024
ns	-11.4024
▁любили	-11.4025
▁97	-11.4026
▁поезда	-11.4026
▁варианты	-11.4027
va	-11.4028
▁указание	-11.4029
▁опасно	-11.4029
▁образе	-11.403
▁(14	-11.4031
▁языки	-11.4031
▁убитых	-11.4032
▁проводили	-11.4033
▁крем	-11.4037
▁1986	-11.4037
▁заняты	-11.4038
▁поначалу	-11.4038
▁Ленинграда	-11.4042
▁мертвых	-11.4043
..."	-11.4044
▁девушку	-11.4044
ческой	-11.4046
▁угроза	-11.4046
▁девушек	-11.4047
нец	-11.4048
вет	-11.4048
▁вслух	-11.4049
▁подобной	-11.4051
▁Давай	-11.4054
▁руководители	-11.4054
▁выбирать	-11.4055
iz	-11.4056
▁Перевод	-11.4056
▁запасы	-11.4057
▁советское	-11.4059
▁партийных	-11.4059
▁Папа	-11.4063
▁стрелковой	-11.4065
▁супер	-11.4073
▁грани	-11.4073
▁ударом	-11.4073
▁бабушка	-11.4074
▁послание	-11.4074
инга	-11.4074
▁постройки	-11.4074
уя	-11.4075
▁Матери	-11.4076
▁черта	-11.4076
▁Семен	-11.4078
▁выборов	-11.4078
▁признак	-11.4079
разум	-11.408
▁небольшое	-11.4081
▁требований	-11.4083
▁Бал	-11.4083
др	-11.4083
▁сильного	-11.4083
▁теряет	-11.4083
▁углом	-11.4084
▁склонны	-11.4084
фин	-11.4085
зон	-11.4085
▁полчаса	-11.4086
▁большевики	-11.4087
2).	-11.4088
▁выступить	-11.4088
▁видимости	-11.4088
▁Дан	-11.4088
unt	-11.409
▁Комитета	-11.4091
▁русскую	-11.4091
▁Подобно	-11.4092
били	-11.4092
▁актив	-11.4094
мп	-11.4094
76	-11.4095
▁Александров	-11.4096
▁Степан	-11.4096
▁1982	-11.4098
тал	-11.4098
▁eyes	-11.41
▁частной	-11.4101
стой	-11.4102
▁стекла	-11.4104
▁Ча	-11.4106
Re	-11.4109
▁преступление	-11.4109
▁anything	-11.4109
▁оценке	-11.4111
▁производстве	-11.4112
▁безопасность	-11.4115
▁противнику	-11.4115
кат	-11.4116
▁food	-11.4117
▁оценка	-11.4117
▁experience	-11.4118
▁Достаточно	-11.4119
▁экран	-11.412
▁поиска	-11.412
▁2010	-11.4122
▁лейтенанта	-11.4123
▁величина	-11.4124
▁недовольство	-11.4124
▁секс	-11.4126
▁широкий	-11.4126
Кто	-11.4128
▁business	-11.4129
▁разработки	-11.4129
▁98	-11.413
▁танковых	-11.4133
▁выступление	-11.4134
▁1978	-11.4135
▁фланг	-11.4137
▁глубин	-11.4137
бат	-11.4138
чай	-11.4138
работа	-11.414
очку	-11.4141
▁звания	-11.4141
sk	-11.4141
оциалистического	-11.4142
▁маневр	-11.4146
▁услуг	-11.4148
Кор	-11.4149
▁el	-11.415
▁семьей	-11.4151
▁Адам	-11.4154
▁However	-11.4154
▁фонд	-11.4154
▁справедливость	-11.4158
▁называемых	-11.416
▁Лет	-11.4164
▁храме	-11.4164
▁отказались	-11.4164
▁попыток	-11.4165
▁царей	-11.4165
▁комнат	-11.4166
▁огромная	-11.4166
▁мяч	-11.4167
▁звезда	-11.4169
▁однозначно	-11.4171
▁преимущество	-11.4171
чика	-11.4171
▁attack	-11.4172
▁англ	-11.4173
стат	-11.4174
▁выборах	-11.4174
езд	-11.4175
De	-11.4178
▁ступени	-11.4179
цией	-11.4179
▁тяжести	-11.418
▁лидер	-11.418
▁хорошая	-11.418
▁череп	-11.418
â	-11.4181
our	-11.4183
очная	-11.4184
чок	-11.4185
▁Ярослав	-11.4186
▁гол	-11.4186
▁Европа	-11.4187
▁базу	-11.4187
цион	-11.419
▁использованием	-11.4191
сн	-11.4192
▁отчаянно	-11.4192
▁special	-11.4192
▁воен	-11.4193
▁ядра	-11.4193
▁толку	-11.4193
▁Mar	-11.4193
▁Правительство	-11.4196
fe	-11.4196
▁Син	-11.4197
▁эмоций	-11.4198
▁осени	-11.4198
Петербург	-11.4199
▁предельно	-11.4199
▁seemed	-11.42
▁испытывает	-11.4201
▁успехов	-11.4202
▁повышения	-11.4202
▁брату	-11.4203
▁1977	-11.4205
▁споры	-11.4205
луч	-11.4206
яз	-11.4207
▁зданий	-11.4207
▁лежала	-11.4209
▁непонятно	-11.4211
▁схемы	-11.4211
▁направлению	-11.4212
▁страсть	-11.4213
▁Генри	-11.4213
▁Баб	-11.4213
▁левом	-11.4214
▁особые	-11.4216
ование	-11.4218
ких	-11.4218
▁ненависти	-11.4219
тя	-11.4219
▁ль	-11.4221
▁law	-11.4222
▁изменилось	-11.4222
▁патриот	-11.4223
▁публично	-11.4223
▁object	-11.4224
министр	-11.4224
▁государству	-11.4226
▁moment	-11.4226
▁описать	-11.4228
▁советская	-11.4228
▁открывает	-11.4229
▁собирать	-11.4229
▁единственная	-11.4231
шев	-11.4231
▁quite	-11.4233
фр	-11.4233
нную	-11.4235
▁жаль	-11.4236
▁major	-11.4237
▁Наука	-11.4237
▁барон	-11.4239
част	-11.4239
▁дум	-11.4241
▁визит	-11.4242
ep	-11.4243
▁полосы	-11.4244
du	-11.4245
▁преобразования	-11.4249
▁внутреннее	-11.4249
▁бойцы	-11.4249
▁turned	-11.425
▁способами	-11.4252
IV	-11.4254
▁девяти	-11.4257
▁известна	-11.4257
▁коров	-11.4259
▁Этого	-11.426
▁Остальные	-11.426
▁вектор	-11.426
▁тенденция	-11.4261
▁остановились	-11.4261
▁Прошло	-11.4262
▁методом	-11.4262
ez	-11.4264
op	-11.4264
▁94	-11.4265
▁Стоит	-11.4265
▁ученик	-11.4265
мета	-11.4267
▁раны	-11.4268
▁соответствующим	-11.4268
▁получит	-11.4268
аг	-11.427
▁являлась	-11.427
▁торжественно	-11.427
▁намерен	-11.4272
▁формах	-11.4273
▁кар	-11.4273
▁отдых	-11.4274
▁расходов	-11.4275
▁облака	-11.4276
▁господина	-11.4279
▁севера	-11.4281
▁отставку	-11.4281
▁свойство	-11.4282
▁травы	-11.4282
▁особую	-11.4282
▁проверки	-11.4285
▁соседей	-11.4286
душ	-11.4287
▁парк	-11.4288
▁замка	-11.4288
▁Gu	-11.4289
▁пос	-11.4289
▁заключен	-11.429
▁перемены	-11.4291
▁банка	-11.4291
▁ребенком	-11.4291
ируется	-11.4294
▁вселенной	-11.4294
▁лежа	-11.4295
▁возглавил	-11.4296
▁креп	-11.4297
▁140	-11.4297
▁добродетели	-11.4297
▁длина	-11.4298
▁смут	-11.4298
▁вдвое	-11.4299
▁лат	-11.4299
▁попытаться	-11.43
своему	-11.4301
верх	-11.4303
▁поддержать	-11.4305
▁Цит	-11.4306
нок	-11.4306
▁отход	-11.4308
▁учит	-11.4308
▁стихотворение	-11.4309
▁прос	-11.431
▁cannot	-11.431
▁истребителей	-11.4311
time	-11.4311
▁контраст	-11.4312
ере	-11.4313
▁современников	-11.4316
▁Army	-11.4317
▁действовал	-11.432
ест	-11.432
▁стенах	-11.4321
десят	-11.4322
ением	-11.4323
05	-11.4324
▁небольшая	-11.4325
▁Армия	-11.4326
▁En	-11.4329
▁завет	-11.4329
дь	-11.433
▁нисколько	-11.433
чей	-11.4331
▁глагол	-11.4333
▁периодически	-11.4334
▁слабость	-11.4335
▁start	-11.4335
ОН	-11.4336
▁значений	-11.4336
▁неудач	-11.4336
84	-11.4336
фор	-11.4337
▁попросту	-11.434
▁Быть	-11.434
шись	-11.434
▁оценку	-11.4341
▁ООН	-11.4342
▁посетил	-11.4344
ота	-11.4344
▁Опыт	-11.4346
▁соли	-11.4347
▁училища	-11.4347
▁песня	-11.4347
▁помогают	-11.4348
▁состоялся	-11.4349
▁фразы	-11.4349
▁среду	-11.435
▁пен	-11.435
▁стремления	-11.4351
▁превратился	-11.4351
нит	-11.4352
▁Основные	-11.4353
▁вражеских	-11.4355
руб	-11.4356
Па	-11.4356
кого	-11.4358
▁пальцем	-11.436
мина	-11.4365
▁командиры	-11.4365
ций	-11.4367
▁приходил	-11.4368
▁сотрудничества	-11.4368
орган	-11.437
▁суп	-11.4371
▁уничтожение	-11.4373
▁звука	-11.4373
▁участием	-11.4374
▁газов	-11.4375
▁генералов	-11.4376
▁Троцкий	-11.4377
▁социалистически	-11.4377
▁советы	-11.4378
▁скандал	-11.4378
▁Швеции	-11.438
▁Рад	-11.4382
▁съезде	-11.4383
▁раннего	-11.4386
▁называемой	-11.4386
▁Per	-11.4386
▁держит	-11.4386
▁топ	-11.4387
нице	-11.4388
линг	-11.4389
▁Ад	-11.4391
▁поступки	-11.4392
▁ислам	-11.4392
▁отнести	-11.4392
▁ареста	-11.4394
▁постоянного	-11.4395
сел	-11.4396
eg	-11.4399
ецкий	-11.4399
▁огромного	-11.44
▁позволили	-11.4401
▁Хрущев	-11.4402
▁снабжения	-11.4402
▁артиллерия	-11.4402
▁овладеть	-11.4402
ьер	-11.4403
▁сие	-11.4405
▁начинал	-11.4405
▁боится	-11.4405
▁научные	-11.4407
▁Дай	-11.4408
▁Долго	-11.4409
▁использовании	-11.4409
▁Mon	-11.441
▁структуре	-11.4411
▁знаменитого	-11.4411
▁русскому	-11.4412
▁фунтов	-11.4412
▁Русская	-11.4414
▁воин	-11.4415
▁долгие	-11.4416
▁познакомился	-11.4417
ани	-11.4418
81	-11.442
▁Задача	-11.4421
▁глубокий	-11.4422
▁предложили	-11.4422
▁называются	-11.4422
▁ростом	-11.4424
▁ед	-11.4426
▁экономике	-11.4426
дей	-11.4426
▁морали	-11.4428
▁идеал	-11.443
▁Жен	-11.443
▁руководителя	-11.4431
▁политическое	-11.4432
унд	-11.4433
▁разведка	-11.4434
Кон	-11.4435
1).	-11.4436
▁sea	-11.4436
▁уголь	-11.4437
▁флаг	-11.4437
▁продолжается	-11.4438
▁СМИ	-11.4438
▁роду	-11.444
▁поставлен	-11.444
▁батарей	-11.4441
▁обеспечивает	-11.4441
▁попала	-11.4445
▁насыщен	-11.4445
▁оказывать	-11.4447
▁греков	-11.4448
бал	-11.4449
▁Ага	-11.445
▁тяжелый	-11.445
▁исследователь	-11.4451
▁земного	-11.4452
▁указывают	-11.4453
▁настоящая	-11.4455
двор	-11.4455
▁Новая	-11.4457
▁стыд	-11.4458
▁[...]	-11.4458
▁рыба	-11.4458
▁believe	-11.4459
▁прочитал	-11.446
▁подобным	-11.4461
▁Египте	-11.4462
▁разделить	-11.4462
нки	-11.4463
▁надеялся	-11.4463
▁Екатерины	-11.4464
▁проявление	-11.4464
▁2006	-11.4464
ПО	-11.4464
▁испытывал	-11.4465
▁явились	-11.4465
▁гром	-11.4466
▁зала	-11.4466
▁Ho	-11.4467
▁Кер	-11.4469
▁торговых	-11.4471
▁изучению	-11.4472
▁level	-11.4475
ческий	-11.4475
стан	-11.4476
-7	-11.4477
▁снизу	-11.4478
▁ме	-11.4478
▁Мен	-11.4479
ально	-11.448
▁Фу	-11.448
▁пустыне	-11.448
▁возврат	-11.4481
▁тыла	-11.4481
▁Кос	-11.4482
▁восстановление	-11.4485
ica	-11.4486
▁цепь	-11.4489
▁участков	-11.449
▁Вчера	-11.449
▁Ѵ	-11.449
дам	-11.4492
▁носят	-11.4492
▁ужин	-11.4492
▁направлены	-11.4494
▁менять	-11.4496
▁младший	-11.45
нг	-11.4501
▁#	-11.4501
▁Оказывается	-11.4502
▁Рейн	-11.4504
▁top	-11.4504
▁добродетель	-11.4505
▁разведку	-11.4506
▁привыкли	-11.4509
ell	-11.4512
▁вопросами	-11.4513
▁red	-11.4513
▁Алексеев	-11.4513
▁подошла	-11.4516
▁обозначения	-11.4516
▁двигателя	-11.4516
▁11-	-11.4517
▁лук	-11.4517
То	-11.4517
▁мечты	-11.4522
▁перевода	-11.4523
▁огромных	-11.4523
▁колонии	-11.4524
▁стороной	-11.4525
Дж	-11.4526
▁топлива	-11.4526
▁ведущих	-11.4527
▁производственны	-11.4528
▁Бориса	-11.4529
ize	-11.453
▁столб	-11.4532
нное	-11.4533
▁искр	-11.4533
tre	-11.4534
▁великому	-11.4538
Раз	-11.4538
▁художественной	-11.4538
▁боюсь	-11.454
цию	-11.4541
▁оставляет	-11.4541
олит	-11.4542
▁сообщили	-11.4542
▁цену	-11.4543
▁веса	-11.4545
следовательность	-11.4546
▁сотрудник	-11.4548
à	-11.4548
▁Яков	-11.455
▁марш	-11.4552
пин	-11.4552
▁Август	-11.4554
▁тенденции	-11.4554
▁Собственно	-11.4555
▁юга	-11.4557
▁вер	-11.4557
▁допустим	-11.4557
верен	-11.4558
▁Белоруссии	-11.4558
▁старика	-11.4558
▁understand	-11.456
знаком	-11.4563
▁объема	-11.4564
▁четверть	-11.4564
▁контрреволюцион	-11.4564
▁подчеркнуть	-11.4566
▁перспективы	-11.4567
▁содержат	-11.4567
▁весть	-11.4568
▁1984	-11.4569
▁шага	-11.457
жать	-11.457
▁сопровождении	-11.457
ec	-11.4571
▁мероприятий	-11.4573
▁распределения	-11.4573
▁улицам	-11.4575
▁мал	-11.4575
бел	-11.4575
▁счёт	-11.4576
▁различным	-11.4576
–18	-11.4576
▁Москвой	-11.4577
ведение	-11.4579
▁небольшую	-11.4579
▁Мат	-11.4579
▁Главный	-11.458
▁песню	-11.458
вай	-11.4581
ei	-11.4582
истый	-11.4582
▁поп	-11.4583
▁фокус	-11.4585
▁выгодно	-11.4586
чество	-11.4587
▁зам	-11.4588
▁приведет	-11.4588
▁Союзе	-11.4589
▁Примерно	-11.4592
▁студент	-11.4593
▁Пришлось	-11.4597
фф	-11.4597
стен	-11.4598
▁чтение	-11.4598
▁классической	-11.4599
▁Президент	-11.4599
ide	-11.46
▁родине	-11.46
▁ОТ	-11.46
▁ци	-11.4601
▁живое	-11.4601
▁синтез	-11.4601
▁определенно	-11.4602
▁грузов	-11.4602
оф	-11.4603
▁особенностей	-11.4609
▁всякую	-11.4609
▁решился	-11.4611
▁Московской	-11.4612
▁становился	-11.4613
лист	-11.4613
▁Mo	-11.4614
▁открыт	-11.4616
▁конкретно	-11.4616
бл	-11.4617
83	-11.4619
▁счастлив	-11.4619
▁Ra	-11.4619
дур	-11.462
▁forces	-11.462
атов	-11.462
▁защите	-11.4622
▁1983	-11.4623
▁дошли	-11.4624
▁скончался	-11.4624
вато	-11.4626
▁1981	-11.4627
▁князем	-11.4628
▁дало	-11.4628
▁физически	-11.4629
▁знакомый	-11.4632
▁ладно	-11.4632
▁looked	-11.4633
той	-11.4634
tin	-11.4636
▁воскресенье	-11.4636
топ	-11.4636
▁обычного	-11.4636
▁льда	-11.4636
▁white	-11.4639
нять	-11.464
▁2009	-11.4644
▁Брат	-11.4644
▁формулы	-11.4647
▁Начало	-11.4649
▁экономические	-11.4649
▁вашему	-11.4651
тре	-11.4654
▁Рос	-11.4654
▁поклон	-11.4656
чный	-11.4656
▁прогресса	-11.4657
▁думаешь	-11.4657
▁команде	-11.4661
▁нужным	-11.4662
III	-11.4665
▁ошибочно	-11.4665
▁такова	-11.4665
za	-11.4665
ливо	-11.4666
▁woman	-11.4667
▁нападение	-11.4668
цин	-11.4669
▁главную	-11.4669
▁Берлина	-11.467
▁Спас	-11.467
▁сходство	-11.4671
▁строк	-11.4671
▁Hitler	-11.4672
▁сумели	-11.4672
▁крыла	-11.4673
айте	-11.4673
▁brought	-11.4674
▁интеллигент	-11.4674
▁схватил	-11.4674
▁дно	-11.4674
▁энергично	-11.4674
▁литературу	-11.4674
▁посольства	-11.4675
▁Bar	-11.4676
▁Вильгельм	-11.4677
▁необходимы	-11.4679
▁баз	-11.468
ou	-11.468
▁произойти	-11.4681
▁ор	-11.4681
▁распоряжения	-11.4682
гран	-11.4683
▁ще	-11.4684
▁мар	-11.4685
ьным	-11.4686
▁технических	-11.4687
lu	-11.4689
план	-11.469
▁Ростов	-11.469
▁понимаете	-11.4691
▁del	-11.4691
▁method	-11.4692
▁верит	-11.4697
▁Чи	-11.4697
▁личным	-11.4698
▁примера	-11.4698
▁Черчилль	-11.4699
▁устроен	-11.4699
▁настоящем	-11.47
▁владе	-11.4701
▁старая	-11.4702
▁трубы	-11.4702
▁возглавлял	-11.4703
▁важной	-11.4703
▁потока	-11.4704
▁занимали	-11.4706
лъ	-11.4706
▁town	-11.4707
▁составил	-11.471
▁Глав	-11.4713
ицу	-11.4713
▁Похоже	-11.4714
▁глубокое	-11.4718
Та	-11.4719
▁арт	-11.4719
▁сбора	-11.4719
нской	-11.4721
87	-11.4721
▁Николаев	-11.4722
▁model	-11.4725
▁полей	-11.4727
▁НАТО	-11.4727
бек	-11.4727
▁спрашивал	-11.4733
▁организме	-11.4735
▁всѣ	-11.4735
НЫЙ	-11.4736
▁population	-11.4736
▁especially	-11.4736
▁затрат	-11.4737
▁штабе	-11.4737
▁Америку	-11.4737
нного	-11.474
▁управлении	-11.474
▁одежда	-11.4741
▁усиления	-11.4744
▁услуги	-11.4745
▁дипломат	-11.4747
!!!	-11.4747
▁понимаем	-11.4747
▁суб	-11.4747
▁стихотворения	-11.4748
▁Всем	-11.4749
▁доходов	-11.4749
мах	-11.475
▁similar	-11.475
▁felt	-11.4751
▁Figure	-11.4751
▁behind	-11.4751
▁коли	-11.4752
pro	-11.4753
▁домом	-11.4755
▁ориентирован	-11.4756
▁бояться	-11.4756
▁Is	-11.4758
pm	-11.4758
▁доволен	-11.476
▁доверия	-11.4762
▁дневнике	-11.4764
▁мастеров	-11.4765
▁держаться	-11.4767
▁Oxford	-11.4769
▁пьян	-11.477
▁труднее	-11.477
▁Сов	-11.4772
▁страхом	-11.4772
▁субъекта	-11.4774
веч	-11.4775
▁Летом	-11.4777
▁Завтра	-11.4777
▁поспешил	-11.4778
▁молоко	-11.4778
▁состоялось	-11.4781
бить	-11.4781
▁заставили	-11.4781
▁изнутри	-11.4781
▁решением	-11.4783
▁равновесия	-11.4783
for	-11.4784
лян	-11.4784
цеп	-11.4785
▁требовать	-11.4788
▁исчезает	-11.479
100	-11.479
▁ак	-11.4792
▁империя	-11.4793
▁добрые	-11.4793
▁благ	-11.4793
▁Дю	-11.4794
▁мужик	-11.4794
▁административно	-11.4794
▁находят	-11.4795
жд	-11.4795
▁Ур	-11.4796
▁надел	-11.4796
-15	-11.4797
▁указывал	-11.4799
▁врагу	-11.4799
▁реакцию	-11.4799
off	-11.4802
▁академик	-11.4804
▁рабочим	-11.4804
▁уходить	-11.4805
▁молодежь	-11.4805
▁заблуждение	-11.4805
▁Вокруг	-11.4806
▁Ок	-11.4806
▁представляла	-11.4806
другому	-11.4807
▁предположения	-11.4808
82	-11.4809
▁личное	-11.4809
▁Анти	-11.4811
port	-11.4816
▁посты	-11.4816
▁проклят	-11.4816
▁нелегко	-11.4816
▁большего	-11.4818
▁отражает	-11.4822
▁этаж	-11.4823
▁Сергея	-11.4824
▁Венгрии	-11.4824
итов	-11.4824
правил	-11.4825
▁брал	-11.4826
▁международного	-11.4827
▁сидела	-11.4828
▁поспешно	-11.4828
▁писатели	-11.4828
▁звон	-11.4828
▁достал	-11.4828
▁костюм	-11.4829
▁пишу	-11.4829
▁Насколько	-11.4829
▁Chapter	-11.483
▁прежние	-11.4831
▁возвращение	-11.4831
▁пальцами	-11.4834
ира	-11.4834
▁четверти	-11.4834
▁сможем	-11.4835
▁значительную	-11.4835
▁(8	-11.4838
▁бежали	-11.4839
ł	-11.4839
▁составили	-11.4841
▁совещание	-11.4842
▁коры	-11.4845
истые	-11.4847
®	-11.4849
▁age	-11.485
▁поражен	-11.4851
▁костей	-11.4851
▁давая	-11.4853
▁составляла	-11.4855
▁близости	-11.4856
▁Достоевского	-11.4858
▁Евгений	-11.4859
▁полагать	-11.4861
▁факта	-11.4863
▁третьем	-11.4864
▁опыте	-11.4866
▁выступать	-11.4866
▁ящик	-11.4867
нина	-11.4868
▁(7	-11.4869
гур	-11.4871
▁чья	-11.4872
▁считался	-11.4874
ческого	-11.4875
▁прост	-11.4876
▁колес	-11.4877
▁длинный	-11.4877
▁ухода	-11.4877
▁пятидесяти	-11.4879
▁настаивал	-11.488
▁Коль	-11.488
-17	-11.4882
▁существовала	-11.4882
▁жалко	-11.4883
▁верность	-11.4883
▁красно	-11.4884
07	-11.4884
▁градусов	-11.4886
илл	-11.4888
▁встать	-11.4888
▁наполнен	-11.489
иты	-11.4891
▁пророка	-11.4891
▁Stalin	-11.4892
▁эфир	-11.4892
▁высшее	-11.4894
▁республик	-11.4895
▁наблюдение	-11.4896
ö	-11.4897
ix	-11.4897
хана	-11.49
▁further	-11.49
ag	-11.4903
▁даром	-11.4903
▁враща	-11.4903
▁ров	-11.4904
▁велик	-11.4904
▁проходят	-11.4904
▁распространен	-11.4904
нным	-11.4905
▁захватил	-11.4905
‚	-11.4907
▁чудеса	-11.4911
бан	-11.4913
▁награжден	-11.4913
▁180	-11.4916
▁компаний	-11.4918
лый	-11.4918
▁дыхания	-11.4919
▁чуд	-11.4922
▁охран	-11.4922
▁начнет	-11.4924
▁гроб	-11.4924
▁еврей	-11.4925
▁фамилия	-11.4925
тика	-11.4927
пуст	-11.4927
▁чей	-11.4928
▁Шу	-11.4928
▁обзор	-11.4928
▁сыр	-11.493
▁потерять	-11.493
▁черного	-11.4932
▁окружении	-11.4934
ори	-11.4936
▁приводят	-11.4937
▁Эль	-11.4938
▁городского	-11.4939
▁”	-11.4939
держ	-11.4939
▁виноват	-11.494
Са	-11.494
,000	-11.494
▁чье	-11.4942
▁сед	-11.4942
джа	-11.4943
▁эры	-11.4943
▁являлось	-11.4944
▁страданий	-11.4944
▁стремятся	-11.4946
Ни	-11.4947
▁усовершенствова	-11.4948
▁полит	-11.4949
▁плащ	-11.495
▁факторы	-11.4951
▁удел	-11.4951
ыя	-11.4953
цкий	-11.4953
▁морем	-11.4954
▁гв	-11.4958
▁Хи	-11.4959
▁ходом	-11.4961
▁play	-11.4962
▁Константинополь	-11.4962
▁Министерства	-11.4963
▁почвы	-11.4964
are	-11.4966
▁фразу	-11.4968
ise	-11.4969
▁Путь	-11.4969
▁105	-11.4971
▁feel	-11.4974
▁пулемет	-11.4974
▁выражением	-11.4974
▁суждено	-11.4976
▁беседу	-11.4977
▁Дети	-11.4978
▁великая	-11.4979
▁Sa	-11.498
ическому	-11.4982
▁югу	-11.4982
62	-11.4982
▁парня	-11.4983
way	-11.4983
▁Елена	-11.4985
▁узлов	-11.4986
▁турок	-11.4986
▁повтор	-11.4986
сель	-11.4987
▁религиозные	-11.4987
ады	-11.4987
▁священника	-11.499
лова	-11.4991
▁бывшие	-11.4991
▁выстрел	-11.4992
▁ожидании	-11.4992
▁подписал	-11.4992
ственный	-11.4993
fa	-11.4994
▁герцога	-11.4995
▁Ас	-11.4996
▁po	-11.4997
▁плану	-11.4997
▁Ab	-11.4998
▁волнения	-11.5001
▁Now	-11.5003
▁Смерть	-11.5003
▁слоя	-11.5007
▁правый	-11.5007
▁забыли	-11.5007
▁Мое	-11.5008
▁уважения	-11.5008
▁August	-11.5009
щен	-11.5009
▁использовались	-11.5009
▁1903	-11.5011
▁эффективно	-11.5011
▁key	-11.5013
▁угрозой	-11.5014
▁атаковать	-11.5014
▁единиц	-11.5014
ано	-11.5016
▁формула	-11.5017
▁ствол	-11.5018
▁экспорт	-11.5018
▁победе	-11.5019
▁рубеже	-11.502
▁агрессии	-11.502
▁пламя	-11.5021
▁артист	-11.5022
арь	-11.503
▁помогли	-11.5034
▁Пруссии	-11.5034
▁легкой	-11.5035
▁дальнейшее	-11.5036
▁необычайно	-11.5036
▁1909	-11.5037
▁девочки	-11.5038
▁удобно	-11.5039
▁Бат	-11.504
▁наглядно	-11.504
▁обеспечение	-11.5041
▁акции	-11.5041
▁Положение	-11.5042
σ	-11.5044
▁дань	-11.5049
▁пешком	-11.5049
▁осужден	-11.5052
▁ХХ	-11.5053
▁желез	-11.5055
▁simple	-11.5058
▁маршрут	-11.5059
▁ученики	-11.506
▁светло	-11.506
▁встретились	-11.5061
яя	-11.5064
▁престола	-11.5064
▁объединение	-11.5066
▁Сибирь	-11.5066
▁почву	-11.5066
над	-11.5067
▁миллион	-11.5067
▁одежде	-11.5067
▁творчестве	-11.507
▁чи	-11.507
▁role	-11.507
Ба	-11.507
▁звуков	-11.5072
▁сражаться	-11.5072
▁перво	-11.5072
▁биографии	-11.5073
евым	-11.5073
▁местами	-11.5073
▁King	-11.5075
▁ухо	-11.5075
▁Анны	-11.5076
▁создают	-11.5076
▁небольшим	-11.5076
▁particular	-11.5078
▁проблеме	-11.5079
▁слове	-11.5081
▁летчик	-11.5081
существ	-11.5081
▁казался	-11.5083
▁everything	-11.5086
▁army	-11.5086
▁встречались	-11.5089
▁надпись	-11.5089
▁st	-11.509
▁Чехов	-11.509
▁закричал	-11.5091
▁продовольствия	-11.5093
▁Бол	-11.5093
▁пыли	-11.5094
▁перенос	-11.5094
пс	-11.5094
▁перевести	-11.5095
ительные	-11.5096
▁Землю	-11.5098
▁превратить	-11.5098
▁Even	-11.5099
▁сердцу	-11.51
запад	-11.5101
▁прислал	-11.5102
ставить	-11.5103
▁живо	-11.5105
▁big	-11.5106
▁красной	-11.5107
▁Петербурга	-11.5111
дя	-11.5112
see	-11.5112
Су	-11.5114
▁президентом	-11.5114
▁явилось	-11.5115
ичен	-11.5116
▁центров	-11.5117
ward	-11.5117
лл	-11.5118
▁выходили	-11.5118
▁Илья	-11.5119
вей	-11.512
жав	-11.5123
▁сложнее	-11.5124
▁полученные	-11.5125
▁храмов	-11.5125
лил	-11.5125
▁дополнительные	-11.5126
ичный	-11.5127
▁желанием	-11.5127
▁80-	-11.5127
ег	-11.5128
▁развиваться	-11.5129
▁подальше	-11.5129
▁21.	-11.513
▁следов	-11.513
▁министром	-11.513
▁добился	-11.5131
▁туалет	-11.5131
▁Дер	-11.5132
▁лицами	-11.5133
ger	-11.5133
▁school	-11.5134
▁выгод	-11.5134
▁начальнику	-11.5136
New	-11.5137
▁скажи	-11.5138
als	-11.5141
▁110	-11.5141
▁бизнеса	-11.5141
▁страстно	-11.5142
глаз	-11.5143
▁состоялась	-11.5143
▁населением	-11.5145
▁принадлежности	-11.5145
▁корабле	-11.5146
▁заговорил	-11.5147
▁Север	-11.5148
▁кольца	-11.5149
▁бат	-11.5149
▁финансов	-11.5149
▁хаос	-11.515
цел	-11.5152
▁пальцев	-11.5153
▁закончилась	-11.5153
рабатыва	-11.5155
учи	-11.5157
▁кро	-11.5159
▁обществ	-11.516
▁орденом	-11.516
▁уверенности	-11.5163
▁Кун	-11.5164
ип	-11.5165
▁Аллах	-11.5165
▁пользуются	-11.5165
▁апостол	-11.5166
уч	-11.5168
▁профессии	-11.5168
дев	-11.5171
▁состоянию	-11.5171
▁характерно	-11.5171
▁дисциплины	-11.5174
▁нервной	-11.5176
▁характере	-11.5177
ческие	-11.5179
▁цена	-11.518
▁хирург	-11.518
ослов	-11.5182
▁правитель	-11.5183
▁дается	-11.5183
▁ветви	-11.5184
▁Федорович	-11.5185
91	-11.5185
▁основного	-11.5186
▁полосе	-11.5187
▁спасибо	-11.5191
yn	-11.5192
▁традиция	-11.5192
▁оказывает	-11.5193
▁мужество	-11.5193
istic	-11.5193
▁инициативе	-11.5194
▁приемы	-11.5194
▁Алексеевич	-11.5195
▁премии	-11.5195
▁Берия	-11.5197
▁врагами	-11.5198
чке	-11.5198
▁заключил	-11.5199
▁Постепенно	-11.52
▁заседания	-11.52
▁изучал	-11.5201
▁живые	-11.5204
▁рядах	-11.5205
стям	-11.5206
▁Главного	-11.5207
очных	-11.5209
щим	-11.5209
бург	-11.521
hr	-11.5213
▁правление	-11.5213
▁ступень	-11.5214
▁предоставить	-11.5215
▁прочего	-11.5215
▁125	-11.5216
лага	-11.5218
▁построил	-11.5222
▁Ленинграде	-11.5223
▁новости	-11.5224
▁Председатель	-11.5224
▁генералу	-11.5225
одно	-11.5225
▁Женщина	-11.5226
▁широкие	-11.5227
▁делая	-11.523
▁видео	-11.5233
▁вершине	-11.5233
▁образца	-11.5234
▁Moscow	-11.5235
свобод	-11.5236
▁немецким	-11.5236
дро	-11.5237
▁доклада	-11.5238
▁сомнение	-11.5238
рн	-11.5242
▁возразил	-11.5242
▁спин	-11.5243
▁North	-11.5243
▁собственному	-11.5245
▁2015	-11.5247
▁Путин	-11.5248
▁общественное	-11.5252
▁постель	-11.5253
▁римлян	-11.5254
▁East	-11.5254
▁выражает	-11.5255
▁European	-11.5256
▁пулеметов	-11.5256
лива	-11.5258
▁пациента	-11.5259
▁читателю	-11.5262
-12	-11.5262
▁сообщал	-11.5263
▁наклон	-11.5263
▁персонажей	-11.5264
▁мотивы	-11.5264
▁working	-11.5265
ini	-11.5267
яс	-11.5267
▁союзники	-11.5267
▁давала	-11.5267
▁грубо	-11.5268
▁духовное	-11.5269
трен	-11.5269
▁организовал	-11.527
▁еврейского	-11.527
▁погода	-11.5271
▁смотрят	-11.5271
▁палец	-11.5271
хожу	-11.5273
▁представителя	-11.5276
▁вторжения	-11.5279
▁полагает	-11.5279
▁ОБ	-11.5282
верт	-11.5282
ода	-11.5284
▁следующую	-11.5286
▁Пр	-11.5286
ps	-11.5287
▁военными	-11.5287
▁падение	-11.5288
тельную	-11.5288
▁участии	-11.5291
▁повернулся	-11.5292
▁призван	-11.5293
▁прежней	-11.5293
▁Тип	-11.5297
▁Доктор	-11.5298
mm	-11.5298
валь	-11.5299
ino	-11.5299
▁хана	-11.5301
каз	-11.5301
▁содержанием	-11.5301
▁взаимно	-11.5302
▁Крыма	-11.5305
▁основ	-11.5306
▁влияет	-11.5306
нен	-11.5307
▁летчиков	-11.5307
▁обычным	-11.5307
цо	-11.5309
▁Вене	-11.5309
▁сферу	-11.5309
▁понимаешь	-11.531
▁превосходство	-11.531
▁кавалер	-11.5311
▁подтверждает	-11.5312
▁серьезных	-11.5312
▁energy	-11.5313
▁концентрации	-11.5313
▁встретился	-11.5313
▁шара	-11.5315
▁увеличения	-11.5316
▁Число	-11.5316
▁предел	-11.5318
▁спуска	-11.532
▁ПРИ	-11.5322
▁напрямую	-11.5323
▁известие	-11.5326
▁Штаты	-11.5327
▁красиво	-11.5331
труд	-11.5331
▁интересам	-11.5331
▁катастрофы	-11.5333
▁несут	-11.5334
ern	-11.5335
▁непосредственны	-11.5335
▁внешним	-11.5337
▁короткое	-11.5339
▁theory	-11.5339
▁Советская	-11.5339
▁равных	-11.534
фт	-11.5341
▁выехал	-11.5341
▁левого	-11.5342
▁достоинство	-11.5342
▁оборудование	-11.5342
▁атом	-11.5343
▁прямого	-11.5345
▁придумал	-11.5346
▁высота	-11.5347
▁спрос	-11.5348
uc	-11.5349
▁реального	-11.5351
▁объяснял	-11.5353
▁Ричард	-11.5353
▁горло	-11.5353
ą	-11.5354
▁Мел	-11.5354
ивать	-11.5356
▁зрителей	-11.5356
▁местность	-11.5356
▁вещество	-11.5357
▁противоречие	-11.5358
▁летописи	-11.5361
▁бред	-11.5361
▁проведение	-11.5363
▁учебных	-11.5363
▁увы	-11.5364
оза	-11.5365
ff	-11.5366
▁определенную	-11.5367
▁целая	-11.5368
▁терпеть	-11.5369
ческих	-11.5371
▁взглянул	-11.5371
nes	-11.5371
▁проникнуть	-11.5373
▁партийной	-11.5375
▁горько	-11.5376
▁господ	-11.5377
▁приняты	-11.5377
▁учесть	-11.5378
ьной	-11.5378
▁прибор	-11.5379
▁административны	-11.5381
▁землях	-11.5382
▁коммунизма	-11.5383
▁освещен	-11.5384
▁уважением	-11.5386
▁немцам	-11.5387
нах	-11.5387
▁сохранять	-11.5387
▁учителей	-11.5387
▁способностей	-11.5387
мель	-11.5389
▁материальной	-11.5391
▁клад	-11.5392
▁брали	-11.5393
ёл	-11.5394
▁Дуб	-11.5394
▁правого	-11.5395
nie	-11.5396
▁уроки	-11.5396
▁потребления	-11.5397
страива	-11.5397
▁летчики	-11.5398
und	-11.5399
▁московских	-11.5399
▁Королев	-11.54
▁сочетание	-11.54
US	-11.54
▁убор	-11.5402
▁определил	-11.5403
▁учил	-11.5403
▁сем	-11.5404
инь	-11.5405
▁Цвет	-11.5405
▁совокупность	-11.5405
▁economic	-11.5405
▁предыдущих	-11.5406
▁хороших	-11.5407
▁степи	-11.5407
▁Ох	-11.5408
▁Джона	-11.5408
ахъ	-11.5409
sin	-11.5409
▁сражении	-11.5409
▁заботы	-11.5409
ствовать	-11.5413
▁Коп	-11.5413
▁Бай	-11.5414
▁молитву	-11.5416
▁записки	-11.5417
tr	-11.5419
▁положением	-11.542
▁открытой	-11.542
▁красота	-11.542
▁авиация	-11.5421
▁проводит	-11.5423
пра	-11.5423
▁коль	-11.5424
▁установка	-11.5425
▁читает	-11.5426
▁ground	-11.5428
▁весны	-11.5429
▁равны	-11.543
ложив	-11.5431
▁надежде	-11.5432
▁точностью	-11.5433
▁угля	-11.5434
▁Ca	-11.5434
▁генералом	-11.5435
▁женился	-11.5435
▁вдали	-11.5436
▁устроил	-11.5437
▁коней	-11.5438
▁давлением	-11.5438
▁исчезли	-11.5439
ившийся	-11.544
▁отличался	-11.544
▁хо	-11.5443
▁Христе	-11.5444
▁суше	-11.5445
▁действиям	-11.5446
▁захотел	-11.5447
чина	-11.5447
▁Сила	-11.5447
▁математики	-11.5448
▁сует	-11.5448
▁МО	-11.5449
3).	-11.545
▁слуг	-11.545
▁ИЗ	-11.5451
▁напомнил	-11.5451
▁молока	-11.5451
▁Право	-11.5451
▁ея	-11.5452
▁попадает	-11.5452
▁социалистическо	-11.5453
▁Государственной	-11.5455
ступив	-11.5456
▁outside	-11.5458
▁своевременно	-11.546
▁праву	-11.546
ьян	-11.5462
тъ	-11.5463
▁образец	-11.5463
▁выступали	-11.5464
телен	-11.5465
▁подать	-11.5465
▁ё	-11.5466
▁поддержал	-11.5466
▁высоком	-11.5466
▁пыталась	-11.5467
▁истине	-11.5468
енно	-11.547
▁Римской	-11.5471
▁принадлежал	-11.5471
▁корень	-11.5473
▁future	-11.5476
▁определенным	-11.5477
▁капли	-11.5477
▁эпоха	-11.5481
▁императору	-11.5481
▁Войска	-11.5482
▁State	-11.5483
▁Ци	-11.5483
▁зиму	-11.5484
▁various	-11.5484
▁эффективности	-11.5485
▁банков	-11.5485
▁продолжить	-11.5485
▁преступлений	-11.5486
▁отличались	-11.5487
▁Питер	-11.5487
▁размера	-11.5488
▁Валентин	-11.5488
▁курсе	-11.5488
▁Граф	-11.5489
▁слезами	-11.5489
▁выходят	-11.549
ρ	-11.5493
▁установили	-11.5493
▁культурной	-11.5498
▁свободных	-11.5498
▁Раньше	-11.5499
▁Пра	-11.5499
▁столу	-11.5499
ski	-11.55
▁Вин	-11.5501
red	-11.5501
▁приобрел	-11.5502
▁Paul	-11.5503
▁соблазн	-11.5503
▁племя	-11.5503
▁технологий	-11.5503
▁МВД	-11.5504
å	-11.5505
▁совещания	-11.5505
ключ	-11.5505
▁распада	-11.5508
▁французские	-11.5508
▁запрос	-11.5508
▁воздушных	-11.5509
▁коридор	-11.551
▁просили	-11.5511
чку	-11.5512
▁императором	-11.5512
▁Добро	-11.5512
ran	-11.5516
▁противном	-11.5516
▁свидетельству	-11.5516
▁Третий	-11.5517
▁верили	-11.5517
▁узел	-11.552
▁подобный	-11.5522
тянут	-11.5522
▁круги	-11.5523
вести	-11.5524
▁чет	-11.5525
▁свободное	-11.5526
▁Божие	-11.5526
▁занимают	-11.5527
▁Макс	-11.5528
▁домах	-11.5528
енс	-11.5529
▁подойти	-11.5529
▁hours	-11.553
▁Против	-11.5531
▁науку	-11.5532
▁разделе	-11.5533
▁пойду	-11.5535
▁носом	-11.5537
▁посоветовал	-11.5538
▁иди	-11.5538
▁орудие	-11.5539
▁постиг	-11.5539
ess	-11.554
▁полон	-11.554
рост	-11.554
▁Него	-11.554
▁украшен	-11.554
отвор	-11.5541
μ	-11.5541
▁посвятил	-11.5541
▁всякая	-11.5543
двига	-11.5544
▁князья	-11.5544
▁звери	-11.5546
▁разделение	-11.5547
▁дверей	-11.5547
ile	-11.5547
▁разговоре	-11.5548
метр	-11.5549
▁расположения	-11.555
ающий	-11.555
пала	-11.555
▁территорий	-11.5551
▁моими	-11.5552
▁реальных	-11.5555
▁Тра	-11.5555
▁материальных	-11.5558
рим	-11.5558
▁несли	-11.5558
▁Джеймс	-11.5559
стоя	-11.5559
▁построен	-11.5559
▁Слав	-11.5559
▁показала	-11.556
▁кухне	-11.556
▁внешний	-11.5563
сок	-11.5564
–17	-11.5565
▁многократно	-11.5568
▁кругах	-11.5569
500	-11.5572
▁Крест	-11.5572
▁тезис	-11.5572
4)	-11.5573
▁мужу	-11.5573
▁имелись	-11.5573
▁Di	-11.5574
▁востоке	-11.5576
▁ходят	-11.5577
Мир	-11.5577
▁искали	-11.5577
act	-11.5578
▁традиций	-11.5579
▁согласны	-11.5579
")	-11.5579
▁Bo	-11.558
▁гражданских	-11.558
▁England	-11.5581
▁выражается	-11.5583
▁оккупации	-11.5585
▁table	-11.5587
▁ладони	-11.5587
▁особенность	-11.5588
только	-11.5589
▁римского	-11.5589
▁боеприпасов	-11.5589
▁духу	-11.5591
▁науч	-11.5592
ons	-11.5595
▁планете	-11.5595
▁нею	-11.5596
▁северу	-11.5596
▁Тро	-11.5596
▁длину	-11.5596
▁child	-11.5597
▁приобрести	-11.5598
▁умирает	-11.5598
▁San	-11.56
▁подготовить	-11.5601
▁imp	-11.5603
▁множеством	-11.5604
нера	-11.5605
cos	-11.5605
▁публики	-11.5606
▁просьбе	-11.5606
друг	-11.5607
▁дождя	-11.5608
▁сравнении	-11.5608
аса	-11.5609
▁40-	-11.5609
▁Great	-11.561
▁двенадцати	-11.5615
ef	-11.5616
▁развивать	-11.5617
let	-11.5617
▁идеей	-11.5618
вшемуся	-11.5619
иф	-11.562
▁берут	-11.5622
▁столик	-11.5624
▁Красная	-11.5625
▁воспитание	-11.5625
▁Петроград	-11.5626
▁находящихся	-11.5626
▁Кавказа	-11.5627
▁Киева	-11.5628
old	-11.5628
▁публицист	-11.5629
▁явилась	-11.5631
▁ша	-11.5631
▁22.	-11.5632
▁национал	-11.5632
▁маленького	-11.5633
▁густо	-11.5633
Мне	-11.5634
You	-11.5634
▁выглядел	-11.5634
uk	-11.5634
▁кислоты	-11.5635
▁четверо	-11.5635
▁проговорил	-11.5636
▁предела	-11.5636
руш	-11.5636
set	-11.5638
▁field	-11.564
▁спит	-11.5641
▁evidence	-11.5641
▁мыслью	-11.5641
лежа	-11.5642
▁крут	-11.5644
▁подавлен	-11.5645
атель	-11.5646
▁эффективность	-11.5646
▁малой	-11.5647
▁квартир	-11.5647
▁мут	-11.5648
▁Мартин	-11.565
▁раздела	-11.5652
ительно	-11.5653
▁господства	-11.5653
▁Луны	-11.5654
▁железных	-11.5654
We	-11.5655
▁проявил	-11.5656
▁южнее	-11.5658
▁граждане	-11.566
▁логики	-11.566
▁периоды	-11.5661
▁subject	-11.5661
▁милиции	-11.5662
▁Львов	-11.5662
▁региона	-11.5663
▁равной	-11.5664
ающие	-11.5664
▁напр	-11.5664
▁слабости	-11.5664
▁этаже	-11.5665
▁просьбу	-11.5665
▁прямым	-11.5665
▁воображение	-11.5665
▁небольшого	-11.5667
▁рев	-11.5669
η	-11.567
▁поручил	-11.5673
▁щит	-11.5674
▁японских	-11.5674
▁пользуется	-11.5677
▁мыслями	-11.5677
ings	-11.5678
▁Горбачев	-11.5679
▁куски	-11.568
▁Новой	-11.5681
▁снаружи	-11.5683
▁проф	-11.5683
▁90-	-11.5684
есть	-11.5684
▁sure	-11.5684
▁мелко	-11.5686
▁необходима	-11.5687
su	-11.5687
▁блока	-11.5689
▁тяжелым	-11.5689
▁Константина	-11.569
щики	-11.569
3,	-11.5691
▁снега	-11.5691
ere	-11.5692
▁вскочил	-11.5693
▁перешла	-11.5693
иев	-11.5694
▁зверя	-11.5694
▁полгода	-11.5695
ителем	-11.5696
▁жизненно	-11.5697
▁сделан	-11.5699
▁любим	-11.57
▁(13	-11.57
▁else	-11.5701
▁Ивановича	-11.5701
▁наблюдатель	-11.5702
▁мощный	-11.5703
▁широком	-11.5703
▁старости	-11.5705
▁Er	-11.5705
▁Lu	-11.5706
▁левый	-11.571
▁Кле	-11.571
▁случается	-11.5711
▁0,5	-11.5712
▁порог	-11.5714
▁близкие	-11.5715
уча	-11.5715
ложение	-11.5716
▁study	-11.5716
▁интер	-11.5718
▁ши	-11.5719
▁адмирала	-11.5719
▁агент	-11.572
еро	-11.5721
03	-11.5722
философ	-11.5723
▁кажутся	-11.5724
▁странным	-11.5724
иком	-11.5725
▁action	-11.5725
▁монах	-11.5727
▁медицины	-11.5728
▁совпадает	-11.5728
▁километрах	-11.5729
α	-11.5729
fi	-11.5732
▁привет	-11.5732
▁достигла	-11.5733
▁поврежден	-11.5733
▁победить	-11.5734
▁потребностей	-11.5736
▁завоевания	-11.5736
тел	-11.5737
▁явля	-11.5742
▁молот	-11.5744
▁плодов	-11.5745
▁молодая	-11.5745
▁готовить	-11.5746
▁рассказывали	-11.5746
▁наступил	-11.5746
цит	-11.5746
▁Поль	-11.5747
ования	-11.5748
▁Эл	-11.5748
▁двести	-11.5748
▁паспорт	-11.5748
ata	-11.575
▁польских	-11.575
▁Вит	-11.5751
▁уз	-11.5752
▁Слава	-11.5752
▁лучшем	-11.5756
▁23.	-11.5756
▁двинулся	-11.5757
▁максимум	-11.5759
▁Цель	-11.5759
▁предполагал	-11.576
▁поляков	-11.576
▁молитве	-11.576
▁Хуан	-11.5761
▁тупик	-11.5763
▁нужда	-11.5763
ившихся	-11.5764
▁скрыть	-11.5764
эк	-11.5765
▁психо	-11.5767
кса	-11.5768
▁Проблема	-11.577
▁Times	-11.5771
▁постановления	-11.5773
▁помогали	-11.5774
▁двинулись	-11.5775
▁революционного	-11.5775
народ	-11.5775
▁видение	-11.5777
▁противостоять	-11.5779
▁Боге	-11.5779
▁деревень	-11.5783
▁ангел	-11.5784
▁Росс	-11.5785
▁фр	-11.5785
дея	-11.5785
кл	-11.5788
▁меру	-11.5788
ИЙ	-11.5788
▁national	-11.5788
предел	-11.5788
It	-11.5789
▁примеч	-11.5791
▁участник	-11.5792
▁специалист	-11.5792
▁бросились	-11.5792
▁взглянуть	-11.5792
▁сосуд	-11.5793
▁массой	-11.5794
один	-11.5798
▁Средней	-11.58
▁органами	-11.58
▁произошли	-11.5801
ируем	-11.5802
▁решает	-11.5802
▁опубликовал	-11.5805
▁предполагалось	-11.5805
▁маг	-11.5805
▁пресс	-11.5808
▁плохой	-11.5808
▁пистолет	-11.5811
▁роде	-11.5811
стях	-11.5812
▁применить	-11.5813
▁китайской	-11.5814
▁стремиться	-11.5815
▁протокол	-11.5815
▁мертв	-11.5816
▁written	-11.5817
▁глупо	-11.5818
▁умело	-11.582
▁чистого	-11.582
▁кр	-11.5821
▁шпион	-11.5821
▁режиме	-11.5821
▁строительстве	-11.5823
▁чужих	-11.5824
оре	-11.5826
▁разрешить	-11.5827
▁Гал	-11.5828
▁lost	-11.5828
▁сравнить	-11.5828
▁обратном	-11.5829
▁700	-11.5829
▁альбом	-11.583
▁определению	-11.5831
▁десятка	-11.5835
▁благодати	-11.5835
▁ближайшие	-11.5835
▁held	-11.5836
▁поднимается	-11.5837
▁документа	-11.5837
▁Товарищ	-11.5839
▁probably	-11.5839
▁перестали	-11.5839
▁shall	-11.584
▁кожу	-11.5842
▁слышно	-11.5845
стать	-11.5846
▁грустно	-11.5848
Йорке	-11.5848
▁Жена	-11.5848
▁Центрального	-11.5848
▁убивать	-11.5849
▁атака	-11.5849
пет	-11.585
▁заодно	-11.5851
▁Сал	-11.5852
▁эк	-11.5852
▁list	-11.5854
▁Ельцин	-11.5859
▁Грузии	-11.586
▁||	-11.586
лон	-11.5861
▁условием	-11.5862
человек	-11.5862
▁hands	-11.5863
▁появится	-11.5863
▁теме	-11.5864
▁современный	-11.5865
пат	-11.5865
▁уровнем	-11.5865
▁Рассмотрим	-11.5867
▁важности	-11.5867
вос	-11.5868
▁March	-11.5868
▁опираясь	-11.587
кую	-11.587
▁воспринимать	-11.587
▁Семенов	-11.5871
оли	-11.5872
▁пациентов	-11.5873
▁жертвоприношени	-11.5873
▁кирпич	-11.5873
▁грязи	-11.5874
▁зерно	-11.5874
▁разведывательно	-11.5874
▁рыбу	-11.5876
▁ПВО	-11.5877
▁bar	-11.5878
▁Bd	-11.5878
▁патриарх	-11.5879
▁[1	-11.5879
▁правую	-11.5882
use	-11.5885
▁настоящие	-11.5887
▁друзьям	-11.5887
▁Зем	-11.5889
▁2012	-11.5889
▁отдавать	-11.589
кле	-11.589
¤	-11.5891
▁красного	-11.5893
▁помогал	-11.5894
щее	-11.5894
▁определяют	-11.5894
▁производится	-11.5896
Де	-11.5896
▁горных	-11.5897
▁сесть	-11.5897
▁вывел	-11.5897
▁Вес	-11.5898
▁дошло	-11.5899
▁Union	-11.5901
▁жертвой	-11.5901
▁обычай	-11.5901
евых	-11.5902
▁разом	-11.5903
▁ранней	-11.5904
▁command	-11.5905
▁сознанием	-11.5905
дат	-11.5907
▁специальной	-11.5907
▁обязательства	-11.5909
▁погибших	-11.5911
▁соображения	-11.5912
▁Андреев	-11.5913
▁обещание	-11.5914
▁ожидая	-11.5914
кали	-11.5914
▁sa	-11.5916
▁Кра	-11.5916
▁родных	-11.5918
▁Car	-11.5918
аем	-11.5918
креп	-11.5918
▁simply	-11.5919
▁выполнен	-11.5919
▁Крыму	-11.5919
Ха	-11.592
ay	-11.592
▁истинного	-11.5921
▁заседание	-11.5922
ОМ	-11.5922
▁некотором	-11.5923
▁клин	-11.5923
▁упоминает	-11.5924
▁Совсем	-11.5924
▁внешние	-11.5927
▁рубежом	-11.5927
▁меди	-11.5927
▁необходимостью	-11.5928
▁покое	-11.5929
▁обычный	-11.5929
▁технику	-11.593
▁схеме	-11.5931
▁dead	-11.5932
▁петь	-11.5932
▁лидера	-11.5933
▁вооруженные	-11.5936
▁пройдет	-11.5936
рд	-11.5938
▁ГЛАВА	-11.5938
тельной	-11.5939
▁занятие	-11.5939
▁совету	-11.594
▁удовлетворения	-11.594
4).	-11.5941
▁Архангельск	-11.5942
ично	-11.5943
▁заслуживает	-11.5943
ę	-11.5943
▁высокое	-11.5944
▁говоришь	-11.5947
▁фундамент	-11.5947
▁2011	-11.5947
▁сотрудничество	-11.5948
▁living	-11.5949
▁выборы	-11.5951
уна	-11.5952
▁Прав	-11.5952
▁пакет	-11.5953
▁Старик	-11.5955
▁Суворов	-11.5956
▁предотвратить	-11.5957
вержен	-11.5957
▁контролем	-11.5958
▁science	-11.5958
бок	-11.5959
▁лодку	-11.5959
▁Robert	-11.5959
▁собира	-11.5967
▁любила	-11.5967
▁греческого	-11.5967
▁серебра	-11.5967
▁пес	-11.5968
her	-11.5968
▁задолго	-11.5968
▁автобус	-11.5969
▁аргумент	-11.5971
▁символом	-11.5973
▁препятствия	-11.5974
▁шее	-11.5974
▁дискуссии	-11.5974
▁бунт	-11.5974
▁флотом	-11.5975
▁Япония	-11.5975
▁(11	-11.5975
ЕН	-11.5978
▁Обо	-11.5978
▁духовные	-11.5978
▁официальной	-11.5981
▁Хоть	-11.5981
He	-11.5981
▁Света	-11.5982
▁заместителя	-11.5982
gt	-11.5983
▁крестьянин	-11.5984
▁сахара	-11.5984
ИМ	-11.5985
▁технике	-11.5985
▁фрагмент	-11.5986
▁102	-11.5987
▁king	-11.5988
▁избегать	-11.5989
▁natural	-11.5989
▁подо	-11.599
▁Томас	-11.599
▁белым	-11.5991
▁отдохнуть	-11.5991
мак	-11.5992
▁вор	-11.5993
еру	-11.5993
летней	-11.5993
▁16-	-11.5993
▁конкретные	-11.5994
▁огород	-11.5995
▁совесть	-11.5997
▁старается	-11.6
▁Les	-11.6001
▁подтверждение	-11.6002
ken	-11.6002
▁думая	-11.6003
▁рассказов	-11.6004
▁June	-11.6006
▁бак	-11.6007
▁111	-11.6008
хов	-11.6008
▁Эн	-11.601
▁lot	-11.601
▁Западного	-11.601
▁тревоги	-11.6012
НЫЕ	-11.6012
инка	-11.6014
▁принимая	-11.6014
лён	-11.6014
▁механизма	-11.6015
▁обычные	-11.6015
шими	-11.6016
▁английском	-11.6016
▁Пе	-11.6016
▁перелом	-11.6017
шат	-11.6017
orum	-11.6018
▁Гол	-11.6018
▁шире	-11.6018
▁Ше	-11.6018
▁любому	-11.6021
юще	-11.6023
▁читали	-11.6024
▁Словом	-11.6025
▁видения	-11.6025
▁культурных	-11.6026
▁Четыре	-11.6027
▁критик	-11.6028
▁живем	-11.6028
▁Чан	-11.6029
▁председателем	-11.6029
pi	-11.6029
▁единицы	-11.603
▁искусством	-11.6031
▁церковной	-11.6032
▁тайной	-11.6032
▁попереч	-11.6033
▁взвода	-11.6036
▁сидят	-11.6038
▁критику	-11.6038
гал	-11.6039
▁библиотеки	-11.604
▁газетах	-11.6042
ИС	-11.6042
▁соблюдать	-11.6042
▁Михайлов	-11.6043
ris	-11.6044
▁начальников	-11.6044
▁individual	-11.6047
▁нести	-11.6048
▁английские	-11.6048
▁старших	-11.6051
▁заводы	-11.6052
▁силам	-11.6052
▁says	-11.6052
▁based	-11.6055
ЕТ	-11.6055
рот	-11.6056
атом	-11.6056
хват	-11.6056
▁бе	-11.6056
▁ситуациях	-11.6057
▁Вполне	-11.6058
▁общаться	-11.606
▁bit	-11.606
▁держали	-11.606
▁Имя	-11.6061
▁mi	-11.6061
▁whom	-11.6063
овских	-11.6063
ступая	-11.6064
▁впредь	-11.6064
▁широких	-11.6065
следовательности	-11.6065
▁вступили	-11.6066
▁результата	-11.6067
▁существовал	-11.6068
▁чиновники	-11.607
▁Life	-11.6071
▁полиция	-11.6072
▁крупным	-11.6073
чест	-11.6073
▁конь	-11.6076
vo	-11.6079
▁золотые	-11.6079
▁Сав	-11.6083
▁связ	-11.6084
▁Pa	-11.6085
▁мощности	-11.6085
▁продолжалось	-11.6085
hi	-11.6086
▁праздника	-11.6087
▁пророк	-11.6087
нымъ	-11.6087
▁Mr	-11.6088
▁возникнуть	-11.6089
ностей	-11.609
▁Хе	-11.609
▁effect	-11.6091
▁Fe	-11.6092
▁истинное	-11.6092
▁узнает	-11.6092
▁верующих	-11.6093
▁компромисс	-11.6094
▁min	-11.6094
▁побывал	-11.6094
▁атомов	-11.6095
▁поехали	-11.6095
хар	-11.6096
▁восторг	-11.6096
ообраз	-11.6097
▁вызывать	-11.6098
▁Сад	-11.6098
ленные	-11.6098
▁глубокие	-11.6099
▁sort	-11.61
▁красоту	-11.61
▁1902	-11.61
▁соответствуют	-11.6102
сі	-11.6102
▁имеющий	-11.6102
▁Института	-11.6103
тельных	-11.6104
▁отныне	-11.6105
ick	-11.6108
▁обществом	-11.6109
▁банд	-11.6109
▁продвижение	-11.611
▁удивление	-11.611
▁единое	-11.6111
ham	-11.6111
▁стул	-11.6112
72	-11.6113
▁направлений	-11.6117
▁Полковник	-11.6118
тах	-11.6118
▁вреда	-11.6118
▁strong	-11.6119
▁температуре	-11.612
▁десятилетий	-11.612
▁продать	-11.612
▁совершенства	-11.6121
енок	-11.6121
fl	-11.6123
▁важность	-11.6123
аются	-11.6123
▁легкие	-11.6124
▁отрядом	-11.6124
▁конструктор	-11.6125
▁превратилась	-11.6125
▁некое	-11.6127
▁работники	-11.6128
▁обречен	-11.6129
▁чист	-11.613
▁толка	-11.6133
юк	-11.6134
▁моно	-11.6135
▁частям	-11.6135
▁Противник	-11.6136
▁старым	-11.6138
▁Дик	-11.6139
▁внутреннюю	-11.6139
▁заместителем	-11.6139
▁случится	-11.6139
▁желании	-11.6141
тера	-11.6141
▁Th	-11.6141
▁обществу	-11.6142
▁крики	-11.6142
▁разговаривать	-11.6142
▁usually	-11.6142
▁дивизию	-11.6144
▁кандидат	-11.6145
▁Ер	-11.6145
▁доставить	-11.6145
▁стресс	-11.6145
▁исправить	-11.6148
▁поселения	-11.6148
▁Ой	-11.6148
wi	-11.6148
▁худ	-11.6151
bi	-11.6152
▁показывал	-11.6153
шт	-11.6154
▁истинной	-11.6159
▁согласились	-11.616
▁увеличивается	-11.6162
▁мифологии	-11.6162
▁es	-11.6165
▁range	-11.6165
▁стану	-11.6165
▁гармонии	-11.6166
▁101	-11.6168
ИЯ	-11.6168
▁doing	-11.6168
02	-11.6169
▁банки	-11.6169
▁строю	-11.6169
▁кат	-11.617
▁Иными	-11.617
▁снаряд	-11.6172
▁акций	-11.6173
▁party	-11.6173
▁отрасли	-11.6174
▁освободи	-11.6174
▁Ги	-11.6176
▁трети	-11.6176
тик	-11.6177
▁болезненно	-11.6179
елю	-11.6179
▁расширения	-11.6179
▁door	-11.6179
ГУ	-11.618
▁неприятно	-11.6181
▁треугольник	-11.6181
▁болѣе	-11.6182
▁спектр	-11.6182
ір	-11.6184
▁удален	-11.6184
▁Мао	-11.6185
▁led	-11.6185
ившие	-11.6185
▁заслуги	-11.6187
▁Щ	-11.6188
▁продовольственн	-11.6188
▁Ночью	-11.6188
▁массового	-11.6188
▁гражданского	-11.6191
▁бывшей	-11.6192
измом	-11.6195
▁банк	-11.6195
▁Am	-11.6196
▁метро	-11.6197
свят	-11.6197
▁промышленных	-11.6198
▁знакомство	-11.6199
▁perhaps	-11.6199
▁пустой	-11.6202
▁пользуясь	-11.6203
▁Ro	-11.6204
▁равновесие	-11.6204
▁Увы	-11.6205
▁билет	-11.6205
▁Sp	-11.6206
▁US	-11.6206
▁longer	-11.6208
▁Самый	-11.6209
▁достать	-11.621
кладывать	-11.6211
ates	-11.6211
▁начинали	-11.6214
▁смотря	-11.6216
▁легенды	-11.6219
▁польского	-11.622
▁испытывать	-11.622
▁стрелкового	-11.622
ning	-11.6221
▁данными	-11.6222
ируются	-11.6222
▁Попов	-11.6223
дой	-11.6223
▁исследовании	-11.6224
▁сыновья	-11.6224
▁продолжалась	-11.6224
▁Гра	-11.6224
▁стекло	-11.6227
▁достижение	-11.6229
▁просвещения	-11.6229
Ли	-11.6229
▁рта	-11.623
▁драма	-11.6231
▁соседних	-11.6231
▁указанных	-11.6231
▁South	-11.6232
▁написана	-11.6232
▁информацией	-11.6233
▁Италию	-11.6234
▁начальство	-11.6235
▁Сара	-11.6235
▁кричит	-11.6235
▁Дмитрия	-11.6236
▁всецело	-11.6237
еев	-11.6237
▁случалось	-11.6239
шел	-11.6239
ische	-11.624
▁горячо	-11.6243
▁поступает	-11.6243
▁немногие	-11.6244
▁(3)	-11.6244
▁knowledge	-11.6245
▁делаю	-11.6245
▁открытом	-11.6247
▁замечания	-11.6247
▁сцена	-11.6247
ску	-11.6249
▁мирного	-11.6249
▁вещах	-11.625
▁казалась	-11.625
▁Тим	-11.6251
▁Таблица	-11.6253
ade	-11.6253
аешь	-11.6253
VI	-11.6254
▁округ	-11.6255
▁молитва	-11.6256
▁живу	-11.6256
▁сравнения	-11.6256
▁обойтись	-11.6256
▁родилась	-11.6257
▁надобно	-11.6257
▁опубликован	-11.6258
▁золотых	-11.6258
▁моряков	-11.6258
▁признан	-11.6259
▁Герой	-11.6261
▁принца	-11.6262
веща	-11.6262
▁Лис	-11.6263
▁заказ	-11.6264
пле	-11.6265
▁повторить	-11.6267
крас	-11.6269
▁повседневной	-11.627
▁morning	-11.627
▁контакты	-11.6271
▁je	-11.6273
▁смесь	-11.6273
06	-11.6274
▁плоть	-11.6274
рыв	-11.6274
▁гарнизона	-11.6275
ТА	-11.6277
▁молчание	-11.6277
▁лекарств	-11.6278
▁достигнуть	-11.6279
▁Людовик	-11.6279
▁церковных	-11.628
▁разработке	-11.6281
▁обрести	-11.6282
ній	-11.6284
▁Учитывая	-11.6284
▁излучения	-11.6285
▁участь	-11.6287
▁обезьян	-11.6289
нка	-11.629
▁захвачен	-11.6291
ИН	-11.6291
▁включен	-11.6291
▁окружение	-11.6292
ицкий	-11.6293
бери	-11.6294
▁корпусов	-11.6294
▁намек	-11.6296
▁Ради	-11.6297
▁Хай	-11.6297
▁войсках	-11.6297
▁―	-11.6297
росс	-11.6298
▁едино	-11.6302
▁переворота	-11.6302
леч	-11.6302
▁(9	-11.6302
▁элиты	-11.6302
кла	-11.6304
▁мя	-11.6305
▁печаль	-11.6305
τ	-11.6305
▁свойствами	-11.6307
НАЯ	-11.6307
▁наблюдаем	-11.6307
▁тайна	-11.6308
▁боевую	-11.6308
а́	-11.6309
▁бесполезно	-11.631
▁дружбы	-11.631
▁походе	-11.631
▁польской	-11.6313
▁Washington	-11.6313
ін	-11.6313
МО	-11.6314
▁престиж	-11.6314
▁извне	-11.6315
вое	-11.6315
▁пилот	-11.6316
▁духовно	-11.6317
▁намерение	-11.6317
▁heard	-11.6317
культур	-11.6318
▁сводится	-11.6318
▁вниманием	-11.6318
▁доли	-11.6319
▁попробовать	-11.6319
▁star	-11.6321
▁108	-11.6322
▁XXI	-11.6322
▁заканчивается	-11.6322
▁долине	-11.6323
▁объявили	-11.6323
▁казались	-11.6324
▁Кавказе	-11.6325
▁распределение	-11.6326
▁create	-11.6327
▁недостатка	-11.6328
▁вечной	-11.6329
▁полагаю	-11.6329
▁наблюдений	-11.6331
▁ставил	-11.6332
▁members	-11.6333
▁немногих	-11.6333
▁бас	-11.6333
▁First	-11.6335
▁памят	-11.6335
▁служащих	-11.6336
▁Уильям	-11.6337
того	-11.6338
▁works	-11.6339
2-	-11.6341
▁методами	-11.6341
▁сформирован	-11.6342
▁available	-11.6342
▁Место	-11.6343
ленный	-11.6343
▁House	-11.6344
▁ибн	-11.6345
тип	-11.6345
▁Ницше	-11.6346
▁China	-11.6346
▁Алекс	-11.6346
▁фактом	-11.6348
люблен	-11.6349
▁прямых	-11.6353
▁требованиям	-11.6354
▁парашют	-11.6354
▁Платона	-11.6355
▁климат	-11.6355
▁подданных	-11.6356
▁рак	-11.6356
▁107	-11.6356
мещ	-11.6358
▁Art	-11.6358
ившиеся	-11.6358
▁zu	-11.636
▁равенства	-11.636
▁общественные	-11.636
▁почувствовать	-11.6361
▁выступают	-11.6361
▁Тре	-11.6363
кус	-11.6363
яли	-11.6364
▁общему	-11.6365
▁Троцкого	-11.6367
▁повесть	-11.6367
▁атак	-11.6368
▁газету	-11.6368
▁картине	-11.6368
▁109	-11.6371
Ор	-11.6371
▁поведении	-11.6371
▁открывается	-11.6371
▁церквей	-11.6372
▁тѣмъ	-11.6373
▁узнала	-11.6373
my	-11.6373
▁четвертый	-11.6373
▁московского	-11.6374
▁ядро	-11.6374
▁оста	-11.6375
▁республика	-11.6375
▁камеры	-11.6375
▁mean	-11.6375
КО	-11.6376
ві	-11.6379
▁крейсера	-11.6381
ks	-11.6384
▁бригад	-11.6384
▁тайну	-11.6385
▁духовный	-11.6388
04	-11.6389
ходим	-11.6389
▁Сим	-11.6389
▁Кому	-11.639
▁желанию	-11.639
▁Подобные	-11.6393
вил	-11.6393
▁объективно	-11.6394
▁родины	-11.6395
▁Фи	-11.6396
▁проведении	-11.6396
▁свят	-11.6397
▁культа	-11.6397
▁Вашингтон	-11.6398
▁институте	-11.6401
▁Ход	-11.6401
▁обвинение	-11.6402
▁активной	-11.6402
▁критике	-11.6402
▁заинтересован	-11.6403
▁принесла	-11.6404
▁командиру	-11.6405
▁больнице	-11.6405
▁кристалл	-11.6406
▁участках	-11.6408
▁внутренним	-11.6409
▁органа	-11.641
▁исполнить	-11.6411
▁быта	-11.6414
▁батальонов	-11.6414
▁памятников	-11.6414
енье	-11.6414
▁колеса	-11.6414
▁третье	-11.6415
▁способностью	-11.6417
▁Lo	-11.6418
St	-11.6419
▁Голос	-11.642
▁метра	-11.6421
▁Сократ	-11.6421
▁seems	-11.6421
▁отдельного	-11.6422
▁известность	-11.6422
телями	-11.6423
▁смотрела	-11.6423
▁делала	-11.6424
▁center	-11.6424
▁молиться	-11.6424
▁Последнее	-11.6429
▁физические	-11.6429
▁Идея	-11.643
▁некоего	-11.643
▁Муж	-11.643
▁боялись	-11.6431
тическая	-11.6432
▁months	-11.6433
после	-11.6435
▁Наряду	-11.6435
▁состояний	-11.6437
▁верхом	-11.6437
бре	-11.6437
третьих	-11.6439
▁гипер	-11.644
▁six	-11.644
▁15-	-11.644
▁куп	-11.6443
▁Ним	-11.6444
▁издал	-11.6445
▁собираются	-11.6446
▁проходила	-11.6446
производ	-11.6446
ищ	-11.6447
▁интерпретации	-11.6447
▁султан	-11.6449
▁personal	-11.6449
▁средний	-11.645
▁слои	-11.6452
08	-11.6452
▁Главным	-11.6454
▁божества	-11.6454
▁политикой	-11.6455
тес	-11.6455
▁отклик	-11.6456
▁карьеру	-11.6456
▁приближа	-11.6457
▁Прямо	-11.6459
▁Че	-11.6461
▁искусству	-11.6463
▁акта	-11.6464
▁Обе	-11.6466
▁экономика	-11.6468
▁хозяйстве	-11.6468
▁Созда	-11.6469
▁религиозного	-11.6472
▁терять	-11.6472
▁мечтал	-11.6472
МА	-11.6472
▁астроном	-11.6473
▁страхов	-11.6474
▁поступок	-11.6474
Мо	-11.6475
▁виден	-11.6477
▁солнцем	-11.6477
▁неудачи	-11.6478
▁атмосферу	-11.6478
▁Артур	-11.6478
▁крупнейших	-11.648
▁Член	-11.648
▁грамот	-11.6482
чные	-11.6485
▁социализм	-11.6487
▁валют	-11.6487
ныне	-11.6487
▁защита	-11.6487
▁text	-11.6488
▁battle	-11.6488
▁родителям	-11.6489
▁поднялись	-11.649
▁столетий	-11.649
▁Белого	-11.6491
▁твоим	-11.6491
▁ворон	-11.6495
▁ожидали	-11.6496
▁Вос	-11.6497
▁торговля	-11.6498
▁met	-11.6498
▁написаны	-11.6499
▁богатые	-11.6499
AL	-11.65
ящих	-11.6501
еса	-11.6501
▁христиане	-11.6503
▁исполнять	-11.6503
сим	-11.6503
▁Боб	-11.6506
аков	-11.6507
▁music	-11.6508
▁Ma	-11.6511
▁зритель	-11.6511
эс	-11.6514
▁сочинение	-11.6516
▁ели	-11.6516
art	-11.6516
▁моё	-11.6517
ВА	-11.6518
НЕ	-11.6519
ийского	-11.652
▁сделаны	-11.6521
▁занимаются	-11.6521
▁доказывает	-11.6521
▁Ad	-11.6522
▁скалы	-11.6522
▁повреждения	-11.6523
тина	-11.6525
Си	-11.6526
▁духовенства	-11.6526
▁пациент	-11.6526
▁Блок	-11.6526
фар	-11.6527
▁makes	-11.6527
▁рапорт	-11.6528
действ	-11.6528
▁итог	-11.6529
трав	-11.6529
▁литературных	-11.653
▁Сол	-11.653
член	-11.6531
чан	-11.6531
form	-11.6532
▁Дед	-11.6532
▁нулю	-11.6533
шн	-11.6536
▁горд	-11.6538
▁сухо	-11.6539
нат	-11.654
▁рассказала	-11.6541
ey	-11.6541
09	-11.6541
▁рукопись	-11.6542
▁вправо	-11.6543
История	-11.6543
▁трижды	-11.6545
je	-11.6546
▁секунды	-11.6546
▁Газ	-11.6546
▁пришёл	-11.6547
▁Текст	-11.6547
▁образуется	-11.6548
▁похорон	-11.6549
и́	-11.655
▁печ	-11.6551
▁исполнен	-11.6551
▁Зе	-11.6552
▁International	-11.6553
▁зеркало	-11.6553
▁рабы	-11.6554
▁обусловлен	-11.6554
▁Гражданской	-11.6556
овки	-11.6557
▁насилие	-11.6558
▁малейшего	-11.6558
▁основное	-11.6558
▁провод	-11.6559
▁sun	-11.6561
▁барьер	-11.6561
вые	-11.6564
▁познакомиться	-11.6564
▁вмешательства	-11.6565
▁северных	-11.6565
▁сохранение	-11.6566
▁Аллаха	-11.6568
▁распространенны	-11.6569
▁Всегда	-11.6569
Пол	-11.6573
▁Малой	-11.6573
▁соотношения	-11.6573
▁Румынии	-11.6574
▁иным	-11.6576
▁механизмы	-11.6576
▁хлоп	-11.6577
tal	-11.6578
▁пули	-11.6578
▁возможные	-11.6579
4-	-11.6579
вых	-11.6581
▁July	-11.6581
Для	-11.6582
▁автомобиля	-11.6583
▁кошмар	-11.6583
▁13-	-11.6583
▁еврейской	-11.6583
лера	-11.6584
▁некоторого	-11.6584
▁Прошу	-11.6584
▁имелось	-11.6584
▁Si	-11.6585
▁постановление	-11.6585
▁Пожалуй	-11.6585
▁прокурор	-11.6586
▁дыма	-11.6586
▁Собор	-11.6587
▁абсолютной	-11.6587
▁дохода	-11.6588
▁подчеркивает	-11.6589
▁рисунок	-11.6589
▁внутренняя	-11.6589
▁обсуждение	-11.659
▁проекты	-11.6593
▁происхождении	-11.6593
лич	-11.6593
▁пустыни	-11.6594
▁Шах	-11.6597
▁потеряла	-11.6597
▁выполняет	-11.6598
▁Советском	-11.6598
эм	-11.6599
▁проблемами	-11.6599
▁колхоз	-11.66
▁жестко	-11.6601
авшие	-11.6602
был	-11.6603
▁перенес	-11.6603
▁желательно	-11.6603
▁Шел	-11.6604
▁учить	-11.6604
▁2016	-11.6604
▁хр	-11.6604
▁опасения	-11.6604
особенно	-11.6605
▁богослов	-11.6605
важ	-11.6606
▁завершения	-11.6607
▁равенство	-11.6607
-11	-11.6608
▁интересует	-11.6608
ивших	-11.6609
▁Пап	-11.661
▁заявляет	-11.661
▁miles	-11.6611
▁умы	-11.6611
▁terms	-11.6612
▁тепла	-11.6612
▁творческой	-11.6614
▁му	-11.6614
▁кричал	-11.6616
▁включа	-11.6617
▁Сирии	-11.6617
▁зашел	-11.6618
▁приоритет	-11.6619
▁лишним	-11.662
ct	-11.6621
▁топор	-11.6621
▁отверстие	-11.6622
дол	-11.6624
▁Днепр	-11.6625
▁противоречит	-11.6626
▁несправедливо	-11.6626
▁Каким	-11.6627
▁улучшения	-11.6627
сия	-11.6629
▁битва	-11.6629
▁помнил	-11.6629
="	-11.6629
▁Ибн	-11.663
▁Болгарии	-11.6632
▁цит	-11.6633
▁feet	-11.6633
▁Всю	-11.6633
mi	-11.6633
ОЙ	-11.6633
▁гора	-11.6634
▁совершен	-11.6634
▁немецко	-11.6634
▁выходе	-11.6637
ула	-11.6637
▁разрешил	-11.6637
Ме	-11.6639
▁знакомые	-11.664
▁поэмы	-11.664
▁хорош	-11.6641
▁невозможным	-11.6643
▁крупной	-11.6645
охран	-11.6645
лёт	-11.6646
▁приняв	-11.6648
▁основатель	-11.6648
▁здоров	-11.6649
▁отдельной	-11.665
▁toward	-11.6651
▁Группа	-11.6653
▁уравнений	-11.6653
мой	-11.6655
▁композитор	-11.6658
▁губернатор	-11.666
▁Новые	-11.6661
эль	-11.6662
▁Ил	-11.6663
▁Фактически	-11.6663
▁гул	-11.6663
тки	-11.6663
ator	-11.6664
▁сели	-11.6664
▁дочерью	-11.6668
▁родственники	-11.6668
▁шлем	-11.6668
идов	-11.6668
эп	-11.6672
▁каса	-11.6673
▁продажи	-11.6674
▁западные	-11.6674
▁Перво	-11.6675
▁римской	-11.6675
▁выступили	-11.6677
▁листьев	-11.6677
▁снаряды	-11.6678
▁бег	-11.6678
▁його	-11.6678
▁round	-11.6678
ГА	-11.6678
▁стыдно	-11.6678
▁выходил	-11.6679
▁свидетельств	-11.6679
▁Грин	-11.668
▁Францией	-11.6681
▁чудес	-11.6681
▁Анатолий	-11.6683
▁высотой	-11.6684
day	-11.6684
жим	-11.6684
▁оставляя	-11.6684
▁Christian	-11.6685
▁поддерживает	-11.6685
▁сравнение	-11.6686
▁account	-11.6687
▁конверт	-11.6688
▁добрых	-11.6688
▁морские	-11.6689
▁18-	-11.6689
▁образцы	-11.6689
▁художественного	-11.669
mar	-11.669
▁основанием	-11.669
чук	-11.6691
ill	-11.6691
▁вагон	-11.6691
▁нс	-11.6694
▁взялся	-11.6696
▁Родины	-11.6696
▁бумаге	-11.6697
ischen	-11.6697
▁ask	-11.6697
ob	-11.6698
емым	-11.6698
▁сим	-11.6699
▁выглядеть	-11.67
▁Характер	-11.6701
▁потребуется	-11.6702
nn	-11.6702
▁fl	-11.6703
▁try	-11.6704
▁верой	-11.6705
▁Кузнецов	-11.6706
▁отмечалось	-11.6707
▁находил	-11.6707
ale	-11.671
ОТ	-11.6711
▁горизонт	-11.6713
▁царского	-11.6715
▁ссылки	-11.6716
▁входил	-11.6717
ставля	-11.6717
▁115	-11.6718
▁sometimes	-11.6719
▁желаний	-11.6719
▁хорошую	-11.672
▁лорд	-11.6721
▁Фер	-11.6723
▁Але	-11.6724
#	-11.6725
Бо	-11.6725
▁коммунисты	-11.6725
▁передо	-11.6726
▁мешок	-11.6726
общ	-11.6727
▁судья	-11.6727
▁ОГПУ	-11.673
▁высшие	-11.6731
▁инструкции	-11.6731
▁истинный	-11.6732
▁замечание	-11.6733
▁греки	-11.6734
▁закончен	-11.6735
▁бессмысленно	-11.6735
ляр	-11.6735
▁ствола	-11.6736
▁порыв	-11.6737
▁Mi	-11.6738
▁Вопросы	-11.6739
▁Хал	-11.674
ища	-11.6742
▁добычи	-11.6743
груз	-11.6744
около	-11.6745
▁броне	-11.6745
▁западе	-11.6746
▁103	-11.6746
▁довелось	-11.6748
-8	-11.6748
▁усмехнулся	-11.6748
▁foreign	-11.6749
▁include	-11.6749
▁музыке	-11.6749
▁тяжелое	-11.6751
▁среда	-11.6751
▁варианта	-11.6754
▁Черт	-11.6754
▁задал	-11.6754
▁раскрыл	-11.6755
▁Достоевский	-11.6755
▁дневник	-11.6756
▁оратор	-11.6758
строен	-11.6758
▁6)	-11.6758
tt	-11.6758
▁произвол	-11.6759
чуть	-11.676
ments	-11.676
▁Кирилл	-11.676
▁небольшом	-11.6761
▁Бой	-11.6762
▁Соколов	-11.6762
▁женщинам	-11.6765
никова	-11.6765
▁природных	-11.6766
▁Государь	-11.6768
▁развод	-11.6768
▁океане	-11.6768
▁палаты	-11.6769
▁график	-11.6769
хор	-11.677
▁George	-11.6772
▁свойственно	-11.6772
▁космос	-11.6772
▁ставили	-11.6773
▁правах	-11.6773
▁ребенку	-11.6773
▁1901	-11.6774
▁уезд	-11.6775
▁проектов	-11.6775
▁строения	-11.6777
▁Peter	-11.6777
▁нрав	-11.6777
▁комната	-11.6778
▁Кай	-11.6779
▁Соответственно	-11.6779
▁Процесс	-11.678
уг	-11.678
льные	-11.678
горе	-11.6781
кала	-11.6782
ированные	-11.6782
–16	-11.6782
▁рассматривал	-11.6784
▁хранить	-11.6784
бывал	-11.6785
▁стремясь	-11.6788
▁фактором	-11.6788
▁Великая	-11.6788
▁документах	-11.6789
▁навыки	-11.679
▁report	-11.6791
▁Бело	-11.6791
▁присутствия	-11.6792
▁санитар	-11.6792
▁секретарем	-11.6794
▁раба	-11.6794
▁классе	-11.6795
▁1:	-11.6796
▁выпить	-11.6798
▁ведомства	-11.6799
▁вирус	-11.68
▁широкого	-11.6801
▁изготовления	-11.6802
алы	-11.6802
евского	-11.6802
овские	-11.6802
тей	-11.6803
▁суду	-11.6804
писать	-11.6805
▁уход	-11.6806
зрел	-11.6807
Le	-11.6808
▁Пат	-11.6809
▁создается	-11.6811
▁заметила	-11.6811
ien	-11.6812
jo	-11.6812
▁Готов	-11.6813
▁Вслед	-11.6814
om	-11.6815
▁надписи	-11.6817
▁problems	-11.6818
▁парламента	-11.6818
ds	-11.6818
утся	-11.6819
▁крыло	-11.6819
▁перспектив	-11.6819
▁разгрома	-11.682
▁прожил	-11.682
уди	-11.6821
▁били	-11.6821
▁Лин	-11.6822
▁стук	-11.6822
▁won	-11.6822
▁вперёд	-11.6822
▁поисков	-11.6825
ι	-11.6825
▁лев	-11.6826
iss	-11.6826
ita	-11.6827
**	-11.6827
▁low	-11.6829
▁специальный	-11.683
ys	-11.6831
ливый	-11.6831
▁обязанность	-11.6832
▁едет	-11.6833
▁Помните	-11.6833
▁помните	-11.6834
▁годам	-11.6834
▁разнообразных	-11.6835
ившего	-11.6836
▁эскадры	-11.6837
против	-11.684
▁act	-11.6842
▁глубокого	-11.6844
▁дама	-11.6845
▁обладать	-11.6845
▁мг	-11.6845
fer	-11.6846
▁September	-11.6846
▁Белый	-11.6847
▁местным	-11.6847
▁снижение	-11.6848
▁событиями	-11.6848
▁барабан	-11.6849
▁становилась	-11.685
▁Егор	-11.685
▁стандарт	-11.6851
▁бедных	-11.6852
чел	-11.6853
▁утрачен	-11.6854
▁полагают	-11.6854
▁подняли	-11.6854
▁section	-11.6857
▁чувствовали	-11.6857
▁наверх	-11.6857
▁Pre	-11.6858
инд	-11.6859
▁таков	-11.686
▁простое	-11.6862
▁последовал	-11.6862
▁обнаружен	-11.6863
▁someone	-11.6863
▁поддерживали	-11.6864
▁Бек	-11.6865
▁talk	-11.6865
▁металлов	-11.6865
-9	-11.6866
▁гре	-11.6867
▁будущий	-11.6868
▁познание	-11.6869
олов	-11.687
▁David	-11.687
кѣ	-11.6873
▁списка	-11.6874
▁дис	-11.6874
▁специального	-11.6876
▁secret	-11.6876
енд	-11.6877
▁таковой	-11.6877
▁спокойствие	-11.6877
▁саму	-11.6879
▁случиться	-11.6881
▁move	-11.6881
▁chapter	-11.6882
▁получило	-11.6883
▁готово	-11.6885
▁террор	-11.6885
▁каждые	-11.6885
▁императрицы	-11.6886
гиб	-11.6887
▁Андреевич	-11.6887
▁изделий	-11.6888
▁углов	-11.6888
▁Вначале	-11.6889
дова	-11.689
*.	-11.689
ual	-11.6892
▁письмах	-11.6893
▁возвратился	-11.6894
▁access	-11.6895
▁Лос	-11.6895
▁щедро	-11.6895
▁печени	-11.6895
▁своею	-11.6895
▁породы	-11.6896
▁ночной	-11.6897
▁стихах	-11.6897
ТИ	-11.6897
лета	-11.6898
▁обратились	-11.6899
▁инструментов	-11.6899
кнул	-11.6899
▁контекст	-11.69
▁рассмотрим	-11.6901
▁Вен	-11.6903
ворот	-11.6904
▁поздней	-11.6905
▁противопоставля	-11.6905
дача	-11.6905
▁волну	-11.6906
▁оставшиеся	-11.6906
▁Эдуард	-11.6908
▁точкой	-11.6909
▁Fa	-11.6909
▁страшный	-11.6909
▁постоянным	-11.6909
▁Сон	-11.691
жин	-11.691
▁Ост	-11.6911
▁эвакуации	-11.6912
▁несчастье	-11.6912
▁экз	-11.6912
▁курсы	-11.6913
▁исходит	-11.6913
▁довер	-11.6914
▁October	-11.6914
овцев	-11.6914
▁пот	-11.6914
▁Героя	-11.6915
▁крупными	-11.6917
▁расширение	-11.6917
ево	-11.6918
▁шестьдесят	-11.6918
▁греческой	-11.6919
▁слышу	-11.6919
▁Du	-11.692
▁надеясь	-11.6922
▁баб	-11.6922
▁буд	-11.6922
▁Моск	-11.6923
▁24.	-11.6924
▁необходим	-11.6925
▁постоянное	-11.6926
▁обсуждать	-11.6926
▁прочитать	-11.6927
▁студенты	-11.6927
▁говори	-11.6928
▁Пет	-11.6928
▁комендант	-11.6932
▁един	-11.6932
▁генералы	-11.6932
▁призвал	-11.6932
▁легенда	-11.6933
▁Григория	-11.6933
▁разговоров	-11.6933
▁сыграл	-11.6935
▁размером	-11.6935
▁составлял	-11.6936
▁Can	-11.6938
6).	-11.6941
▁увидите	-11.6942
▁королевства	-11.6942
▁Куп	-11.6943
▁оправдан	-11.6943
чить	-11.6945
▁бал	-11.6946
▁million	-11.6946
▁франков	-11.6947
ыр	-11.6947
▁остановил	-11.6947
▁считались	-11.6947
▁применяется	-11.6947
▁April	-11.6948
▁островах	-11.6948
спор	-11.6948
▁христианского	-11.6949
▁растение	-11.695
▁Li	-11.695
▁умерших	-11.695
▁Чехословакии	-11.6951
▁коммуникации	-11.6951
▁защищен	-11.6951
ительная	-11.6952
▁сугубо	-11.6954
▁ехал	-11.6957
▁основан	-11.6957
▁Red	-11.6958
▁заговора	-11.6959
нима	-11.696
▁дуб	-11.6961
cher	-11.6963
чная	-11.6966
▁боятся	-11.6966
▁владел	-11.6968
▁контракт	-11.6968
ичные	-11.6968
▁японцев	-11.6969
”)	-11.697
▁драматург	-11.697
▁Труд	-11.6971
▁Po	-11.6973
▁ри	-11.6973
ирован	-11.6973
▁короткие	-11.6974
▁Ск	-11.6974
▁греческих	-11.6976
▁лесов	-11.6977
▁беспокойство	-11.6978
жил	-11.698
▁104	-11.6981
▁плавания	-11.6982
▁систематически	-11.6984
▁чая	-11.6984
правлен	-11.6986
▁чужие	-11.6986
▁оставшихся	-11.6987
▁красным	-11.6988
▁счету	-11.6988
▁медитации	-11.6989
▁высшим	-11.699
▁патриарха	-11.699
▁обращаясь	-11.6991
▁приказы	-11.6991
▁Наше	-11.6993
▁интересом	-11.6993
▁территория	-11.6994
▁активное	-11.6994
▁мрамор	-11.6995
▁крылья	-11.6995
▁незадолго	-11.6997
Ди	-11.6998
berg	-11.6998
▁private	-11.6998
▁ученым	-11.6998
▁расположенных	-11.7001
▁Рез	-11.7001
5).	-11.7001
водя	-11.7003
▁упала	-11.7006
▁капитализм	-11.7007
▁помешать	-11.701
ектор	-11.7011
▁скуп	-11.7012
▁организацией	-11.7012
▁ночам	-11.7013
▁Льва	-11.7013
▁серьезным	-11.7013
▁распад	-11.7013
▁странное	-11.7013
▁Самар	-11.7016
»!	-11.7017
бах	-11.7018
▁ru	-11.7018
▁Харьков	-11.702
▁змея	-11.702
▁ловко	-11.702
▁фамилию	-11.7021
▁характером	-11.7021
▁Горького	-11.7021
▁культурного	-11.7022
▁бумагу	-11.7023
юн	-11.7025
ыш	-11.7025
▁character	-11.7026
▁122	-11.7027
▁Дел	-11.7028
▁родом	-11.7028
▁сторонники	-11.7029
▁ответили	-11.703
съ	-11.7031
▁обоснован	-11.7032
ants	-11.7033
▁очевидным	-11.7033
▁Ким	-11.7033
▁знати	-11.7035
гг	-11.7035
▁Получив	-11.7035
▁преследования	-11.7035
▁wife	-11.7036
▁переходе	-11.7037
▁монархии	-11.7039
▁Говоря	-11.7041
▁печали	-11.7042
▁пообещал	-11.7042
ті	-11.7043
▁окрестностях	-11.7043
▁унтер	-11.7046
▁бесплатно	-11.7046
▁нанес	-11.7046
▁иерархии	-11.7048
ствовал	-11.7048
ливая	-11.705
▁рассчитывал	-11.7051
▁правы	-11.7051
▁двига	-11.7051
▁возрастает	-11.7053
▁Молотов	-11.7053
жн	-11.7054
▁фантазии	-11.7055
▁зверь	-11.7055
▁уехать	-11.7055
ированных	-11.7055
ЕМ	-11.7056
тянул	-11.7056
вшем	-11.7057
▁Внутри	-11.7057
▁предки	-11.7058
▁доходы	-11.7058
▁приведены	-11.7058
▁Here	-11.7058
5%	-11.7059
▁расскажу	-11.706
▁свист	-11.7061
▁2,5	-11.7061
▁бого	-11.7063
▁произвел	-11.7064
уже	-11.7065
▁ближайших	-11.7066
▁Дмитриевич	-11.7066
▁pay	-11.7067
▁building	-11.7067
▁удовлетворить	-11.7068
▁Несомненно	-11.7068
[...]
