<unk>	0
<s>	0
</s>	0
[PAD]	0
[UNK]	0
[CLS]	0
[SEP]	0
[MASK]	0
,	-2.7201
.	-3.06445
▁и	-3.85322
▁в	-3.97831
▁не	-4.7398
▁на	-4.74096
▁с	-4.898
а	-4.98812
-	-5.00439
▁что	-5.10317
▁—	-5.12211
▁«	-5.17124
е	-5.31527
:	-5.43274
▁по	-5.52567
и	-5.54343
▁	-5.55045
▁(	-5.56671
▁к	-5.58088
▁как	-5.7149
▁В	-5.75458
▁из	-5.78206
▁the	-5.80272
у	-5.82326
»	-5.83562
м	-5.85635
▁–	-5.86308
▁а	-5.87191
▁от	-5.87416
▁его	-5.92739
▁о	-5.92953
▁за	-5.93802
▁он	-6.00757
ы	-6.03838
▁у	-6.142
▁я	-6.1596
;	-6.17963
й	-6.1839
▁это	-6.18605
s	-6.20497
▁для	-6.21174
)	-6.22078
▁же	-6.2671
?	-6.27682
▁но	-6.30932
ом	-6.31264
▁of	-6.32111
о	-6.33255
х	-6.34142
▁все	-6.37012
▁то	-6.37996
▁И	-6.38899
▁А	-6.43625
▁было	-6.44279
▁and	-6.5078
▁до	-6.51393
▁или	-6.51432
!	-6.55046
ов	-6.56305
▁был	-6.56555
▁их	-6.57524
я	-6.57984
▁при	-6.58678
▁так	-6.60465
».	-6.63649
▁to	-6.63776
▁С	-6.66196
то	-6.68642
▁бы	-6.702
▁только	-6.7049
▁-	-6.71442
▁г	-6.73324
▁мы	-6.73466
▁a	-6.73488
ой	-6.74353
...	-6.75064
▁они	-6.78351
▁Но	-6.80053
ъ	-6.80812
▁in	-6.82452
▁вы	-6.88051
▁Я	-6.89995
▁под	-6.90292
▁чтобы	-6.91151
▁были	-6.93307
ся	-6.93673
»,	-6.94613
го	-6.95345
ми	-6.95668
▁ее	-6.96583
▁когда	-6.98307
▁уже	-6.99992
▁во	-7.00865
▁время	-7.01546
ю	-7.0283
▁еще	-7.03499
).	-7.06825
ами	-7.08704
▁она	-7.14166
▁со	-7.14482
ные	-7.15724
▁того	-7.16466
▁На	-7.1762
▁была	-7.18025
▁ни	-7.18614
▁Он	-7.1889
▁если	-7.19616
▁меня	-7.21064
▁которые	-7.2228
▁раз	-7.25017
ный	-7.25153
▁том	-7.25243
’	-7.26419
ных	-7.2652
ной	-7.26648
▁мне	-7.27859
),	-7.27996
▁быть	-7.29865
▁есть	-7.31181
▁этого	-7.3218
▁чем	-7.32839
▁может	-7.32852
в	-7.33572
▁более	-7.34551
▁"	-7.34574
▁этом	-7.35271
▁об	-7.3547
ая	-7.36466
▁ему	-7.3648
▁даже	-7.3673
▁Это	-7.37198
▁По	-7.37484
▁себя	-7.38985
▁года	-7.40852
▁К	-7.42002
▁где	-7.42547
▁М	-7.43966
▁I	-7.45246
▁ли	-7.46085
▁который	-7.47224
▁можно	-7.47587
▁Не	-7.4785
ная	-7.4797
▁после	-7.4799
ого	-7.4801
с	-7.49745
▁них	-7.50071
ного	-7.50375
▁также	-7.50383
▁очень	-7.50473
ка	-7.51134
▁будет	-7.51144
▁без	-7.51254
▁У	-7.51755
▁тем	-7.53519
▁нас	-7.53791
▁that	-7.56647
ли	-7.57478
▁т	-7.57863
л	-7.58637
▁всех	-7.59608
▁про	-7.62537
на	-7.6268
▁жизни	-7.63937
ет	-7.64418
▁него	-7.6684
▁всего	-7.67656
▁“	-7.67902
▁между	-7.6894
▁is	-7.69458
▁себе	-7.69636
▁О	-7.69899
▁лет	-7.70352
▁кто	-7.70831
ть	-7.71013
т	-7.71091
▁was	-7.71524
▁этой	-7.7167
ки	-7.71994
▁человек	-7.72218
▁этот	-7.72284
ые	-7.72427
▁ты	-7.72651
▁1	-7.73011
ий	-7.73478
ным	-7.74193
▁своей	-7.74496
ых	-7.76185
ый	-7.76566
ей	-7.77169
но	-7.77362
ах	-7.77528
▁Если	-7.77962
▁The	-7.78233
▁через	-7.79081
▁Как	-7.80167
▁один	-7.80718
"	-7.81481
ed	-7.81621
▁эти	-7.81881
ую	-7.81917
ную	-7.81953
—	-7.82601
▁for	-7.82768
▁нет	-7.83132
▁лишь	-7.83503
▁[	-7.83701
за	-7.85547
▁им	-7.86258
▁больше	-7.86516
ым	-7.87784
ем	-7.87987
ное	-7.89573
▁людей	-7.90019
ing	-7.90219
ам	-7.90335
▁своих	-7.91842
▁над	-7.92129
ь	-7.9253
▁При	-7.92723
▁году	-7.92736
▁там	-7.93386
▁несколько	-7.94737
▁Так	-7.95858
▁свою	-7.95909
▁За	-7.96389
▁2	-7.96455
'	-7.97014
▁with	-7.97313
▁сказал	-7.97398
▁нам	-7.98227
▁времени	-7.98735
ие	-7.99331
▁которых	-7.99771
▁as	-7.99865
▁потому	-7.99917
t	-8.00355
▁человека	-8.00608
ского	-8.01678
▁Мы	-8.01953
▁П	-8.02018
▁против	-8.02194
▁on	-8.02344
▁перед	-8.02682
e	-8.02806
не	-8.02826
▁здесь	-8.03418
▁много	-8.03436
▁образом	-8.03637
▁этих	-8.04307
▁день	-8.0482
▁своего	-8.05162
ский	-8.05439
▁тогда	-8.06107
]	-8.06166
▁it	-8.06809
В	-8.07952
▁всегда	-8.09015
▁которой	-8.10497
ия	-8.10882
/	-8.11029
▁которая	-8.11172
▁просто	-8.11607
▁тот	-8.11636
▁Г	-8.11756
▁вот	-8.12048
▁свои	-8.12111
▁других	-8.12247
▁Когда	-8.12659
▁Н	-8.12955
d	-8.13485
▁ним	-8.13855
ку	-8.14365
▁Однако	-8.14545
▁да	-8.14768
▁два	-8.14819
▁Все	-8.1485
▁Они	-8.1533
▁Да	-8.1576
▁войны	-8.15932
ое	-8.1613
▁сам	-8.17199
ии	-8.17268
▁=	-8.17546
А	-8.17869
ными	-8.17888
ской	-8.1798
▁жизнь	-8.18427
му	-8.18835
ном	-8.19141
ла	-8.19261
н	-8.1936
▁пере	-8.19844
▁хотя	-8.20075
▁является	-8.20419
▁ничего	-8.20591
▁теперь	-8.20846
сти	-8.21694
▁Вы	-8.22158
▁люди	-8.22499
▁тех	-8.22928
▁be	-8.23627
▁by	-8.23705
▁России	-8.24039
▁Л	-8.24177
▁именно	-8.24185
▁случае	-8.25116
▁Что	-8.25821
(	-8.26265
▁A	-8.26275
▁тоже	-8.26891
к	-8.2712
▁стал	-8.27139
▁почти	-8.28552
▁собой	-8.28674
▁такой	-8.29334
▁he	-8.29503
▁те	-8.29768
▁стороны	-8.2993
▁вас	-8.30064
▁надо	-8.30227
▁Д	-8.30635
▁Т	-8.30699
С	-8.31187
a	-8.31424
ют	-8.32162
▁No	-8.32397
▁мог	-8.32514
им	-8.33745
▁3	-8.33964
▁his	-8.35003
▁другой	-8.35389
▁которого	-8.35947
лись	-8.36036
▁всем	-8.36693
▁вместе	-8.36702
сть	-8.36747
▁S	-8.36758
ок	-8.3696
▁дело	-8.36982
▁ней	-8.37159
▁три	-8.3743
▁потом	-8.37517
”	-8.37644
▁въ	-8.38114
▁Она	-8.38122
▁одной	-8.3817
▁Вот	-8.38363
▁должны	-8.38496
▁from	-8.38736
▁5	-8.38935
▁могут	-8.39339
2	-8.39536
▁at	-8.40054
▁части	-8.40346
▁тому	-8.40501
▁Для	-8.40648
▁had	-8.40879
▁свое	-8.40964
▁тут	-8.41256
по	-8.41617
▁4	-8.41971
▁должен	-8.42028
ется	-8.42123
ке	-8.42606
▁you	-8.42622
▁двух	-8.42647
д	-8.4284
▁часть	-8.4303
их	-8.43161
▁пока	-8.43219
▁п	-8.43226
▁вам	-8.4333
▁нужно	-8.43655
▁которое	-8.4457
▁Его	-8.44651
▁Из	-8.44777
▁д	-8.44795
▁Б	-8.44839
▁10	-8.45461
ию	-8.45865
▁После	-8.46019
▁армии	-8.46627
▁p	-8.46867
▁or	-8.48201
▁своим	-8.48212
▁Ф	-8.48421
▁какой	-8.48796
п	-8.49333
▁другие	-8.49645
▁сейчас	-8.49683
г	-8.49895
▁СССР	-8.50181
▁этим	-8.50467
▁место	-8.50582
▁чего	-8.50739
▁not	-8.50882
▁слова	-8.5102
И	-8.51268
▁оно	-8.51602
▁are	-8.51894
▁одного	-8.52135
▁эту	-8.52158
▁свой	-8.52657
▁эта	-8.53403
▁6	-8.53814
б	-8.5396
▁сказать	-8.54127
▁ей	-8.54141
i	-8.54643
▁мир	-8.54816
▁an	-8.54902
▁хорошо	-8.55068
▁истории	-8.55125
ская	-8.55695
р	-8.55788
▁мира	-8.56427
▁друг	-8.56519
ен	-8.5665
▁говорит	-8.56693
▁никогда	-8.56877
y	-8.56946
▁затем	-8.56963
▁Во	-8.57073
▁тебя	-8.5711
▁вопрос	-8.57368
▁P	-8.57384
▁стали	-8.59101
>	-8.59599
ны	-8.59829
нибудь	-8.5984
▁часто	-8.60261
▁ко	-8.60316
▁имеет	-8.60699
О	-8.61436
Я	-8.61471
▁совершенно	-8.62371
▁всё	-8.62617
ло	-8.62724
er	-8.63268
▁менее	-8.6336
▁работы	-8.63507
▁среди	-8.63873
ly	-8.63926
▁От	-8.64013
лась	-8.64148
▁год	-8.64181
і	-8.64226
▁власти	-8.64675
▁м	-8.6484
▁Р	-8.6517
▁одно	-8.65453
▁this	-8.65545
n	-8.65777
▁будут	-8.65895
М	-8.66469
▁особенно	-8.66629
▁were	-8.67172
▁снова	-8.67418
▁/	-8.67564
ит	-8.67603
▁р	-8.67966
▁тебе	-8.67984
▁сразу	-8.68198
▁have	-8.68333
▁могли	-8.68497
▁15	-8.68684
▁которую	-8.69082
ить	-8.69587
▁е	-8.69736
лся	-8.69955
▁самом	-8.70502
ться	-8.70891
▁силы	-8.71058
▁ведь	-8.7175
▁7	-8.7183
ские	-8.72
▁конце	-8.72043
▁следует	-8.72551
ских	-8.72682
▁8	-8.72747
▁Ну	-8.72962
1	-8.72995
▁например	-8.73027
▁Поэтому	-8.73342
▁нашей	-8.73526
▁нем	-8.73652
▁такое	-8.73703
ѣ	-8.74255
▁•	-8.74305
▁котором	-8.74462
▁конечно	-8.74697
▁связи	-8.74892
или	-8.7518
▁вообще	-8.75883
▁этому	-8.76432
▁II	-8.76722
▁совсем	-8.76772
▁таким	-8.77208
▁однако	-8.77379
▁сделать	-8.77436
▁лучше	-8.77794
▁всей	-8.77803
ыми	-8.78276
!»	-8.78579
▁самого	-8.78726
▁около	-8.78831
▁12	-8.78951
▁таких	-8.79057
▁той	-8.79114
▁сил	-8.79567
ность	-8.79634
▁прежде	-8.79655
▁de	-8.79776
▁почему	-8.7988
▁каждый	-8.79987
▁пор	-8.8022
▁действительно	-8.80565
ском	-8.80722
▁деле	-8.80898
ются	-8.81414
▁города	-8.81855
П	-8.82024
p	-8.821
▁такие	-8.82153
та	-8.82202
▁годы	-8.82437
▁момент	-8.82606
▁ними	-8.82761
▁but	-8.82853
▁дня	-8.82977
▁20	-8.83407
▁поэтому	-8.8363
▁страны	-8.83751
▁Е	-8.83766
▁поскольку	-8.83835
es	-8.83919
o	-8.84151
.)	-8.84397
▁две	-8.845
К	-8.8456
▁одна	-8.84941
▁б	-8.84945
▁быстро	-8.84961
от	-8.85493
▁In	-8.86123
ному	-8.86259
▁Ты	-8.86373
ни	-8.86447
▁//	-8.86499
▁стало	-8.86562
▁н	-8.86673
▁смерти	-8.86892
▁дома	-8.86896
▁C	-8.86961
▁which	-8.87024
▁мой	-8.87288
▁they	-8.87385
▁пути	-8.87512
▁руки	-8.87693
▁То	-8.88259
ин	-8.88276
▁гг	-8.88468
▁мало	-8.8848
▁нельзя	-8.89064
ности	-8.89444
▁всю	-8.89498
▁9	-8.89604
▁дела	-8.90102
▁своем	-8.90261
▁США	-8.91042
▁мере	-8.91333
▁многие	-8.91391
▁До	-8.91443
▁де	-8.91553
▁наши	-8.91925
▁1.	-8.92035
▁войск	-8.92061
▁качестве	-8.92064
▁века	-8.92199
Г	-8.9246
либо	-8.92463
▁their	-8.92752
те	-8.92819
▁R	-8.92871
У	-8.93089
*	-8.93208
▁её	-8.93279
▁„	-8.93314
▁области	-8.93701
▁all	-8.9371
al	-8.93957
▁весьма	-8.94396
▁слишком	-8.9467
▁первый	-8.94699
▁we	-8.94809
▁one	-8.94833
ись	-8.95134
▁делать	-8.95249
▁начала	-8.95384
▁период	-8.95692
▁J	-8.95738
▁город	-8.95743
▁Там	-8.95749
▁будто	-8.95869
▁которым	-8.95913
▁многих	-8.95932
".	-8.96124
m	-8.96238
ко	-8.96285
▁течение	-8.96632
▁говорил	-8.96661
▁2.	-8.96774
▁ибо	-8.96777
▁виде	-8.96955
▁внимание	-8.97276
ев	-8.97322
▁весь	-8.97391
▁такого	-8.97624
▁возможность	-8.9774
Л	-8.97986
▁должно	-8.98071
▁второй	-8.98603
▁достаточно	-8.98834
▁наших	-8.98871
лось	-8.99078
▁M	-8.99462
▁куда	-8.99488
▁дней	-8.9973
▁ещё	-8.99774
▁роль	-8.9993
ния	-8.99937
▁нее	-9.00045
▁глаза	-9.00225
▁16	-9.00326
3	-9.00361
кой	-9.00549
Д	-9.00941
▁мире	-9.01102
^	-9.01106
▁должна	-9.01166
▁Под	-9.01543
▁назад	-9.0172
▁выше	-9.01899
▁вполне	-9.01901
▁D	-9.0194
ому	-9.01977
ят	-9.02036
▁никто	-9.02281
ское	-9.02412
▁путь	-9.02563
▁противника	-9.02686
▁+	-9.03004
S	-9.03088
▁ж	-9.03103
▁can	-9.03247
▁14	-9.03414
▁V	-9.03677
▁генерал	-9.0411
▁большой	-9.04144
ш	-9.0437
4	-9.04597
▁11	-9.04666
▁G	-9.04753
▁сторону	-9.04776
▁тысяч	-9.04945
x	-9.04988
);	-9.05122
▁L	-9.05441
▁(«	-9.05575
▁‘	-9.0559
▁месте	-9.05653
–	-9.05801
▁кого	-9.05934
▁развития	-9.05974
▁столь	-9.06029
Н	-9.06042
ков	-9.06268
▁уж	-9.06414
▁B	-9.06636
▁значит	-9.06911
▁нашего	-9.0697
▁земли	-9.07158
­	-9.07209
▁Про	-9.07429
▁системы	-9.0751
▁некоторые	-9.07886
▁имя	-9.07917
▁какие	-9.08161
▁Тогда	-9.08193
▁стала	-9.08226
▁партии	-9.08399
▁группы	-9.08477
▁начале	-9.08727
▁F	-9.08793
▁слово	-9.08867
▁Здесь	-9.0888
▁30	-9.08886
▁числе	-9.09032
▁результате	-9.09077
▁кроме	-9.09102
ским	-9.09188
▁so	-9.09388
▁либо	-9.09445
▁наиболее	-9.09505
▁работу	-9.09671
ясь	-9.09809
▁детей	-9.09902
▁говорить	-9.10053
да	-9.10115
▁помощью	-9.10298
▁Только	-9.10612
▁значение	-9.10659
▁войска	-9.10675
▁вокруг	-9.10691
▁действия	-9.10749
▁Мне	-9.10864
▁идет	-9.11052
▁возможно	-9.11075
?»	-9.1123
▁самой	-9.11319
▁Нет	-9.11451
он	-9.1147
▁нему	-9.11485
▁Э	-9.11781
▁і	-9.11979
ч	-9.12015
▁рас	-9.12124
▁та	-9.12178
▁сегодня	-9.12238
▁своими	-9.12246
▁удалось	-9.12357
▁стоит	-9.12477
▁прямо	-9.12507
▁писал	-9.12527
▁Таким	-9.12536
▁Теперь	-9.12675
см	-9.12947
ние	-9.13113
Б	-9.13185
▁13	-9.13203
▁трех	-9.13293
▁места	-9.13325
b	-9.13374
▁иногда	-9.13497
скую	-9.13501
ил	-9.1368
▁мысли	-9.13734
▁рода	-9.14163
▁необходимо	-9.14224
▁одним	-9.14278
▁наш	-9.14387
▁Бог	-9.14435
in	-9.14439
▁книги	-9.14548
▁кажется	-9.1504
▁народа	-9.15515
▁сами	-9.156
▁точно	-9.15732
▁довольно	-9.15769
...»	-9.1604
▁самое	-9.16064
▁знаю	-9.16095
▁Этот	-9.16102
▁would	-9.16174
▁знал	-9.16418
▁сколько	-9.16463
▁л	-9.16518
▁рядом	-9.16607
en	-9.1665
▁точки	-9.1694
▁полностью	-9.16988
▁E	-9.17044
з	-9.1714
▁самым	-9.17163
r	-9.1731
▁степени	-9.17396
▁ответ	-9.17446
Ф	-9.17504
ва	-9.17533
▁общества	-9.17533
▁само	-9.17596
▁получил	-9.18218
Т	-9.18294
▁государства	-9.18485
▁зрения	-9.18571
▁Германии	-9.18621
▁3.	-9.18673
",	-9.19113
c	-9.19249
▁Эти	-9.19405
▁наконец	-9.19409
▁вдруг	-9.19436
▁свет	-9.19495
▁ту	-9.19555
▁who	-9.19704
ж	-9.19826
ти	-9.19839
ась	-9.19956
▁деятельности	-9.20053
▁начал	-9.20318
ец	-9.2043
▁отношения	-9.20455
▁He	-9.20693
▁H	-9.2071
▁см	-9.20716
▁хотел	-9.20948
▁воды	-9.21016
▁N	-9.21025
▁вновь	-9.21027
▁дом	-9.21084
▁друга	-9.21176
ком	-9.21338
▁обычно	-9.21451
▁Бога	-9.21482
▁more	-9.21564
▁положение	-9.2168
ну	-9.21781
цы	-9.21852
▁долго	-9.21922
▁спросил	-9.21959
▁17	-9.22201
▁силу	-9.22286
▁одну	-9.22652
▁no	-9.22767
▁возможности	-9.22796
▁новые	-9.22831
▁тела	-9.23077
▁одном	-9.23187
f	-9.23202
▁опять	-9.23213
▁равно	-9.23217
▁власть	-9.23237
▁происходит	-9.23312
▁первой	-9.23495
▁>	-9.23789
▁Кроме	-9.23864
▁могу	-9.24123
▁her	-9.24247
▁легко	-9.24377
▁стр	-9.24409
▁дальше	-9.24634
▁др	-9.24674
ц	-9.24711
таки	-9.24792
▁становится	-9.24865
▁T	-9.25014
▁моей	-9.25021
▁been	-9.25189
▁своему	-9.25394
▁самых	-9.25454
▁народ	-9.25522
▁дел	-9.25686
▁ответил	-9.25753
ер	-9.26207
▁out	-9.26361
▁постоянно	-9.26493
из	-9.26587
э	-9.26612
▁отношении	-9.26791
I	-9.26809
▁Тем	-9.26828
ство	-9.27522
▁*	-9.27564
▁Ю	-9.27677
▁имени	-9.27834
▁часов	-9.28022
ив	-9.2811
ова	-9.28118
Х	-9.28166
сь	-9.2836
A	-9.28394
▁движения	-9.28469
▁голову	-9.28574
▁условиях	-9.28583
l	-9.28817
▁Эта	-9.2882
▁нами	-9.28857
ль	-9.29513
ось	-9.29564
▁немного	-9.29565
▁другим	-9.29577
▁d	-9.29881
re	-9.29882
▁me	-9.29961
▁речь	-9.30087
▁конца	-9.30116
▁х	-9.30484
▁Ведь	-9.30702
▁являются	-9.30762
▁f	-9.30816
▁иметь	-9.30884
▁стать	-9.30895
▁найти	-9.31028
▁меньше	-9.31288
▁25	-9.31391
▁разных	-9.31449
▁организации	-9.31925
▁число	-9.32187
▁населения	-9.32223
▁право	-9.32266
▁пришлось	-9.32278
▁фронта	-9.32399
▁сильно	-9.32413
▁раньше	-9.32434
до	-9.32496
▁up	-9.3251
▁It	-9.32518
6	-9.32581
▁Со	-9.32583
▁деньги	-9.32745
▁понять	-9.32897
5	-9.33002
▁my	-9.33344
▁решение	-9.33345
▁известно	-9.3341
▁э	-9.33418
g	-9.33422
▁характер	-9.33515
▁Об	-9.33571
са	-9.33591
▁очередь	-9.33635
[	-9.33778
▁мая	-9.34097
Р	-9.34219
▁18	-9.34221
вы	-9.34306
▁about	-9.34401
▁новых	-9.34443
▁жить	-9.34449
▁далеко	-9.34496
▁количество	-9.34687
▁видел	-9.3489
▁мной	-9.34923
▁помощи	-9.35115
▁W	-9.3514
▁четыре	-9.35285
▁некоторых	-9.3529
▁into	-9.35415
0	-9.35519
▁has	-9.35581
▁имел	-9.35587
▁Еще	-9.35634
при	-9.35757
▁вид	-9.35888
▁русских	-9.35922
▁пять	-9.36113
▁благодаря	-9.36141
▁цели	-9.36183
▁them	-9.36307
▁солдат	-9.36447
под	-9.3648
▁дни	-9.36538
▁находится	-9.36591
▁могла	-9.36613
▁работе	-9.36693
▁состав	-9.36748
▁пред	-9.36802
▁земле	-9.36947
ля	-9.36986
▁съ	-9.37184
▁Х	-9.37358
▁См	-9.37964
▁действий	-9.38032
▁невозможно	-9.38348
стью	-9.38383
▁тело	-9.38416
▁августа	-9.38495
▁сын	-9.38599
▁море	-9.38721
▁Затем	-9.38846
▁will	-9.38847
▁скорее	-9.38911
C	-9.38918
▁виду	-9.39331
▁июля	-9.39478
▁Кто	-9.39488
▁стране	-9.39539
▁him	-9.39625
▁говоря	-9.3978
▁состоянии	-9.40046
▁сделал	-9.40153
З	-9.40169
де	-9.40248
▁стран	-9.40328
▁одновременно	-9.40434
▁другом	-9.40479
▁III	-9.40483
▁внутри	-9.40591
▁июня	-9.40695
▁знает	-9.40779
ешь	-9.40863
вер	-9.40949
▁имеют	-9.41048
ф	-9.41165
▁самый	-9.41195
▁права	-9.4129
▁туда	-9.41342
▁мои	-9.41356
▁сама	-9.4138
▁трудно	-9.41486
▁каким	-9.41625
▁its	-9.41912
ства	-9.42003
▁Именно	-9.42023
▁чуть	-9.42035
▁говорят	-9.42098
ник	-9.4213
▁словно	-9.42194
▁Москве	-9.42265
▁давно	-9.42317
▁ночь	-9.4234
▁з	-9.42453
▁различных	-9.42459
▁there	-9.42625
▁смысле	-9.42859
▁минут	-9.42926
ма	-9.42936
▁'	-9.42975
▁землю	-9.42987
▁иначе	-9.43035
▁любви	-9.43071
▁территории	-9.43073
▁дать	-9.43288
ра	-9.43379
▁дивизии	-9.43441
▁time	-9.43477
▁сердце	-9.4348
7	-9.43529
▁каждого	-9.43593
▁решил	-9.43649
▁другого	-9.43882
ст	-9.43903
▁Франции	-9.44065
z	-9.44279
▁do	-9.44383
▁нового	-9.44383
▁отец	-9.44676
▁русской	-9.44753
▁Хотя	-9.44787
ость	-9.45018
▁вместо	-9.45027
▁руку	-9.45048
▁Конечно	-9.45069
▁хоть	-9.45126
Е	-9.45296
▁существует	-9.45362
▁первого	-9.45514
ик	-9.45702
▁которому	-9.4572
▁K	-9.45816
▁Ш	-9.45972
▁революции	-9.45982
▁s	-9.46018
▁other	-9.46075
▁души	-9.46112
k	-9.46143
▁Даже	-9.46223
us	-9.46253
▁when	-9.46274
▁Александр	-9.46276
▁сентября	-9.46576
ою	-9.46677
▁Чтобы	-9.46735
▁полу	-9.47279
▁моя	-9.47356
▁марта	-9.47555
▁лицо	-9.47768
▁октября	-9.47879
▁Потом	-9.47902
_	-9.48065
▁слов	-9.48113
ками	-9.48208
▁X	-9.48215
▁управления	-9.48219
▁культуры	-9.48268
овой	-9.48309
▁новый	-9.48346
▁дал	-9.48505
B	-9.48579
▁новой	-9.4874
▁какое	-9.49075
▁несмотря	-9.49076
▁22	-9.4938
▁отца	-9.49396
▁целью	-9.49438
▁ясно	-9.49636
ца	-9.49774
▁главе	-9.49891
▁ради	-9.49908
▁поле	-9.49946
▁церкви	-9.49956
▁гораздо	-9.50092
▁процесс	-9.50343
▁ряд	-9.50388
▁всеми	-9.50421
▁помощь	-9.50439
▁другими	-9.50704
▁ч	-9.51011
во	-9.51103
▁Их	-9.51159
ина	-9.51295
Ш	-9.51314
▁19	-9.5133
▁мысль	-9.51412
▁моего	-9.51466
▁вся	-9.5148
▁<	-9.5169
▁Через	-9.51692
▁первых	-9.51731
скому	-9.51783
▁образ	-9.51822
▁взгляд	-9.52111
▁1-	-9.52164
ія	-9.52301
▁нескольких	-9.5238
▁also	-9.52505
▁относительно	-9.52559
▁your	-9.5268
▁можем	-9.52683
▁проблемы	-9.52684
▁лица	-9.52701
▁столько	-9.52883
▁t	-9.52889
▁полка	-9.53071
▁руках	-9.5312
ре	-9.53146
▁вопросы	-9.53281
▁такая	-9.53582
▁дает	-9.53626
▁if	-9.53827
▁самые	-9.54097
▁работа	-9.54169
▁получить	-9.54198
▁военных	-9.54256
▁война	-9.54272
цев	-9.54352
▁решения	-9.54551
j	-9.54591
же	-9.54593
▁формы	-9.54594
▁правительства	-9.54596
▁пишет	-9.54798
нее	-9.54826
▁than	-9.54922
▁смысл	-9.54986
is	-9.55202
h	-9.55282
▁24	-9.55312
ал	-9.5533
▁тыс	-9.55444
▁типа	-9.55449
ша	-9.55464
▁et	-9.55553
▁вперед	-9.55582
▁практически	-9.55591
▁скоро	-9.55669
ман	-9.55693
▁труда	-9.55719
▁ноября	-9.56056
▁21	-9.56129
▁only	-9.56136
▁2-	-9.56195
or	-9.56211
▁сих	-9.5622
▁50	-9.56288
▁настолько	-9.56318
▁основе	-9.5633
▁опыт	-9.56386
▁движение	-9.56424
▁причем	-9.56462
ши	-9.56734
▁января	-9.56945
▁история	-9.56971
его	-9.57046
▁Почему	-9.57143
▁письмо	-9.57158
th	-9.57266
ости	-9.57363
▁казалось	-9.57401
Не	-9.57441
.”	-9.57553
▁использовать	-9.57651
▁любой	-9.57889
га	-9.57972
▁оказался	-9.5803
▁what	-9.58368
▁Один	-9.58422
▁Например	-9.58502
▁вовсе	-9.58511
▁знать	-9.58538
▁4.	-9.58538
По	-9.58598
▁состояние	-9.58682
▁непосредственно	-9.58727
▁Ч	-9.58737
▁апреля	-9.58856
▁язык	-9.58996
▁годов	-9.59114
▁Ни	-9.59157
▁вскоре	-9.59177
▁людьми	-9.5925
▁никаких	-9.5927
▁могло	-9.59451
▁правительство	-9.59541
▁начали	-9.59569
P	-9.59633
▁войне	-9.59707
ты	-9.59738
▁путем	-9.59832
▁увидел	-9.59838
▁декабря	-9.59848
▁сначала	-9.59943
▁частности	-9.59986
▁впервые	-9.59989
▁ф	-9.60149
▁ст	-9.60176
▁план	-9.60245
▁час	-9.60388
H	-9.60474
▁людям	-9.60506
▁she	-9.60577
▁some	-9.60599
▁голос	-9.60634
▁имели	-9.60655
▁будем	-9.60694
▁автор	-9.60776
▁вещи	-9.60776
▁районе	-9.60783
▁борьбы	-9.60849
▁множество	-9.60879
▁работать	-9.60929
▁З	-9.61021
▁сказала	-9.61022
▁форме	-9.61031
▁ЦК	-9.6114
▁женщины	-9.61187
▁другое	-9.61328
▁случаях	-9.6136
▁числа	-9.6137
▁could	-9.61451
нии	-9.61553
▁счет	-9.61606
M	-9.61626
▁мировой	-9.61632
▁любовь	-9.61643
▁человеком	-9.617
▁1941	-9.61775
▁воз	-9.61783
8	-9.61858
ение	-9.61885
ющие	-9.6207
▁%	-9.62101
▁пусть	-9.62108
▁n	-9.62272
▁23	-9.62441
▁первые	-9.62484
F	-9.62782
▁принять	-9.62863
▁пришел	-9.62903
▁буду	-9.62922
▁сына	-9.62959
▁книге	-9.62986
u	-9.62991
▁100	-9.63021
▁па	-9.63367
ющих	-9.63403
▁пре	-9.63465
▁рабочих	-9.63477
ющий	-9.63672
▁едва	-9.63869
▁видеть	-9.64026
▁видно	-9.64252
ня	-9.64331
▁двумя	-9.64402
▁огонь	-9.64493
▁словами	-9.64595
▁всему	-9.64637
▁войну	-9.64669
ите	-9.64679
ис	-9.64818
ан	-9.64934
▁домой	-9.65045
ать	-9.65075
▁over	-9.65108
=	-9.65202
▁представляет	-9.65234
▁целом	-9.65275
▁первую	-9.65293
▁последние	-9.65303
мер	-9.65306
▁Может	-9.6567
▁идти	-9.65724
▁линии	-9.65734
▁two	-9.65734
ья	-9.6588
ье	-9.66075
▁система	-9.6615
▁e	-9.66193
▁говорили	-9.66233
D	-9.66304
▁означает	-9.66309
▁This	-9.66637
рис	-9.66808
▁факт	-9.66879
▁правда	-9.66979
ее	-9.67099
▁хочет	-9.6713
▁поводу	-9.67159
▁Раз	-9.67168
▁которыми	-9.6723
▁доме	-9.67238
▁русского	-9.67239
▁Иван	-9.67379
▁прав	-9.67399
▁матери	-9.67449
.).	-9.67451
▁Или	-9.67601
▁примерно	-9.67635
w	-9.6775
▁связь	-9.67849
▁отношение	-9.67883
▁мнению	-9.68004
▁удар	-9.68174
▁брат	-9.68203
▁женщин	-9.68223
▁каких	-9.6827
T	-9.68389
▁времена	-9.68444
▁штаба	-9.68488
▁искусства	-9.68605
▁m	-9.68693
▁армия	-9.68724
▁Можно	-9.68834
▁энергии	-9.68918
▁Сталин	-9.68932
▁касается	-9.68965
▁главным	-9.68969
▁хочу	-9.69009
▁начало	-9.69021
L	-9.69398
v	-9.69496
▁остается	-9.69561
со	-9.69606
▁понял	-9.69889
▁смерть	-9.69891
▁like	-9.6992
▁la	-9.70025
▁направлении	-9.70059
▁c	-9.70344
▁мать	-9.70361
▁наше	-9.70362
▁состоит	-9.70407
▁денег	-9.7042
▁делает	-9.7043
▁влияние	-9.70454
ле	-9.70493
▁участие	-9.70516
▁мое	-9.70595
▁название	-9.70629
▁Ж	-9.70665
▁февраля	-9.70685
▁таком	-9.70842
▁теории	-9.70918
▁городе	-9.7095
▁произошло	-9.71007
▁цель	-9.71078
▁кому	-9.71192
ился	-9.71275
▁вести	-9.71527
▁вероятно	-9.7153
▁правило	-9.71711
▁дети	-9.71735
▁царя	-9.71793
▁b	-9.71999
▁26	-9.72159
▁Сам	-9.72574
ней	-9.72618
▁операции	-9.72655
▁first	-9.72668
▁i	-9.72791
▁Пере	-9.7282
▁случай	-9.72858
▁событий	-9.72863
▁согласно	-9.72963
про	-9.73007
мы	-9.73066
ими	-9.73179
ic	-9.73327
▁группа	-9.73388
▁природы	-9.7346
ились	-9.73538
ится	-9.73555
▁средств	-9.73564
▁считать	-9.73568
ич	-9.73641
▁re	-9.73654
▁внимания	-9.7366
▁взял	-9.74266
▁Глава	-9.74277
ний	-9.743
▁развитие	-9.74512
йте	-9.74573
▁никакого	-9.74639
▁said	-9.74681
▁семьи	-9.74807
▁корпуса	-9.75083
▁берегу	-9.75125
ью	-9.75142
▁взять	-9.75234
▁основном	-9.7537
▁женщина	-9.75774
ников	-9.75791
іе	-9.75815
овые	-9.75827
▁28	-9.75839
▁первым	-9.75881
▁постепенно	-9.75886
▁IV	-9.7591
▁ситуации	-9.75994
▁закон	-9.76
си	-9.7604
um	-9.76087
»)	-9.76097
как	-9.76142
▁десять	-9.76223
раз	-9.76286
▁40	-9.76414
ями	-9.76434
▁Итак	-9.76606
▁позже	-9.76621
ту	-9.76689
кин	-9.76704
▁моря	-9.76709
▁ходе	-9.76776
▁Союза	-9.76814
▁27	-9.76835
▁большинство	-9.76884
▁политики	-9.76966
об	-9.76986
▁ноги	-9.77171
▁условия	-9.77195
▁пол	-9.77197
▁обороны	-9.77404
▁пользу	-9.77416
▁жил	-9.77455
▁Есть	-9.77471
ers	-9.77546
▁концов	-9.77551
▁каждой	-9.77559
R	-9.77588
▁большую	-9.77665
J	-9.7772
▁0	-9.77728
▁вроде	-9.77765
▁Наконец	-9.77771
На	-9.77804
ду	-9.77812
род	-9.7795
▁значительно	-9.77985
▁производства	-9.78036
▁империи	-9.78079
▁позиции	-9.7814
▁очевидно	-9.78185
▁наша	-9.78186
▁народов	-9.78248
▁явно	-9.78324
али	-9.7838
▁U	-9.78442
ation	-9.78449
▁готов	-9.78533
▁чаще	-9.78537
▁Тут	-9.7856
<	-9.78624
▁крайней	-9.79067
▁идеи	-9.79067
Ч	-9.79078
▁частей	-9.7927
▁военной	-9.79271
▁следующий	-9.79274
овых	-9.79361
▁Англии	-9.79361
▁средства	-9.79367
▁информации	-9.79369
▁глаз	-9.79384
ика	-9.79426
G	-9.79497
▁оказалось	-9.7952
▁моих	-9.79537
▁откуда	-9.79641
▁временем	-9.79712
V	-9.79791
▁немедленно	-9.79792
▁деятельность	-9.79963
▁чувство	-9.79969
▁последний	-9.80069
▁сюда	-9.80124
▁письма	-9.80153
▁вышел	-9.80229
▁отношений	-9.80247
▁Москву	-9.80253
▁науки	-9.80328
▁важно	-9.80399
▁Впрочем	-9.80433
▁Ему	-9.80456
▁события	-9.8046
ировать	-9.80667
▁ниже	-9.80723
ди	-9.80894
▁оказались	-9.80926
“	-9.81029
N	-9.81075
▁историю	-9.81097
▁бывает	-9.8116
▁станет	-9.81177
▁большое	-9.81428
юсь	-9.8143
▁most	-9.81475
▁далее	-9.81507
▁лиц	-9.81633
▁Надо	-9.81714
▁гор	-9.81753
чи	-9.81767
E	-9.8179
▁these	-9.81947
▁разные	-9.81948
+	-9.82103
▁крови	-9.82171
▁Россия	-9.82215
▁большим	-9.82233
ск	-9.82296
▁нечто	-9.82463
▁отношению	-9.8257
▁главное	-9.82586
▁человеку	-9.82596
▁задачи	-9.82632
▁какая	-9.82701
▁частью	-9.83066
▁отличие	-9.83214
ion	-9.83464
ической	-9.83511
▁членов	-9.83523
▁животных	-9.83595
▁our	-9.8364
▁Уже	-9.83672
▁командир	-9.83913
▁принял	-9.83967
▁речи	-9.83974
▁Правда	-9.8412
▁исследования	-9.84161
▁Николай	-9.84175
▁положения	-9.84235
▁сторон	-9.84269
▁вне	-9.8429
ше	-9.84383
▁спустя	-9.84383
▁силой	-9.84507
▁советских	-9.84568
▁стоял	-9.84633
▁такую	-9.84661
▁плохо	-9.84686
▁ранее	-9.84697
ения	-9.8474
▁сила	-9.84757
▁5.	-9.85083
▁роли	-9.85127
▁Европы	-9.85211
▁But	-9.85439
▁New	-9.85505
▁then	-9.85564
▁исключительно	-9.85611
▁un	-9.8562
▁политической	-9.85817
ила	-9.85888
▁большие	-9.85892
W	-9.85996
K	-9.86023
▁реки	-9.86046
▁бой	-9.86119
▁Между	-9.86275
▁Европе	-9.86463
ity	-9.86516
▁воду	-9.86551
▁часа	-9.86659
▁написал	-9.86791
вшихся	-9.86827
▁считал	-9.86851
су	-9.8689
▁such	-9.87045
ат	-9.87125
▁стороне	-9.87161
▁света	-9.87192
▁короля	-9.87278
▁какую	-9.87343
▁языка	-9.87351
▁думаю	-9.87383
▁умер	-9.87395
▁people	-9.87401
▁...	-9.87407
▁къ	-9.87484
́	-9.87489
▁{	-9.87511
▁месяцев	-9.87545
ель	-9.87576
▁жена	-9.87625
▁находился	-9.87655
▁никак	-9.87679
▁XIX	-9.87719
an	-9.87726
▁русские	-9.87776
▁Сейчас	-9.87847
▁царь	-9.88002
▁необходимости	-9.88082
нов	-9.88085
ры	-9.88333
it	-9.88338
▁общем	-9.88347
▁чувства	-9.88389
▁значения	-9.88396
Э	-9.8867
▁any	-9.88725
ри	-9.8876
ут	-9.88761
▁школы	-9.88775
▁труд	-9.8885
▁пример	-9.88894
тер	-9.88916
▁языке	-9.89042
▁резко	-9.89072
▁называется	-9.89078
изм	-9.89097
▁представить	-9.89275
▁бес	-9.89278
to	-9.89331
▁Христа	-9.89337
енко	-9.8934
▁четырех	-9.89352
вший	-9.89363
▁местах	-9.8938
ско	-9.89383
ического	-9.89404
▁мин	-9.89415
▁военного	-9.89682
▁знали	-9.8975
вших	-9.89751
▁дороги	-9.89778
▁пяти	-9.89931
▁советской	-9.8995
te	-9.89956
▁какого	-9.90357
▁заметил	-9.90534
▁Москвы	-9.90591
▁км	-9.90596
on	-9.90649
▁ночью	-9.90819
▁лично	-9.91041
▁шли	-9.91055
ро	-9.91108
▁генерала	-9.91116
▁двадцать	-9.9115
▁1942	-9.91217
▁изменения	-9.91281
▁We	-9.91449
▁глазами	-9.9149
▁получили	-9.91541
▁приказ	-9.91584
▁тысячи	-9.91656
▁1)	-9.91674
ические	-9.91681
ющего	-9.9175
иться	-9.91753
▁29	-9.91823
ией	-9.91974
вин	-9.91999
▁new	-9.92002
▁большей	-9.92087
▁3-	-9.92099
▁полной	-9.92143
▁помочь	-9.92218
▁ум	-9.92218
▁врага	-9.9222
▁насколько	-9.92257
▁видели	-9.92262
▁работ	-9.92262
▁Пусть	-9.92374
▁Господь	-9.92431
За	-9.92524
▁способ	-9.92683
▁флота	-9.92719
▁сознания	-9.9274
▁Петр	-9.92787
▁новое	-9.92812
ическая	-9.92843
би	-9.92921
▁чему	-9.92931
се	-9.92982
вшись	-9.92988
▁борьбе	-9.93055
ках	-9.93057
Ю	-9.93074
па	-9.93089
▁медленно	-9.93151
▁дороге	-9.93167
▁раза	-9.93207
ек	-9.93213
▁князь	-9.93276
▁начальник	-9.93334
▁личности	-9.93353
▁головой	-9.93361
▁службы	-9.93369
▁позволяет	-9.93411
▁see	-9.93459
▁уровне	-9.93475
▁создать	-9.93524
илась	-9.93627
▁зависимости	-9.93842
▁приходилось	-9.93856
ве	-9.93859
le	-9.93958
▁уровень	-9.93991
нию	-9.94007
▁машины	-9.94082
▁крайне	-9.94107
▁000	-9.94108
▁дух	-9.94124
▁конец	-9.94233
вшиеся	-9.9428
▁пост	-9.94355
!..	-9.94372
▁вернулся	-9.94374
▁пошел	-9.94449
▁Владимир	-9.94465
9	-9.94517
▁офицеров	-9.94663
▁можете	-9.95008
▁безопасности	-9.95028
▁Перед	-9.95256
▁обязательно	-9.95454
▁разговор	-9.95455
▁Ее	-9.95532
▁отдельных	-9.956
▁2)	-9.95654
2.	-9.95659
▁боя	-9.95682
▁составе	-9.95735
▁Пока	-9.95754
▁Возможно	-9.95763
▁разве	-9.95903
▁дверь	-9.96059
что	-9.96084
▁after	-9.96094
°	-9.96146
▁Богу	-9.96178
▁настоящее	-9.96253
▁порядок	-9.96434
▁поля	-9.96512
овая	-9.96545
ющая	-9.96555
▁глазах	-9.96689
▁думать	-9.96791
лю	-9.96874
▁Среди	-9.96888
”.	-9.96892
▁сердца	-9.96919
▁хотелось	-9.96924
▁памяти	-9.96946
▁оба	-9.97021
▁книгу	-9.97036
▁рук	-9.97111
▁приходится	-9.97214
▁1917	-9.97223
▁соответствии	-9.97281
▁князя	-9.97353
вшие	-9.97362
ій	-9.97506
▁начинает	-9.97546
▁фон	-9.97614
лин	-9.97706
▁заявил	-9.97725
▁1918	-9.9778
ическое	-9.97794
Ь	-9.97816
▁русский	-9.97845
▁проблем	-9.97893
st	-9.9791
ющей	-9.9798
▁Более	-9.98047
▁спокойно	-9.98077
man	-9.98084
▁нашу	-9.98127
▁функции	-9.98253
▁систему	-9.98256
▁оружие	-9.98267
▁больших	-9.98295
▁большая	-9.98301
че	-9.9838
▁шесть	-9.98455
▁x	-9.98488
▁мою	-9.98496
▁одному	-9.98551
▁ход	-9.98552
▁военно	-9.98658
ia	-9.98687
▁Многие	-9.98698
▁увидеть	-9.98746
▁уровня	-9.98833
▁w	-9.98896
▁книг	-9.98897
▁данные	-9.99068
▁чтоб	-9.9908
іи	-9.99092
▁широко	-9.99122
▁думал	-9.99159
▁Некоторые	-9.99182
▁even	-9.99187
▁первом	-9.99303
▁мнение	-9.99326
▁ребенка	-9.99327
▁60	-9.99351
▁книга	-9.99503
▁суда	-9.99529
▁Тот	-9.99583
▁предложил	-9.99583
ян	-9.99621
▁другу	-9.99652
▁словам	-9.99673
▁1943	-9.99689
.—	-9.99731
▁знания	-9.99734
▁пришли	-9.99777
▁рукой	-9.99916
▁Без	-9.99937
ё	-9.99975
▁|	-10.0006
▁Ленин	-10.001
ист	-10.0011
▁текст	-10.0013
▁Сталина	-10.0019
▁man	-10.0021
▁общество	-10.0025
▁различные	-10.0025
ях	-10.0036
▁v	-10.005
ики	-10.0058
▁месяца	-10.0061
▁цвет	-10.0073
▁будучи	-10.0075
нет	-10.0082
▁Те	-10.0086
▁полк	-10.009
тся	-10.0096
▁собственной	-10.0097
):	-10.0104
O	-10.0106
▁приказал	-10.0106
ический	-10.0108
ники	-10.011
▁данных	-10.0114
▁4-	-10.0118
ча	-10.0127
▁der	-10.0135
▁желание	-10.0145
▁государство	-10.0147
▁литературы	-10.0159
▁where	-10.0164
▁Красной	-10.0165
▁рождения	-10.0167
▁~	-10.0169
▁O	-10.0177
▁оружия	-10.0183
▁l	-10.0198
▁анти	-10.0213
▁обратно	-10.0214
▁самому	-10.0223
▁^	-10.0223
▁честь	-10.0224
ру	-10.0226
▁many	-10.023
▁порядка	-10.023
скими	-10.0232
▁особенности	-10.0238
▁Ц	-10.0242
▁Оно	-10.0243
▁работал	-10.0251
ических	-10.0254
▁состояния	-10.0261
▁оказывается	-10.0262
ием	-10.0263
ба	-10.0269
▁боевых	-10.0271
▁зависит	-10.0275
▁поверхности	-10.0294
▁протяжении	-10.0307
ха	-10.0317
▁действие	-10.0323
▁наоборот	-10.0326
▁осталось	-10.0328
▁Ко	-10.0328
▁болезни	-10.0335
▁утра	-10.0337
▁общего	-10.0349
▁just	-10.0367
▁ума	-10.0367
ятся	-10.0371
▁обо	-10.0396
▁very	-10.0399
гу	-10.0401
▁крестьян	-10.0401
▁Советского	-10.0403
▁кем	-10.0412
▁однажды	-10.0412
▁Несмотря	-10.0413
она	-10.0415
▁шла	-10.0416
▁ночи	-10.0419
▁продолжал	-10.0421
▁way	-10.0422
▁Александра	-10.0426
▁кон	-10.0429
▁земля	-10.0442
▁did	-10.0445
▁положении	-10.0448
▁g	-10.0449
▁фронт	-10.0451
▁никакой	-10.0454
▁6.	-10.0458
▁времен	-10.0466
▁душе	-10.0468
вшего	-10.047
ги	-10.0477
▁наук	-10.0488
▁оказалась	-10.0494
▁may	-10.0497
І	-10.0507
▁знаем	-10.0507
▁этими	-10.0508
▁)	-10.051
▁силами	-10.0514
▁приводит	-10.0514
▁создания	-10.0514
▁компании	-10.0515
▁капитан	-10.0517
able	-10.0525
вшийся	-10.0529
▁вниз	-10.0534
|	-10.0536
▁рис	-10.0538
▁through	-10.054
енные	-10.0541
▁называют	-10.0543
ѵ	-10.0543
▁Вам	-10.0555
▁образования	-10.0558
▁философии	-10.0559
▁нашем	-10.0562
▁вдоль	-10.0564
▁1944	-10.0569
▁Потому	-10.0573
▁другую	-10.0574
▁вещей	-10.0575
▁эпохи	-10.0609
▁руками	-10.0615
▁млн	-10.0617
▁придется	-10.0617
,—	-10.0619
▁случилось	-10.0621
▁утром	-10.0622
▁ими	-10.0624
▁групп	-10.0627
емся	-10.0629
▁сведения	-10.0633
▁ну	-10.0634
▁Z	-10.0637
▁новую	-10.0641
▁сознание	-10.0645
▁Рис	-10.0648
▁род	-10.0652
▁&	-10.0658
▁свете	-10.0658
▁форму	-10.0659
▁how	-10.0666
▁ныне	-10.067
▁форм	-10.0673
видимому	-10.0677
?!	-10.068
00	-10.068
ll	-10.0681
▁месяц	-10.0692
ника	-10.07
▁искать	-10.0701
▁благо	-10.0702
▁впоследствии	-10.071
▁наступление	-10.071
▁середине	-10.071
▁центр	-10.0714
▁каждом	-10.0715
▁автора	-10.0719
▁меры	-10.0725
ски	-10.073
▁причин	-10.0731
▁странах	-10.074
▁лес	-10.0752
▁порядке	-10.0752
▁r	-10.0758
▁интерес	-10.076
▁существования	-10.0783
▁Где	-10.0794
ница	-10.0797
▁требует	-10.0805
▁видимо	-10.0806
▁сто	-10.081
X	-10.0814
ща	-10.0816
▁XX	-10.0824
Ж	-10.0829
мен	-10.0832
ar	-10.0838
▁back	-10.0838
▁св	-10.0843
▁относится	-10.0844
the	-10.085
▁Каждый	-10.085
▁чисто	-10.0856
▁городов	-10.0858
▁некоторое	-10.0859
▁головы	-10.086
▁правильно	-10.0868
▁And	-10.0871
▁начальника	-10.0878
▁мол	-10.0879
▁глубоко	-10.0883
▁естественно	-10.0887
▁впечатление	-10.0887
▁говорю	-10.0889
▁пр	-10.089
▁король	-10.0895
первых	-10.0903
ации	-10.0919
овым	-10.0926
▁смог	-10.0929
▁радио	-10.093
▁For	-10.0933
▁остался	-10.0934
▁Поскольку	-10.0938
▁процесса	-10.0943
▁изъ	-10.0947
▁Очень	-10.0959
▁процессе	-10.0961
▁шаг	-10.0967
▁Вас	-10.0986
▁made	-10.0995
▁данном	-10.0995
▁Дело	-10.0999
▁жителей	-10.1002
de	-10.1004
▁немцы	-10.1012
▁ком	-10.1017
▁страх	-10.1022
▁дочь	-10.1024
▁суд	-10.1029
▁общей	-10.1032
▁характера	-10.1039
це	-10.1044
▁первое	-10.1054
ос	-10.1055
шей	-10.1058
▁задача	-10.1075
▁видим	-10.1095
am	-10.1099
▁world	-10.1101
▁now	-10.1108
▁молодой	-10.1108
мъ	-10.1114
▁between	-10.1114
▁высоко	-10.1116
▁решили	-10.112
▁писать	-10.112
The	-10.113
▁границы	-10.1134
▁поэт	-10.1137
▁метров	-10.1137
▁200	-10.1142
▁остальные	-10.1157
▁нашим	-10.1159
▁всякого	-10.1163
▁стол	-10.1166
,”	-10.117
▁системе	-10.1172
ста	-10.1175
▁корпус	-10.1177
▁чрезвычайно	-10.1179
три	-10.118
▁второго	-10.1183
▁свободы	-10.1194
▁вверх	-10.1198
▁Вскоре	-10.1198
▁случайно	-10.1201
▁находились	-10.1205
▁недавно	-10.1208
▁Меня	-10.1251
»).	-10.1251
енный	-10.1259
▁because	-10.1261
▁выбор	-10.1271
▁кино	-10.1272
▁абсолютно	-10.1289
▁возникает	-10.1298
▁душу	-10.1305
▁идея	-10.1308
ум	-10.1316
изма	-10.1326
▁горы	-10.133
▁память	-10.1331
▁друзей	-10.1332
▁life	-10.1337
▁Было	-10.1338
▁31	-10.1339
▁душа	-10.1342
▁ш	-10.1349
▁каком	-10.1351
▁well	-10.1353
▁фактически	-10.1359
«	-10.1359
▁небо	-10.1361
▁шел	-10.1368
▁водой	-10.1369
▁before	-10.1374
ид	-10.1376
▁состава	-10.1397
▁Иногда	-10.1402
ишь	-10.1402
▁класса	-10.141
▁подобно	-10.1411
▁срок	-10.1413
▁York	-10.1425
▁узнал	-10.1428
▁Та	-10.1431
овать	-10.1451
ism	-10.1463
▁Москва	-10.1464
▁дорогу	-10.1465
Ц	-10.1469
▁императора	-10.1472
▁Кон	-10.1474
▁принимать	-10.1475
кон	-10.1477
▁отряд	-10.1481
▁годах	-10.1483
▁лице	-10.1488
▁work	-10.149
прежнему	-10.1497
»:	-10.1504
▁немцев	-10.1509
▁район	-10.1512
▁лежит	-10.1514
ды	-10.1516
▁вечером	-10.1524
}	-10.1525
▁Сегодня	-10.1535
рас	-10.1535
▁обществе	-10.1551
лен	-10.1554
▁голове	-10.1556
▁плен	-10.1557
▁us	-10.1557
▁узнать	-10.1568
▁вода	-10.1569
▁результат	-10.1571
ера	-10.1584
▁считает	-10.1586
▁1945	-10.1598
▁дали	-10.1598
▁природе	-10.1601
▁боевой	-10.1603
▁І	-10.1604
▁сказано	-10.1609
▁штаб	-10.1611
▁видов	-10.1611
▁жизнью	-10.1621
▁проект	-10.1625
▁Италии	-10.1628
▁k	-10.1629
▁последних	-10.1634
3.	-10.1641
▁мимо	-10.1653
▁Михаил	-10.1666
▁Совета	-10.1671
▁великого	-10.1691
”,	-10.1692
▁рот	-10.1693
ющим	-10.1696
▁традиции	-10.1708
▁years	-10.1709
▁down	-10.1716
▁позднее	-10.1717
▁Россию	-10.1718
▁прекрасно	-10.1722
▁армию	-10.173
▁much	-10.173
as	-10.174
▁миру	-10.1742
▁духа	-10.1744
▁военные	-10.1747
▁появились	-10.1757
▁привести	-10.1768
▁семь	-10.1775
▁сожалению	-10.1779
тель	-10.1785
▁al	-10.1786
▁лицом	-10.1787
].	-10.1788
▁Второй	-10.1804
дер	-10.1805
ового	-10.1816
▁улице	-10.1823
▁кровь	-10.1825
ге	-10.1828
▁Нам	-10.1835
ви	-10.1843
▁хлеб	-10.1843
▁вопросов	-10.1847
▁первая	-10.1848
▁идей	-10.1854
▁und	-10.1854
▁промышленности	-10.1855
▁евреев	-10.1858
▁говорится	-10.1868
ович	-10.1872
мо	-10.1876
▁кораблей	-10.1876
at	-10.1878
▁машин	-10.1879
▁церковь	-10.1882
▁следовательно	-10.1886
▁последнее	-10.189
пере	-10.1893
▁живет	-10.1893
▁They	-10.1899
ус	-10.1901
▁политических	-10.1902
▁член	-10.191
▁итоге	-10.1915
▁окончательно	-10.1916
омъ	-10.1921
▁фронте	-10.1931
▁суть	-10.1932
▁отъ	-10.1934
▁брата	-10.1935
▁кое	-10.1936
▁выход	-10.1938
▁результаты	-10.1938
▁немало	-10.1945
▁трудом	-10.1959
▁des	-10.1963
▁заключается	-10.1968
▁воздух	-10.1968
▁семье	-10.1975
▁представление	-10.198
il	-10.1987
▁Особенно	-10.1987
▁7.	-10.1987
▁хотели	-10.1992
▁жили	-10.201
▁периода	-10.2022
▁центре	-10.2023
▁Человек	-10.2025
▁нашел	-10.2025
▁объяснить	-10.2027
▁буквально	-10.2037
▁вечер	-10.2038
▁неожиданно	-10.2038
▁последнего	-10.204
▁сделали	-10.2048
▁недели	-10.2051
▁войсками	-10.2054
▁момента	-10.2054
▁солнце	-10.2059
▁ваш	-10.2063
▁Люди	-10.2064
▁большого	-10.2073
▁Руси	-10.2076
▁потери	-10.209
▁теле	-10.2091
▁действовать	-10.2091
▁As	-10.2095
▁миллионов	-10.2103
▁существование	-10.2103
ant	-10.2108
▁начать	-10.2109
▁get	-10.2115
▁пошли	-10.2117
▁редко	-10.2117
▁находятся	-10.2117
\	-10.2118
▁same	-10.2121
▁танков	-10.2125
▁сути	-10.2126
▁иностранных	-10.2128
▁z	-10.2132
▁To	-10.2135
▁Петра	-10.2139
▁форма	-10.2144
стве	-10.2147
▁напротив	-10.215
▁опыта	-10.2158
▁пытался	-10.2158
лу	-10.216
▁мест	-10.2167
▁служить	-10.2169
▁стояли	-10.2182
▁содержание	-10.2193
стр	-10.2196
▁вернуться	-10.2196
▁Однажды	-10.2204
▁If	-10.2204
бер	-10.2207
▁составляет	-10.2215
ор	-10.2234
▁писатель	-10.2234
▁хуже	-10.2235
1.	-10.2238
▁понятно	-10.2238
▁небольшой	-10.2241
▁причине	-10.2244
▁Азии	-10.2245
ший	-10.2254
▁those	-10.2259
▁видит	-10.2261
Да	-10.2267
▁одни	-10.2267
▁минуту	-10.2275
действительности	-10.2281
▁рост	-10.2283
▁Мир	-10.2288
▁ре	-10.229
▁рублей	-10.2302
▁берег	-10.2304
▁пер	-10.2315
щ	-10.2323
▁вывод	-10.233
▁вопроса	-10.233
▁современной	-10.2335
»),	-10.2343
▁представителей	-10.2345
▁сотни	-10.2345
▁показал	-10.2346
▁вида	-10.2349
▁знак	-10.2349
▁крупных	-10.235
▁Согласно	-10.235
▁такими	-10.2351
▁ближе	-10.2356
▁имела	-10.2357
▁будущее	-10.2359
▁показывает	-10.2366
▁сидел	-10.237
▁словом	-10.2375
▁систем	-10.2379
▁делу	-10.238
▁основных	-10.238
▁go	-10.2382
▁якобы	-10.2385
▁make	-10.2387
тон	-10.2391
▁немецких	-10.2393
▁тихо	-10.2393
ден	-10.2394
▁стены	-10.2398
▁Чем	-10.2407
▁зачем	-10.2409
▁острова	-10.241
▁веры	-10.241
▁тобой	-10.2416
▁use	-10.2419
10	-10.2427
▁показать	-10.2438
▁мужа	-10.2443
▁роман	-10.245
▁отправился	-10.2453
▁сомнения	-10.2454
▁отсутствие	-10.246
▁long	-10.246
▁en	-10.246
▁h	-10.2465
ment	-10.2471
▁XVIII	-10.2472
▁будущем	-10.2482
▁нередко	-10.2483
▁ею	-10.2488
▁VI	-10.2494
▁вами	-10.2504
▁службу	-10.2514
▁самим	-10.2517
цу	-10.252
▁Кор	-10.2523
▁человеческого	-10.2528
▁элементов	-10.2531
▁веке	-10.2533
ve	-10.2536
▁Ли	-10.254
and	-10.2541
▁всякий	-10.2547
▁руб	-10.255
▁own	-10.2554
▁назвать	-10.2558
▁Первый	-10.2559
▁основании	-10.2562
▁вынужден	-10.2577
ist	-10.2577
▁ведет	-10.258
▁огня	-10.2581
▁should	-10.2598
▁under	-10.2599
▁другая	-10.2603
вид	-10.2606
▁поведения	-10.2611
ван	-10.2611
▁статьи	-10.2623
гор	-10.263
▁оттуда	-10.263
▁war	-10.2634
▁включая	-10.2636
▁собственно	-10.2639
ар	-10.2639
▁цвета	-10.264
▁мозга	-10.2643
▁ад	-10.2648
пре	-10.2648
▁успел	-10.2651
▁вследствие	-10.2658
▁органов	-10.2671
▁случаев	-10.2678
▁мер	-10.268
▁скорость	-10.2681
q	-10.2682
▁сквозь	-10.2685
▁Иванович	-10.2686
ация	-10.2691
▁остались	-10.2692
▁газеты	-10.2693
▁работает	-10.2696
▁Гитлер	-10.2708
▁ряда	-10.271
▁представления	-10.2713
▁члены	-10.2719
▁успешно	-10.2719
▁произведения	-10.2721
▁долларов	-10.2725
▁проблема	-10.2727
▁Кар	-10.273
▁страну	-10.2735
▁несомненно	-10.2736
ющихся	-10.2738
▁двери	-10.2744
▁имеется	-10.2744
▁тип	-10.2745
▁вел	-10.275
▁никого	-10.2757
▁отдела	-10.2757
▁Вместе	-10.276
▁концу	-10.2771
▁мм	-10.2774
▁понятия	-10.2775
▁1919	-10.279
▁зло	-10.2792
ева	-10.2798
▁Рас	-10.2798
-2	-10.2804
▁метод	-10.2808
▁Ленина	-10.2816
▁Армии	-10.2817
▁муж	-10.282
▁человечества	-10.282
»;	-10.2823
лей	-10.2828
▁делают	-10.2846
▁собою	-10.2846
▁Земли	-10.2847
▁выйти	-10.2848
▁великий	-10.2851
▁полковник	-10.2858
▁подобных	-10.286
ана	-10.2862
▁70	-10.2864
▁способность	-10.287
▁самая	-10.2871
▁1940	-10.2873
сон	-10.2874
▁всяком	-10.2874
ian	-10.2875
▁площади	-10.2875
▁качества	-10.2876
et	-10.2887
ur	-10.2889
▁1939	-10.2898
пер	-10.29
ете	-10.2907
▁успех	-10.2908
▁область	-10.2911
▁сущности	-10.2912
▁основания	-10.2912
вшегося	-10.2914
▁орудий	-10.2921
▁История	-10.2926
▁крест	-10.293
▁вижу	-10.2931
▁вышли	-10.2932
▁моим	-10.2933
прав	-10.2935
▁стихи	-10.2942
▁определить	-10.2945
▁победы	-10.295
–19	-10.2966
▁поход	-10.2967
вторых	-10.297
▁уверен	-10.2979
▁used	-10.2984
▁читать	-10.2989
▁император	-10.299
el	-10.2994
▁появился	-10.2994
▁обоих	-10.2998
▁неделю	-10.2999
▁ваше	-10.3002
ne	-10.3006
▁прошлого	-10.3009
▁понимал	-10.3009
▁смотреть	-10.3014
▁наверное	-10.3018
▁ваши	-10.3023
▁веков	-10.3034
▁армий	-10.3037
аль	-10.3039
▁мною	-10.304
ющее	-10.3041
▁нашли	-10.3045
▁жены	-10.3052
▁воли	-10.3057
id	-10.3063
▁Ла	-10.3065
▁знают	-10.3067
▁Ибо	-10.3069
▁именем	-10.3069
▁причины	-10.3074
▁защиты	-10.3075
▁рассказал	-10.3076
▁целый	-10.308
▁хозяйства	-10.3083
▁вашей	-10.3084
▁прошлом	-10.3088
▁Re	-10.3095
▁поведение	-10.3097
▁бог	-10.3099
▁будущего	-10.3101
▁возле	-10.3102
▁главный	-10.3104
▁понятие	-10.3105
шего	-10.311
▁подумал	-10.3111
▁борьба	-10.3112
▁борьбу	-10.3119
ющиеся	-10.3129
▁j	-10.313
▁Сергей	-10.313
▁роста	-10.313
▁соч	-10.313
▁Павел	-10.313
▁граф	-10.3136
▁класс	-10.3143
▁сел	-10.315
лет	-10.3151
▁начинается	-10.3154
▁корабль	-10.3157
▁курс	-10.3163
▁выражение	-10.3165
▁прибыл	-10.318
▁пространства	-10.3182
▁подробно	-10.3187
▁названием	-10.3189
▁Церкви	-10.3191
▁принято	-10.3191
▁Три	-10.3193
▁«...	-10.32
▁третий	-10.32
▁понимать	-10.3205
ate	-10.3206
▁задачу	-10.3207
▁внимательно	-10.3209
▁§	-10.3214
▁эпоху	-10.3222
▁Y	-10.3223
▁рамках	-10.3231
▁рассказ	-10.3231
▁You	-10.3234
▁самолетов	-10.3239
▁сообщил	-10.324
▁Мар	-10.3241
▁сильнее	-10.3242
▁боль	-10.3248
▁being	-10.3253
▁литературе	-10.3256
▁попытки	-10.3263
▁считали	-10.3263
▁граждан	-10.3268
▁отношениях	-10.3272
▁человеческой	-10.3272
▁считают	-10.3284
▁религии	-10.3287
▁Богом	-10.3292
▁пространство	-10.3297
▁техники	-10.3299
▁ал	-10.33
▁угодно	-10.3303
▁командира	-10.3305
ении	-10.3308
ска	-10.3308
▁встречи	-10.3309
вшейся	-10.3313
▁Значит	-10.3314
▁внутренних	-10.3315
▁принадлежит	-10.3317
▁day	-10.3321
▁круг	-10.3323
▁необходимость	-10.3332
▁отметить	-10.3339
▁советского	-10.3346
▁Ре	-10.3347
▁массы	-10.3354
▁высокой	-10.3357
▁свободу	-10.3367
Y	-10.3368
▁сможет	-10.3368
▁задач	-10.337
вшая	-10.3373
▁дают	-10.3375
▁население	-10.3387
▁искусство	-10.3389
жи	-10.3392
▁предложение	-10.3393
▁De	-10.3396
▁Гор	-10.3398
▁There	-10.3399
▁помню	-10.3399
▁произнес	-10.3408
18	-10.3411
ir	-10.3414
▁флот	-10.3415
▁8.	-10.3416
▁знаете	-10.3419
▁know	-10.3422
▁СПб	-10.3427
▁закона	-10.3428
▁судьба	-10.3428
бо	-10.343
▁назначен	-10.3431
▁пар	-10.3435
▁Дж	-10.3436
▁мама	-10.3438
▁провести	-10.3446
▁нужны	-10.3447
▁способности	-10.3448
▁делал	-10.3448
▁последней	-10.3452
▁влияния	-10.3463
▁Господа	-10.3465
▁сравнению	-10.3467
▁тщательно	-10.3474
▁ситуация	-10.3481
▁условий	-10.3484
▁вопросу	-10.3486
▁какъ	-10.3494
▁любил	-10.3496
▁вариант	-10.3498
▁разумеется	-10.3504
Если	-10.3506
▁пару	-10.351
▁Нью	-10.3511
▁следующее	-10.3512
▁игры	-10.3518
ству	-10.3526
▁информацию	-10.3527
▁называли	-10.353
▁посредством	-10.354
▁хотят	-10.3548
▁должности	-10.3549
так	-10.3566
▁тяжело	-10.3567
▁отряда	-10.3567
ическую	-10.3584
▁good	-10.3587
наго	-10.3593
▁государственной	-10.3594
▁80	-10.3599
▁верно	-10.3607
▁специально	-10.3616
▁государств	-10.3619
▁вышла	-10.3623
ine	-10.3626
▁Ар	-10.363
ностью	-10.3634
4.	-10.364
▁Пер	-10.3641
Мы	-10.3642
▁служит	-10.3644
▁делом	-10.3647
▁внезапно	-10.3648
▁вели	-10.365
▁солдаты	-10.365
▁завтра	-10.365
▁Им	-10.3651
истов	-10.3651
▁Великой	-10.3653
▁предмет	-10.366
▁новым	-10.3664
▁десяти	-10.367
▁сей	-10.3671
енных	-10.3674
▁воздуха	-10.3677
Ъ	-10.3678
▁мужчин	-10.3686
▁вплоть	-10.3688
▁авиации	-10.3689
▁союз	-10.369
▁километров	-10.3691
▁днем	-10.3692
▁самолет	-10.3693
▁вызывает	-10.3696
▁берега	-10.3698
▁y	-10.3707
▁данной	-10.3709
▁пришла	-10.371
▁1920	-10.3716
U	-10.3727
▁заниматься	-10.373
est	-10.3732
▁шум	-10.3742
▁целей	-10.3742
▁успеха	-10.3744
Как	-10.3744
▁новая	-10.3753
▁половине	-10.3755
▁строго	-10.3757
▁контроль	-10.3767
шь	-10.3768
мир	-10.3771
▁связано	-10.3774
▁part	-10.3775
▁материал	-10.3783
▁сказали	-10.3785
▁добиться	-10.3794
▁самих	-10.3803
▁дальнейшем	-10.3808
▁активно	-10.3809
▁разведки	-10.3811
ак	-10.3812
▁основные	-10.3812
▁must	-10.3814
▁чувств	-10.3817
вшей	-10.383
▁создание	-10.3835
▁командование	-10.3835
▁St	-10.384
▁внешней	-10.3842
▁500	-10.3843
лов	-10.3848
▁исследований	-10.3852
▁(1	-10.3852
▁each	-10.3853
▁района	-10.3872
▁приходит	-10.388
▁хочется	-10.3882
▁имея	-10.3886
▁школе	-10.389
▁La	-10.3894
▁восемь	-10.3895
▁Лев	-10.3903
▁бою	-10.3903
ел	-10.3905
▁гл	-10.3914
лы	-10.3916
▁опасности	-10.3917
▁никому	-10.3917
▁впереди	-10.3918
▁признать	-10.3919
▁воде	-10.3924
▁подготовки	-10.3924
▁данным	-10.3938
▁началась	-10.3944
-1	-10.3946
▁идут	-10.3947
▁друзья	-10.3947
▁достижения	-10.3949
▁товарищ	-10.3952
▁любого	-10.3954
▁девушка	-10.3955
▁готовы	-10.3959
▁Разве	-10.3961
▁иной	-10.3962
▁прием	-10.3962
ness	-10.3965
▁корабля	-10.3972
▁слышал	-10.3978
образ	-10.3983
▁соответственно	-10.3996
▁леса	-10.4001
▁политика	-10.4003
▁образование	-10.4005
▁наступления	-10.4013
▁законы	-10.4018
▁усилия	-10.4019
▁народу	-10.403
▁Press	-10.4031
ци	-10.4031
▁Хорошо	-10.4031
em	-10.4038
▁three	-10.4043
▁врагов	-10.4049
ала	-10.4057
▁корабли	-10.4059
▁Далее	-10.4063
▁On	-10.4063
▁группу	-10.4064
▁still	-10.4066
▁программы	-10.4068
▁основной	-10.4068
▁воздухе	-10.4069
▁ждать	-10.4075
▁разум	-10.4075
▁документы	-10.4077
▁северо	-10.4079
▁300	-10.4086
▁XVI	-10.409
▁смысла	-10.4092
▁XVII	-10.4096
‐	-10.4107
▁самостоятельно	-10.4111
▁отдельные	-10.4111
▁Андрей	-10.4112
▁обе	-10.4114
овъ	-10.4116
▁off	-10.4117
▁вашего	-10.4122
▁подобные	-10.4124
ch	-10.4125
▁Василий	-10.4127
▁реальности	-10.4133
▁оставалось	-10.4134
▁men	-10.4135
▁местных	-10.4138
▁рано	-10.4144
▁судов	-10.4149
▁социальной	-10.4161
▁end	-10.4162
▁Сан	-10.4164
▁принцип	-10.4181
],	-10.4188
▁Париж	-10.4196
▁внутренней	-10.4202
▁переход	-10.4204
▁нежели	-10.4205
▁комнате	-10.4206
▁3)	-10.4207
▁навсегда	-10.4213
▁станции	-10.4214
▁письме	-10.4214
▁Российской	-10.422
▁связаны	-10.4222
вал	-10.4224
▁Прежде	-10.4226
▁попал	-10.4229
ена	-10.4231
▁теми	-10.4232
▁двор	-10.4233
▁строй	-10.4238
▁остров	-10.4241
▁недостаточно	-10.4242
▁особо	-10.4242
▁ветер	-10.4243
▁смогли	-10.4244
▁пара	-10.4247
ям	-10.4249
▁живут	-10.425
бу	-10.4251
▁оставить	-10.4253
▁желания	-10.4254
▁многое	-10.4255
▁установить	-10.426
▁лейтенант	-10.4263
▁Союз	-10.4269
▁получила	-10.4271
▁относятся	-10.4272
▁сон	-10.4275
шие	-10.4277
▁экономики	-10.428
os	-10.4283
▁заранее	-10.4287
se	-10.4289
▁Иисуса	-10.4294
▁отвечал	-10.4294
вар	-10.4298
▁знаком	-10.4298
▁сего	-10.4307
▁мед	-10.4308
▁обратился	-10.431
▁отсюда	-10.4314
▁Японии	-10.4315
▁молодых	-10.4318
▁When	-10.4319
▁бригады	-10.4322
▁сопротивление	-10.4324
▁поставить	-10.4324
▁следующие	-10.4329
▁per	-10.4332
▁совет	-10.4335
ешься	-10.4342
▁мужчины	-10.4345
▁легче	-10.4346
▁Иисус	-10.4349
▁согласился	-10.4354
▁анализ	-10.4361
é	-10.4369
▁счастье	-10.437
▁остальных	-10.4371
нос	-10.4372
▁главного	-10.4374
ницы	-10.4376
воз	-10.4379
▁An	-10.4384
оп	-10.4386
▁становятся	-10.4387
ели	-10.439
иль	-10.4392
ров	-10.4392
▁поздно	-10.4393
аго	-10.4394
▁оставил	-10.4397
▁возраста	-10.4399
шу	-10.44
▁веру	-10.4402
▁ди	-10.4403
▁песни	-10.4404
▁эффект	-10.4406
▁right	-10.4408
Z	-10.4409
▁боли	-10.4409
▁плане	-10.441
▁договор	-10.441
▁главных	-10.4411
▁обеспечить	-10.4415
бы	-10.4418
▁She	-10.4419
▁нос	-10.442
▁against	-10.4424
▁возрасте	-10.4425
Й	-10.4431
стер	-10.444
▁попросил	-10.4447
▁both	-10.4447
▁Париже	-10.4449
▁древних	-10.4453
▁примеру	-10.4457
▁дивизия	-10.4458
▁края	-10.446
▁сохранить	-10.447
шая	-10.4475
▁ушел	-10.4476
▁смотрел	-10.4481
▁пожалуй	-10.4489
▁полное	-10.4491
▁руководство	-10.4493
▁9.	-10.4495
▁знаешь	-10.4499
▁й	-10.4499
▁Сначала	-10.45
исты	-10.4502
▁might	-10.4506
ce	-10.4514
▁отдел	-10.4521
ющийся	-10.4525
▁играть	-10.4526
чу	-10.4527
▁горе	-10.4528
▁полном	-10.453
▁следовало	-10.4531
цами	-10.4531
▁сверх	-10.4532
▁At	-10.4541
▁ответственность	-10.4541
▁читал	-10.4544
оз	-10.4552
При	-10.4557
овую	-10.456
▁появилась	-10.456
▁вкус	-10.4561
25	-10.4564
▁Украины	-10.4564
▁университета	-10.4566
▁огнем	-10.4571
▁общее	-10.4574
▁хотите	-10.458
▁дворе	-10.4582
▁Пушкин	-10.4582
▁количества	-10.4584
▁деревни	-10.4588
▁впрочем	-10.4588
▁президент	-10.4589
▁take	-10.4589
Что	-10.4597
▁любом	-10.46
age	-10.4604
альная	-10.4611
▁страна	-10.4611
▁War	-10.4617
▁артиллерии	-10.462
овский	-10.462
▁модели	-10.4622
чик	-10.4625
▁дым	-10.4629
▁Был	-10.4635
▁страха	-10.4636
▁сорок	-10.464
▁бога	-10.4642
▁ног	-10.4647
▁тотчас	-10.465
▁приехал	-10.4659
▁совета	-10.4662
▁1937	-10.4674
▁du	-10.4675
▁Америки	-10.4678
son	-10.468
▁прямой	-10.4683
▁назвал	-10.4683
ших	-10.4685
▁Отец	-10.4689
▁Несколько	-10.4694
▁черты	-10.4695
▁ред	-10.4701
▁ста	-10.4702
▁комнату	-10.4707
▁хлеба	-10.4712
▁родителей	-10.4719
▁Много	-10.472
?..	-10.4724
▁будете	-10.4726
▁элементы	-10.4728
▁каждая	-10.4733
▁отнюдь	-10.4736
▁представители	-10.4736
▁another	-10.4744
нь	-10.4745
▁начиная	-10.475
▁твой	-10.4755
▁имена	-10.4756
▁исключением	-10.476
нем	-10.4763
▁радость	-10.4765
na	-10.4767
▁правления	-10.4774
▁героя	-10.4779
▁перевод	-10.478
жа	-10.4781
▁дочери	-10.4781
▁вряд	-10.4788
пред	-10.4801
▁богов	-10.4804
мин	-10.4805
▁каждому	-10.4814
▁интересы	-10.4821
▁35	-10.4821
ry	-10.4824
Вы	-10.4829
кова	-10.4835
▁правила	-10.4835
▁управление	-10.4842
▁шести	-10.4847
ma	-10.4848
альный	-10.4852
▁вещества	-10.4853
▁Просто	-10.4855
30	-10.4855
альные	-10.4856
▁собственных	-10.4858
▁использования	-10.4858
▁РФ	-10.4859
▁Ле	-10.4875
▁отдал	-10.4876
▁домов	-10.4878
▁нужна	-10.4881
▁делали	-10.4886
▁ученых	-10.4887
▁Всё	-10.4892
▁земель	-10.4902
▁офицер	-10.4902
▁строя	-10.4902
емых	-10.4907
▁двое	-10.4908
▁явления	-10.4911
50	-10.4915
▁собственного	-10.4916
▁моему	-10.4918
▁Де	-10.4926
ившись	-10.4928
▁ощущение	-10.4929
▁близко	-10.493
▁University	-10.4938
▁точку	-10.4942
▁звезд	-10.4944
йтесь	-10.4948
▁главной	-10.495
▁должность	-10.4955
▁партия	-10.4957
▁here	-10.4958
▁Рим	-10.4961
▁семи	-10.4964
▁соответствует	-10.4965
▁Отсюда	-10.4965
▁150	-10.4966
▁противник	-10.497
ta	-10.4971
ант	-10.4977
▁Никто	-10.4983
▁родился	-10.4985
▁направление	-10.4986
▁too	-10.4988
▁поэта	-10.4988
▁тридцать	-10.4991
вен	-10.4992
▁реакции	-10.4996
▁текста	-10.4998
▁другому	-10.4999
▁Мой	-10.5001
▁прошел	-10.5003
▁London	-10.5009
▁центра	-10.5011
▁юго	-10.5017
▁Такие	-10.5018
▁послал	-10.5018
▁скорости	-10.5018
▁понимаю	-10.502
чин	-10.5021
▁получается	-10.5022
▁губ	-10.5024
▁теория	-10.5027
▁Le	-10.5032
▁передать	-10.5037
енная	-10.5039
▁порой	-10.5041
ир	-10.5052
▁Николая	-10.5054
▁кн	-10.5055
▁ситуацию	-10.5058
▁great	-10.5059
хъ	-10.506
▁радости	-10.5063
▁истины	-10.507
▁приняли	-10.5071
ive	-10.5074
бе	-10.508
▁Одна	-10.5081
▁завод	-10.5082
нуть	-10.5083
▁появляется	-10.5084
▁представляют	-10.5085
Это	-10.5086
▁ребенок	-10.5087
▁тему	-10.5092
▁живых	-10.5093
▁судьбы	-10.5094
ает	-10.5096
▁обладает	-10.5096
▁производство	-10.5097
▁часы	-10.5097
▁утро	-10.5097
▁говорилось	-10.51
▁команды	-10.5101
кам	-10.5108
▁причиной	-10.5111
▁бытия	-10.5112
▁представитель	-10.5112
▁интересов	-10.5114
овый	-10.5114
овое	-10.5119
▁руководством	-10.512
▁Кстати	-10.512
▁Гитлера	-10.5125
▁крепости	-10.5133
▁нашему	-10.5137
▁come	-10.5139
▁президента	-10.514
▁жители	-10.5143
▁любит	-10.5155
хо	-10.5157
▁Пре	-10.5159
▁Христос	-10.5159
бор	-10.5161
▁бывший	-10.5162
▁отвечает	-10.5164
лом	-10.517
▁лесу	-10.5172
▁служил	-10.5173
▁армией	-10.5174
▁источник	-10.5179
▁встреча	-10.518
▁Мак	-10.5181
ён	-10.5182
▁здания	-10.5183
▁номер	-10.5183
▁while	-10.5184
▁известный	-10.5184
▁НКВД	-10.5185
▁провел	-10.5186
▁Индии	-10.5186
ie	-10.5186
▁картины	-10.5188
▁решительно	-10.519
ун	-10.5196
▁существуют	-10.5198
45	-10.5198
лив	-10.52
▁доктор	-10.5229
▁свойства	-10.5229
вшим	-10.5232
▁опасность	-10.5239
▁мужчина	-10.5242
▁быстрее	-10.5243
▁поддержку	-10.5245
фа	-10.5245
ают	-10.5247
▁практике	-10.5254
▁просил	-10.5263
▁миром	-10.5268
▁минуты	-10.5269
▁военный	-10.5273
▁чувствовал	-10.5273
▁die	-10.5274
▁подошел	-10.5275
▁организма	-10.5276
▁5-	-10.5276
▁орудия	-10.5279
▁Алексей	-10.528
▁летом	-10.5288
▁вечера	-10.5291
▁среды	-10.5295
▁<...>	-10.5306
▁Виктор	-10.531
▁Ку	-10.5312
изации	-10.5315
▁погиб	-10.5317
ющими	-10.5319
▁ц	-10.532
▁материалы	-10.5321
▁выходит	-10.5324
▁So	-10.5336
▁American	-10.534
▁предложения	-10.5344
▁пытались	-10.5345
▁направления	-10.5348
▁оставаться	-10.5349
▁зная	-10.5353
▁документов	-10.5357
▁Сколько	-10.536
40	-10.5372
▁дар	-10.5374
▁большинства	-10.5377
▁подход	-10.5378
государственного	-10.539
▁изменить	-10.5393
▁выхода	-10.5394
сов	-10.5398
6.	-10.54
▁вз	-10.5402
ран	-10.5403
▁машину	-10.5407
▁безусловно	-10.5409
▁позицию	-10.5411
▁little	-10.5411
▁рассказывал	-10.5416
▁дабы	-10.5416
▁Генерал	-10.5416
▁прибыли	-10.5425
▁простой	-10.5431
▁явление	-10.5431
▁советские	-10.5433
▁министра	-10.5434
▁похоже	-10.5434
▁каждое	-10.5437
▁Нужно	-10.5438
ющую	-10.5439
ину	-10.5441
▁проходит	-10.5451
▁1938	-10.5454
▁игра	-10.546
▁пространстве	-10.5468
co	-10.5476
▁энергия	-10.5478
▁never	-10.5478
5.	-10.5481
▁масс	-10.5482
▁called	-10.5486
▁Ответ	-10.55
▁имеем	-10.5501
▁Бар	-10.5501
▁стремление	-10.5502
{	-10.5503
▁руководства	-10.5509
▁вес	-10.5513
▁found	-10.5513
▁Лишь	-10.5515
▁2000	-10.5515
▁пройти	-10.5517
▁неё	-10.5529
▁материалов	-10.553
▁моем	-10.554
▁получает	-10.5541
▁камень	-10.5542
▁каждым	-10.5549
▁влиянием	-10.5553
▁батальона	-10.5554
рос	-10.5554
ав	-10.5556
▁век	-10.5558
пол	-10.5561
нер	-10.5563
▁different	-10.5565
скаго	-10.5569
▁голова	-10.5571
▁комиссии	-10.5572
▁don	-10.5575
▁Следовательно	-10.5576
▁печати	-10.5578
жен	-10.5579
▁избежать	-10.558
это	-10.5583
▁половины	-10.5584
▁современных	-10.5587
▁груди	-10.5588
▁сообщения	-10.5589
▁Пред	-10.5593
▁структуры	-10.5594
▁соединения	-10.5594
ню	-10.5595
ины	-10.5605
▁открыл	-10.5609
▁ярко	-10.561
17	-10.5614
▁кор	-10.5616
ания	-10.562
▁Ничего	-10.5621
▁способом	-10.5624
▁происходило	-10.563
▁ученые	-10.5633
▁лагеря	-10.5633
io	-10.564
▁развитии	-10.5647
▁place	-10.5653
▁большинстве	-10.5656
ению	-10.566
▁столетия	-10.5661
например	-10.5662
▁o	-10.5663
вшаяся	-10.5663
▁многом	-10.567
▁without	-10.5673
▁Вер	-10.568
▁нужен	-10.5684
ило	-10.5685
▁властью	-10.5688
▁Мария	-10.5691
▁цен	-10.5693
▁переговоры	-10.5694
шим	-10.5697
▁Такое	-10.5699
19	-10.57
▁Борис	-10.5703
▁Род	-10.5705
▁громко	-10.5709
▁Советской	-10.5709
▁правил	-10.5712
иков	-10.5717
▁начинают	-10.5717
▁свидетельствует	-10.5722
▁планы	-10.5724
▁посмотрел	-10.5728
▁профессор	-10.5729
▁взяли	-10.5734
▁вошел	-10.5737
▁атаки	-10.5738
▁волны	-10.5738
ten	-10.5738
етесь	-10.574
▁преимущественно	-10.5741
»?	-10.5744
▁уйти	-10.5747
▁роз	-10.5748
▁принимает	-10.5751
ад	-10.5751
▁картину	-10.5754
▁семья	-10.5756
▁Ивана	-10.5757
хи	-10.5761
▁during	-10.5767
▁VII	-10.5768
▁мнения	-10.5768
▁городах	-10.577
▁всякой	-10.5771
▁учения	-10.5771
мм	-10.5772
▁полиции	-10.5773
▁батальон	-10.5784
▁number	-10.579
15	-10.5791
▁группе	-10.5792
рон	-10.5794
вод	-10.5796
▁будь	-10.58
нием	-10.5801
▁считается	-10.5802
▁Карл	-10.5804
▁Такой	-10.5807
тор	-10.5808
▁крупные	-10.5809
▁хочешь	-10.5817
теля	-10.5818
▁писателя	-10.5822
йся	-10.5823
▁фоне	-10.5828
▁школу	-10.5831
▁веществ	-10.5841
▁высшей	-10.5843
мор	-10.5845
▁мо	-10.5845
ент	-10.5848
▁Оп	-10.5848
▁указывает	-10.585
▁храм	-10.5852
▁участников	-10.5852
▁жив	-10.5855
12	-10.5857
▁способен	-10.5859
▁Америке	-10.5859
▁театра	-10.5861
▁независимо	-10.5862
▁спать	-10.5862
▁понимание	-10.5863
▁серьезно	-10.5865
сы	-10.5865
▁знание	-10.5866
▁Автор	-10.587
▁главы	-10.587
▁Действительно	-10.5875
▁рассматривать	-10.5875
▁солнца	-10.5875
зи	-10.5877
▁around	-10.588
▁$	-10.5881
▁вслед	-10.5888
▁кг	-10.5892
▁старый	-10.5896
енной	-10.5898
тели	-10.5906
▁Киев	-10.5908
11	-10.591
▁среде	-10.591
▁союзников	-10.5911
▁Ту	-10.5913
ton	-10.5914
▁полного	-10.5915
▁глава	-10.592
▁Мор	-10.5922
▁помимо	-10.5922
▁вошли	-10.5928
ію	-10.593
Об	-10.5937
▁политические	-10.5944
▁стояла	-10.5946
▁старший	-10.595
ів	-10.5952
▁отказался	-10.5955
▁неизбежно	-10.5956
▁господин	-10.5958
▁причина	-10.5963
▁гибели	-10.5963
▁голоса	-10.5965
▁давать	-10.5966
▁посмотреть	-10.5967
▁методы	-10.5968
▁герой	-10.5968
▁принес	-10.5971
▁началось	-10.5972
ad	-10.5973
▁странно	-10.5978
без	-10.5979
▁идею	-10.5983
▁later	-10.5985
▁романа	-10.5991
▁оставался	-10.5993
▁вторая	-10.5995
овского	-10.5999
▁рабочего	-10.6005
▁победу	-10.6005
▁Q	-10.6007
▁учение	-10.6007
▁местности	-10.601
▁происхождения	-10.6017
▁am	-10.6017
▁Су	-10.6021
▁сравнительно	-10.6024
▁1914	-10.6024
un	-10.6026
▁ответа	-10.603
▁открыто	-10.6034
▁продолжает	-10.6036
▁окна	-10.6037
▁КПСС	-10.6038
стей	-10.6044
▁государственных	-10.6047
▁написано	-10.6048
▁самую	-10.6053
▁di	-10.6058
me	-10.606
▁русским	-10.606
▁авторитет	-10.6061
▁социальных	-10.6061
▁чай	-10.6066
▁частично	-10.6067
▁законов	-10.6068
ated	-10.6069
ание	-10.6069
▁объем	-10.6069
▁лошадей	-10.6077
▁рад	-10.6078
емые	-10.6081
▁адрес	-10.6086
▁90	-10.6087
▁подобного	-10.6088
▁фильм	-10.6089
▁торговли	-10.6091
20	-10.6113
com	-10.6114
▁прошло	-10.6116
▁порт	-10.6117
▁список	-10.6118
▁применения	-10.6119
▁втором	-10.6119
▁собственные	-10.6121
▁Два	-10.6123
▁меж	-10.6123
▁источников	-10.6124
▁представляется	-10.6126
▁зла	-10.6127
▁слегка	-10.6135
▁55	-10.6136
▁понимания	-10.614
▁спор	-10.6141
7.	-10.6143
▁нравится	-10.6144
▁будешь	-10.6144
▁получения	-10.6145
▁знаний	-10.6153
ата	-10.6154
▁Бер	-10.616
ним	-10.6162
▁здоровье	-10.6162
▁Дон	-10.6163
ge	-10.6164
▁страшно	-10.6164
ирование	-10.6166
▁pre	-10.6171
▁Кур	-10.6172
▁точка	-10.6175
▁Vol	-10.6176
▁came	-10.6176
▁данного	-10.6181
▁завода	-10.6182
ющейся	-10.6182
все	-10.6183
▁самолета	-10.6184
▁конечном	-10.6185
▁участия	-10.6191
▁написать	-10.6192
▁кур	-10.6193
▁министр	-10.6199
од	-10.6201
▁цивилизации	-10.6206
ary	-10.6213
▁офицеры	-10.6215
▁статье	-10.622
▁помогает	-10.6223
▁Над	-10.6223
▁политике	-10.6224
▁Иванов	-10.623
▁полный	-10.6234
слав	-10.6242
▁находилась	-10.6245
▁огромное	-10.6247
▁гости	-10.6251
▁поставил	-10.6251
▁реке	-10.6251
▁имело	-10.6252
▁волю	-10.6252
ies	-10.6253
хан	-10.6259
▁социально	-10.626
▁способны	-10.6261
▁своё	-10.6261
▁отличается	-10.627
▁стоят	-10.627
▁сфере	-10.6273
▁значительной	-10.6273
цов	-10.6279
▁верить	-10.6279
▁живой	-10.6285
▁американских	-10.6286
▁держать	-10.6289
▁мышления	-10.6289
▁села	-10.6289
▁началом	-10.6294
▁роты	-10.6299
▁изд	-10.6301
▁войско	-10.6302
▁знала	-10.6303
дар	-10.6304
▁con	-10.6307
вой	-10.6313
ka	-10.6317
▁журнал	-10.6318
▁целях	-10.632
▁Также	-10.6323
▁немецкой	-10.6328
▁определения	-10.6328
▁лучших	-10.6328
▁волосы	-10.6329
▁надежды	-10.6331
▁скажем	-10.6333
▁Вопрос	-10.6333
▁set	-10.6335
▁требуется	-10.6337
цем	-10.634
▁единственный	-10.634
▁Западной	-10.6342
▁увидели	-10.6343
▁требования	-10.6348
▁двадцати	-10.6349
▁ничто	-10.6354
▁делах	-10.6356
▁пойти	-10.6356
▁сверху	-10.6357
▁чел	-10.636
мет	-10.6366
▁Всего	-10.6369
▁Северной	-10.6369
▁организаций	-10.6371
▁обл	-10.6371
▁Св	-10.638
▁зато	-10.6383
кий	-10.6386
Про	-10.6386
▁ходить	-10.6387
итель	-10.6393
▁близ	-10.6393
▁(2	-10.6396
▁называет	-10.6409
▁женой	-10.6411
итесь	-10.6417
▁32	-10.642
▁Испании	-10.642
мат	-10.6422
▁объявил	-10.6425
▁встал	-10.6433
▁воинов	-10.6436
▁пределы	-10.6438
▁четко	-10.6441
▁политику	-10.6447
▁бумаги	-10.645
тен	-10.6451
▁деревне	-10.6453
ол	-10.6454
▁плана	-10.6462
▁45	-10.6466
▁писателей	-10.6472
▁ничем	-10.6475
▁кстати	-10.6477
чет	-10.6477
▁Вместо	-10.6482
▁бур	-10.6482
▁Бо	-10.649
ирует	-10.6493
▁few	-10.6495
▁общественного	-10.6497
ген	-10.6498
▁судить	-10.6498
▁республики	-10.6499
▁system	-10.65
▁создал	-10.6504
▁прошли	-10.6506
▁навстречу	-10.6507
▁политического	-10.6511
город	-10.6511
▁делам	-10.6515
▁связан	-10.6518
▁воле	-10.6519
▁дивизий	-10.652
▁Пушкина	-10.6522
▁Бор	-10.6524
кая	-10.6525
▁угол	-10.6526
▁кабинет	-10.6528
кс	-10.653
▁достиг	-10.6531
▁need	-10.6533
ём	-10.6534
▁неоднократно	-10.6539
▁Зачем	-10.654
▁недо	-10.6542
▁морской	-10.6543
▁рассказывает	-10.6545
▁волос	-10.6547
▁строительства	-10.6548
▁контроля	-10.655
▁старых	-10.6552
▁картина	-10.6553
▁вопросам	-10.6558
▁существа	-10.6561
▁Мин	-10.6563
▁основу	-10.6564
▁услышал	-10.6565
▁НА	-10.6566
no	-10.6568
ty	-10.6569
▁поколения	-10.657
▁машина	-10.6572
▁Soviet	-10.6578
▁факты	-10.658
▁спросила	-10.6582
▁всяких	-10.6585
▁атаку	-10.6586
▁связанные	-10.6588
кор	-10.6597
▁Разумеется	-10.6601
he	-10.6601
▁мозг	-10.6603
▁мае	-10.661
щи	-10.6612
▁сумел	-10.6616
▁органы	-10.6619
▁dis	-10.6619
▁папа	-10.6621
be	-10.6622
▁le	-10.6626
▁Сен	-10.6631
▁Германия	-10.6633
▁решить	-10.6639
▁поражение	-10.6639
▁Russian	-10.6643
▁ми	-10.6644
▁Первая	-10.6646
▁проводить	-10.6646
▁содержания	-10.6648
▁природа	-10.6649
том	-10.6651
▁XV	-10.6656
▁left	-10.6657
▁познания	-10.6668
▁Иоанн	-10.667
▁недель	-10.6675
▁определяется	-10.6675
▁процессов	-10.6676
▁документ	-10.6679
▁настоящий	-10.6679
▁энергию	-10.6682
▁везде	-10.6685
▁существу	-10.6686
▁процентов	-10.6688
ter	-10.669
▁свыше	-10.6691
▁масса	-10.6692
▁край	-10.6697
▁какими	-10.6698
▁рабочие	-10.6704
▁Джон	-10.6714
▁свободно	-10.6717
▁преступления	-10.6719
▁командованием	-10.672
▁окончания	-10.6721
▁продолжали	-10.6723
▁орган	-10.6726
▁родители	-10.6726
▁содержит	-10.6729
▁руке	-10.673
▁театр	-10.6731
▁личного	-10.6732
▁долг	-10.6733
▁Наиболее	-10.6733
▁вред	-10.6734
тов	-10.6734
От	-10.6735
▁научно	-10.674
▁продолжать	-10.6751
ung	-10.6754
▁престол	-10.6759
ныя	-10.6761
▁границу	-10.6765
▁10.	-10.6766
▁намного	-10.6772
▁пан	-10.6776
▁Николаевич	-10.678
▁every	-10.6782
▁вчера	-10.6784
▁Само	-10.6785
▁ген	-10.6791
▁русском	-10.6794
ган	-10.68
▁последовательно	-10.68
▁потерял	-10.6801
▁поэзии	-10.6809
▁меч	-10.6809
▁ходу	-10.6809
▁6-	-10.6816
▁тепло	-10.6823
▁занимался	-10.6825
43	-10.6826
▁тесно	-10.6826
▁бар	-10.6831
▁Be	-10.6832
▁интересно	-10.6835
▁многочисленные	-10.6835
▁анализа	-10.6836
▁последствия	-10.6837
▁расстояние	-10.6839
▁высоты	-10.6839
▁наличие	-10.6842
~	-10.6847
▁разума	-10.6848
▁творчества	-10.6848
▁say	-10.6849
▁революция	-10.685
▁кризис	-10.6851
▁ответить	-10.6854
la	-10.6858
▁комитета	-10.6859
▁пределах	-10.686
▁отказаться	-10.6865
▁лагерь	-10.6866
▁поднял	-10.6869
▁Причем	-10.6871
▁Ра	-10.6873
▁отчасти	-10.6878
▁XIV	-10.6892
ul	-10.6895
▁виды	-10.6896
▁рыб	-10.6897
▁наука	-10.6898
мон	-10.69
▁Петербург	-10.6904
▁важное	-10.6904
▁Земле	-10.691
▁нечего	-10.691
▁коп	-10.691
овал	-10.6913
▁современного	-10.6919
▁отделения	-10.6923
▁черт	-10.6927
▁великой	-10.6929
im	-10.6933
▁Отечественной	-10.6933
▁взрыв	-10.6939
кина	-10.6943
▁линию	-10.6945
ическом	-10.6946
▁общий	-10.6946
▁брать	-10.6947
▁стен	-10.6949
▁непременно	-10.695
▁Ба	-10.6955
▁вина	-10.6956
▁наблюдения	-10.6957
▁рассказать	-10.6958
▁заметить	-10.6958
▁ваших	-10.6961
▁осталась	-10.6966
▁Благодаря	-10.6967
▁играет	-10.697
▁ценности	-10.697
▁раздел	-10.6971
▁решений	-10.6974
лит	-10.6976
они	-10.6982
▁XII	-10.6985
▁следующим	-10.6986
▁работой	-10.6989
▁можешь	-10.6994
39	-10.6996
▁видом	-10.6996
up	-10.7002
▁обеих	-10.7004
дел	-10.7005
▁народного	-10.7005
ес	-10.7005
▁комплекс	-10.7013
ro	-10.7015
▁болезнь	-10.7016
▁1921	-10.7017
▁ошибки	-10.7018
▁Время	-10.7019
▁лодки	-10.702
▁оружием	-10.7021
▁голосом	-10.7021
▁подобное	-10.7026
▁сад	-10.703
▁ужас	-10.7031
▁остаться	-10.7032
▁модель	-10.7036
▁again	-10.7036
лег	-10.7038
▁данный	-10.7038
▁материала	-10.7039
▁утверждает	-10.704
▁врач	-10.7042
▁каждую	-10.7044
▁think	-10.7044
▁встретил	-10.7047
▁неизвестно	-10.705
▁работали	-10.7051
▁удара	-10.7059
▁65	-10.7061
▁point	-10.7062
чер	-10.7063
▁останется	-10.7066
▁операций	-10.7068
▁example	-10.7071
▁экономической	-10.7072
▁сообщение	-10.7073
▁Эй	-10.7078
▁мальчик	-10.7081
▁института	-10.7081
ent	-10.7083
▁детьми	-10.7091
▁нес	-10.7094
▁German	-10.7094
▁защиту	-10.71
▁дерева	-10.7104
▁целиком	-10.7105
▁изучения	-10.7106
▁добавил	-10.7109
▁Ван	-10.7112
▁Наши	-10.7114
▁онъ	-10.7121
▁прочих	-10.7129
▁описание	-10.7133
ні	-10.7135
▁обнаружил	-10.7137
▁службе	-10.7143
-3	-10.7152
очка	-10.7159
▁оси	-10.7165
▁проекта	-10.7165
▁Сибири	-10.718
▁духовной	-10.7182
▁Paris	-10.7183
▁’	-10.7184
▁СС	-10.7189
▁мыслей	-10.719
▁find	-10.7195
▁термин	-10.7195
▁Пол	-10.7195
▁вещь	-10.7196
▁(3	-10.7201
фе	-10.7201
ление	-10.7204
▁особого	-10.7205
▁звук	-10.7206
▁зале	-10.7206
▁существенно	-10.7207
▁счастья	-10.7212
вит	-10.7213
▁культура	-10.7213
▁продуктов	-10.722
▁передал	-10.7222
нул	-10.7224
▁state	-10.723
▁поддержки	-10.7231
▁понимает	-10.7232
▁молча	-10.7233
▁old	-10.7234
▁поток	-10.7235
▁дорогой	-10.7238
?”	-10.7239
▁пришло	-10.724
▁крепко	-10.7243
▁справедливо	-10.7245
▁люблю	-10.7246
▁вспомнить	-10.7246
ср	-10.7247
▁элемент	-10.7249
▁старого	-10.725
▁power	-10.7251
▁выступил	-10.7253
▁кол	-10.7254
▁ворот	-10.7254
▁собственности	-10.7255
▁названия	-10.7258
&	-10.7263
▁выражения	-10.7264
суд	-10.7265
▁36	-10.7269
▁великих	-10.7269
сер	-10.7273
▁научных	-10.7273
▁Вообще	-10.7277
▁ваша	-10.7278
▁работников	-10.7278
16	-10.7281
▁хотела	-10.7289
▁улицы	-10.7298
▁акт	-10.7303
li	-10.7306
ts	-10.7307
ще	-10.7308
сад	-10.7308
▁Такая	-10.7312
▁far	-10.7313
▁действует	-10.7314
▁want	-10.732
▁Па	-10.732
▁Обычно	-10.7323
▁почувствовал	-10.7328
▁конфликт	-10.7328
▁last	-10.7336
▁собрание	-10.7336
▁small	-10.7338
ции	-10.7339
▁записи	-10.734
▁известных	-10.7343
▁Нас	-10.7345
▁Ах	-10.7346
пи	-10.735
▁хороший	-10.7354
▁трудности	-10.7354
▁що	-10.7355
▁правду	-10.7357
▁бывшего	-10.7357
▁обеспечения	-10.7357
▁Въ	-10.7357
▁одежды	-10.736
▁договора	-10.736
▁связанных	-10.7363
▁принимал	-10.7364
▁pp	-10.7366
▁обязанности	-10.7366
▁национальной	-10.7367
▁символ	-10.7368
▁озера	-10.7372
дов	-10.7373
▁смертью	-10.7376
▁Указ	-10.738
ань	-10.7386
▁округа	-10.7388
▁Очевидно	-10.7391
▁старые	-10.7391
▁расстоянии	-10.7392
▁растений	-10.7392
▁белых	-10.7397
▁Анна	-10.7401
▁прийти	-10.7401
▁ПО	-10.7402
чки	-10.7403
▁использование	-10.7404
▁организация	-10.7406
8.	-10.7409
▁говорила	-10.7409
емый	-10.7411
▁здоровья	-10.7412
▁боевые	-10.7414
▁личность	-10.7414
▁Востоке	-10.7416
▁оказаться	-10.7416
▁обязан	-10.7418
пе	-10.742
▁Большинство	-10.742
▁Жизнь	-10.7429
▁районах	-10.743
▁режима	-10.7436
▁велел	-10.7436
▁спас	-10.7443
▁).	-10.7445
▁проблему	-10.7446
▁старой	-10.7446
▁образа	-10.7447
▁предположить	-10.7449
▁сидит	-10.7451
▁маленький	-10.7453
▁святой	-10.7453
▁Китая	-10.7454
▁показали	-10.7455
рез	-10.7455
9.	-10.7456
там	-10.7457
эн	-10.7458
▁пункт	-10.7458
35	-10.7458
Все	-10.7459
▁душ	-10.746
▁обстоятельства	-10.7461
▁Сын	-10.7466
▁sin	-10.7468
▁58	-10.7474
▁обучения	-10.7478
▁ежедневно	-10.748
▁авторов	-10.7481
▁дорог	-10.7482
▁восстания	-10.7487
▁некогда	-10.7489
▁очередной	-10.7494
▁сильный	-10.7494
▁пищи	-10.7505
▁выглядит	-10.7506
ance	-10.7506
▁Одно	-10.7507
▁Con	-10.7509
▁враг	-10.751
▁командиров	-10.7513
▁жену	-10.7516
▁духе	-10.7517
▁поверхность	-10.7518
▁поражения	-10.7519
▁площадь	-10.7521
▁56	-10.7522
42	-10.7524
ическим	-10.7527
▁привело	-10.7528
▁точке	-10.753
▁огромные	-10.7531
▁перейти	-10.7532
▁прочим	-10.7532
▁54	-10.7533
13	-10.7533
▁любовью	-10.7534
▁немецкие	-10.7536
land	-10.7537
зы	-10.7537
телем	-10.7539
ур	-10.7542
▁силе	-10.7549
▁твердо	-10.755
▁бросил	-10.7553
ств	-10.7557
▁co	-10.7561
▁марте	-10.7562
▁Берлин	-10.7563
ite	-10.7564
▁известны	-10.7567
▁молодого	-10.7574
▁тонн	-10.7575
▁собрания	-10.7576
▁se	-10.7578
▁собор	-10.7583
▁средствами	-10.7585
▁жертв	-10.7587
▁учителя	-10.7588
▁вклад	-10.7589
▁уничтожить	-10.7592
▁одних	-10.7595
▁неба	-10.7595
▁различия	-10.7605
▁племен	-10.7606
▁достичь	-10.7609
ас	-10.7609
▁fact	-10.7611
▁11.	-10.7614
▁воздействия	-10.7619
▁существо	-10.7621
▁святых	-10.7621
▁огромный	-10.7622
▁явился	-10.7623
▁something	-10.7625
▁data	-10.7626
▁оставались	-10.7629
%	-10.7632
▁процессы	-10.7634
▁Ор	-10.7637
▁сопротивления	-10.7641
▁комнаты	-10.7643
▁Зато	-10.765
▁правом	-10.765
▁Польши	-10.7652
?"	-10.7653
▁темы	-10.7656
▁имеются	-10.7657
для	-10.7657
▁братьев	-10.7659
ланд	-10.7662
▁контакт	-10.7665
▁проведения	-10.7666
▁языком	-10.7668
▁спасти	-10.7668
▁put	-10.7669
▁thought	-10.7672
▁VIII	-10.7673
▁исторической	-10.7674
ура	-10.7676
Q	-10.7678
▁пытается	-10.7678
go	-10.7682
▁ответственности	-10.7682
▁святого	-10.7685
▁33	-10.7689
▁Ин	-10.7694
▁пора	-10.7696
▁парень	-10.77
ous	-10.7702
▁журнала	-10.7703
ху	-10.7706
▁дерево	-10.7706
дра	-10.7706
уз	-10.7709
▁пошла	-10.7709
▁контр	-10.771
▁лошади	-10.7712
▁портрет	-10.7714
▁территорию	-10.7715
▁хватает	-10.7716
▁отлично	-10.7716
ющегося	-10.7718
▁Гер	-10.772
▁hand	-10.772
▁доказать	-10.7721
▁любое	-10.7726
▁Были	-10.7729
90	-10.773
▁Восточной	-10.7737
▁давление	-10.7739
No	-10.7744
▁Ка	-10.7745
▁реальность	-10.7745
▁заметно	-10.7748
▁след	-10.775
▁often	-10.7752
▁Михайлович	-10.7756
▁возможностей	-10.7757
нин	-10.7758
▁считаю	-10.7758
▁Верховного	-10.7759
▁Великий	-10.7761
▁дорога	-10.7761
▁боях	-10.7764
▁human	-10.7765
▁75	-10.7766
▁важным	-10.7772
▁ла	-10.7772
▁ракет	-10.7772
▁Почти	-10.7773
▁наверняка	-10.7773
ig	-10.7776
▁настоящего	-10.7777
вес	-10.7779
▁выполнять	-10.778
▁Великого	-10.7781
▁выступает	-10.7784
▁силах	-10.7784
▁функция	-10.7786
▁обмен	-10.7786
▁сущность	-10.7787
сен	-10.7798
▁himself	-10.7799
▁стола	-10.78
▁выполнения	-10.7805
ул	-10.7808
▁ихъ	-10.7811
▁Пар	-10.7811
инский	-10.7816
▁Ру	-10.7819
▁важных	-10.782
▁дому	-10.7821
▁давал	-10.7824
фер	-10.7828
▁гражданской	-10.7829
▁большевиков	-10.7829
▁голод	-10.7829
14	-10.783
41	-10.7832
▁Речь	-10.7832
▁наряду	-10.7833
▁создает	-10.7839
▁командования	-10.784
▁средство	-10.7844
▁1922	-10.7845
▁голода	-10.7847
▁сети	-10.7847
▁оценки	-10.7848
▁поможет	-10.7853
▁отдать	-10.7857
▁сделано	-10.7857
▁произведений	-10.7858
▁особой	-10.7859
▁Свет	-10.786
ву	-10.7863
▁связана	-10.7864
ченко	-10.7873
▁случаи	-10.7874
▁кара	-10.7874
▁сестра	-10.7875
▁результатов	-10.7876
▁немецкого	-10.7877
▁девушки	-10.7887
▁ногами	-10.7892
men	-10.7894
▁Слово	-10.7894
▁God	-10.7894
▁1933	-10.7897
37	-10.7899
▁придет	-10.79
▁запах	-10.7902
ra	-10.7903
▁нападения	-10.7905
▁растения	-10.7906
▁зал	-10.7908
▁газет	-10.791
▁больных	-10.7911
жу	-10.7914
▁вспомнил	-10.7915
▁столом	-10.7918
▁изображения	-10.7922
▁предметы	-10.7923
▁взглядом	-10.793
▁always	-10.7931
▁полную	-10.7932
▁глядя	-10.7935
ν	-10.7936
зна	-10.7942
▁лечения	-10.7944
ling	-10.7948
▁рука	-10.7949
▁Китай	-10.7949
▁количестве	-10.7952
▁34	-10.7954
▁художник	-10.7954
!"	-10.7955
—19	-10.7958
эр	-10.796
▁высокого	-10.796
твор	-10.7964
▁взгляды	-10.7966
▁пользоваться	-10.7967
▁заставить	-10.7968
▁противоположно	-10.7969
▁объект	-10.7973
остью	-10.7973
ушка	-10.7973
▁глубине	-10.7975
уль	-10.7978
▁бо	-10.7978
▁танки	-10.7983
мана	-10.7986
▁определение	-10.7988
▁сыном	-10.7988
▁набор	-10.7988
▁множества	-10.799
▁IX	-10.7991
▁давали	-10.7999
▁привели	-10.8001
▁сложно	-10.8003
▁внутреннего	-10.8004
▁XIII	-10.8007
▁новом	-10.8014
▁принципе	-10.8016
▁общих	-10.8019
▁держав	-10.8019
▁home	-10.802
▁товарищей	-10.8021
▁информация	-10.8021
▁вера	-10.8022
▁премьер	-10.8024
▁order	-10.8024
▁объектов	-10.8025
▁head	-10.8033
▁высокий	-10.8034
Ы	-10.8036
▁остановился	-10.8043
▁перехода	-10.8044
дав	-10.8045
36	-10.8046
▁away	-10.8049
▁разрешения	-10.805
▁went	-10.8051
▁вв	-10.8051
▁входит	-10.8052
44	-10.8054
▁Советский	-10.8054
▁Пан	-10.8057
▁form	-10.8058
рок	-10.8058
▁кости	-10.8061
▁Кам	-10.8068
▁формирования	-10.807
▁майор	-10.8071
ёт	-10.8072
▁things	-10.8072
▁институт	-10.8073
▁исторических	-10.8076
цам	-10.8077
▁вызвать	-10.8078
▁снег	-10.808
▁Нельзя	-10.8081
▁Вселенной	-10.8081
лем	-10.8084
▁народы	-10.8084
▁получилось	-10.8085
▁12.	-10.8091
▁конференции	-10.8092
▁задачей	-10.8093
▁старался	-10.8094
жив	-10.81
▁name	-10.8103
▁предприятий	-10.8106
▁судьбу	-10.8107
▁120	-10.8108
ируют	-10.811
▁обстановке	-10.8112
▁эволюции	-10.8112
▁1930	-10.8113
que	-10.8113
▁сюжет	-10.8114
▁монастыря	-10.8119
ез	-10.8121
▁небе	-10.8125
▁счастью	-10.8125
▁возможным	-10.8126
▁звезды	-10.8128
▁молодые	-10.8129
▁интервью	-10.8131
▁Васильевич	-10.8136
▁храма	-10.8136
▁запад	-10.8144
▁мост	-10.8144
▁режим	-10.815
▁августе	-10.8151
▁клетки	-10.8154
▁поднялся	-10.8154
▁степень	-10.8158
▁скажу	-10.8159
▁1936	-10.8163
▁сотрудников	-10.817
▁ехать	-10.8173
▁Ис	-10.8175
▁поддерживать	-10.8178
▁праздник	-10.818
▁pro	-10.8181
▁Император	-10.8181
▁событие	-10.8183
▁вечно	-10.8187
▁десятки	-10.8189
Из	-10.8191
▁John	-10.8194
▁Павла	-10.8195
▁book	-10.8197
▁His	-10.8198
ni	-10.8199
▁попасть	-10.8204
▁Иоанна	-10.8206
▁называть	-10.8208
▁совершил	-10.821
▁являлся	-10.8212
▁планеты	-10.8213
▁вынуждены	-10.8214
▁западных	-10.8214
▁позиций	-10.8215
илось	-10.8221
▁ex	-10.8223
▁Востока	-10.8223
▁сигнал	-10.8223
ово	-10.8224
▁грех	-10.8225
▁твои	-10.8225
сом	-10.823
▁предметов	-10.8236
▁человеке	-10.8236
▁группой	-10.8238
▁400	-10.8238
▁прошлое	-10.8239
ius	-10.8242
▁появления	-10.8242
▁единство	-10.8244
▁ю	-10.8247
ирования	-10.8249
▁хватало	-10.8252
уса	-10.8252
▁сидели	-10.8253
▁девять	-10.8255
▁Китае	-10.8255
▁немецкий	-10.8256
▁high	-10.8257
▁американской	-10.826
▁вспоминал	-10.8261
▁единственным	-10.8261
▁Ха	-10.8262
▁воспоминания	-10.8264
▁took	-10.8264
▁отряды	-10.8265
стро	-10.8265
▁1905	-10.8265
▁Марк	-10.8266
чат	-10.8268
▁героев	-10.8271
▁брак	-10.8272
▁усилий	-10.8273
овали	-10.8275
▁добро	-10.8275
▁изменение	-10.8276
▁художника	-10.828
▁Ма	-10.8281
▁боев	-10.8285
▁встрече	-10.8286
яв	-10.8286
▁природу	-10.8288
▁уравнения	-10.8288
тан	-10.829
ёр	-10.829
▁сне	-10.829
▁случая	-10.8295
▁север	-10.8296
▁вопросом	-10.8298
▁регулярно	-10.83
▁связей	-10.83
▁What	-10.8305
£	-10.8308
▁явлений	-10.831
▁штат	-10.8312
▁убийства	-10.8312
▁экспедиции	-10.8312
▁детям	-10.8315
пор	-10.8315
▁особое	-10.8317
▁недалеко	-10.8318
▁существовать	-10.8323
▁early	-10.8326
▁Тебе	-10.8327
▁открытия	-10.8328
▁взрыва	-10.8329
▁начальником	-10.8331
▁христиан	-10.8332
▁гнев	-10.8334
▁]	-10.8338
▁предприятия	-10.834
▁братья	-10.8342
вшимся	-10.8343
▁семью	-10.8348
▁попытка	-10.8348
▁твоей	-10.8349
▁общения	-10.835
▁участвовал	-10.835
▁многим	-10.8351
▁военным	-10.8352
▁английский	-10.8353
▁1991	-10.8353
▁качество	-10.8355
▁ожидать	-10.836
▁устройства	-10.8363
▁One	-10.8366
стар	-10.8369
имся	-10.8371
▁специалистов	-10.8375
38	-10.838
▁Новый	-10.8382
▁отцом	-10.8382
▁общественной	-10.8383
▁союза	-10.8384
▁ра	-10.839
24	-10.8391
▁меньшей	-10.8394
▁лежал	-10.8396
▁золото	-10.8396
ted	-10.8396
▁public	-10.8397
▁человеческих	-10.8399
Со	-10.8404
▁движении	-10.8404
▁обстоятельство	-10.8406
▁встречается	-10.8407
Ты	-10.8409
▁смотрит	-10.841
▁одежду	-10.841
еля	-10.841
▁организм	-10.8411
ены	-10.8414
▁высоте	-10.8416
▁изменений	-10.8417
▁личной	-10.8418
▁занимает	-10.8419
▁дворец	-10.842
▁Этим	-10.8421
▁составляют	-10.8421
▁Ан	-10.8423
-4	-10.8429
▁отказ	-10.8429
▁правой	-10.8431
еров	-10.8434
▁многочисленных	-10.8436
▁старик	-10.8436
▁сознании	-10.8437
цен	-10.8438
▁Точно	-10.8438
▁делается	-10.844
▁XI	-10.844
▁going	-10.8441
▁французский	-10.8443
▁накануне	-10.8445
▁Больше	-10.8449
▁практики	-10.8454
тур	-10.8458
▁замуж	-10.8458
▁пехоты	-10.8459
▁правительственн	-10.8468
▁does	-10.8468
▁лист	-10.8468
▁Одним	-10.8471
аться	-10.8472
▁Одновременно	-10.8472
▁одинаково	-10.8474
▁участке	-10.8475
▁вступил	-10.8475
▁встречаются	-10.8476
▁источником	-10.8476
▁применение	-10.848
▁стремится	-10.8484
▁вернулись	-10.8487
▁полным	-10.8487
▁здание	-10.8488
овыми	-10.8488
▁Ал	-10.849
▁пору	-10.8492
▁оп	-10.8494
ида	-10.8495
▁ответила	-10.8496
▁товарищи	-10.8499
▁Какой	-10.8499
▁аппарат	-10.8503
▁необходимым	-10.8503
▁сообщает	-10.8504
▁вооруженных	-10.8505
▁шар	-10.8506
▁самолеты	-10.8511
▁бороться	-10.8511
▁занятия	-10.8512
▁нашими	-10.8513
▁всякое	-10.8515
▁проще	-10.8518
▁осторожно	-10.8519
▁кампании	-10.8522
если	-10.8524
▁became	-10.8525
▁country	-10.8526
зе	-10.853
▁КП	-10.8534
дом	-10.8536
▁остаются	-10.8539
▁месту	-10.8539
КА	-10.854
▁Бен	-10.854
▁обед	-10.8542
▁жертву	-10.8546
▁телом	-10.8547
▁спасения	-10.8548
▁разу	-10.8548
▁получать	-10.8549
нут	-10.8551
▁37	-10.8552
▁сентябре	-10.8553
▁духовного	-10.8556
rs	-10.8559
▁статей	-10.8559
▁улицу	-10.856
ица	-10.8562
▁бывают	-10.8563
▁обстоятельств	-10.8565
▁Другие	-10.8573
32	-10.8578
▁деревьев	-10.858
▁рус	-10.8582
▁пить	-10.8583
▁думает	-10.8583
ировал	-10.8586
пар	-10.8591
▁электро	-10.8593
▁создании	-10.8594
▁Га	-10.8594
▁фото	-10.8595
▁убить	-10.8595
▁удовольствие	-10.8596
▁цикл	-10.8599
▁сбор	-10.8599
▁общественных	-10.86
▁привел	-10.8605
▁Духа	-10.861
▁заключение	-10.861
▁питания	-10.8611
▁сторона	-10.8614
▁Александрович	-10.8615
▁высших	-10.8616
▁сна	-10.8619
▁ВКП	-10.8621
▁юг	-10.8621
▁Владимира	-10.8627
▁возраст	-10.8629
ence	-10.8631
▁купить	-10.8631
лад	-10.8635
▁пойдет	-10.8636
бр	-10.8641
▁ждет	-10.8642
▁строительство	-10.8643
▁case	-10.8644
▁словах	-10.8645
▁скоростью	-10.8646
▁главнокомандующ	-10.8647
▁следы	-10.8648
▁научной	-10.8648
▁убит	-10.8648
▁Город	-10.8653
▁Си	-10.8654
▁Мало	-10.8656
▁Оба	-10.8657
▁сутки	-10.8659
▁инженер	-10.8659
▁открыть	-10.8663
▁напоминает	-10.8663
33	-10.8666
▁губернии	-10.8669
ov	-10.867
▁переговоров	-10.8674
▁Великобритании	-10.8677
▁тел	-10.8678
▁Южной	-10.8678
▁учитель	-10.8682
▁историк	-10.8687
▁писем	-10.8687
▁весело	-10.8689
▁Хар	-10.8694
рен	-10.8696
▁аппарата	-10.8696
▁появление	-10.8696
▁выбора	-10.87
ti	-10.8701
▁тени	-10.8704
▁некоторым	-10.8704
год	-10.8704
▁реку	-10.8706
▁попытался	-10.8714
▁началу	-10.8714
▁весной	-10.8715
▁Ср	-10.8716
вел	-10.8718
▁стадии	-10.8723
▁хозяин	-10.8725
▁университет	-10.8725
▁капитана	-10.8726
▁Бес	-10.8732
▁Тор	-10.8732
▁спиной	-10.8732
▁Лондон	-10.8735
▁птиц	-10.8735
▁сцене	-10.8736
пут	-10.8738
▁выводу	-10.8739
▁взаимодействия	-10.8742
ющаяся	-10.8743
▁председатель	-10.8745
▁бойцов	-10.8746
▁напряжения	-10.8746
▁трое	-10.8746
ция	-10.8748
▁третьего	-10.875
▁Украине	-10.875
▁Россией	-10.8751
ol	-10.8752
▁даст	-10.8754
▁дважды	-10.8754
тро	-10.8757
▁большими	-10.8758
▁удастся	-10.8761
▁успели	-10.8763
▁высоких	-10.877
ацию	-10.8771
▁январе	-10.8772
▁деятель	-10.8773
изация	-10.8773
телей	-10.8774
▁Следует	-10.8775
▁товаров	-10.8776
▁best	-10.8777
▁страдания	-10.8777
▁Помимо	-10.8779
▁ведут	-10.878
▁полно	-10.878
▁передачи	-10.878
▁кожи	-10.8781
▁Казалось	-10.8782
▁культуре	-10.8784
▁декабре	-10.8784
▁назначения	-10.8786
▁важные	-10.8788
▁Наш	-10.8789
▁полков	-10.8789
▁исследование	-10.879
▁окажется	-10.8791
▁пытаясь	-10.8796
▁детали	-10.8801
▁кровью	-10.8803
▁ранга	-10.8803
▁желая	-10.8803
▁октябре	-10.8805
▁утверждение	-10.8806
▁французской	-10.881
▁пребывания	-10.881
▁железной	-10.8811
▁среднего	-10.8812
▁Западе	-10.8813
▁войн	-10.8813
▁Часть	-10.8813
ировали	-10.8814
Но	-10.8816
▁Петрович	-10.8816
кар	-10.8821
2)	-10.8821
▁доступ	-10.8822
▁монастырь	-10.8824
▁издания	-10.8825
▁заключения	-10.883
▁Ди	-10.8832
▁точнее	-10.8833
ита	-10.8836
▁восьми	-10.8837
▁телефон	-10.8839
▁капитала	-10.8842
▁определенные	-10.8843
▁фильма	-10.8844
▁необходимые	-10.8847
▁долю	-10.8848
da	-10.8848
▁волн	-10.8849
▁описания	-10.8853
гл	-10.8855
▁запас	-10.8856
гар	-10.8856
▁Вся	-10.8862
▁since	-10.8864
▁команда	-10.8865
22	-10.8865
▁64	-10.8872
▁поняли	-10.8875
▁утверждал	-10.8875
▁механизм	-10.8877
▁бывших	-10.8877
▁Гар	-10.8879
▁38	-10.8883
ныхъ	-10.8884
альных	-10.8888
▁коня	-10.8889
▁французского	-10.889
▁u	-10.8891
▁жертвы	-10.8891
▁показалось	-10.8897
▁полета	-10.8898
▁большом	-10.8898
▁Прим	-10.8899
ful	-10.89
▁20-	-10.89
▁Запада	-10.8904
▁обстоятельствах	-10.8904
21	-10.8905
▁следующем	-10.8906
▁осенью	-10.891
▁науке	-10.891
▁белые	-10.891
▁членом	-10.8918
▁второе	-10.8919
▁границе	-10.8921
▁царство	-10.8922
▁вернуть	-10.8922
75	-10.8926
іі	-10.8928
▁директор	-10.893
▁мечта	-10.8935
▁покой	-10.8936
▁обще	-10.8938
▁World	-10.8938
▁less	-10.8939
▁английского	-10.8941
ень	-10.8942
▁Церковь	-10.8943
▁провинции	-10.8944
ему	-10.8946
29	-10.8948
▁продукты	-10.8949
▁океана	-10.8951
▁местные	-10.8957
▁секунд	-10.8958
▁наказания	-10.896
▁чём	-10.8962
▁забыл	-10.8964
▁играл	-10.8964
▁48	-10.8966
▁кадров	-10.8966
альной	-10.8966
зо	-10.8966
▁That	-10.8967
▁собрать	-10.8967
▁Дмитрий	-10.8967
▁реформ	-10.8967
▁руководителей	-10.8967
▁реакция	-10.8967
енного	-10.8972
Ну	-10.8973
▁социального	-10.8974
▁Russia	-10.8975
▁ВВС	-10.8978
▁доклад	-10.8978
▁секретарь	-10.8978
▁выполнить	-10.898
▁строить	-10.8981
▁прошу	-10.8981
▁пушки	-10.8981
▁подготовке	-10.8987
▁острове	-10.8988
▁4)	-10.8991
▁Бу	-10.8992
▁считая	-10.8994
▁дала	-10.8994
▁золота	-10.8995
▁1960	-10.8995
▁цепи	-10.8997
▁цветов	-10.9002
▁Неужели	-10.9004
▁настроение	-10.9007
▁статью	-10.9014
▁функций	-10.9016
ru	-10.9018
▁партизан	-10.9018
▁мор	-10.9024
▁large	-10.9024
▁ногу	-10.9027
▁иное	-10.9027
▁имею	-10.9029
син	-10.903
▁классов	-10.9031
▁карты	-10.9033
▁important	-10.9037
▁until	-10.9039
▁пределами	-10.904
▁Федор	-10.904
▁миф	-10.9044
▁работают	-10.9047
дан	-10.9048
▁тремя	-10.905
▁мн	-10.9051
▁литература	-10.9052
▁Ман	-10.9053
▁городу	-10.9054
▁повсюду	-10.9056
ri	-10.9057
▁вере	-10.9058
▁окно	-10.9059
ющимся	-10.9063
уд	-10.9063
▁non	-10.9064
▁отцу	-10.9065
нув	-10.9065
▁Святого	-10.9065
▁школа	-10.9066
мар	-10.9068
▁возникают	-10.9069
▁срочно	-10.907
▁стремительно	-10.907
▁суток	-10.9072
ари	-10.9077
ход	-10.9078
▁предварительно	-10.9079
▁принципы	-10.9081
▁next	-10.9083
▁появляются	-10.9083
▁развитию	-10.9084
гр	-10.9086
▁народом	-10.9091
60	-10.9092
▁ср	-10.9094
▁левой	-10.9094
▁кар	-10.9095
дин	-10.9095
▁Дух	-10.9096
ot	-10.9097
▁двора	-10.91
ять	-10.9101
▁Al	-10.9101
▁Совет	-10.9101
▁этапе	-10.9103
▁славян	-10.9103
▁КГБ	-10.9109
дон	-10.911
джи	-10.9112
▁Ян	-10.9113
Он	-10.9115
▁границ	-10.9116
▁ровно	-10.9116
▁столицы	-10.9118
▁распоряжение	-10.9118
ством	-10.9119
▁na	-10.9121
вшееся	-10.9124
▁сделала	-10.9126
▁Кара	-10.9128
▁газ	-10.9131
▁1934	-10.9136
▁профессиональны	-10.914
▁причинам	-10.9144
▁социал	-10.9146
▁казаков	-10.9147
▁детства	-10.9148
▁блок	-10.9149
▁определенной	-10.9152
▁Куда	-10.9157
▁Крым	-10.9161
▁Петербурге	-10.9161
▁апреле	-10.9165
▁Первой	-10.9168
лина	-10.9169
▁Земля	-10.917
бин	-10.917
48	-10.9172
▁Марии	-10.9178
46	-10.9179
▁ворота	-10.9179
▁Вероятно	-10.9184
▁1915	-10.9184
▁ходил	-10.9187
▁All	-10.9187
шка	-10.9187
▁двигаться	-10.919
▁Наполеон	-10.9194
▁философ	-10.9196
!)	-10.9196
нев	-10.92
▁положил	-10.9202
▁РСФСР	-10.9203
брос	-10.9204
чит	-10.9207
▁Какие	-10.9208
▁зачастую	-10.9209
▁тяжелые	-10.9211
▁Академии	-10.9212
▁сражения	-10.9213
енным	-10.9213
▁графа	-10.9214
▁американского	-10.9215
▁im	-10.9216
чен	-10.9216
ler	-10.9218
▁категории	-10.9219
▁минимум	-10.9221
mo	-10.9223
пис	-10.9224
▁избран	-10.9224
▁собак	-10.9225
▁Дом	-10.9227
▁произведение	-10.923
▁воздействие	-10.9231
▁\	-10.9232
▁твоя	-10.9234
▁Бур	-10.9234
▁кофе	-10.9235
▁59	-10.9241
▁царю	-10.9243
▁платье	-10.9245
▁прошла	-10.9246
▁занять	-10.9248
▁компания	-10.925
▁большее	-10.9253
▁удивительно	-10.9254
шки	-10.9254
▁молитвы	-10.9255
инг	-10.9257
▁авторы	-10.926
▁просит	-10.9261
▁подумать	-10.9261
▁читатель	-10.9264
▁ребята	-10.9266
ино	-10.9267
▁концепции	-10.9268
▁Рима	-10.9269
▁63	-10.9272
less	-10.9275
▁получают	-10.9275
▁общим	-10.9276
▁1946	-10.9276
▁Франция	-10.9278
▁победа	-10.9281
кур	-10.9288
▁political	-10.9291
бес	-10.9292
▁перемен	-10.9292
▁берет	-10.9293
▁night	-10.9294
▁древней	-10.9296
▁разными	-10.9303
▁океан	-10.9304
ish	-10.9306
▁спрашивает	-10.9309
▁шло	-10.9309
▁предстояло	-10.931
▁определенных	-10.9312
▁распространение	-10.9313
▁выступления	-10.9314
▁city	-10.9317
▁учиться	-10.9319
▁совместно	-10.932
▁используется	-10.9321
▁изображение	-10.9323
▁бежать	-10.9326
▁57	-10.9327
‘	-10.9327
лас	-10.9334
▁демократии	-10.9339
▁духом	-10.9343
▁наблюдать	-10.9343
▁Первые	-10.9345
▁Маркс	-10.9345
▁восток	-10.9345
▁0.	-10.9348
▁information	-10.935
▁сумму	-10.935
▁мелких	-10.9355
▁восстановить	-10.9356
▁видя	-10.9356
▁got	-10.9356
▁команду	-10.936
▁узнали	-10.9363
▁ощущения	-10.9363
▁полку	-10.9363
▁бои	-10.9365
▁огромной	-10.9365
▁нации	-10.9367
▁1990	-10.9368
▁мгновение	-10.937
▁Солнце	-10.937
енное	-10.937
▁крепость	-10.937
нных	-10.9372
▁похода	-10.9379
▁театре	-10.938
нт	-10.9382
▁Эр	-10.9386
▁www	-10.9387
▁откровенно	-10.939
▁Юго	-10.939
▁0,	-10.939
▁внутрь	-10.939
▁мгновенно	-10.9391
▁управлять	-10.9391
▁sub	-10.9391
one	-10.9393
▁спец	-10.9397
▁продукции	-10.9397
▁ма	-10.9399
▁батареи	-10.94
▁дворца	-10.9401
▁государь	-10.9401
▁любые	-10.9401
▁Михаила	-10.9404
▁known	-10.9406
55	-10.9406
▁июле	-10.9407
ѳ	-10.9411
▁1000	-10.9414
▁июне	-10.9414
ред	-10.9414
шин	-10.9415
iv	-10.9415
▁обещал	-10.9417
▁year	-10.9421
▁близких	-10.9422
▁Командир	-10.9422
▁пожар	-10.9423
гер	-10.9424
▁половину	-10.9426
27	-10.9426
▁Первое	-10.9428
▁second	-10.9429
▁европейских	-10.9433
▁целое	-10.9433
▁твое	-10.9435
▁собирался	-10.9439
-19	-10.9439
▁единого	-10.9441
дель	-10.9444
▁станут	-10.9449
▁отправил	-10.9451
▁тексте	-10.9451
▁оборону	-10.9451
▁пищу	-10.9455
вать	-10.9456
▁нём	-10.9457
▁беседы	-10.9459
▁Die	-10.9459
▁1916	-10.9459
▁освобождения	-10.9463
▁морских	-10.9464
ac	-10.9466
▁жен	-10.9469
▁пятьдесят	-10.9473
▁половина	-10.9473
зем	-10.9475
▁Юрий	-10.9479
▁ар	-10.9479
▁ушли	-10.9479
▁told	-10.9481
▁высшего	-10.9482
ея	-10.9488
очки	-10.9489
▁туман	-10.949
▁8-	-10.9493
▁различными	-10.9493
▁1925	-10.9496
▁Сер	-10.9497
▁сильным	-10.9498
▁успехом	-10.9498
▁некий	-10.9503
▁ран	-10.9503
▁1923	-10.9503
▁программ	-10.9504
▁once	-10.9505
▁великим	-10.9506
▁Весь	-10.9509
ut	-10.9512
ряд	-10.9513
▁предполагает	-10.9515
мал	-10.9515
▁свобода	-10.9518
▁академии	-10.9518
▁Мол	-10.9518
скій	-10.9518
▁Главное	-10.952
▁water	-10.9521
▁Вдруг	-10.9523
▁слушать	-10.9525
▁century	-10.9526
▁существ	-10.9527
▁подразделения	-10.953
ner	-10.9533
▁улыбнулся	-10.9533
▁отчет	-10.9534
▁остатки	-10.9536
▁Моя	-10.9538
▁восприятия	-10.9539
▁западной	-10.9545
▁танк	-10.9545
▁высокие	-10.9547
▁войти	-10.9547
▁грудь	-10.9551
▁позади	-10.9552
▁though	-10.9556
говор	-10.9556
▁честно	-10.9561
▁квартиру	-10.9561
▁твоего	-10.9561
▁национального	-10.9562
▁1935	-10.9565
▁лучшие	-10.9567
▁реализации	-10.9568
▁российской	-10.9569
▁справедливости	-10.957
▁НЕ	-10.957
▁официально	-10.9571
▁ряде	-10.9572
▁кризиса	-10.9573
▁Другой	-10.9574
▁скажет	-10.9575
26	-10.9575
▁1956	-10.9577
▁статус	-10.9577
ii	-10.958
лан	-10.9582
лейтенант	-10.9583
▁русская	-10.9587
▁стене	-10.9588
▁Мо	-10.9591
▁cit	-10.9591
▁отдыха	-10.9593
ною	-10.9596
▁учеников	-10.9597
▁ордена	-10.96
▁охотно	-10.96
▁Ново	-10.96
▁собственную	-10.9601
▁полковника	-10.9603
▁following	-10.9605
▁секрет	-10.9605
▁видела	-10.9608
▁заставляет	-10.961
▁определяет	-10.9612
▁квадрат	-10.9614
▁признаки	-10.9616
▁числу	-10.9618
▁получали	-10.962
еб	-10.9623
▁советский	-10.9624
▁поднять	-10.9625
▁используя	-10.9625
▁давления	-10.9625
▁By	-10.9631
▁известен	-10.9631
▁отцов	-10.9633
▁46	-10.9633
▁(4	-10.9634
вали	-10.9634
▁выяснилось	-10.9635
▁используют	-10.9635
▁краю	-10.9636
▁сельскохозяйств	-10.9637
▁among	-10.9638
▁позволяют	-10.9638
▁крестьяне	-10.9638
евич	-10.964
▁арестован	-10.9644
pa	-10.9647
▁основы	-10.9647
ически	-10.9649
▁ткани	-10.965
оль	-10.9652
▁side	-10.9653
▁охраны	-10.9653
▁раб	-10.9653
▁Тур	-10.9653
кан	-10.9655
▁пе	-10.9655
▁приятно	-10.9656
▁справа	-10.9656
▁структур	-10.9657
▁доказательства	-10.9659
▁Константин	-10.9663
▁49	-10.9663
▁делами	-10.9663
▁ждал	-10.9665
▁Порт	-10.9665
▁следовать	-10.9666
Ре	-10.9668
▁обнаружили	-10.9671
▁командовал	-10.9672
▁груз	-10.9673
▁upon	-10.9677
▁Me	-10.9681
▁планов	-10.9681
▁возвращения	-10.9682
▁битвы	-10.9684
▁30-	-10.9685
руч	-10.9685
▁упал	-10.9687
▁использовали	-10.9689
▁понимали	-10.9692
▁Большой	-10.9693
▁Книга	-10.9693
▁вызвал	-10.9694
▁показывают	-10.9696
крат	-10.9697
▁изначально	-10.9697
▁слава	-10.9698
▁History	-10.9704
ею	-10.9705
▁феврале	-10.9705
▁Хо	-10.9708
▁любить	-10.9709
▁квартире	-10.9712
лер	-10.9713
▁подходит	-10.9718
▁земной	-10.9718
▁general	-10.9719
▁42	-10.972
▁лоб	-10.9725
ier	-10.9728
▁борт	-10.9729
▁66	-10.9731
▁кивнул	-10.9731
▁создавать	-10.9732
▁программу	-10.9732
▁using	-10.9733
▁партий	-10.9733
31	-10.9735
▁местного	-10.9735
▁допустить	-10.9738
▁АН	-10.9743
▁транспорт	-10.9743
▁вопреки	-10.9744
▁представлял	-10.9749
▁Господи	-10.9752
▁слез	-10.9752
нный	-10.9752
▁комитет	-10.9757
▁находит	-10.9758
рак	-10.9758
овской	-10.9759
▁участок	-10.9761
▁статья	-10.9762
80	-10.9762
▁given	-10.9763
▁полки	-10.9764
▁деревья	-10.9765
лок	-10.9765
▁базы	-10.9766
▁сильное	-10.9766
▁звание	-10.9768
▁(17	-10.9771
▁председателя	-10.9778
28	-10.978
▁дыхание	-10.9782
сто	-10.9783
ions	-10.9783
▁методов	-10.9784
▁хорошие	-10.9785
▁Видимо	-10.9787
▁многими	-10.9788
очек	-10.9792
инского	-10.9797
ard	-10.9797
▁67	-10.9799
▁епископ	-10.9799
▁богатства	-10.9801
▁сферы	-10.9803
▁исторического	-10.9805
▁такому	-10.9808
зер	-10.9812
тин	-10.9812
▁решать	-10.9812
аты	-10.9813
▁рек	-10.9815
▁поступил	-10.9816
▁53	-10.9818
▁гостей	-10.9824
▁оставив	-10.9827
▁фигуры	-10.9829
▁Ген	-10.983
▁Man	-10.983
▁слабо	-10.9833
▁благополучно	-10.9835
▁дам	-10.9839
▁составляли	-10.9841
▁родной	-10.9841
▁массу	-10.9842
▁Северо	-10.9843
▁Григорий	-10.9844
34	-10.9845
▁Федерации	-10.9848
еры	-10.9848
▁death	-10.985
▁Народ	-10.9851
▁источники	-10.9852
щего	-10.9856
▁точек	-10.9857
▁судя	-10.9859
щем	-10.9861
▁von	-10.9862
▁заболевания	-10.9863
▁cos	-10.9868
▁ученый	-10.9869
▁1929	-10.9872
▁Максим	-10.9872
щий	-10.9873
▁построить	-10.9874
▁гибель	-10.9875
2,	-10.9876
▁носит	-10.9876
емой	-10.9877
▁began	-10.9878
▁Ки	-10.988
▁означало	-10.9881
готов	-10.9884
▁Гу	-10.9885
сил	-10.9888
▁социализма	-10.9889
▁судьбе	-10.9889
▁снять	-10.9891
▁плоскости	-10.9894
▁искусстве	-10.9894
▁центром	-10.9896
▁вод	-10.9897
▁слезы	-10.9899
▁Думаю	-10.9904
47	-10.9904
▁старшего	-10.9907
▁путей	-10.9908
▁хотим	-10.991
▁(16	-10.9911
▁просить	-10.9913
▁сыновей	-10.9914
▁организовать	-10.9919
▁государя	-10.9919
▁look	-10.9926
▁отправились	-10.9926
▁побережье	-10.9928
▁следствие	-10.993
▁government	-10.9932
▁известной	-10.9933
▁£	-10.9933
▁древности	-10.9935
▁газета	-10.9937
▁находиться	-10.9939
▁нигде	-10.9941
▁народных	-10.9942
▁пал	-10.9943
еж	-10.9943
▁офицера	-10.9943
▁After	-10.9946
ует	-10.9946
▁получаем	-10.9946
▁действиях	-10.9947
▁био	-10.9947
▁чувствовать	-10.9951
вшее	-10.9951
▁приблизительно	-10.9952
den	-10.9952
еть	-10.9952
▁обратиться	-10.9962
▁1924	-10.9964
▁редактор	-10.9964
▁уме	-10.9965
▁середины	-10.9966
▁языков	-10.9967
▁open	-10.9967
▁Божий	-10.997
▁Мер	-10.997
23	-10.9971
▁воскликнул	-10.9972
▁слева	-10.9973
ized	-10.9975
▁ценность	-10.9976
▁занял	-10.9976
лик	-10.9978
рам	-10.998
▁евреи	-10.9984
стой	-10.9987
▁13.	-10.9989
▁укрепления	-10.999
▁рабочий	-10.999
▁сведений	-10.9992
▁славу	-10.9995
▁пола	-10.9995
▁камни	-10.9996
▁тяжелых	-10.9997
ед	-10.9997
▁практика	-10.9998
ley	-10.9998
▁Толстой	-10.9999
▁ранен	-11.0002
фи	-11.0003
▁воля	-11.0004
▁равна	-11.0007
▁ритм	-11.0011
▁бомб	-11.0011
▁Утром	-11.0013
▁начались	-11.002
▁Часто	-11.0023
ук	-11.0025
▁Новгород	-11.0025
▁проявляется	-11.0026
▁версии	-11.0027
▁мясо	-11.0028
вот	-11.0029
▁возникла	-11.0029
▁possible	-11.003
ступ	-11.0032
▁критики	-11.0033
ались	-11.0035
▁типов	-11.0037
▁капиталистическ	-11.0037
▁женщину	-11.0038
▁принимали	-11.0039
▁мороз	-11.0039
зу	-11.0039
▁линия	-11.0039
▁room	-11.0041
▁частиц	-11.0042
▁course	-11.0043
▁решила	-11.0043
▁ноябре	-11.0043
▁бесконечно	-11.0047
▁моменты	-11.0047
▁круга	-11.0052
▁средней	-11.0052
▁поисках	-11.0055
▁вначале	-11.0056
▁сестры	-11.006
▁любят	-11.0061
▁стоять	-11.0062
▁Лондоне	-11.0064
▁начался	-11.0064
ируя	-11.0065
▁within	-11.0067
▁проявления	-11.0072
▁результатом	-11.0073
▁слух	-11.0073
▁Германию	-11.0074
▁живот	-11.0074
▁углу	-11.0075
▁противником	-11.0075
▁ценностей	-11.0079
▁Начальник	-11.008
▁присутствии	-11.0082
▁городом	-11.0085
▁мастер	-11.0087
▁ed	-11.0088
мест	-11.0089
▁газете	-11.0089
▁остановить	-11.0093
▁покоя	-11.0093
▁разговора	-11.0093
▁ветра	-11.0098
ating	-11.0099
▁газа	-11.01
вол	-11.0101
▁жила	-11.0104
иш	-11.0104
▁областях	-11.0104
енную	-11.011
майор	-11.0115
▁Лен	-11.0116
▁программа	-11.0117
▁родов	-11.0117
▁факторов	-11.0117
▁неизменно	-11.0118
▁Рад	-11.0123
лев	-11.0123
▁Ев	-11.0124
▁Роман	-11.0129
▁61	-11.0129
▁курса	-11.0129
▁light	-11.0134
сел	-11.0136
▁days	-11.0138
▁величины	-11.0139
▁оставили	-11.0141
▁воспользоваться	-11.0143
▁людях	-11.0144
ниц	-11.0144
▁собаки	-11.0146
▁получал	-11.0149
▁Ленинград	-11.015
▁особый	-11.0151
▁несколькими	-11.016
ума	-11.0161
56	-11.0162
▁бизнес	-11.0162
рат	-11.0162
▁Лу	-11.0166
▁пра	-11.0166
▁52	-11.0167
▁миг	-11.0167
▁сознательно	-11.0169
▁добра	-11.017
▁стиль	-11.0171
▁ждали	-11.0174
▁дождь	-11.0175
раж	-11.0175
end	-11.0178
▁вино	-11.0181
▁полтора	-11.0181
▁строки	-11.0182
▁звуки	-11.0183
▁владения	-11.0183
▁Ей	-11.0185
au	-11.0185
ting	-11.0185
▁американский	-11.0186
ke	-11.0186
▁стар	-11.0188
▁Святой	-11.0189
▁казни	-11.019
▁властей	-11.019
▁тон	-11.019
пы	-11.0194
▁объяснения	-11.0196
▁исход	-11.0202
▁запрет	-11.0204
▁Лучше	-11.0206
▁ман	-11.0211
▁риск	-11.0211
▁Московского	-11.0212
▁68	-11.0213
▁существовало	-11.0215
▁реальной	-11.0217
▁машине	-11.0218
▁Санкт	-11.0218
▁ведения	-11.0219
▁птицы	-11.0219
▁духов	-11.022
▁Лит	-11.0222
▁командующий	-11.0222
▁Мои	-11.0226
▁become	-11.0227
▁татар	-11.0228
▁называл	-11.0228
▁любую	-11.0229
▁line	-11.0229
▁объекта	-11.0232
▁самыми	-11.0232
ющееся	-11.0234
▁испытания	-11.0234
▁help	-11.0234
▁войной	-11.0235
▁экономического	-11.0235
▁помог	-11.0236
рем	-11.0237
эт	-11.024
град	-11.0242
▁ущерб	-11.0243
▁удовольствием	-11.0245
▁чести	-11.0246
▁рынка	-11.0247
бар	-11.0249
ющему	-11.025
ток	-11.0251
▁появилось	-11.0251
▁землей	-11.0251
▁династии	-11.0254
▁перешел	-11.0255
▁получив	-11.0258
▁партию	-11.0259
▁Интересно	-11.026
▁Шар	-11.0263
▁пленных	-11.0265
евой	-11.0267
лат	-11.0267
пу	-11.0268
»...	-11.0268
▁military	-11.0269
▁1932	-11.027
▁закону	-11.027
▁прочие	-11.0272
▁зимой	-11.0272
▁72	-11.0277
▁history	-11.0279
▁известного	-11.028
▁чудо	-11.0281
▁тыл	-11.0283
1].	-11.0284
▁заявление	-11.0284
//	-11.0286
▁Вар	-11.0286
До	-11.0289
глав	-11.0291
▁собственный	-11.0294
▁1928	-11.0297
▁Ай	-11.0299
▁ѵ	-11.0299
▁44	-11.0299
▁очереди	-11.03
▁Вторая	-11.0307
▁узнав	-11.0308
▁1927	-11.0309
▁частях	-11.031
▁музыка	-11.031
ьных	-11.0311
▁танковой	-11.0311
▁объясняется	-11.0312
▁плечи	-11.0312
▁Греции	-11.0313
53	-11.0314
▁Риме	-11.0315
mer	-11.0315
▁Кол	-11.0318
▁учетом	-11.0318
ae	-11.0319
▁рынок	-11.032
▁real	-11.0321
▁занят	-11.0322
нья	-11.0322
▁профессионально	-11.0327
нные	-11.0327
▁яко	-11.0332
-18	-11.0333
▁привык	-11.0335
▁від	-11.0337
▁белый	-11.034
▁материи	-11.034
▁British	-11.034
▁друзьями	-11.0343
tic	-11.0346
▁обращения	-11.0349
70	-11.035
▁склад	-11.0351
▁невольно	-11.0351
ak	-11.0352
▁использовал	-11.0355
▁выпуск	-11.0357
шек	-11.0358
▁(15	-11.0358
▁гос	-11.0359
▁активности	-11.036
▁девочка	-11.0361
▁новыми	-11.0361
▁потеря	-11.0361
▁практику	-11.0362
ina	-11.0364
▁издание	-11.0366
▁студентов	-11.0367
▁музыки	-11.0367
▁авто	-11.0368
▁Хан	-11.0369
▁последним	-11.037
вшую	-11.0371
▁уходит	-11.0373
▁добавить	-11.0375
▁образы	-11.0382
▁микро	-11.0382
▁военное	-11.0387
▁four	-11.0389
▁хорошего	-11.0389
▁читателя	-11.039
ителей	-11.0391
▁вышло	-11.0391
леп	-11.0392
ca	-11.0395
▁1953	-11.0396
▁умел	-11.0397
/2	-11.0398
▁уехал	-11.0398
▁долгое	-11.0401
▁Карла	-11.0402
Так	-11.0403
ьте	-11.0405
▁зоны	-11.0405
▁Ши	-11.0408
▁person	-11.0409
сп	-11.041
ьев	-11.0411
▁повод	-11.0411
▁берегов	-11.0412
кер	-11.0418
став	-11.042
▁par	-11.0433
▁видят	-11.0434
▁двенадцать	-11.0434
▁искренне	-11.0434
▁особых	-11.0435
-5	-11.0437
нес	-11.044
ally	-11.0441
нс	-11.0441
2].	-11.0442
▁этап	-11.0442
▁Иначе	-11.0442
▁Германией	-11.0443
зор	-11.0445
▁масштаб	-11.0446
▁°	-11.0447
ek	-11.0447
ud	-11.0451
65	-11.0454
▁главная	-11.0455
▁страсти	-11.0456
▁формально	-11.046
▁детстве	-11.0463
▁главные	-11.0467
▁1950	-11.0468
▁вторую	-11.0469
кра	-11.047
▁следующей	-11.0472
▁Естественно	-11.0473
▁эпизод	-11.0474
настоящему	-11.0474
▁нужды	-11.0474
▁смотрели	-11.0477
▁всячески	-11.0477
▁ходили	-11.0478
▁захватить	-11.0479
▁товар	-11.0482
▁children	-11.0484
▁Ь	-11.0485
▁свод	-11.0486
▁шоссе	-11.0486
шему	-11.0492
▁областей	-11.0493
▁Co	-11.0494
▁сыну	-11.0494
уш	-11.0495
рик	-11.0495
▁жене	-11.0497
берг	-11.0497
▁переводе	-11.0499
▁перешли	-11.05
▁такъ	-11.0501
▁непо	-11.0503
▁ставит	-11.0503
▁1926	-11.0504
▁7-	-11.0505
▁семей	-11.0506
▁двум	-11.0506
▁посла	-11.0512
▁мастера	-11.0512
▁автомат	-11.0513
▁est	-11.0514
▁Го	-11.0515
▁Ша	-11.0515
▁утверждения	-11.0516
▁достоинства	-11.0516
▁Работа	-11.0518
▁проверить	-11.052
▁способы	-11.0522
▁российских	-11.0526
▁My	-11.0526
▁утверждать	-11.0528
$	-11.0529
▁Ch	-11.053
▁потребности	-11.0534
▁предлагает	-11.0535
▁62	-11.0537
per	-11.0537
▁отдельно	-11.054
▁нож	-11.0542
▁народной	-11.0542
▁клуб	-11.0543
▁Берлине	-11.0546
▁1965	-11.0547
Когда	-11.0548
▁проводил	-11.0548
▁объяснение	-11.0549
▁Чего	-11.0549
▁however	-11.055
▁опер	-11.0551
яр	-11.0552
▁установки	-11.0553
▁чувствует	-11.0553
ьные	-11.0554
▁новому	-11.0558
▁Царь	-11.0558
тра	-11.0559
ике	-11.0561
99	-11.0561
▁ресурсов	-11.0562
▁забыть	-11.0563
▁69	-11.0563
▁наличии	-11.0563
▁добровольно	-11.0566
▁объяснил	-11.0568
▁следующего	-11.057
▁правительством	-11.0573
▁1961	-11.0573
▁напряжение	-11.0574
▁дано	-11.0575
▁изо	-11.0576
▁попали	-11.0577
тки	-11.0578
▁англичан	-11.0579
▁обладают	-11.0581
▁дворян	-11.0582
▁недолго	-11.0582
▁указания	-11.0583
▁температуры	-11.0583
▁Солнца	-11.0587
▁районов	-11.0589
▁юге	-11.0589
▁сочинения	-11.0591
▁хорошее	-11.0591
▁чьи	-11.0591
▁являлись	-11.0592
▁собственным	-11.0592
▁Op	-11.0593
▁реально	-11.0594
▁фактов	-11.0595
▁призыв	-11.0598
▁Do	-11.0599
▁культ	-11.06
▁мелкие	-11.0601
сс	-11.0602
▁совершить	-11.0602
▁рос	-11.0604
▁Or	-11.0607
▁English	-11.0609
▁оставалась	-11.0611
▁дне	-11.0611
▁командующего	-11.0611
▁Кан	-11.0614
кал	-11.0614
▁соответствующие	-11.0614
▁family	-11.0614
▁Жан	-11.0615
ber	-11.0617
▁сцены	-11.0617
▁последнюю	-11.0618
ора	-11.062
ny	-11.062
▁годами	-11.062
▁These	-11.062
▁Ум	-11.0622
▁непрерывно	-11.0624
▁царства	-11.0628
▁следующих	-11.0628
▁среднем	-11.0629
лі	-11.0629
▁47	-11.0632
▁доход	-11.0641
▁лицу	-11.0641
▁молодежи	-11.0645
▁древние	-11.0645
▁поезд	-11.0648
▁Суд	-11.0649
2]	-11.065
▁1962	-11.0651
▁Польше	-11.0652
▁Политбюро	-11.0652
▁оборот	-11.0653
▁думали	-11.0654
▁помнить	-11.0655
▁общие	-11.0655
▁отличаются	-11.0657
▁политический	-11.0657
▁повел	-11.0658
рей	-11.0658
▁звучит	-11.0658
▁став	-11.0659
▁писали	-11.0661
Ка	-11.0665
▁вблизи	-11.0665
▁Мама	-11.0668
▁тылу	-11.0669
летний	-11.067
▁раненых	-11.0671
▁глав	-11.0672
нье	-11.0673
▁военную	-11.0673
шем	-11.0674
▁Вечером	-11.0677
ci	-11.0678
▁ду	-11.0682
▁темно	-11.0686
юр	-11.0688
▁План	-11.0689
▁предметом	-11.0691
▁горах	-11.0694
▁85	-11.0696
▁характеристики	-11.0697
▁получится	-11.0699
▁былъ	-11.07
▁третьей	-11.0702
вшими	-11.0704
▁интересах	-11.0707
lt	-11.0708
ват	-11.0713
▁основным	-11.0714
▁Чу	-11.0715
▁государственный	-11.0716
▁теорию	-11.0717
▁предстоит	-11.0717
▁независимость	-11.0723
▁пожалуйста	-11.0724
▁1931	-11.0729
быт	-11.0729
ология	-11.0734
▁United	-11.0734
фу	-11.0739
▁выступал	-11.0739
▁ок	-11.0741
▁базе	-11.0743
▁аль	-11.0744
▁приговор	-11.0744
▁Около	-11.0744
▁занимались	-11.0749
▁нормы	-11.0751
ража	-11.0751
▁протест	-11.0754
▁собрались	-11.0754
▁control	-11.0758
4].	-11.0759
тек	-11.076
▁культур	-11.0762
▁нарушения	-11.0765
▁уверенность	-11.0767
▁мат	-11.0771
49	-11.0772
▁удается	-11.0776
„	-11.0781
▁Наверное	-11.0782
do	-11.0782
▁Ваше	-11.0782
▁холод	-11.0782
▁образу	-11.0783
▁39	-11.0783
▁повести	-11.0784
бур	-11.0785
▁1948	-11.0789
▁air	-11.0792
▁ad	-11.0793
▁Бел	-11.0795
▁князей	-11.0795
▁верх	-11.0801
▁14.	-11.0802
ors	-11.0808
▁свойств	-11.0808
▁дав	-11.0809
▁восстание	-11.0809
▁1957	-11.0811
ure	-11.0812
▁Ху	-11.0812
рин	-11.0813
ального	-11.0813
▁побед	-11.0814
▁радостью	-11.0816
▁плот	-11.0817
▁вашу	-11.0819
тельная	-11.082
▁целого	-11.082
▁}	-11.0821
▁человечество	-11.0823
▁состоял	-11.0823
▁Русь	-11.0823
▁ключ	-11.0824
▁остро	-11.0824
▁клеток	-11.0827
низ	-11.0828
▁Тан	-11.083
▁Жуков	-11.0834
▁журнале	-11.0834
▁собственное	-11.0836
▁толпы	-11.0836
▁Необходимо	-11.0837
▁обнаружить	-11.0838
si	-11.0839
свет	-11.084
▁along	-11.0844
▁частями	-11.0844
▁описывает	-11.0846
форм	-11.0847
▁съезда	-11.0847
▁последняя	-11.0847
▁важный	-11.0849
▁выводы	-11.0851
▁спину	-11.0851
емого	-11.0852
▁удавалось	-11.0852
▁понимают	-11.0853
lo	-11.0853
▁Вид	-11.0853
▁others	-11.0856
бой	-11.0859
▁депутатов	-11.0859
▁better	-11.0862
вшуюся	-11.0862
▁религия	-11.0863
▁коллектив	-11.0864
▁реформы	-11.0866
ада	-11.0867
▁рок	-11.0868
▁выяснить	-11.0869
фин	-11.0871
▁школ	-11.0871
▁избавиться	-11.0871
▁присутствие	-11.0872
▁тур	-11.0873
▁ремонт	-11.0876
▁лагере	-11.0877
ову	-11.0879
▁желает	-11.0879
▁славы	-11.088
▁изучение	-11.088
▁указал	-11.0885
▁провели	-11.0887
▁оценить	-11.089
▁тридцати	-11.089
▁христианства	-11.0891
▁Али	-11.0891
▁сидеть	-11.0893
▁тема	-11.0894
▁га	-11.0894
▁бомбы	-11.0895
ций	-11.0896
▁держал	-11.0896
▁крикнул	-11.0896
3].	-11.0896
▁mind	-11.0896
▁технологии	-11.0897
II	-11.0898
▁падения	-11.0899
тельный	-11.09
▁судно	-11.0902
▁соединений	-11.0902
▁бригада	-11.0905
еле	-11.0909
▁племени	-11.0912
▁скот	-11.0912
иц	-11.0914
▁фигура	-11.0914
7].	-11.0915
6].	-11.0915
▁give	-11.0916
▁снарядов	-11.0919
ium	-11.092
▁чувствую	-11.092
анти	-11.0921
▁бывало	-11.0921
Вот	-11.0922
▁Эту	-11.0924
ост	-11.0925
▁цены	-11.0928
▁масла	-11.0928
кат	-11.0928
▁Скорее	-11.0932
ьная	-11.0933
оны	-11.0934
▁разобраться	-11.0934
▁Позже	-11.0939
▁1970	-11.0939
▁main	-11.094
▁заместитель	-11.094
кров	-11.0941
▁простых	-11.0941
ацией	-11.0942
▁игру	-11.0942
ology	-11.0944
▁городской	-11.0945
▁возникновения	-11.0946
—18	-11.0946
▁разрыв	-11.0947
▁конструкции	-11.095
▁house	-11.0952
▁сомнений	-11.0953
кол	-11.0954
▁психологии	-11.0956
▁предков	-11.0958
▁отмечал	-11.0958
ался	-11.0958
▁слухи	-11.096
▁играли	-11.0962
▁эмоции	-11.0963
▁матерью	-11.0964
▁250	-11.0965
▁признание	-11.0966
▁требовалось	-11.0968
▁Мон	-11.097
▁любых	-11.0972
▁постели	-11.0972
НО	-11.0983
▁герои	-11.0983
▁let	-11.0984
▁миллиона	-11.0985
▁временно	-11.0987
▁поговорить	-11.0987
▁русскими	-11.0989
ach	-11.0992
ини	-11.0994
▁обвинения	-11.0998
▁Слова	-11.0999
▁экономических	-11.0999
▁войскам	-11.1
▁Би	-11.1001
▁согласие	-11.1004
▁ряды	-11.1006
ицы	-11.1007
▁происхождение	-11.1009
▁хозяйство	-11.101
▁потребность	-11.1012
▁врагом	-11.1012
▁французских	-11.1014
▁body	-11.1017
▁имущества	-11.1019
▁столе	-11.1021
▁возможных	-11.1021
ключа	-11.1023
▁операция	-11.1023
95	-11.1024
▁совести	-11.1024
▁43	-11.1025
▁несет	-11.1025
▁известные	-11.1026
гин	-11.1028
▁состояла	-11.1029
▁кругу	-11.103
()	-11.1031
▁function	-11.1032
▁снял	-11.1033
▁принятия	-11.1033
ким	-11.1034
▁государством	-11.1037
▁преодолеть	-11.1037
▁Екатерина	-11.1038
▁вход	-11.104
альное	-11.1045
ион	-11.1048
▁сильные	-11.105
▁основание	-11.1051
▁хвост	-11.1053
▁физики	-11.1053
▁видите	-11.1053
▁убедить	-11.1056
▁1947	-11.1056
аны	-11.1057
▁See	-11.106
▁умереть	-11.1062
▁хватит	-11.1067
▁нач	-11.1068
▁серии	-11.1069
our	-11.1069
▁великое	-11.107
▁ЗА	-11.107
▁размеров	-11.107
▁обращение	-11.1072
хотя	-11.1075
▁обязаны	-11.1075
▁указ	-11.1076
▁свидетельствуют	-11.1078
▁отсутствия	-11.108
▁представлен	-11.1081
▁просьбой	-11.1081
ς	-11.1082
▁трав	-11.1083
5].	-11.1085
▁пояс	-11.1086
ологии	-11.1086
▁ch	-11.1086
▁текстов	-11.1086
пан	-11.1087
лез	-11.1087
▁фигур	-11.1088
рад	-11.1088
▁Петров	-11.1088
▁отчетливо	-11.1089
▁легких	-11.1091
▁group	-11.1092
▁включает	-11.1092
▁Мал	-11.1095
▁Известно	-11.1096
▁Тер	-11.1096
▁1958	-11.1096
▁Наполеона	-11.1097
след	-11.1098
▁настоящей	-11.1098
▁задание	-11.1102
▁ever	-11.1103
▁мета	-11.1104
9].	-11.1106
▁мотор	-11.1107
▁поворот	-11.1112
ze	-11.1113
8].	-11.1115
1]	-11.1115
▁рабов	-11.1115
▁1993	-11.1117
▁уравнение	-11.1117
шую	-11.1121
▁профессора	-11.1122
▁государстве	-11.1124
!”	-11.1125
▁лег	-11.1126
▁различие	-11.1128
нія	-11.1129
▁бюро	-11.1133
▁увидев	-11.1133
▁рынке	-11.1134
▁путешествие	-11.1135
ities	-11.1139
атор	-11.114
ьи	-11.1141
▁обман	-11.1141
▁автомобиль	-11.1143
▁Закон	-11.1148
▁имен	-11.115
▁доктора	-11.1153
иде	-11.1153
▁десятков	-11.1155
▁q	-11.1156
▁бежал	-11.1158
▁убил	-11.1158
▁Ти	-11.1158
▁соглашения	-11.1159
▁чувством	-11.116
▁рез	-11.116
▁вол	-11.1161
▁1959	-11.1162
▁див	-11.1165
▁единства	-11.1166
ления	-11.1167
эй	-11.1167
▁контексте	-11.1168
щей	-11.1168
▁окружающей	-11.1169
▁целую	-11.1175
▁вон	-11.1176
▁позволить	-11.1176
пад	-11.1177
▁условии	-11.1178
▁Восток	-11.1185
уют	-11.1187
▁several	-11.1191
▁согласия	-11.1192
▁облик	-11.1192
▁старались	-11.1192
▁didn	-11.1193
▁saw	-11.1193
коп	-11.1197
▁резерв	-11.12
тар	-11.1202
▁наряд	-11.1203
▁имущество	-11.1205
пал	-11.1206
▁создан	-11.1207
▁enough	-11.1209
щу	-11.121
стра	-11.121
▁смогут	-11.1212
ром	-11.1215
▁уст	-11.1215
▁шагом	-11.1215
▁христианской	-11.1216
▁Центр	-11.1216
▁Письмо	-11.1217
▁держа	-11.1217
▁голов	-11.1218
▁тюрьме	-11.122
▁1949	-11.122
▁источника	-11.1221
▁Сил	-11.1222
▁переходит	-11.1223
▁максимально	-11.1228
иса	-11.1229
▁хозяина	-11.1229
ара	-11.123
▁Наша	-11.123
▁Израиля	-11.1231
▁религиозных	-11.1231
▁сочинений	-11.1232
бил	-11.1232
шт	-11.1233
▁er	-11.1234
▁структура	-11.1236
▁музей	-11.1238
▁41	-11.1242
▁10-	-11.1242
▁фактор	-11.1242
▁поставили	-11.1243
▁увидела	-11.1243
▁объединения	-11.1244
▁шагов	-11.1245
▁--	-11.1245
▁освобождение	-11.1247
▁автоматически	-11.1248
▁Роберт	-11.1249
▁воины	-11.1249
▁красоты	-11.1251
▁крик	-11.1251
▁1992	-11.1251
▁nothing	-11.1252
▁отметил	-11.1255
▁побережья	-11.1256
▁служат	-11.1258
▁серьезные	-11.1258
▁almost	-11.1263
Там	-11.1265
▁общины	-11.1267
▁возник	-11.1267
▁задания	-11.1267
▁зря	-11.1269
▁whole	-11.1271
▁Вол	-11.1272
66	-11.1273
▁музыку	-11.1278
▁приказу	-11.1279
▁прим	-11.128
▁достигает	-11.1283
▁работах	-11.1284
▁car	-11.1284
▁times	-11.1284
▁расход	-11.1285
▁мальчика	-11.1287
ue	-11.1289
▁Божия	-11.1289
▁столице	-11.1289
▁убежден	-11.129
▁коммунистов	-11.129
▁удары	-11.1291
▁инструмент	-11.1292
▁предположение	-11.1294
▁позиция	-11.1294
▁командиром	-11.1296
▁требуют	-11.1296
ьный	-11.1296
▁системой	-11.1299
▁Соединенных	-11.13
▁законодательств	-11.13
“.	-11.13
pe	-11.13
нная	-11.1303
▁больно	-11.1303
▁взят	-11.1304
ik	-11.1304
▁кругом	-11.1305
шев	-11.1309
сан	-11.1311
▁отрядов	-11.1312
▁ставить	-11.1313
ft	-11.1314
▁потеряли	-11.1316
▁ло	-11.1317
▁орден	-11.1318
▁class	-11.1318
▁©	-11.1324
▁помогать	-11.1326
▁рай	-11.1328
▁министров	-11.1329
▁настроения	-11.1329
▁осуществить	-11.133
▁внутренние	-11.1334
▁77	-11.1334
▁рабочей	-11.1335
▁упорно	-11.1337
нн	-11.1338
▁направил	-11.1339
▁(19	-11.134
▁Ро	-11.134
▁путешествия	-11.1341
▁насилия	-11.1343
аю	-11.1348
▁social	-11.1354
▁already	-11.1354
▁маленькие	-11.1358
▁местом	-11.1358
▁титул	-11.136
▁простор	-11.1361
sh	-11.1362
▁ряду	-11.1362
▁песен	-11.1363
крыл	-11.1365
▁внешних	-11.1365
▁прогресс	-11.1367
▁понятий	-11.1367
▁остальное	-11.1369
▁стремился	-11.137
▁собора	-11.137
онов	-11.1371
▁сердцем	-11.1375
▁kind	-11.1376
▁rather	-11.1376
▁представлений	-11.1377
▁обратить	-11.1379
▁young	-11.1381
▁устройство	-11.1381
ницей	-11.1382
▁забот	-11.1383
▁притом	-11.1383
▁Дальше	-11.1384
▁истину	-11.1384
▁движением	-11.1386
▁вице	-11.139
▁лошадь	-11.1391
▁Й	-11.1391
дет	-11.1391
▁масло	-11.1393
▁покинуть	-11.1394
▁журналист	-11.1396
▁Ред	-11.1397
▁Ibid	-11.1397
▁Na	-11.1405
▁фамилии	-11.1406
64	-11.1408
▁колонны	-11.1409
▁кусок	-11.1409
▁смело	-11.1411
▁приходят	-11.1411
▁правительству	-11.1413
▁Ло	-11.1414
▁глас	-11.1414
ці	-11.1417
▁принести	-11.1419
▁Мат	-11.142
▁го	-11.1421
▁Са	-11.1422
▁принципиально	-11.1424
▁расчет	-11.143
▁верхней	-11.1432
▁ракеты	-11.1432
▁least	-11.1439
▁автором	-11.144
▁подхода	-11.144
▁asked	-11.1442
▁находилось	-11.1443
▁vol	-11.1444
▁личных	-11.1445
▁слышать	-11.1447
▁миль	-11.1448
▁Запад	-11.1449
▁распоряжении	-11.1454
▁El	-11.1459
▁растет	-11.146
▁приказа	-11.1462
чка	-11.1462
▁организацию	-11.1465
▁опытом	-11.1466
▁1913	-11.1467
▁становились	-11.1468
gen	-11.1469
▁Египет	-11.1471
▁целые	-11.1471
of	-11.1472
▁парламент	-11.1472
▁кот	-11.1473
▁создали	-11.1476
ai	-11.1478
▁замок	-11.1478
▁Европу	-11.1478
tes	-11.1478
рек	-11.1479
▁французов	-11.1482
▁Journal	-11.1482
▁73	-11.1486
▁600	-11.1486
чей	-11.1486
▁окончил	-11.1489
▁вовремя	-11.1489
ex	-11.1494
▁взглядов	-11.1495
▁States	-11.1495
▁фотографии	-11.1495
1)	-11.1496
▁готовности	-11.1496
▁убийство	-11.1496
ron	-11.1497
▁важную	-11.1497
Нет	-11.1501
▁Спасибо	-11.1503
▁служба	-11.1506
▁находим	-11.1506
▁луч	-11.1507
98	-11.1507
▁Василия	-11.1507
▁высоту	-11.1511
рит	-11.1511
▁ин	-11.1514
▁собирались	-11.1516
▁Англия	-11.1516
▁знаменитый	-11.1517
аз	-11.1519
▁социальные	-11.152
▁мар	-11.1522
▁блага	-11.1522
▁больного	-11.1524
▁склон	-11.1526
ницу	-11.1526
▁архив	-11.1527
▁Любовь	-11.1529
▁глубины	-11.1532
▁губы	-11.1532
▁День	-11.1536
▁рассказы	-11.1537
лес	-11.1537
▁островов	-11.1538
▁границей	-11.1538
ї	-11.1539
▁Впервые	-11.1539
▁Пи	-11.1543
▁родину	-11.1543
▁идеологии	-11.1544
▁примет	-11.1546
▁отправиться	-11.1547
як	-11.1547
▁оказать	-11.1548
4]	-11.1548
▁Ге	-11.155
▁process	-11.155
▁некоторой	-11.1551
▁подъем	-11.1551
▁стоя	-11.1552
▁счете	-11.1552
▁чин	-11.1556
▁95	-11.1556
▁1980	-11.1557
▁поддержке	-11.1558
▁всюду	-11.1558
▁весел	-11.1558
▁words	-11.1559
▁заседании	-11.1569
▁истина	-11.1572
▁какому	-11.1573
▁входили	-11.1573
line	-11.1574
è	-11.1576
▁сборник	-11.1579
▁чиновников	-11.1579
▁сеть	-11.1579
жит	-11.158
▁жир	-11.1582
▁поняла	-11.1584
овка	-11.1589
рус	-11.1591
▁действовали	-11.1591
▁потерь	-11.1593
зен	-11.1593
▁требовал	-11.1595
ине	-11.1597
ители	-11.1598
out	-11.1598
▁королю	-11.1599
▁пары	-11.16
▁экипаж	-11.1602
▁лето	-11.1602
▁английских	-11.1602
▁тайны	-11.1605
▁читателей	-11.1606
▁local	-11.1609
0].	-11.1609
▁исчез	-11.161
▁2001	-11.1613
▁сахар	-11.1613
▁шанс	-11.1616
▁Боже	-11.1617
▁half	-11.1617
▁квартиры	-11.1619
▁заняли	-11.1621
▁рукописи	-11.1621
ah	-11.1623
▁зубы	-11.1624
▁захват	-11.1625
▁внизу	-11.1625
▁училище	-11.1628
▁лодок	-11.1629
▁полет	-11.1633
▁созданию	-11.1635
▁феномен	-11.1636
▁means	-11.1636
▁плечами	-11.1636
▁чисел	-11.1641
▁внутренний	-11.1643
▁незаметно	-11.1644
▁THE	-11.1646
▁дву	-11.1647
▁послан	-11.1647
▁случаю	-11.1651
á	-11.1651
▁разница	-11.1652
▁стоило	-11.1652
шее	-11.1653
▁пытаются	-11.1656
▁умеет	-11.1657
▁богатство	-11.1659
учи	-11.1659
▁конфликта	-11.1661
▁общин	-11.1663
▁change	-11.1667
▁проход	-11.1668
▁высоким	-11.1669
▁Мать	-11.167
▁участвовать	-11.167
▁поездки	-11.1671
▁законом	-11.1673
▁тока	-11.1673
▁неправильно	-11.1678
▁надежда	-11.1679
▁подвиг	-11.1679
▁служили	-11.168
▁вооружения	-11.168
▁авиа	-11.168
▁постоянной	-11.1682
ization	-11.1682
▁комиссар	-11.1684
▁колени	-11.1685
▁река	-11.1687
Ѵ	-11.1689
▁небольшие	-11.1689
▁подъ	-11.1693
▁секретаря	-11.1696
▁операцию	-11.1697
▁десятилетия	-11.1698
ается	-11.17
лить	-11.1701
▁выбрать	-11.1702
▁физической	-11.1704
▁говорим	-11.1705
▁разным	-11.1705
▁представляли	-11.1705
▁74	-11.1706
▁ge	-11.1706
▁радостно	-11.1707
▁европейской	-11.1707
▁куб	-11.171
▁капитал	-11.1712
6]	-11.1712
▁itself	-11.1712
чики	-11.1713
▁проч	-11.1715
▁тюрьмы	-11.1716
▁ново	-11.1716
▁черные	-11.1717
▁сотен	-11.172
▁продолжение	-11.172
▁проходили	-11.172
▁упор	-11.1721
les	-11.1722
▁простым	-11.1725
▁Трудно	-11.1726
▁ро	-11.1726
▁дат	-11.1726
▁поехал	-11.1728
▁занятий	-11.1728
▁трудов	-11.1728
▁глубокой	-11.173
▁сложных	-11.1737
led	-11.1739
▁объясняет	-11.1739
▁ввиду	-11.174
▁полагал	-11.1742
▁Ст	-11.1742
▁Том	-11.1742
▁сан	-11.1744
▁Кажется	-11.1744
▁приносит	-11.1746
▁принципов	-11.1747
▁частных	-11.1748
▁основа	-11.1749
▁американские	-11.175
емая	-11.1751
▁ne	-11.1752
nd	-11.1753
▁превращается	-11.1753
▁меняется	-11.1754
▁заряд	-11.1754
▁последнем	-11.1754
▁код	-11.1755
▁образов	-11.1756
▁post	-11.1757
▁Напротив	-11.1758
▁политическую	-11.1759
▁обыкновенно	-11.1759
▁Иосиф	-11.176
ga	-11.1766
▁количеством	-11.1768
▁знач	-11.1768
▁78	-11.177
▁Олег	-11.1771
▁золотой	-11.1771
▁первыми	-11.1771
▁стараясь	-11.1778
▁рассказа	-11.1778
▁погибли	-11.1779
▁1906	-11.178
▁Год	-11.1781
▁точности	-11.1782
▁законам	-11.1783
▁51	-11.1783
▁1912	-11.1783
▁наказание	-11.1784
▁носить	-11.1785
▁Откуда	-11.1785
▁76	-11.1794
▁селе	-11.1796
▁Военно	-11.1798
▁столицу	-11.18
▁сохранения	-11.18
▁возвращается	-11.1803
фон	-11.1804
▁достигли	-11.1804
▁Then	-11.1805
by	-11.1808
▁ха	-11.181
▁value	-11.1812
59	-11.1812
▁1968	-11.1814
▁поколение	-11.1819
▁разговоры	-11.1819
▁Толстого	-11.1821
▁своём	-11.1821
▁защищать	-11.1824
-10	-11.1825
mon	-11.1827
кого	-11.1831
▁национальных	-11.1831
▁Some	-11.1832
▁Че	-11.1833
▁Африке	-11.1834
▁мистер	-11.1838
▁происходят	-11.1842
▁американцы	-11.1842
▁удовольствия	-11.1842
▁выразить	-11.1845
▁еду	-11.1845
▁деревню	-11.1845
гла	-11.1847
pro	-11.1849
▁числом	-11.185
▁встречу	-11.1852
где	-11.1854
▁готова	-11.1856
▁трудящихся	-11.1857
▁заменить	-11.1858
▁занимал	-11.186
ОВ	-11.186
ana	-11.186
▁научного	-11.1862
▁признаков	-11.1864
ä	-11.1865
▁space	-11.1866
▁камня	-11.1867
▁Первым	-11.1872
▁англичане	-11.1874
▁окружения	-11.1875
нной	-11.1876
▁сражение	-11.1879
▁центральной	-11.1879
▁Джордж	-11.188
▁Давайте	-11.1885
▁открытие	-11.1885
▁фирмы	-11.1886
▁врача	-11.1886
▁полная	-11.1886
▁отвечать	-11.1888
тем	-11.1889
▁всякие	-11.1889
▁труп	-11.1891
▁нанести	-11.1892
альным	-11.1894
3]	-11.1895
▁women	-11.1896
▁исходя	-11.1897
▁трон	-11.1897
68	-11.1901
▁коллег	-11.1902
▁Roman	-11.1902
▁собака	-11.1902
▁верил	-11.1902
▁покинул	-11.1905
▁кладбище	-11.1906
▁together	-11.1907
▁лежа	-11.1907
▁пятнадцать	-11.1908
▁повторил	-11.191
▁read	-11.1911
▁товары	-11.1911
дж	-11.1911
▁цифры	-11.1912
▁маленькой	-11.1912
▁Ком	-11.1912
lin	-11.1914
ap	-11.1914
▁потребовал	-11.1915
▁специальных	-11.1915
▁отмечает	-11.1915
▁Пу	-11.1919
▁отражение	-11.1919
▁событиях	-11.192
▁мяса	-11.1921
▁администрации	-11.1923
ическими	-11.1923
▁смогла	-11.1923
▁Мед	-11.1924
▁Филипп	-11.1925
ki	-11.1926
▁малых	-11.1927
▁Pro	-11.1928
▁вооружение	-11.193
▁движений	-11.193
▁стоимость	-11.1934
▁пригласил	-11.1935
▁плоды	-11.1937
▁душой	-11.1937
▁9-	-11.1938
▁self	-11.1938
▁71	-11.1939
▁Нового	-11.1941
▁встретить	-11.1941
▁ежегодно	-11.1942
▁внешнего	-11.1943
▁примеры	-11.1944
▁Андрея	-11.1945
if	-11.1945
▁соответствующих	-11.1946
▁84	-11.1946
▁вероятность	-11.1947
▁активность	-11.1947
▁философия	-11.195
кто	-11.1952
ster	-11.1954
▁рамки	-11.1955
▁пунктов	-11.1957
▁слав	-11.1959
ивший	-11.196
уда	-11.1962
▁никуда	-11.1963
▁Понятно	-11.1965
▁отправлен	-11.1965
▁Дар	-11.1966
бел	-11.1966
▁капитализма	-11.1966
▁сельского	-11.1966
▁зависимость	-11.1968
зин	-11.1968
▁оснований	-11.1969
альную	-11.1971
▁подошли	-11.1973
▁мирового	-11.1974
In	-11.1976
▁обратил	-11.1977
▁спросить	-11.1978
po	-11.1979
▁запись	-11.198
▁окружающих	-11.1981
▁грехов	-11.1981
▁севере	-11.1982
ож	-11.1983
▁Кир	-11.1984
ета	-11.1985
▁обучение	-11.1986
▁мероприятия	-11.1986
емое	-11.1987
лож	-11.1988
▁French	-11.1989
іемъ	-11.1989
зд	-11.1992
▁доля	-11.1992
▁германских	-11.1994
▁устав	-11.1994
кос	-11.1994
ial	-11.2001
сты	-11.2002
57	-11.2003
▁Египта	-11.2004
▁противоречия	-11.2006
▁type	-11.2007
▁Африки	-11.2008
▁Un	-11.2009
▁потенциал	-11.2009
▁пород	-11.201
▁рассказывать	-11.2013
▁старше	-11.2015
▁лежат	-11.2015
▁нормально	-11.2015
▁1955	-11.2017
▁исполнение	-11.2017
▁светом	-11.2019
▁английской	-11.202
▁ищет	-11.2021
▁бал	-11.2022
телю	-11.2022
▁редакции	-11.2024
Йорк	-11.2029
▁сообщить	-11.2033
▁справиться	-11.2033
▁животные	-11.2033
ела	-11.2034
▁Спустя	-11.2035
▁Кап	-11.2036
▁ошибок	-11.2036
▁пыль	-11.2036
▁обращается	-11.2037
▁Ed	-11.2039
един	-11.2039
▁первоначально	-11.204
▁секунду	-11.204
▁предлагал	-11.2042
▁болезней	-11.2043
иг	-11.2044
станов	-11.2044
▁гидро	-11.2047
▁подготовку	-11.2055
ителя	-11.2055
пат	-11.2057
▁st	-11.2057
▁температура	-11.2058
▁парад	-11.206
▁университете	-11.2061
чиков	-11.2063
▁знаков	-11.2063
летнего	-11.2065
нский	-11.2067
▁вызов	-11.2067
▁ле	-11.2067
дал	-11.2069
тельные	-11.207
▁белой	-11.2071
ющимися	-11.2072
sch	-11.2073
▁que	-11.2074
▁урок	-11.2074
▁Отца	-11.2075
арь	-11.2076
▁правды	-11.2077
sa	-11.2077
▁координат	-11.2078
▁независимости	-11.208
▁взяла	-11.208
▁short	-11.2081
▁значении	-11.2083
▁17.	-11.2085
▁раствор	-11.2086
▁den	-11.2089
▁члена	-11.2089
▁продолжала	-11.2089
▁открыли	-11.2089
ver	-11.2091
▁son	-11.2091
▁основой	-11.2091
пов	-11.2094
▁позволит	-11.2098
▁параллельно	-11.21
▁60-	-11.2103
▁велико	-11.2103
▁мудрости	-11.2103
▁1989	-11.2104
▁платить	-11.2105
▁Последний	-11.2106
▁Europe	-11.2106
▁seen	-11.2107
▁father	-11.2108
▁вопросе	-11.2109
▁согласиться	-11.211
▁германской	-11.2112
▁Se	-11.2112
▁воскрес	-11.2112
▁88	-11.2112
▁структуру	-11.2112
all	-11.2112
▁глубину	-11.2113
▁code	-11.2113
▁full	-11.2113
▁карту	-11.2114
▁свидетельства	-11.2116
▁sense	-11.2118
▁ток	-11.212
ений	-11.2123
Во	-11.2123
▁кругов	-11.2127
▁Лю	-11.2129
▁направился	-11.2129
▁Мари	-11.2129
▁насчет	-11.213
▁применять	-11.2137
▁problem	-11.2138
▁примером	-11.2139
▁членами	-11.214
▁Сразу	-11.214
▁команд	-11.2148
86	-11.2148
воль	-11.2148
тай	-11.215
sen	-11.2151
▁продолжа	-11.2153
▁having	-11.2154
рю	-11.2156
▁обеда	-11.2156
58	-11.2157
▁исследователи	-11.2158
▁Май	-11.2158
▁измерения	-11.2161
▁похож	-11.2161
▁общую	-11.2163
▁эксперимент	-11.2164
закон	-11.2164
ено	-11.2165
▁дер	-11.2167
▁магазин	-11.2167
▁Ha	-11.2168
▁съезд	-11.2168
▁собрал	-11.2169
▁thing	-11.2171
кие	-11.2175
ya	-11.2176
▁Опять	-11.2178
▁call	-11.2179
▁Генрих	-11.2179
▁сколь	-11.218
ьную	-11.218
цвет	-11.2181
▁сзади	-11.2182
▁стихов	-11.2184
▁примеров	-11.2186
▁решении	-11.2187
▁сидя	-11.2188
51	-11.219
▁дед	-11.219
▁сцену	-11.2192
▁обстановка	-11.2193
▁сложности	-11.2193
▁условие	-11.2194
куп	-11.2195
▁зоне	-11.2197
▁половиной	-11.2199
▁мятеж	-11.22
ограф	-11.2201
▁единой	-11.2201
▁содержится	-11.2202
бит	-11.2202
▁выходить	-11.2204
▁Ми	-11.2204
▁угрозы	-11.2204
кр	-11.2205
▁становилось	-11.2205
í	-11.2205
▁использует	-11.2206
▁великие	-11.2209
▁тяжелой	-11.2212
▁Какая	-11.2212
▁последующие	-11.2213
▁млрд	-11.2213
96	-11.2217
▁хорошим	-11.2218
▁аэродром	-11.2218
▁широкой	-11.2219
▁сумма	-11.222
▁май	-11.2221
▁воевать	-11.2221
▁гром	-11.2222
▁free	-11.2222
▁ос	-11.2223
▁op	-11.2225
▁заводе	-11.2225
▁метода	-11.2226
▁директора	-11.2229
▁пи	-11.223
▁норм	-11.2235
▁размеры	-11.2239
▁стиле	-11.2241
▁решению	-11.2242
нят	-11.2245
▁рыбы	-11.2245
▁примере	-11.2246
0]	-11.2246
▁намерения	-11.2248
▁свободе	-11.2249
▁поста	-11.225
▁ударов	-11.2252
▁существовании	-11.2253
мед	-11.2253
▁Се	-11.2254
ати	-11.2254
▁вспоминает	-11.2255
▁книгах	-11.2257
▁Рядом	-11.2258
▁support	-11.2258
ником	-11.2259
▁свидетельство	-11.2262
▁Турции	-11.2265
▁энергией	-11.2269
нѣ	-11.227
▁научиться	-11.2272
77	-11.2274
hr	-11.2275
нит	-11.228
▁соглашение	-11.2286
▁би	-11.2287
ковский	-11.2289
▁Бе	-11.229
▁толпа	-11.2292
▁заявления	-11.2293
▁вернее	-11.2294
▁Гос	-11.2294
▁(18	-11.2297
ску	-11.2298
▁своя	-11.2298
▁собственность	-11.2299
▁Ver	-11.2299
▁освобожден	-11.23
▁пен	-11.2301
▁слой	-11.2304
▁Важно	-11.2305
▁1910	-11.2305
▁писала	-11.2305
▁2004	-11.2306
ens	-11.2307
▁экспериментальн	-11.2309
вор	-11.2309
▁отделение	-11.2311
нова	-11.2311
▁Воз	-11.2312
▁провод	-11.2315
▁протянул	-11.2316
▁американцев	-11.2322
▁российского	-11.2323
▁Кн	-11.2325
ити	-11.2326
▁Му	-11.2327
шку	-11.2327
▁равен	-11.2328
▁суммы	-11.2328
▁адмирал	-11.2332
5]	-11.2333
ял	-11.2333
▁военнопленных	-11.2334
▁fire	-11.2334
▁(1)	-11.2334
них	-11.2338
▁ел	-11.2339
▁ССР	-11.234
▁замечает	-11.234
▁враги	-11.2346
▁цветы	-11.2347
▁встретиться	-11.2348
▁упражнения	-11.2348
стями	-11.2349
▁Библии	-11.235
▁еды	-11.2351
▁82	-11.2352
▁чтения	-11.2354
▁разрешение	-11.2356
ical	-11.2356
▁принадлежат	-11.2357
▁танка	-11.2358
▁относиться	-11.2359
▁уши	-11.2359
▁Израиль	-11.236
▁борту	-11.2361
▁велика	-11.2361
▁question	-11.2362
▁слушал	-11.2366
ог	-11.2366
▁закончил	-11.2367
▁способов	-11.2367
▁определенного	-11.2367
▁формой	-11.2368
▁действием	-11.2369
▁including	-11.237
▁печать	-11.237
ап	-11.237
ске	-11.2373
очный	-11.238
▁труды	-11.238
▁массив	-11.2382
чем	-11.2387
▁тексты	-11.2387
▁Никогда	-11.2388
▁бу	-11.2389
вая	-11.239
рыв	-11.2392
▁битве	-11.2393
▁историки	-11.2394
▁доложил	-11.2395
гон	-11.2396
–18	-11.2397
въ	-11.2398
▁течения	-11.2399
▁черный	-11.24
▁really	-11.2401
▁называемые	-11.2401
▁необходимых	-11.2402
стан	-11.2404
▁нарушение	-11.2404
▁18.	-11.2405
▁сосед	-11.2405
▁ненависть	-11.2406
▁лад	-11.2406
▁творчество	-11.2409
▁играют	-11.2415
▁страной	-11.2416
▁Была	-11.2416
▁ожидал	-11.2418
▁талант	-11.2419
▁прочно	-11.242
▁sp	-11.2421
▁1999	-11.2421
▁знаки	-11.2422
tor	-11.2423
▁построения	-11.2424
▁able	-11.2426
олог	-11.2426
▁переворот	-11.243
▁произошла	-11.2431
иста	-11.2434
▁современные	-11.2436
▁распространения	-11.2437
▁животного	-11.2438
▁огромную	-11.2439
▁принципа	-11.2442
▁продукт	-11.2445
▁отсутствии	-11.2447
▁деятельностью	-11.2449
▁вела	-11.2451
▁встреч	-11.2456
▁требовали	-11.2456
▁1996	-11.2458
▁собирается	-11.2459
▁духовных	-11.2463
▁Позднее	-11.2463
овича	-11.2464
▁процент	-11.2465
▁герцог	-11.2468
▁Республики	-11.2468
▁сорока	-11.2468
▁учреждений	-11.247
▁кольцо	-11.247
▁длиной	-11.2471
▁объекты	-11.2472
▁лестнице	-11.2474
▁present	-11.2475
▁бок	-11.2475
▁входа	-11.2475
▁критика	-11.2476
▁расположение	-11.2478
▁звали	-11.2478
чок	-11.2479
▁плоти	-11.2479
▁идёт	-11.248
▁плюс	-11.2483
▁гарнизон	-11.2483
▁обороне	-11.2483
▁themselves	-11.2484
▁общая	-11.2484
▁view	-11.2486
▁планет	-11.2486
мут	-11.2486
▁1967	-11.2487
▁саду	-11.2487
▁захватили	-11.2488
▁past	-11.2489
Ма	-11.249
▁функцию	-11.2492
▁86	-11.2496
▁разрушения	-11.2499
▁стоимости	-11.25
“,	-11.25
▁юноша	-11.25
той	-11.2501
НА	-11.2501
▁return	-11.2501
▁стремились	-11.2501
▁министерства	-11.2502
▁сторонников	-11.2503
хим	-11.2504
▁залива	-11.2505
▁вашим	-11.2505
▁Иерусалим	-11.2506
▁товарища	-11.2506
мена	-11.2509
1,	-11.2516
▁пушек	-11.2518
di	-11.2518
▁обычных	-11.2522
▁лит	-11.2522
▁свободного	-11.2524
▁поверить	-11.2524
▁заново	-11.2525
▁произвести	-11.2525
▁1995	-11.2527
69	-11.2528
▁попытку	-11.2528
▁осуществляется	-11.2529
иан	-11.2532
аг	-11.2534
▁стакан	-11.2535
инов	-11.2535
▁шт	-11.2537
груз	-11.2538
▁животное	-11.2538
▁May	-11.2539
▁тень	-11.2539
ушки	-11.2539
▁актер	-11.2541
▁телефону	-11.2541
▁табл	-11.2541
▁Судя	-11.2544
▁обход	-11.2544
▁небольших	-11.2545
▁простые	-11.2546
fi	-11.2548
▁ввести	-11.2548
▁немцами	-11.2553
▁обстановки	-11.2554
ича	-11.2555
▁(5	-11.2556
порт	-11.2559
ЕЙ	-11.2562
▁политическая	-11.2562
▁face	-11.2563
▁love	-11.2563
▁принят	-11.2564
▁Русской	-11.2565
▁наклон	-11.2565
▁памятник	-11.2566
▁специальные	-11.2566
▁находясь	-11.2566
▁подготовка	-11.2568
▁зовут	-11.2568
▁слышали	-11.2569
ище	-11.257
иды	-11.257
▁Самое	-11.257
▁публикации	-11.257
▁видишь	-11.2571
▁камней	-11.2572
▁Русский	-11.2572
▁Лес	-11.2572
ja	-11.2573
▁общение	-11.2574
▁word	-11.2574
▁плод	-11.2576
▁привела	-11.2577
▁Син	-11.2578
▁врачей	-11.2578
нар	-11.2578
гре	-11.2578
стран	-11.2582
▁Ос	-11.2582
▁обладал	-11.2583
▁знакомых	-11.2586
▁Говорят	-11.2586
▁принимают	-11.2587
▁работала	-11.2588
tro	-11.2588
Ко	-11.2589
ó	-11.2591
▁помощник	-11.2592
▁единственной	-11.2594
oc	-11.2596
▁Центральной	-11.2597
▁ошибка	-11.2598
▁военная	-11.26
▁стратегии	-11.26
▁America	-11.2601
▁руководитель	-11.2601
▁les	-11.2603
▁Вера	-11.2603
▁ушла	-11.2604
▁плечо	-11.2607
▁игр	-11.2608
▁81	-11.2608
▁run	-11.2608
▁родственников	-11.261
▁Люб	-11.261
▁ten	-11.261
▁вызывают	-11.2611
▁пропаганды	-11.2613
▁корни	-11.2615
▁сержант	-11.2616
Под	-11.2618
▁продолжил	-11.2619
аф	-11.2619
▁твоих	-11.262
▁считалось	-11.2621
port	-11.2621
▁оказываются	-11.2621
▁Герман	-11.2624
▁зап	-11.263
▁фронтом	-11.2631
▁пожал	-11.2631
▁Мил	-11.2634
▁романе	-11.2635
▁1900	-11.2636
▁da	-11.2637
бол	-11.2639
▁France	-11.264
щие	-11.2643
▁районы	-11.2643
▁мусульман	-11.2644
▁бояр	-11.2644
▁убили	-11.2646
▁сэр	-11.2647
▁Ги	-11.2647
▁Советов	-11.2647
▁вывести	-11.2648
сте	-11.2649
▁личный	-11.2649
▁долга	-11.2652
очные	-11.2653
85	-11.2653
tra	-11.2654
▁прекрасный	-11.2656
теле	-11.2661
▁сильной	-11.2662
рой	-11.2662
є	-11.2663
▁нуждается	-11.2663
щик	-11.2663
бл	-11.2665
▁башни	-11.2666
нич	-11.2666
▁десант	-11.2666
▁sur	-11.267
om	-11.267
▁ль	-11.2671
79	-11.2672
пр	-11.2672
▁предмета	-11.2673
▁эмиграции	-11.2674
▁79	-11.2675
▁area	-11.2676
▁конкретных	-11.2678
▁настоящим	-11.2679
▁true	-11.2679
▁(2)	-11.2681
очной	-11.2681
▁месяцы	-11.2682
▁карман	-11.2682
▁спал	-11.2683
▁царской	-11.2683
▁образцов	-11.2688
ab	-11.2689
▁небес	-11.2689
▁учреждения	-11.2691
▁греха	-11.2691
▁искал	-11.2695
▁буржуазии	-11.2695
▁Капитан	-11.2695
9]	-11.2697
▁idea	-11.2699
▁подарок	-11.2699
▁темноте	-11.2701
▁коллеги	-11.2704
▁2008	-11.2708
▁остановиться	-11.2708
▁падает	-11.2709
▁Стр	-11.271
▁низ	-11.271
▁50-	-11.2711
▁ан	-11.2713
7]	-11.2714
▁уверенно	-11.2715
▁поли	-11.2715
▁недостаток	-11.2716
▁National	-11.2716
▁угрозу	-11.2716
▁получим	-11.2717
▁Ge	-11.2717
унд	-11.2719
▁бор	-11.2721
▁черной	-11.2723
tu	-11.2724
71	-11.2725
▁вступить	-11.2725
дей	-11.2726
▁входят	-11.2726
▁удержать	-11.2729
▁живописи	-11.273
▁красных	-11.273
▁2005	-11.2731
бра	-11.2733
▁Давид	-11.2735
88	-11.2737
3)	-11.2737
▁пользовались	-11.2738
▁продолжительно	-11.2738
▁белого	-11.274
щему	-11.274
еп	-11.2744
вай	-11.2745
▁спасение	-11.2745
dy	-11.2745
▁произошел	-11.2745
▁используются	-11.2747
▁руководил	-11.2752
▁доказательств	-11.2753
we	-11.2754
unt	-11.2755
▁королем	-11.2755
▁обстановку	-11.2758
▁известным	-11.2759
▁желал	-11.276
▁вызвало	-11.276
▁99	-11.276
▁обер	-11.2762
▁прежних	-11.2762
▁повезло	-11.2762
▁мотив	-11.2763
▁1994	-11.2763
▁Уж	-11.2764
▁техника	-11.2765
▁значительные	-11.2768
моему	-11.2771
тр	-11.2772
ative	-11.2773
▁бросился	-11.2774
▁knew	-11.2775
очных	-11.2775
▁считаться	-11.2775
▁царем	-11.2776
▁ул	-11.2777
▁трубку	-11.2778
▁Решение	-11.2778
▁высказал	-11.278
▁лежали	-11.2783
▁мужем	-11.2783
▁женщине	-11.2785
▁расходы	-11.2786
▁130	-11.2787
▁Ясно	-11.2787
▁Ar	-11.2789
▁Какое	-11.279
▁носили	-11.279
▁развивается	-11.2792
▁done	-11.2792
▁чистой	-11.2793
▁слову	-11.2796
▁front	-11.2797
97	-11.28
▁привлечь	-11.2801
▁поступать	-11.2802
▁частицы	-11.2803
▁пил	-11.2804
▁ранних	-11.2805
щиков	-11.2805
▁налогов	-11.2806
▁боялся	-11.2807
▁yet	-11.2808
so	-11.2808
яз	-11.2811
шен	-11.2812
▁Впоследствии	-11.2814
▁отлича	-11.2815
оса	-11.2815
▁лед	-11.2816
чев	-11.2816
▁принесли	-11.2816
▁Джо	-11.2821
▁промышленность	-11.2821
▁металл	-11.2822
▁верст	-11.2822
▁моста	-11.2825
▁зуб	-11.283
Ин	-11.2831
ub	-11.2832
▁карте	-11.2836
▁длинные	-11.2836
▁деятелей	-11.2838
▁определенный	-11.2841
▁думают	-11.2844
само	-11.2846
▁обычной	-11.2846
разному	-11.2847
▁железа	-11.2847
▁убедиться	-11.285
▁князю	-11.2851
▁force	-11.2854
▁why	-11.2856
▁восстановления	-11.2856
▁смех	-11.2857
▁мягко	-11.2858
▁брака	-11.2858
▁племена	-11.2859
▁улыбкой	-11.286
▁1954	-11.2861
▁1904	-11.2862
ером	-11.2862
▁вождя	-11.2863
▁беда	-11.2868
▁лучшее	-11.2868
▁монет	-11.2869
▁штраф	-11.287
вели	-11.2872
84	-11.2872
▁участники	-11.2872
▁рассмотреть	-11.2873
ческой	-11.2875
▁рубеж	-11.2877
▁тайно	-11.2877
▁обращаться	-11.2878
▁уничтожения	-11.2878
▁Война	-11.2881
▁природой	-11.2881
▁rest	-11.2881
▁произведен	-11.2884
▁чужой	-11.2885
▁казаки	-11.2886
▁Скоро	-11.2887
▁воспоминаний	-11.2889
▁боевого	-11.289
▁16.	-11.289
вед	-11.2894
▁признал	-11.2896
▁подробности	-11.2897
▁пользовался	-11.2898
▁СО	-11.2902
▁трагедии	-11.2902
▁голосов	-11.2903
полн	-11.2904
▁действуют	-11.2906
▁глубже	-11.2906
▁лечение	-11.2907
▁Францию	-11.2908
▁прочитал	-11.291
эл	-11.291
ани	-11.291
кры	-11.2911
94	-11.2912
▁патриот	-11.2912
▁посту	-11.2913
▁дай	-11.2915
▁шаги	-11.2915
▁труб	-11.2919
▁колебания	-11.292
▁Финляндии	-11.2924
▁оппозиции	-11.2924
▁поистине	-11.2924
▁пос	-11.2924
▁милости	-11.2925
▁епископа	-11.2925
▁срока	-11.2928
▁service	-11.2929
▁лета	-11.2932
▁Тебя	-11.2934
▁осуществления	-11.2938
▁ти	-11.2945
бре	-11.2947
con	-11.2947
▁1964	-11.2949
▁бросить	-11.2949
▁действиями	-11.2952
▁впечатления	-11.2953
▁кровати	-11.2958
▁Оказалось	-11.2958
▁учился	-11.296
ow	-11.296
sk	-11.2962
▁установлен	-11.2963
▁Австрии	-11.2963
bo	-11.2963
▁внешне	-11.2967
▁Аль	-11.2967
▁численности	-11.2967
▁миссии	-11.2972
дай	-11.2973
▁врачи	-11.2973
▁сделает	-11.2975
▁тюрьму	-11.2975
▁село	-11.2975
▁проб	-11.2976
▁фронтов	-11.2977
▁Кал	-11.2978
▁важнейших	-11.2979
▁положить	-11.2981
▁взяв	-11.2983
▁исследователей	-11.2984
▁Северного	-11.2984
▁кро	-11.2985
▁позволило	-11.2987
▁смогу	-11.2987
▁военном	-11.2987
▁дальнейшего	-11.2988
▁Кавказ	-11.2989
▁представителями	-11.2989
89	-11.2994
▁бить	-11.2995
▁обряд	-11.2996
▁taken	-11.2996
▁германского	-11.2997
▁1975	-11.2997
▁бюджет	-11.2999
▁пас	-11.2999
▁решено	-11.3001
▁следствием	-11.3002
▁воспитания	-11.3003
▁моменту	-11.3006
▁политическим	-11.3007
▁группировки	-11.301
▁твою	-11.3012
душ	-11.3013
▁значительное	-11.3015
▁государственные	-11.3015
▁реже	-11.3015
▁заметили	-11.302
▁Одни	-11.3021
▁83	-11.3022
ании	-11.3022
▁осени	-11.3023
▁почве	-11.3023
вил	-11.3024
▁живого	-11.3025
▁clear	-11.3025
▁прорыва	-11.3026
▁пользы	-11.3027
▁канон	-11.3029
▁Павлович	-11.3031
▁мешает	-11.3031
▁ру	-11.3031
▁братом	-11.3031
▁1952	-11.3032
▁Две	-11.3034
▁гвардии	-11.3035
ыч	-11.3035
▁единственное	-11.3036
пил	-11.3038
▁маленьких	-11.304
▁средних	-11.304
▁лодка	-11.3042
▁исполнения	-11.3042
вшему	-11.3044
▁комиссия	-11.3046
▁еле	-11.3048
емъ	-11.305
▁пролетариата	-11.3053
▁учитывать	-11.3053
•	-11.3055
РА	-11.3055
▁хан	-11.3056
▁эксплуатации	-11.3057
▁вошла	-11.3059
▁солдата	-11.3059
▁поиски	-11.306
▁надежду	-11.306
▁некоторыми	-11.3061
▁противников	-11.3062
▁предложить	-11.3062
▁подводных	-11.3063
▁нашла	-11.3063
▁наблюдается	-11.3065
ящий	-11.3065
▁выразил	-11.3069
▁назначение	-11.3071
▁Стар	-11.3072
▁Фридрих	-11.3073
▁давайте	-11.3073
▁87	-11.3074
▁мудрость	-11.3076
▁Ме	-11.3077
▁пролив	-11.3081
▁(6	-11.3081
▁расти	-11.3082
▁личные	-11.3084
▁Тар	-11.3084
шит	-11.3084
▁отправили	-11.3085
▁готовность	-11.3085
ведение	-11.3087
▁Чер	-11.3088
▁надел	-11.3089
слов	-11.3089
▁Сталину	-11.3089
нского	-11.3089
лист	-11.309
▁вздохнул	-11.309
▁common	-11.309
▁показаться	-11.309
▁схема	-11.3091
▁ждут	-11.3092
▁ответы	-11.3092
пт	-11.3095
▁главу	-11.3098
▁оттого	-11.3098
▁дольше	-11.3101
▁интеллигенции	-11.3101
▁вернулась	-11.3102
▁возвращении	-11.3102
▁прекратить	-11.3102
int	-11.3102
ало	-11.3103
▁люд	-11.3103
▁1973	-11.3109
8]	-11.3109
▁Киеве	-11.3109
▁черно	-11.3109
▁показания	-11.3109
▁money	-11.3109
▁деньгами	-11.311
▁Ольга	-11.3113
енными	-11.3113
▁группами	-11.3115
▁whether	-11.3115
▁поставлен	-11.3115
▁show	-11.3115
time	-11.3116
▁Существует	-11.3116
▁hard	-11.3116
▁хода	-11.3117
▁крейсер	-11.3119
▁представлять	-11.3119
▁возникло	-11.312
▁жестоко	-11.3121
▁улицах	-11.3121
ev	-11.3122
▁прибыль	-11.3123
овская	-11.3125
▁Георгий	-11.3125
щики	-11.3127
▁Вернуться	-11.3127
▁советским	-11.313
▁Мел	-11.313
▁прочь	-11.313
▁принялся	-11.313
▁отчего	-11.313
тал	-11.313
▁near	-11.3131
▁диалог	-11.3131
▁численность	-11.3132
▁маршал	-11.3132
▁стиля	-11.3132
▁помещения	-11.3134
рав	-11.3136
▁ограничения	-11.3136
▁посол	-11.3136
▁отправить	-11.3136
рет	-11.3138
▁священник	-11.3139
добр	-11.314
▁высокую	-11.3141
мент	-11.3141
▁боги	-11.3142
▁цикла	-11.3142
▁картин	-11.3143
-6	-11.3143
▁дивизион	-11.3144
▁1911	-11.3145
▁Николаев	-11.3146
mann	-11.3146
ование	-11.3146
кою	-11.3146
▁сезон	-11.3146
кус	-11.3147
▁занимается	-11.3148
▁успехи	-11.3148
▁гр	-11.3149
▁сторонам	-11.3152
▁пункта	-11.3152
▁художников	-11.3152
▁прост	-11.3154
▁державы	-11.3154
▁весом	-11.3155
01	-11.3155
▁доверие	-11.3157
▁заняться	-11.3159
▁выделить	-11.316
▁Ильич	-11.3162
▁развитием	-11.3164
кро	-11.3165
▁создана	-11.317
▁сможете	-11.317
▁последующих	-11.3171
▁созданы	-11.3172
▁увеличение	-11.3172
▁говорите	-11.3172
▁1972	-11.3173
▁носил	-11.3173
▁номера	-11.3173
▁выполнение	-11.3175
▁утвержден	-11.3178
▁keep	-11.3178
▁международных	-11.3179
стат	-11.3182
▁сход	-11.3184
▁приема	-11.3185
▁окон	-11.3185
▁судна	-11.3187
▁мышление	-11.3187
▁приехали	-11.3188
▁взгляда	-11.3188
▁участвовали	-11.319
▁мышц	-11.3191
▁заставил	-11.3193
▁1969	-11.3193
вшимися	-11.3196
ВО	-11.3196
▁экипажа	-11.3196
См	-11.3197
клад	-11.3198
▁возникли	-11.3199
щая	-11.3201
▁мысленно	-11.3203
ря	-11.3204
54	-11.3205
▁Едва	-11.3206
▁вызвали	-11.3208
аем	-11.3209
▁учитывая	-11.3209
очку	-11.3212
чика	-11.3213
▁Игорь	-11.3214
▁доказательство	-11.3215
▁англо	-11.3216
▁умом	-11.3216
▁пишут	-11.3217
▁скота	-11.3219
▁пальцы	-11.3219
▁короткий	-11.322
▁5)	-11.3222
▁Цит	-11.3222
▁поэтов	-11.3223
акт	-11.3224
▁необходимое	-11.3225
др	-11.3229
▁красные	-11.323
▁подразделений	-11.3232
▁описал	-11.3234
▁("	-11.324
ику	-11.324
▁единственно	-11.324
▁аромат	-11.3242
▁массовой	-11.3242
стоя	-11.3243
сам	-11.3243
▁period	-11.3244
прос	-11.3246
▁reason	-11.3247
▁миллионы	-11.3247
▁восточной	-11.3251
▁понимая	-11.3254
▁расстояния	-11.3254
тя	-11.3255
▁лучшим	-11.3255
▁бывал	-11.3256
▁металла	-11.3257
63	-11.3258
▁Изд	-11.3259
▁установления	-11.326
▁1979	-11.3261
вос	-11.3261
оне	-11.3264
▁морю	-11.3264
▁’’	-11.3264
▁(10	-11.3266
▁Абу	-11.3267
▁Ладно	-11.3268
▁волна	-11.3269
▁производить	-11.3271
▁лекции	-11.3272
ations	-11.3272
▁land	-11.3272
зов	-11.3273
▁неплохо	-11.3273
▁Жив	-11.3274
смотр	-11.3274
лл	-11.3275
▁прорыв	-11.3275
▁Вып	-11.3277
▁французы	-11.3279
ip	-11.328
▁барон	-11.328
▁19.	-11.3281
▁букв	-11.3283
▁проблемой	-11.3286
▁концерт	-11.3288
дела	-11.3289
два	-11.3289
▁услышать	-11.329
▁милость	-11.3291
уча	-11.3291
▁встретили	-11.3292
▁живым	-11.3294
▁согласен	-11.3295
der	-11.3295
▁ver	-11.3295
▁15.	-11.3296
▁помещение	-11.3296
▁certain	-11.3297
▁составить	-11.3299
▁страниц	-11.3299
луч	-11.33
инской	-11.3303
▁рассчитывать	-11.3305
▁провал	-11.3305
▁крас	-11.3306
▁взрослых	-11.3307
▁вопросах	-11.3308
тка	-11.3311
пит	-11.3313
▁рота	-11.3316
▁устроить	-11.3319
▁1,5	-11.3322
▁полит	-11.3323
▁Англию	-11.3326
▁гнева	-11.3327
▁кабинета	-11.3327
▁послать	-11.3328
▁сп	-11.333
▁сем	-11.3333
▁канал	-11.3333
▁Красного	-11.3333
▁торпед	-11.3337
▁Комитет	-11.3341
▁движется	-11.3341
▁Cambridge	-11.3341
ТО	-11.3344
▁телеграф	-11.3345
▁причину	-11.3345
▁сотрудники	-11.3347
▁12-	-11.3348
▁вариантов	-11.3349
▁буквы	-11.3349
67	-11.3351
▁специалисты	-11.3352
▁относились	-11.3352
▁Сергеевич	-11.3353
▁разрыва	-11.3353
раб	-11.3353
▁How	-11.3353
▁приходили	-11.3356
▁Хор	-11.3356
▁маленькая	-11.3357
▁Алексея	-11.3357
▁физического	-11.3357
▁женщиной	-11.336
▁целых	-11.3361
▁уверены	-11.3361
▁непосредственны	-11.3361
▁важнее	-11.3361
▁mother	-11.3361
▁подал	-11.3361
▁высказывания	-11.3362
ющем	-11.3364
▁po	-11.3365
▁наружу	-11.3365
▁Дома	-11.3366
▁single	-11.3367
▁поколений	-11.337
▁кабинете	-11.3372
ьер	-11.3374
▁средством	-11.3374
▁Орлов	-11.3375
▁лучший	-11.3375
▁мг	-11.3375
▁третья	-11.3375
пп	-11.3376
усь	-11.3376
ins	-11.3377
▁Вал	-11.3378
▁направлениях	-11.3378
▁религиозной	-11.3379
▁произойдет	-11.3379
▁Ещё	-11.3379
▁1998	-11.338
▁пик	-11.3381
▁сложные	-11.3382
▁физических	-11.3383
▁Парижа	-11.3383
▁сооружения	-11.3384
▁интереса	-11.3384
▁качеств	-11.3386
▁Ra	-11.3387
▁Дан	-11.3387
▁неподалеку	-11.3388
▁ор	-11.3388
▁мышцы	-11.339
▁пьесы	-11.339
КИ	-11.3391
▁дан	-11.3391
▁подтвердил	-11.3392
▁either	-11.3392
▁Ду	-11.3393
▁заводов	-11.3395
74	-11.3395
чек	-11.3396
▁больной	-11.3397
▁надеюсь	-11.3401
▁историков	-11.3402
▁подряд	-11.3403
▁забывать	-11.3403
▁рыба	-11.3405
нки	-11.3408
▁ногах	-11.3408
▁tell	-11.3409
▁творения	-11.341
▁молодым	-11.3411
▁Леонид	-11.3411
▁транспорта	-11.3411
рид	-11.3412
▁тов	-11.3413
▁1997	-11.3414
▁будущей	-11.3416
▁Маркса	-11.3416
▁господа	-11.3417
▁страницы	-11.3417
▁уважение	-11.3418
▁Пример	-11.3418
▁соединение	-11.3419
▁бытие	-11.3419
веден	-11.3423
▁заговор	-11.3423
дор	-11.3424
▁це	-11.3424
61	-11.3424
▁ma	-11.3425
λ	-11.3425
▁канала	-11.3427
▁фраза	-11.3427
▁местной	-11.3427
▁золотом	-11.343
▁подполковник	-11.3431
▁70-	-11.3431
работа	-11.3432
▁огне	-11.3433
▁слоев	-11.3434
▁заключить	-11.3434
▁чрез	-11.3436
▁Ча	-11.3436
▁увидим	-11.3437
▁христианство	-11.3437
▁аккуратно	-11.3438
▁отпуск	-11.3439
жал	-11.344
▁неверно	-11.3442
▁1971	-11.3442
▁сроки	-11.3443
ei	-11.3443
▁муки	-11.3444
▁глубин	-11.3447
▁gave	-11.3448
▁шею	-11.345
▁истинно	-11.3454
▁требование	-11.3454
ег	-11.3454
ists	-11.3454
▁як	-11.3454
▁формирование	-11.3455
▁агентов	-11.3455
▁Юр	-11.3455
▁марш	-11.3457
▁РККА	-11.346
▁story	-11.346
▁1974	-11.3462
▁уста	-11.3462
▁ударил	-11.3464
▁изучать	-11.3465
▁Ex	-11.3465
▁восприятие	-11.3467
▁показано	-11.3467
▁Прав	-11.3468
▁Последние	-11.3468
▁неприятеля	-11.3469
▁Большая	-11.3469
овом	-11.3472
▁представил	-11.3474
▁sh	-11.3475
▁способствует	-11.3476
▁Mon	-11.3477
пят	-11.3478
▁посреди	-11.3479
▁дворце	-11.3479
▁2007	-11.3481
▁языках	-11.3482
Ис	-11.3483
▁Sa	-11.3483
стрел	-11.3484
ho	-11.3484
▁позор	-11.3487
ола	-11.3487
нец	-11.3488
▁),	-11.3488
▁испытаний	-11.3489
▁версия	-11.3492
▁Фу	-11.3492
бен	-11.3494
▁начинать	-11.3497
▁плав	-11.3499
▁основная	-11.35
▁зерна	-11.3503
▁богатых	-11.3509
▁высокая	-11.3509
▁ба	-11.3509
аж	-11.3513
min	-11.3514
▁признания	-11.3515
ць	-11.3515
▁парт	-11.3518
существ	-11.3519
▁режиссер	-11.352
▁южной	-11.352
▁широкое	-11.352
▁надолго	-11.3521
▁монастыре	-11.3521
▁двигатель	-11.3523
▁пап	-11.3523
▁полезно	-11.3523
▁плотно	-11.3524
▁кожа	-11.3525
▁утверждают	-11.3527
▁Кос	-11.3528
,000	-11.3529
▁ап	-11.3529
▁относился	-11.3529
▁груд	-11.3531
▁92	-11.3531
▁Господу	-11.3532
▁трёх	-11.3533
▁приняла	-11.3534
▁2003	-11.3535
лѣ	-11.3535
▁Шу	-11.3535
▁Сына	-11.3537
î	-11.3537
▁Цар	-11.3538
▁подняться	-11.3538
▁кредит	-11.3538
▁обсуждения	-11.3538
▁прихода	-11.354
▁полях	-11.354
▁выйдет	-11.3541
▁присутствует	-11.3541
▁существовали	-11.3542
▁проходил	-11.3542
▁1985	-11.3542
▁above	-11.3542
бат	-11.3543
▁освободить	-11.3544
▁элемента	-11.3544
▁синтез	-11.3546
▁Поли	-11.3547
▁Павлов	-11.3548
▁ужаса	-11.3548
▁северной	-11.3549
▁test	-11.355
▁надеяться	-11.3551
ыш	-11.3551
92	-11.3553
▁хорошей	-11.3553
граф	-11.3553
▁насыщен	-11.3554
▁имеющих	-11.3555
▁первому	-11.3557
▁положено	-11.3557
▁matter	-11.3558
▁Эль	-11.3558
▁From	-11.356
ris	-11.356
▁давай	-11.356
▁ребят	-11.356
▁восточных	-11.3561
▁ab	-11.3561
▁данное	-11.3561
▁грани	-11.3562
▁Маг	-11.3563
▁записал	-11.3564
▁inter	-11.357
▁поиск	-11.3571
▁правителя	-11.3572
▁live	-11.3572
бал	-11.3572
▁человеческий	-11.3573
▁историей	-11.3574
ніе	-11.3577
▁Русские	-11.3578
евых	-11.3581
▁Germany	-11.3586
▁деталей	-11.3587
▁исключения	-11.3588
▁across	-11.3588
78	-11.3592
▁назначил	-11.3592
▁Король	-11.3593
▁современном	-11.3594
▁1812	-11.3595
▁вашем	-11.3595
▁убедительно	-11.3595
▁вечеру	-11.3596
▁гол	-11.3596
▁вины	-11.3597
▁Вед	-11.3598
▁городских	-11.3599
▁сперва	-11.3601
▁линий	-11.3603
▁изделия	-11.3606
ε	-11.3607
глас	-11.3607
▁способна	-11.3608
▁стрельбы	-11.3609
▁лидеров	-11.361
знач	-11.3612
▁юности	-11.3613
одно	-11.3614
▁корм	-11.3614
аков	-11.3615
▁огромным	-11.3615
▁экран	-11.3616
▁невероятно	-11.3616
▁вторым	-11.3617
▁98	-11.3619
▁следствия	-11.3619
▁птица	-11.362
езд	-11.3621
▁modern	-11.3621
▁думаете	-11.3623
▁противо	-11.3624
â	-11.3626
▁умерла	-11.3627
▁страницах	-11.3629
▁сильных	-11.3631
▁With	-11.3633
▁исторический	-11.3633
og	-11.3634
жать	-11.3635
▁Энгельс	-11.3636
▁открыт	-11.3636
▁сложной	-11.3637
▁Совершенно	-11.3639
▁1988	-11.364
ением	-11.3643
▁оборудования	-11.3644
иной	-11.3648
▁стену	-11.365
▁language	-11.3652
ОН	-11.3653
▁указать	-11.3654
культур	-11.3655
били	-11.3657
▁Эн	-11.3657
▁лаборатории	-11.3657
▁сделав	-11.3658
▁late	-11.3659
▁1966	-11.3659
▁наблюдал	-11.3662
▁вер	-11.3664
▁русское	-11.3666
фр	-11.3668
▁видны	-11.3669
▁недостатки	-11.367
▁указание	-11.367
▁тишина	-11.3671
▁заключенных	-11.3672
▁возвращаться	-11.3673
▁свободной	-11.3673
▁заболеваний	-11.3674
▁поры	-11.3676
▁коем	-11.3677
▁семейства	-11.3677
нок	-11.3678
▁close	-11.368
АН	-11.368
▁удачно	-11.368
▁культуру	-11.3682
▁development	-11.3683
▁вероятности	-11.3684
свобод	-11.3684
▁годом	-11.3684
▁креп	-11.3689
▁странами	-11.3689
▁англ	-11.3689
▁листья	-11.3693
бург	-11.3694
▁Васильев	-11.3695
▁назвали	-11.3695
▁признает	-11.3697
▁рассуждения	-11.3698
▁древнего	-11.3699
▁подписан	-11.3699
▁ходит	-11.37
▁длины	-11.37
▁соли	-11.3701
▁заключалась	-11.3703
▁объектом	-11.3703
▁_	-11.3704
▁удивился	-11.3705
сона	-11.3705
▁wanted	-11.3705
▁жидкости	-11.3707
▁смену	-11.3707
▁человеческие	-11.3707
▁ошибку	-11.3707
▁направлен	-11.3708
▁2010	-11.3709
Кор	-11.371
ьем	-11.3713
▁собственными	-11.3714
▁фр	-11.3715
▁нефти	-11.3716
лъ	-11.3717
▁построен	-11.3717
▁96	-11.3719
▁1951	-11.372
▁кафе	-11.3721
▁добраться	-11.3723
▁800	-11.3724
52	-11.3725
▁1963	-11.3726
▁Матери	-11.3726
▁Th	-11.3727
▁кирпич	-11.373
bi	-11.3732
гра	-11.3734
▁heart	-11.3734
▁окончании	-11.3734
▁хватило	-11.3735
▁Бал	-11.3735
гранич	-11.3737
еев	-11.3738
▁концепция	-11.3739
▁колен	-11.374
▁открытым	-11.374
анта	-11.3746
центр	-11.3749
▁великому	-11.3749
▁будущих	-11.3749
верт	-11.375
▁советская	-11.3753
▁приобретает	-11.3753
▁Америка	-11.3755
tin	-11.3756
ишься	-11.3757
▁красный	-11.3757
▁ценой	-11.3759
▁91	-11.3759
▁естественным	-11.376
▁Немцы	-11.3761
▁любая	-11.3761
▁лучи	-11.3762
▁представлены	-11.3762
▁столкновения	-11.3762
▁смеш	-11.3763
▁привез	-11.3766
▁изображен	-11.3766
▁понимании	-11.3767
▁похожи	-11.3767
▁Фа	-11.3767
▁гору	-11.3768
▁обработки	-11.3768
▁аспект	-11.3768
▁комплекса	-11.3769
ких	-11.377
▁диск	-11.3772
▁молодости	-11.3773
▁суде	-11.3774
▁General	-11.3776
Са	-11.3778
▁отбор	-11.3778
▁Помню	-11.3778
▁справедливость	-11.3779
▁ПРО	-11.378
▁следить	-11.3781
▁ожидания	-11.3781
▁широкий	-11.3782
▁захвата	-11.3783
▁позвонил	-11.3783
ü	-11.3785
▁лучшего	-11.3785
▁суждения	-11.3788
каз	-11.3788
▁1978	-11.3788
▁art	-11.3788
▁мощь	-11.3791
ическому	-11.3793
▁человеческое	-11.3793
▁принципу	-11.3793
ans	-11.3794
▁тысячу	-11.3795
op	-11.3795
▁нижней	-11.3795
▁озеро	-11.3799
▁танковых	-11.38
▁производит	-11.3801
▁Ваш	-11.3802
▁ресурсы	-11.3803
▁взаимодействие	-11.3804
▁sent	-11.3805
▁1907	-11.3806
▁найден	-11.3806
▁игре	-11.3806
▁кат	-11.3806
ческая	-11.3806
▁Her	-11.3807
▁Ne	-11.3808
▁фланг	-11.3808
▁2002	-11.3809
▁обмена	-11.3809
▁вершины	-11.3816
▁крупный	-11.3818
uc	-11.3818
ающие	-11.3818
▁Подобно	-11.3819
▁Будучи	-11.3819
▁мощи	-11.3819
▁холодной	-11.3819
ship	-11.382
▁спине	-11.3822
▁убитых	-11.3823
лива	-11.3825
▁грехи	-11.3828
ема	-11.3829
▁русско	-11.383
▁бед	-11.3833
фф	-11.3834
▁97	-11.3834
▁совершать	-11.3834
▁выпуска	-11.3835
ющуюся	-11.3835
▁увеличить	-11.3836
▁последствий	-11.3837
▁Коль	-11.3837
▁ужасно	-11.3838
▁law	-11.3839
▁пункты	-11.384
анов	-11.384
▁всерьез	-11.3845
▁кров	-11.3846
▁угла	-11.3846
-16	-11.3847
мел	-11.3847
▁защитить	-11.3848
▁подобной	-11.3848
▁высот	-11.3851
▁образуют	-11.3852
▁добрый	-11.3852
▁телу	-11.3855
▁колебаний	-11.3856
▁Генерального	-11.3856
▁жар	-11.3859
▁дорого	-11.3859
▁достал	-11.386
▁транс	-11.386
▁дядя	-11.3861
▁сказки	-11.3861
▁Дела	-11.3861
▁position	-11.3863
▁Образ	-11.3864
▁революцию	-11.3865
▁соотношение	-11.3866
▁отказа	-11.3868
ош	-11.3869
▁международной	-11.3871
ez	-11.3871
▁русскую	-11.3872
част	-11.3874
▁Ага	-11.3874
▁упоминается	-11.3874
▁Berlin	-11.3876
бить	-11.3877
▁любили	-11.3881
▁бабушка	-11.3885
▁запасы	-11.3886
▁размер	-11.3886
▁разного	-11.3887
▁баланс	-11.3887
▁образе	-11.3887
▁единственная	-11.3888
▁неудач	-11.3888
▁Каждая	-11.389
▁вину	-11.3893
▁Саша	-11.3895
▁поезда	-11.3896
▁языки	-11.3896
рабатыва	-11.3896
▁описать	-11.3898
▁простого	-11.3899
▁sa	-11.3899
▁1982	-11.3901
▁правилам	-11.3901
▁кратко	-11.3904
▁фокус	-11.3905
▁соответствующим	-11.3908
▁five	-11.3911
▁морского	-11.3911
73	-11.3911
▁сл	-11.3912
pm	-11.3912
▁Per	-11.3914
евский	-11.3914
▁Сар	-11.3915
▁науч	-11.3915
▁че	-11.3916
▁выборов	-11.3916
▁здорово	-11.3917
▁имеющие	-11.3917
▁умение	-11.3918
▁обоз	-11.3919
▁маневр	-11.3919
есь	-11.3919
▁позволил	-11.392
Петербург	-11.3921
▁наступает	-11.3922
▁черта	-11.3924
▁Давай	-11.3924
▁93	-11.3925
ложив	-11.3926
▁субъект	-11.3927
иты	-11.3929
оч	-11.393
▁лежала	-11.3932
als	-11.3934
▁Сто	-11.3935
▁революционной	-11.3937
▁партийных	-11.3937
▁Князь	-11.3939
▁Александров	-11.3941
итов	-11.3941
▁собирать	-11.3942
▁исторические	-11.3944
▁мертвых	-11.3946
▁мл	-11.3947
▁деталь	-11.3947
▁лейтенанта	-11.3947
▁черных	-11.3949
тик	-11.395
▁полчаса	-11.395
▁заинтересован	-11.3951
▁огромная	-11.3952
▁залив	-11.3952
▁160	-11.3952
▁ученого	-11.3953
▁поддержать	-11.3954
▁нрав	-11.3957
▁категорически	-11.3958
▁result	-11.3959
цион	-11.396
▁Баб	-11.396
▁Семен	-11.3961
стях	-11.3964
▁завет	-11.3964
▁участков	-11.3965
▁ликвидации	-11.3965
▁собрании	-11.3967
▁лат	-11.3968
▁major	-11.3969
▁Сама	-11.3973
▁внутреннее	-11.3974
▁возглавил	-11.3974
▁Лет	-11.3974
▁ложь	-11.3977
▁пароход	-11.3977
▁недовольство	-11.3979
тона	-11.398
▁1976	-11.3983
олит	-11.3984
▁народе	-11.3984
▁Снова	-11.3985
▁преимущества	-11.3986
▁сохранились	-11.3986
▁успехов	-11.3988
▁обязанностей	-11.3988
▁ДНК	-11.3989
▁перестал	-11.399
▁(12	-11.399
▁повышение	-11.3992
ческий	-11.3993
дели	-11.3994
▁forces	-11.3994
▁Антон	-11.3997
роз	-11.3999
фир	-11.4
▁ужин	-11.4
▁небольшое	-11.4003
▁девушку	-11.4003
▁теряет	-11.4003
▁Платон	-11.4004
▁мяч	-11.4005
▁приход	-11.4006
▁соль	-11.4006
▁Буд	-11.4007
▁проф	-11.4007
▁установил	-11.4007
дь	-11.4008
▁папы	-11.4009
▁black	-11.4011
▁звезда	-11.4011
▁продолжают	-11.4011
▁определенное	-11.4012
▁ЦРУ	-11.4012
мышлен	-11.4012
▁яйца	-11.4013
▁Адам	-11.4014
▁распространен	-11.4015
▁добродетели	-11.4017
нную	-11.4018
▁Папа	-11.4019
предел	-11.402
▁услуг	-11.402
▁размышления	-11.4022
▁отсутствует	-11.4023
▁сообщества	-11.4023
▁nature	-11.4027
▁Сал	-11.4027
▁Комитета	-11.4032
..."	-11.4033
▁поступить	-11.4033
▁поначалу	-11.4036
▁контролировать	-11.4036
▁qui	-11.4036
Щ	-11.4037
уна	-11.4037
▁сказав	-11.4039
▁участки	-11.4041
▁открывает	-11.4042
▁программе	-11.4044
▁угроза	-11.4044
▁глагол	-11.4045
▁свойство	-11.4046
▁направить	-11.4046
▁1984	-11.4047
▁господина	-11.4048
оциалистического	-11.4049
gr	-11.405
▁расположен	-11.4051
▁Примерно	-11.4052
ода	-11.4053
91	-11.4054
▁установлено	-11.4055
▁банка	-11.4057
▁whose	-11.4058
▁Основные	-11.4059
▁крем	-11.406
▁способа	-11.4061
▁вдвое	-11.4063
▁Собственно	-11.4064
▁настойчиво	-11.4065
етъ	-11.4067
▁лидер	-11.4067
▁ударом	-11.4068
▁безопасность	-11.4072
▁West	-11.4074
сар	-11.4074
▁верю	-11.4075
▁eyes	-11.4076
▁Стоит	-11.4077
▁идее	-11.4078
▁схемы	-11.4079
▁quite	-11.408
▁расходов	-11.408
▁Ro	-11.408
▁si	-11.408
▁Чи	-11.4081
▁остановились	-11.4081
▁стих	-11.4082
▁Кот	-11.4082
▁называемый	-11.4083
▁видимости	-11.4083
▁проводили	-11.4083
тый	-11.4083
▁непри	-11.4084
ице	-11.4086
уха	-11.4087
▁собственном	-11.4089
▁отнести	-11.4089
▁чудеса	-11.4089
▁плащ	-11.4091
▁коров	-11.4092
▁Прошло	-11.4094
▁89	-11.4095
истый	-11.4095
▁убеждения	-11.4098
Re	-11.41
▁споры	-11.41
жил	-11.4102
▁противнику	-11.4102
▁учит	-11.4104
▁варианты	-11.4104
▁среду	-11.4106
▁ступени	-11.4108
▁участка	-11.4108
▁периодически	-11.4111
▁зам	-11.4121
труд	-11.4122
▁девушек	-11.4123
▁расположены	-11.4123
▁сер	-11.4125
▁вырос	-11.4125
следовательность	-11.4125
▁особые	-11.4126
▁долгие	-11.4127
▁ПРИ	-11.4127
мысл	-11.4128
бек	-11.4131
▁попыток	-11.4132
▁тяжести	-11.4132
▁являлась	-11.4134
▁стихотворение	-11.4134
рова	-11.4135
▁кос	-11.4137
▁However	-11.4137
▁известна	-11.4138
▁Степан	-11.414
▁дно	-11.4141
вала	-11.4143
res	-11.4146
▁руководители	-11.4147
▁attack	-11.4147
▁коротко	-11.4149
▁ученик	-11.4149
▁1908	-11.4151
▁Божией	-11.4151
верен	-11.4152
▁богу	-11.4154
▁Go	-11.4155
▁испытывает	-11.4156
▁anything	-11.4157
▁использовании	-11.4159
То	-11.4159
▁тенденции	-11.4161
▁эмоций	-11.4161
▁производстве	-11.4161
▁контраст	-11.4162
плат	-11.4162
▁интеллигент	-11.4164
▁топлива	-11.4166
▁стандарт	-11.4168
ee	-11.417
▁преступление	-11.4172
тельную	-11.4173
▁Mar	-11.4174
▁весть	-11.4175
▁холодно	-11.4176
▁Ярослав	-11.4176
▁толку	-11.4179
над	-11.418
tr	-11.4182
▁поражен	-11.4182
▁парк	-11.4182
вшемся	-11.4184
▁топ	-11.4184
▁предельно	-11.4186
▁хирург	-11.4186
▁Наука	-11.4187
▁повтор	-11.4187
▁государственным	-11.4189
▁называемой	-11.4195
▁перемены	-11.4195
▁разработки	-11.4197
▁флаг	-11.4199
▁отчаянно	-11.42
мол	-11.4201
лог	-11.4203
▁происходили	-11.4203
дат	-11.4204
▁методом	-11.4204
▁Долго	-11.4204
▁ООН	-11.4205
▁раздался	-11.4206
▁seemed	-11.4208
ере	-11.4211
▁выбирать	-11.4212
▁признак	-11.4214
▁кожу	-11.4214
▁Армия	-11.4215
▁продолжается	-11.4215
▁изучению	-11.4216
ори	-11.4216
Дж	-11.4217
важ	-11.4219
▁Ленинграда	-11.4219
▁высшее	-11.422
▁главную	-11.422
-7	-11.4221
ide	-11.4221
▁полосы	-11.4221
▁менять	-11.4221
▁действовал	-11.4222
▁молекул	-11.4223
енно	-11.4223
▁способами	-11.4223
▁политическое	-11.4224
▁СМИ	-11.4227
▁отдых	-11.4228
▁оставляет	-11.4229
▁улицам	-11.4231
▁девяти	-11.4231
▁Перевод	-11.4231
▁надеялся	-11.4234
▁небольшую	-11.4234
▁газов	-11.4237
▁взвод	-11.424
fe	-11.424
▁объема	-11.4243
Па	-11.4244
▁большевики	-11.4245
▁благодарность	-11.4245
▁современников	-11.4247
▁командиры	-11.4247
сл	-11.4248
▁поиска	-11.4248
▁вражеских	-11.4249
▁Army	-11.425
народ	-11.4251
▁experience	-11.4251
▁пальцем	-11.4252
▁указывают	-11.4253
▁бе	-11.4254
цкий	-11.4254
▁комнат	-11.4254
▁длина	-11.4256
▁проявление	-11.4258
▁называемых	-11.4258
▁ребенком	-11.4259
▁ведущих	-11.4259
▁раннего	-11.426
ger	-11.426
гур	-11.426
▁послание	-11.4261
▁господство	-11.4261
?)	-11.4263
▁ядра	-11.4264
od	-11.4264
▁стрелять	-11.4265
▁оценка	-11.4266
▁советско	-11.4267
▁экономические	-11.4268
▁бойцы	-11.4268
Ё	-11.4269
▁лишен	-11.4269
ыя	-11.4269
атов	-11.4271
валь	-11.4271
▁anti	-11.4271
▁Ca	-11.4271
▁model	-11.4273
▁супруга	-11.4274
▁обозначения	-11.4274
ns	-11.4275
▁Спас	-11.4278
▁приготовления	-11.428
▁стрелковой	-11.428
▁Bar	-11.428
ise	-11.4281
▁севера	-11.4281
▁ростом	-11.4283
ile	-11.4286
▁молод	-11.4286
▁использованием	-11.4286
▁советское	-11.4287
уч	-11.4287
▁вектор	-11.4287
wa	-11.4287
▁Путин	-11.4289
▁1987	-11.4289
▁государству	-11.4291
▁крыла	-11.4291
▁приведет	-11.4291
▁заключен	-11.4291
▁2006	-11.4293
▁проклят	-11.4293
ou	-11.4294
▁знаменитого	-11.4294
гов	-11.4294
07	-11.4295
▁turn	-11.4297
▁140	-11.4299
▁счастлив	-11.4299
▁looked	-11.4299
сель	-11.4301
81	-11.4301
▁94	-11.4301
▁ненависти	-11.4303
▁становился	-11.4303
▁столб	-11.4303
▁vi	-11.4304
▁ед	-11.4305
инга	-11.4306
▁ОТ	-11.4307
▁1977	-11.4307
▁стекла	-11.4307
Ни	-11.4309
▁двенадцати	-11.4309
▁съезде	-11.431
▁подобным	-11.431
цией	-11.431
▁углом	-11.431
▁величина	-11.4313
▁греков	-11.4313
▁cannot	-11.4313
▁брату	-11.4317
▁руководителя	-11.4319
▁поспешно	-11.4319
▁скандал	-11.432
▁заняты	-11.432
▁зала	-11.432
▁формах	-11.4321
za	-11.4321
хов	-11.4322
▁испытывал	-11.4322
▁выступление	-11.4322
▁постройки	-11.4324
рі	-11.4324
▁[...]	-11.4325
▁оценку	-11.4327
▁фильме	-11.4329
▁крупного	-11.4329
▁советы	-11.433
▁выступить	-11.433
▁разделить	-11.4332
▁актив	-11.4332
▁wrote	-11.4332
▁попросту	-11.4332
▁особым	-11.4333
ice	-11.4337
▁Вильгельм	-11.4337
▁Mo	-11.4337
▁обеспечивает	-11.4337
▁классической	-11.4339
▁думала	-11.4343
нице	-11.4343
▁всякую	-11.4344
▁Штатов	-11.4344
▁вып	-11.4346
▁мал	-11.4346
▁оценке	-11.4347
sp	-11.4347
▁1986	-11.4349
▁Lo	-11.4349
тельных	-11.435
нного	-11.4351
▁напрасно	-11.4351
▁#	-11.4352
▁думаешь	-11.4352
▁отказались	-11.4355
своему	-11.4358
▁акцент	-11.4359
▁огромных	-11.4359
▁базу	-11.4361
▁food	-11.4362
▁глубокий	-11.4363
▁making	-11.4363
▁перевода	-11.4365
▁Вчера	-11.4367
▁сходство	-11.4369
▁выбрал	-11.4371
▁требований	-11.4372
▁хорошая	-11.4373
▁опасно	-11.4373
разум	-11.4374
нах	-11.4374
▁условиям	-11.4375
▁сие	-11.4375
▁мертв	-11.4376
▁дум	-11.4376
▁преимущество	-11.4376
▁Европа	-11.4376
▁Достаточно	-11.4378
▁чей	-11.4378
▁фунтов	-11.438
▁(14	-11.4381
▁состоялся	-11.4382
трен	-11.4383
▁земного	-11.4384
▁русскому	-11.4385
▁стремления	-11.4387
▁музея	-11.4387
▁красно	-11.4388
sion	-11.4388
▁позволили	-11.4388
▁супер	-11.4389
хор	-11.439
ko	-11.4391
▁попала	-11.4392
▁чтение	-11.4392
пас	-11.4393
гляд	-11.4393
чувств	-11.4393
▁Вин	-11.4394
▁посольства	-11.4394
▁believe	-11.4394
министр	-11.4395
▁веса	-11.4395
▁soon	-11.4397
▁кап	-11.4398
▁1983	-11.4398
▁виноват	-11.4399
▁Генри	-11.4399
▁частной	-11.4399
▁училища	-11.44
НЫЙ	-11.4402
орган	-11.4402
▁левом	-11.4402
▁помогают	-11.4402
▁билет	-11.4405
ha	-11.4405
▁зданий	-11.4406
▁Дай	-11.4408
▁четверть	-11.4408
▁разведка	-11.4408
джа	-11.4408
▁тяжелый	-11.4409
нен	-11.4409
▁назван	-11.4409
▁овладеть	-11.4411
▁Начало	-11.4412
дол	-11.4413
▁Гал	-11.4415
▁жаль	-11.4415
▁подчеркнуть	-11.4416
ning	-11.4417
▁купил	-11.4418
▁непонятно	-11.4419
▁решением	-11.4419
▁11-	-11.442
▁сообщили	-11.4421
▁проверки	-11.4421
▁постоянного	-11.4423
▁возвращение	-11.4424
▁производственны	-11.4425
▁method	-11.4426
▁попытаться	-11.4427
▁изменилось	-11.4428
▁арт	-11.443
▁приняв	-11.443
▁отставку	-11.4431
▁энергично	-11.4432
93	-11.4433
▁Джа	-11.4433
ощ	-11.4433
▁Задача	-11.4434
▁небольшая	-11.4434
▁Египте	-11.4436
▁Достоевского	-11.4436
▁мастеров	-11.4436
▁друж	-11.4437
ьным	-11.4438
▁окружении	-11.4439
▁стороной	-11.444
▁царей	-11.4441
▁идеал	-11.4442
III	-11.4443
▁выборах	-11.4444
аются	-11.4447
тел	-11.4449
чив	-11.4449
▁штабе	-11.4452
▁Ак	-11.4452
▁роду	-11.4452
▁Московской	-11.4453
▁Ab	-11.4456
▁боится	-11.4458
▁ритуал	-11.446
▁turned	-11.446
▁Быть	-11.4462
▁сотрудник	-11.4463
Кон	-11.4463
▁устроен	-11.4463
▁истребителей	-11.4464
▁(7	-11.4466
▁звания	-11.4469
▁тыла	-11.447
▁живое	-11.447
▁пьян	-11.4471
уг	-11.4471
фор	-11.4473
▁храме	-11.4473
▁приходил	-11.4473
▁всѣ	-11.4473
▁морали	-11.4474
▁компьютер	-11.4474
ba	-11.4476
▁прогресса	-11.4476
вато	-11.4476
du	-11.4477
▁визит	-11.4479
▁получит	-11.448
▁соседей	-11.4481
▁Союзе	-11.4483
▁снизу	-11.4484
▁щит	-11.4486
▁добродетель	-11.4487
дыха	-11.4488
▁усиления	-11.4488
ski	-11.449
▁оказывать	-11.449
▁age	-11.4492
▁гон	-11.4492
▁Правительство	-11.4493
▁содержат	-11.4493
▁опыте	-11.4493
▁начинал	-11.4495
▁пошло	-11.4495
–17	-11.4495
▁секс	-11.4496
▁town	-11.4496
Кто	-11.45
▁Русская	-11.4501
ческие	-11.4501
▁перспективы	-11.4504
кую	-11.4507
▁настоящая	-11.4507
▁выгодно	-11.4509
▁Берлина	-11.4509
▁Министерства	-11.4511
82	-11.4512
▁Ѳ	-11.4513
▁чинов	-11.4514
лил	-11.4514
▁заставили	-11.4515
еса	-11.4515
▁level	-11.4515
▁юга	-11.4516
▁равновесия	-11.4516
▁start	-11.4517
▁торговых	-11.4519
▁доверия	-11.4519
руб	-11.4523
▁хор	-11.4524
нд	-11.4525
▁разно	-11.4526
▁Москвой	-11.4526
▁Остальные	-11.4527
▁переживания	-11.453
▁посты	-11.4531
▁мероприятий	-11.4531
▁коли	-11.4532
▁фразы	-11.4532
▁el	-11.4533
76	-11.4534
▁уничтожение	-11.4535
▁полей	-11.4535
▁парашют	-11.4537
▁составили	-11.4537
▁сильного	-11.4537
▁мечты	-11.4538
▁верит	-11.4539
▁формулы	-11.4541
▁однозначно	-11.4541
▁генералов	-11.4542
▁торжественно	-11.4543
▁del	-11.4543
▁Этого	-11.4545
▁Li	-11.4545
▁преобразования	-11.4546
▁повышения	-11.4548
▁научные	-11.4548
кл	-11.4549
De	-11.455
▁третьем	-11.4551
▁felt	-11.4552
▁страсть	-11.4553
▁старика	-11.4553
▁предложили	-11.4553
▁носят	-11.4555
ально	-11.4555
▁Опыт	-11.4555
▁считался	-11.4555
▁распределения	-11.4558
нина	-11.4559
▁структуре	-11.4559
▁вселенной	-11.456
vi	-11.4561
▁артиллерия	-11.4561
▁участием	-11.4562
▁Сергея	-11.4567
▁существовала	-11.4567
дев	-11.4568
▁огромного	-11.4568
▁Sch	-11.4568
▁примера	-11.457
▁великая	-11.4571
▁дипломат	-11.4571
▁звон	-11.4575
▁такова	-11.4575
мета	-11.4576
▁simple	-11.4577
щее	-11.4578
▁домом	-11.4578
▁лук	-11.4579
Де	-11.4579
▁склонны	-11.458
▁moment	-11.4582
хана	-11.4584
ируются	-11.4584
▁нисколько	-11.4584
▁звука	-11.4585
▁Жен	-11.4585
▁уголь	-11.4586
▁определенно	-11.4586
▁студент	-11.4588
▁замка	-11.459
IV	-11.4591
▁Америку	-11.4592
▁хлоп	-11.4592
▁возглавлял	-11.4592
▁white	-11.4594
▁низко	-11.4595
▁песня	-11.4595
дой	-11.4596
▁организме	-11.4598
▁превосходство	-11.4598
уя	-11.4598
▁травы	-11.46
▁слоя	-11.4601
▁Белоруссии	-11.4602
▁Благо	-11.4602
▁пита	-11.4604
▁перенос	-11.4605
нима	-11.4605
▁познакомился	-11.4606
▁воскресенье	-11.4607
▁Кро	-11.461
▁особенностей	-11.4611
чан	-11.4614
▁состоялось	-11.4615
▁потока	-11.4615
▁мя	-11.4617
▁схватил	-11.4618
▁иного	-11.4618
σ	-11.4618
▁нелегко	-11.4621
▁1909	-11.4623
ings	-11.4624
ЕМ	-11.4624
▁спрашивал	-11.4624
печат	-11.4625
▁ареста	-11.4626
▁батарей	-11.4627
▁фонд	-11.4629
▁рабочим	-11.4629
▁раны	-11.463
▁настаивал	-11.4631
▁посад	-11.4634
ительный	-11.4634
▁цену	-11.4634
▁огород	-11.4635
ell	-11.4635
▁Брат	-11.4638
▁Сов	-11.4639
▁облака	-11.4639
▁привыкли	-11.464
пле	-11.464
мп	-11.4642
▁называются	-11.4643
▁1981	-11.4643
▁счёт	-11.4645
▁факторы	-11.4646
fl	-11.4647
▁льда	-11.4647
▁искусств	-11.4648
▁родине	-11.4648
▁строк	-11.4649
Бог	-11.465
▁НАТО	-11.465
▁бак	-11.4652
▁видео	-11.4653
▁превратился	-11.4653
-15	-11.4653
▁ветви	-11.4655
▁верность	-11.4655
▁семьей	-11.4656
▁решился	-11.4656
▁разведку	-11.4658
ителем	-11.4659
▁Тро	-11.466
ino	-11.4661
▁пальцами	-11.4664
▁стыд	-11.4665
ившийся	-11.4667
uk	-11.4668
▁Новая	-11.467
▁цилиндр	-11.4671
▁чу	-11.4675
▁изнутри	-11.4676
▁победе	-11.4676
▁явились	-11.468
▁Рейн	-11.468
▁Екатерины	-11.4683
▁слабость	-11.4684
▁Похоже	-11.4685
▁special	-11.4686
ks	-11.4692
▁фразу	-11.4692
▁снабжения	-11.4693
▁убор	-11.4695
▁Ас	-11.4696
▁контрреволюцион	-11.4697
чество	-11.4697
▁значительную	-11.4699
▁исследователь	-11.4699
▁ОБ	-11.47
▁цепь	-11.4701
▁распоряжения	-11.4704
▁президентом	-11.4704
▁морем	-11.4705
сі	-11.4706
цел	-11.4709
▁значений	-11.4709
▁биографии	-11.4711
реш	-11.4711
▁важной	-11.4712
▁физически	-11.4713
▁ошибочно	-11.4713
ливо	-11.4714
und	-11.4714
▁экономике	-11.4715
▁пулемет	-11.4715
▁Всем	-11.4716
▁Dr	-11.4716
▁боюсь	-11.4718
va	-11.4718
▁нужным	-11.4719
▁настоящем	-11.4721
▁колонии	-11.4721
▁сделан	-11.4722
▁Лис	-11.4725
▁заседания	-11.4725
▁скал	-11.4725
▁Бориса	-11.4727
▁Hitler	-11.4729
▁суп	-11.4734
▁захватил	-11.4735
▁посетил	-11.4736
щих	-11.4737
▁стенах	-11.4737
▁град	-11.474
▁объяснял	-11.474
▁требовать	-11.474
буд	-11.4741
▁находят	-11.4743
▁Пришлось	-11.4745
▁перевал	-11.4746
▁близости	-11.4746
▁большего	-11.4747
▁especially	-11.4747
▁ислам	-11.4749
▁ухо	-11.4749
фт	-11.4751
▁сможем	-11.4755
▁[1	-11.4756
▁худ	-11.4756
▁художественной	-11.4757
▁Летом	-11.4757
▁вопросами	-11.4757
▁Ок	-11.4758
▁Берия	-11.4762
▁составляла	-11.4762
▁1903	-11.4763
▁воен	-11.4764
▁Анны	-11.4765
ob	-11.4767
▁рядах	-11.4768
▁дало	-11.4769
▁business	-11.4769
▁четверти	-11.4771
▁страданий	-11.4771
▁скончался	-11.4771
▁сумели	-11.4771
▁держит	-11.4772
▁Рос	-11.4773
-17	-11.4777
▁населением	-11.4778
▁конкретно	-11.4778
▁особую	-11.4778
Раз	-11.478
▁городского	-11.478
nt	-11.4784
▁гроб	-11.4785
▁2009	-11.4787
дам	-11.4787
▁ухода	-11.4788
▁Chapter	-11.4788
▁трубы	-11.4789
▁формула	-11.4791
вет	-11.4791
▁ресурс	-11.4792
▁ангел	-11.4794
▁грамот	-11.4796
▁уважения	-11.4796
▁фамилия	-11.4796
▁уходить	-11.4798
83	-11.4798
ища	-11.4799
ающий	-11.4799
▁намерен	-11.48
▁центров	-11.48
▁поступки	-11.4801
▁составил	-11.4801
класс	-11.4802
▁принц	-11.4804
see	-11.4805
▁Президент	-11.4808
▁молодежь	-11.4808
▁мужик	-11.4808
▁импульс	-11.4808
▁Oxford	-11.4812
▁Главный	-11.4813
▁эффективно	-11.4814
▁Di	-11.4815
▁приводят	-11.4815
▁корабле	-11.4815
▁сопровождении	-11.4817
▁заблуждение	-11.4818
ix	-11.4818
цеп	-11.4819
▁Август	-11.4819
▁выстрел	-11.4819
▁империя	-11.482
▁ме	-11.4821
строен	-11.4822
▁sea	-11.4822
▁факта	-11.4827
▁замечания	-11.4827
тъ	-11.4829
▁вслух	-11.4829
ica	-11.483
▁князем	-11.483
▁необходимы	-11.4831
▁сотрудничества	-11.4832
▁цена	-11.4836
▁полученные	-11.4836
▁республика	-11.4838
▁услуги	-11.4838
▁понимаете	-11.4839
эк	-11.484
▁behind	-11.4843
▁девочки	-11.4843
▁необычайно	-11.4843
▁желез	-11.4843
еш	-11.4845
▁particular	-11.4846
▁Евгений	-11.4847
▁выражением	-11.4849
▁180	-11.485
▁направлению	-11.485
▁отражает	-11.485
▁сидела	-11.4851
▁понимаем	-11.4851
▁Коп	-11.4852
реб	-11.4852
▁обычного	-11.4853
▁дневнике	-11.4853
▁творчестве	-11.4853
▁Алексеев	-11.4853
▁глубокое	-11.4855
▁угрозой	-11.4857
▁небольшим	-11.4858
рим	-11.4858
87	-11.4859
▁Вокруг	-11.4862
nie	-11.4862
▁ориентирован	-11.4862
!!!	-11.4863
▁песню	-11.4864
▁Оказывается	-11.4864
▁Бат	-11.4867
▁приемы	-11.4869
▁реакцию	-11.4869
▁play	-11.487
ахъ	-11.487
▁указывал	-11.487
▁быт	-11.4872
▁атаковать	-11.4874
▁единиц	-11.4875
совет	-11.4875
▁закончилась	-11.4876
iz	-11.4876
▁грубо	-11.4878
▁правого	-11.4878
МА	-11.4878
▁выступать	-11.4879
▁Швеции	-11.4879
глядыва	-11.488
айте	-11.488
▁священника	-11.4881
▁Яков	-11.4881
▁Stalin	-11.4882
▁Елена	-11.4882
▁заключил	-11.4882
Ли	-11.4883
никами	-11.4883
▁академик	-11.4884
▁пыли	-11.4886
-12	-11.4886
▁административно	-11.4887
▁младший	-11.4887
▁врагу	-11.4889
▁легкой	-11.4889
▁обществ	-11.4891
▁Горбачев	-11.4891
▁престола	-11.4891
▁изучал	-11.4892
▁длинный	-11.4892
▁волнения	-11.4892
рах	-11.4892
▁лицами	-11.4893
▁велик	-11.4894
▁top	-11.4895
▁страстно	-11.4895
▁партийной	-11.49
сн	-11.49
▁страхом	-11.49
▁красиво	-11.4901
▁отличались	-11.4903
▁бр	-11.4904
▁пророка	-11.4905
▁(8	-11.4905
▁further	-11.4905
▁стремятся	-11.4905
равн	-11.4906
▁дошли	-11.4906
▁выходили	-11.491
▁подошла	-11.491
▁Глав	-11.4911
лага	-11.4914
ота	-11.4914
▁вос	-11.4915
way	-11.4916
▁Вене	-11.4918
▁пятидесяти	-11.4919
▁бежали	-11.4921
▁ходом	-11.4923
▁ладно	-11.4924
▁80-	-11.4924
▁вторжения	-11.4926
▁еврей	-11.4926
▁Кер	-11.4928
▁предположения	-11.4928
▁различным	-11.4928
▁встать	-11.493
▁similar	-11.4931
▁Черчилль	-11.4931
▁осужден	-11.4932
▁генералом	-11.4932
▁атом	-11.4933
▁традиция	-11.4933
▁занима	-11.4934
▁помогли	-11.4934
▁ожидании	-11.4937
03	-11.4937
▁плат	-11.4938
пс	-11.4938
вшемуся	-11.4939
мах	-11.4939
▁экс	-11.494
▁105	-11.4941
▁дыхания	-11.4942
▁вал	-11.4944
ТИ	-11.4945
▁живу	-11.4947
▁костюм	-11.4948
▁труднее	-11.4951
мель	-11.4952
▁международного	-11.4953
двор	-11.4953
▁парня	-11.4954
▁республик	-11.4956
илл	-11.4957
▁потребления	-11.4957
▁занимали	-11.4958
Пол	-11.4959
дя	-11.4959
эм	-11.496
▁Пр	-11.4962
▁финансов	-11.4962
▁условно	-11.4963
▁совещание	-11.4965
эль	-11.4967
▁управлении	-11.4968
▁Алексеевич	-11.4968
pi	-11.4971
▁даром	-11.4972
▁старая	-11.4972
▁литературу	-11.4973
▁агрессии	-11.4973
▁произойти	-11.4973
▁двигателя	-11.4974
à	-11.4976
сек	-11.4977
▁технических	-11.4977
2).	-11.4978
ительные	-11.498
▁пресс	-11.4981
▁наглядно	-11.4981
нным	-11.4982
▁держаться	-11.4983
▁выс	-11.4985
▁домах	-11.4986
▁ученики	-11.4989
▁подальше	-11.4989
чил	-11.4989
▁полагать	-11.4989
▁Now	-11.499
▁колхоз	-11.4991
red	-11.4992
▁стихотворения	-11.4995
▁владе	-11.4995
▁падение	-11.4997
▁Мое	-11.4997
▁разговоре	-11.4998
▁чье	-11.5002
пра	-11.5004
▁разделение	-11.5004
▁Fe	-11.5005
▁исчезает	-11.5005
▁интересам	-11.5006
▁югу	-11.5007
▁министром	-11.5009
ческих	-11.5009
▁карт	-11.5011
нской	-11.5013
pt	-11.5014
▁бывшие	-11.5014
▁заговорил	-11.5015
▁подтверждает	-11.5016
New	-11.5016
▁закричал	-11.5017
▁персонажей	-11.5019
аешь	-11.5019
▁постель	-11.502
▁коры	-11.502
ицу	-11.502
▁вашему	-11.5021
опыт	-11.5022
▁жалко	-11.5022
▁пишу	-11.5022
енка	-11.5023
▁”	-11.5024
▁потерять	-11.5024
ируется	-11.5024
▁everything	-11.5026
▁woman	-11.5026
Ла	-11.5027
▁погода	-11.5027
▁римского	-11.5028
08	-11.5029
тика	-11.5029
▁личное	-11.503
▁рубеже	-11.503
▁Ѵ	-11.5031
▁религиозные	-11.5031
ff	-11.5032
▁мужество	-11.5032
▁21.	-11.5033
▁субъекта	-11.5034
▁110	-11.5034
▁перевести	-11.5034
▁катастрофы	-11.5038
▁Дю	-11.5039
▁прибор	-11.504
▁территорий	-11.5042
▁пешком	-11.5042
▁пулеметов	-11.5042
▁явилось	-11.5043
▁широкие	-11.5043
▁костей	-11.5044
▁характерно	-11.5044
▁давая	-11.5046
▁Землю	-11.5047
▁наблюдаем	-11.5048
▁нападение	-11.5049
▁различ	-11.5051
▁исполнен	-11.5052
▁терпеть	-11.5053
ize	-11.5055
▁команде	-11.5055
▁светло	-11.5056
▁brought	-11.5058
▁защите	-11.5059
▁знакомый	-11.5059
▁разряд	-11.506
▁артист	-11.5061
лич	-11.5061
▁стан	-11.5063
▁живо	-11.5065
▁концентрации	-11.5068
▁пустыне	-11.5069
ey	-11.507
▁сферу	-11.5071
▁проблеме	-11.5071
▁встречались	-11.5071
▁построил	-11.5071
▁Хрущев	-11.5072
▁встретились	-11.5073
1).	-11.5073
жд	-11.5073
▁автомобиля	-11.5073
енд	-11.5074
▁женился	-11.5075
vo	-11.5075
▁имелись	-11.5076
▁гроз	-11.5076
▁суждено	-11.5077
▁награжден	-11.5077
▁противоречие	-11.5079
▁возразил	-11.5079
▁Главного	-11.5079
▁усовершенствова	-11.5079
▁Po	-11.5081
▁Божие	-11.5082
▁действиям	-11.5084
▁развиваться	-11.5084
▁публицист	-11.5084
▁молоко	-11.5085
▁распада	-11.5085
▁акции	-11.5085
ПО	-11.5089
▁Пруссии	-11.5089
▁личным	-11.5092
▁направлены	-11.5092
▁тормоз	-11.5092
▁Figure	-11.5093
▁бизнеса	-11.5095
▁прежние	-11.5095
▁писатели	-11.5095
другому	-11.5095
люб	-11.5095
▁Войска	-11.5096
▁мотивы	-11.5098
▁наполнен	-11.5098
▁полосе	-11.51
▁врагами	-11.5101
▁Илья	-11.5102
▁ствол	-11.5102
mm	-11.5103
▁левого	-11.5103
▁school	-11.5104
▁лучшем	-11.5104
▁брал	-11.5104
▁доходов	-11.5106
▁компаний	-11.5107
▁экспорт	-11.5107
▁Сила	-11.5107
▁отличался	-11.5108
▁живем	-11.5108
▁материальной	-11.5109
▁Римской	-11.511
▁посоветовал	-11.5111
▁Зо	-11.5112
ствовать	-11.5113
istic	-11.5113
▁шлем	-11.5113
вест	-11.5114
▁расположения	-11.5115
▁горло	-11.5116
▁кам	-11.5116
▁технологий	-11.5118
▁Paul	-11.512
▁Тай	-11.512
▁скрип	-11.5121
▁эфир	-11.5123
▁выгод	-11.5124
▁bi	-11.5124
▁почвы	-11.5126
▁Чехов	-11.5127
▁мелко	-11.5129
su	-11.513
▁добился	-11.5131
дур	-11.5134
▁забыли	-11.5134
▁затрат	-11.5134
▁feel	-11.5135
▁mean	-11.5136
▁Бир	-11.5137
▁беседу	-11.5137
▁свидетельству	-11.5137
▁Троцкий	-11.5137
▁характере	-11.5138
▁являлось	-11.5139
▁обеспечение	-11.5141
инь	-11.5141
▁продовольствия	-11.5143
▁Am	-11.5144
▁кругах	-11.5144
▁благ	-11.5144
ł	-11.5144
▁Цель	-11.5145
▁представляла	-11.5146
▁Штаты	-11.5146
▁содержанием	-11.5147
▁миллион	-11.5149
▁записки	-11.5149
шел	-11.515
▁дисциплины	-11.5151
▁Федорович	-11.5151
▁Постепенно	-11.5153
▁сыр	-11.5154
▁суб	-11.5155
▁богом	-11.5157
▁профессии	-11.5159
▁подойти	-11.5159
линг	-11.5159
▁военными	-11.516
▁монарх	-11.516
▁Женщина	-11.5162
▁Мен	-11.5162
▁ХХ	-11.5163
▁духу	-11.5163
▁ци	-11.5165
▁угля	-11.5165
▁напомнил	-11.5165
®	-11.5168
▁energy	-11.5169
▁Ka	-11.5171
▁сформирован	-11.5172
▁Север	-11.5173
▁новости	-11.5173
▁римлян	-11.5175
▁дополнительные	-11.5175
▁плану	-11.5175
▁эры	-11.5179
▁Ци	-11.518
▁доклада	-11.5182
▁Путь	-11.5186
▁чуд	-11.5187
▁землях	-11.5189
▁выражает	-11.519
▁кольца	-11.5192
▁всякая	-11.5195
▁Положение	-11.5195
▁поклон	-11.5195
▁особенность	-11.5196
▁начнет	-11.5197
очного	-11.5198
▁бояться	-11.5199
62	-11.5199
▁определил	-11.52
▁искр	-11.5205
▁пользуются	-11.5205
▁Ленинграде	-11.5205
▁оправдан	-11.5206
▁турок	-11.5206
ЕН	-11.5208
▁исчезли	-11.5209
▁чья	-11.5211
▁посвятил	-11.5213
▁общественное	-11.5214
шн	-11.5215
▁равных	-11.5216
голов	-11.5218
▁добрые	-11.5219
▁внешним	-11.5222
▁August	-11.5223
▁основного	-11.5223
▁оккупации	-11.5223
▁желанием	-11.5223
▁сражаться	-11.5224
▁Венгрии	-11.5224
fa	-11.5224
▁Ох	-11.5228
▁направлений	-11.5228
русски	-11.5229
▁understand	-11.5229
▁Is	-11.523
▁ея	-11.5233
let	-11.5238
▁прежней	-11.5239
запад	-11.5239
▁Крыма	-11.524
▁увеличения	-11.5241
▁смотрят	-11.5241
▁коль	-11.5242
▁маршрут	-11.5243
аса	-11.5243
▁блока	-11.5243
▁прислал	-11.5244
▁доволен	-11.5245
ag	-11.5246
ард	-11.5246
▁role	-11.5246
▁red	-11.5247
▁уверенности	-11.5247
▁показала	-11.5248
ческого	-11.5248
St	-11.5249
▁надпись	-11.5249
евым	-11.525
▁поспешил	-11.5251
▁серьезных	-11.5252
ира	-11.5253
use	-11.5254
▁сомнение	-11.5254
▁обзор	-11.5255
▁этаж	-11.5255
▁прочего	-11.5255
▁Смерть	-11.5255
ö	-11.5256
▁Сибирь	-11.5256
▁Константинополь	-11.5256
▁живые	-11.5256
▁оказывает	-11.5258
▁горько	-11.5258
▁апостол	-11.5258
▁разделе	-11.5259
пин	-11.526
eg	-11.5261
▁звуков	-11.5262
▁адмирала	-11.5264
▁использовались	-11.5265
▁постановления	-11.5266
▁big	-11.5266
▁army	-11.5267
жение	-11.5268
▁превратить	-11.5269
ini	-11.527
▁узлов	-11.5271
▁круги	-11.5271
▁препятствия	-11.5272
▁90-	-11.5273
▁несли	-11.5279
▁пир	-11.5281
веч	-11.5283
▁организовал	-11.5283
▁премии	-11.5284
▁заботы	-11.5285
▁ящик	-11.5287
▁Дик	-11.5288
▁подписал	-11.5288
▁Er	-11.5289
▁установили	-11.5291
▁слове	-11.5292
▁множеством	-11.5292
▁пыталась	-11.5295
▁участии	-11.5296
▁пациента	-11.5296
▁нервной	-11.5297
▁местами	-11.5298
▁напрямую	-11.5299
100	-11.5299
▁Аллах	-11.5301
хот	-11.5302
Ан	-11.5302
▁воображение	-11.5303
▁покор	-11.5303
▁учесть	-11.5304
▁административны	-11.5304
ons	-11.5307
▁economic	-11.5307
▁Доктор	-11.5308
▁просвет	-11.5309
▁удобно	-11.5309
▁ИЗ	-11.5309
▁топор	-11.5311
ивать	-11.5314
▁грузов	-11.5315
▁Королев	-11.5316
▁Средней	-11.5317
▁влияет	-11.5317
▁орденом	-11.5317
▁Киева	-11.5321
ступив	-11.5324
▁искусством	-11.5324
▁положением	-11.5325
▁слабости	-11.5326
▁Рассмотрим	-11.5326
▁предоставить	-11.5326
▁дев	-11.5326
▁правый	-11.5327
▁study	-11.5328
держ	-11.5329
act	-11.533
▁понимаешь	-11.5332
тре	-11.5333
нат	-11.5333
▁своевременно	-11.5333
лиз	-11.5333
▁вдали	-11.5334
▁представителя	-11.5335
ates	-11.5335
▁стрел	-11.5336
▁одежда	-11.5337
▁European	-11.5337
▁клин	-11.5337
рот	-11.5338
▁небольшого	-11.5338
▁десятка	-11.5339
▁наблюдение	-11.5339
▁генералу	-11.534
▁явля	-11.5341
тельно	-11.5342
свят	-11.5343
▁молока	-11.5343
спо	-11.5346
▁дается	-11.5346
▁валют	-11.5347
ног	-11.5347
▁читателю	-11.5348
▁повернулся	-11.5348
▁коней	-11.5349
05	-11.5353
иком	-11.5353
▁устроил	-11.5354
▁спит	-11.5354
▁Питер	-11.5356
▁инициативе	-11.5356
▁благодати	-11.5359
▁явилась	-11.536
▁магнит	-11.536
▁Насколько	-11.5361
▁просьбе	-11.5366
▁перешла	-11.5366
▁образца	-11.5367
▁working	-11.5368
▁курсе	-11.5368
▁собственному	-11.537
ang	-11.5371
▁показатель	-11.5374
▁захотел	-11.5375
▁господства	-11.5376
▁материальных	-11.5377
▁хаос	-11.5378
▁State	-11.5378
ьян	-11.538
▁делая	-11.5381
▁нею	-11.5382
▁собран	-11.5382
▁длину	-11.5386
▁остановил	-11.5387
▁проводит	-11.5387
▁призван	-11.5388
▁шага	-11.5389
▁попадает	-11.5389
ere	-11.539
▁Львов	-11.5391
▁предполагалось	-11.5393
▁North	-11.5395
▁object	-11.5396
▁храмов	-11.5397
▁дальнейшее	-11.5397
▁реального	-11.5398
▁меру	-11.5399
поль	-11.5401
▁состоялась	-11.5401
раст	-11.5402
▁Председатель	-11.5402
▁40-	-11.5405
▁одежде	-11.5405
▁слуг	-11.5406
▁оставлен	-11.5408
for	-11.5408
▁казался	-11.5409
▁итог	-11.541
ph	-11.5411
▁точностью	-11.5412
▁колес	-11.5413
▁воин	-11.5413
▁Мартин	-11.5415
▁известие	-11.5416
актив	-11.5416
▁высота	-11.5417
▁правление	-11.5417
▁child	-11.5418
▁125	-11.5419
▁периоды	-11.542
▁Советская	-11.5421
▁действ	-11.5421
ано	-11.5421
▁местность	-11.5421
▁болот	-11.5422
▁23.	-11.5422
и́	-11.5422
▁еврейского	-11.5422
▁просьбу	-11.5424
▁Great	-11.5424
▁коммунизма	-11.5424
▁километрах	-11.5425
▁производится	-11.5425
лек	-11.5426
▁летчиков	-11.5428
▁проходят	-11.5429
▁пойду	-11.543
▁Ад	-11.543
ham	-11.543
▁Сав	-11.5431
▁Место	-11.5431
▁почву	-11.5431
▁мужу	-11.5431
▁проникнуть	-11.5432
▁Христе	-11.5433
ады	-11.5435
▁герцога	-11.5435
был	-11.5435
ck	-11.5438
▁победить	-11.544
¤	-11.5441
▁несут	-11.5441
▁счита	-11.5443
▁меди	-11.5443
▁конь	-11.5446
▁преступлений	-11.5446
▁проведение	-11.5447
▁пользуется	-11.5448
▁Петербурга	-11.5448
▁Кра	-11.545
только	-11.5453
▁Кр	-11.5453
▁кислоты	-11.5453
▁приобрел	-11.5456
▁внешний	-11.5458
▁Старик	-11.5459
▁fl	-11.5459
ong	-11.5463
▁Слав	-11.5464
▁Хи	-11.5464
▁читает	-11.5464
▁тезис	-11.5464
▁суше	-11.5464
▁бесед	-11.5466
▁сохранять	-11.5467
▁пистолет	-11.5468
‚	-11.5469
Мне	-11.5469
▁спектр	-11.5469
▁императором	-11.547
соб	-11.5471
▁верхов	-11.5471
▁развивать	-11.5473
глаз	-11.5474
▁смут	-11.5474
▁мощный	-11.5474
▁летописи	-11.5474
чай	-11.5476
▁увы	-11.5476
▁духовные	-11.5476
▁духовное	-11.5477
▁Анти	-11.5478
▁приняты	-11.548
▁корень	-11.5482
▁идеей	-11.5482
▁Третий	-11.5483
пл	-11.5485
▁сердцу	-11.5485
очная	-11.5487
▁господ	-11.5489
▁готовить	-11.549
▁key	-11.549
▁состоянию	-11.5491
▁МВД	-11.5493
▁Moscow	-11.5495
▁Дети	-11.5496
▁условием	-11.5498
▁выступали	-11.5498
▁орудие	-11.5501
▁учебных	-11.5501
▁звери	-11.5502
▁греб	-11.5502
▁строю	-11.5502
▁outside	-11.5503
▁обычным	-11.5503
▁железных	-11.5504
▁тревоги	-11.5504
друг	-11.5504
▁следующую	-11.5505
▁находящихся	-11.5507
▁разрешить	-11.5508
▁longer	-11.5508
▁согласны	-11.5509
ę	-11.551
▁лап	-11.5511
▁Тре	-11.5511
▁Макс	-11.5512
▁начальнику	-11.5512
▁проявил	-11.5512
▁математики	-11.5516
▁караван	-11.5516
▁theory	-11.5517
▁ha	-11.5517
▁региона	-11.5518
▁пламя	-11.5518
лён	-11.5519
цию	-11.5519
силь	-11.552
ования	-11.5523
ворот	-11.5524
оза	-11.5524
▁потребностей	-11.5524
▁гв	-11.5524
▁дверей	-11.5526
▁гражданских	-11.5527
▁создают	-11.5527
▁March	-11.5528
▁England	-11.553
▁квартир	-11.553
4)	-11.5531
lan	-11.5531
▁Can	-11.5533
▁сует	-11.5534
▁2015	-11.5534
▁сложнее	-11.5535
▁логики	-11.5535
▁мод	-11.5536
▁эпоха	-11.5536
▁жертвой	-11.5539
▁скажи	-11.5539
▁||	-11.554
▁документа	-11.5546
▁else	-11.5546
▁куски	-11.5547
▁просили	-11.5547
▁Андреев	-11.5549
▁боеприпасов	-11.5552
▁Пал	-11.5552
кут	-11.5553
ward	-11.5553
▁науку	-11.5554
бед	-11.5555
▁узел	-11.5558
▁маленького	-11.5558
▁лжи	-11.5561
▁Шел	-11.5562
▁агент	-11.5562
мира	-11.5563
▁медицины	-11.5563
▁встретился	-11.5564
▁определенную	-11.5565
▁уважением	-11.5565
▁целая	-11.5567
▁Раньше	-11.557
▁ще	-11.5573
▁принадлежности	-11.5574
ёл	-11.5575
▁польских	-11.5576
▁Новой	-11.5576
art	-11.5577
▁выражается	-11.558
▁Джона	-11.558
▁размера	-11.558
▁рев	-11.558
олом	-11.5582
иб	-11.5582
ецкий	-11.5582
▁продолжить	-11.5582
▁Кавказа	-11.5584
▁легенда	-11.5585
▁прямым	-11.5587
▁публично	-11.5587
▁малой	-11.5587
▁коридор	-11.5588
▁sure	-11.5591
▁градусов	-11.5591
▁символом	-11.5591
▁вершине	-11.5591
▁участник	-11.5594
▁лекарств	-11.5594
▁свободное	-11.5595
▁спасибо	-11.5595
▁взглянул	-11.5596
▁сражении	-11.5596
рд	-11.5596
▁Константина	-11.5596
ицкий	-11.5597
план	-11.5597
▁немцам	-11.5598
▁столик	-11.5599
гора	-11.56
▁альбом	-11.56
▁living	-11.5602
▁мыслями	-11.5602
▁говоришь	-11.5602
▁авиация	-11.5603
ставить	-11.5604
▁подать	-11.5604
▁палец	-11.5604
▁весны	-11.5604
▁Западного	-11.5605
▁банков	-11.5606
tre	-11.5607
▁достоинство	-11.5607
▁чужих	-11.5608
▁образец	-11.5608
▁Тип	-11.5608
▁короткое	-11.5608
▁молодая	-11.5609
▁уровнем	-11.561
▁произошли	-11.5613
▁пройдет	-11.5615
▁кристалл	-11.5618
а́	-11.5622
НЕ	-11.5625
▁красота	-11.5625
▁запрос	-11.5626
▁культурной	-11.5627
▁list	-11.5628
▁уроки	-11.563
▁московских	-11.563
▁Влад	-11.5631
▁hands	-11.5634
▁паспорт	-11.5634
бок	-11.5634
▁удален	-11.5635
▁пальцев	-11.5635
▁зрителей	-11.5636
▁ладони	-11.5636
▁революционного	-11.5636
▁выехал	-11.5636
500	-11.5636
▁хороших	-11.5637
qu	-11.5637
▁летчик	-11.5638
▁шаман	-11.564
are	-11.564
▁князья	-11.5641
гун	-11.5642
▁правитель	-11.5644
val	-11.5644
▁сообщал	-11.5647
▁Хуан	-11.5647
▁выглядел	-11.5649
▁Число	-11.565
▁ши	-11.5651
▁evidence	-11.5652
евые	-11.5652
▁моими	-11.5652
▁полгода	-11.5653
▁ча	-11.5653
▁французские	-11.5653
▁Вес	-11.5655
▁красного	-11.5655
▁тайной	-11.5656
▁английском	-11.5657
▁пря	-11.5658
▁освещен	-11.5658
▁Ho	-11.5658
лян	-11.5658
▁давала	-11.566
▁lost	-11.566
▁перестали	-11.566
▁сбора	-11.5662
▁планете	-11.5662
▁natural	-11.5663
▁молитву	-11.5663
▁предыдущих	-11.5664
▁учителей	-11.5664
off	-11.5666
▁111	-11.5666
▁Него	-11.5666
▁Обо	-11.5668
▁заседание	-11.5669
▁публики	-11.5669
▁современный	-11.5669
▁отрасли	-11.5669
▁противостоять	-11.567
▁немецким	-11.567
▁густо	-11.567
▁бред	-11.567
▁стремиться	-11.567
▁капитализм	-11.5671
▁various	-11.5671
▁сравнении	-11.5675
▁столу	-11.5677
▁противном	-11.5677
▁предела	-11.5677
▁проговорил	-11.5678
▁верили	-11.5678
▁подобный	-11.5678
▁снега	-11.5679
кле	-11.568
▁Томас	-11.568
▁критику	-11.5681
▁тенденция	-11.5682
▁императору	-11.5684
▁свободных	-11.5684
ившихся	-11.5685
▁близкие	-11.5686
▁2014	-11.5686
▁существовал	-11.5687
▁пациентов	-11.5687
orum	-11.5689
▁эффективности	-11.5689
▁заслуживает	-11.5689
▁Суворов	-11.569
▁появится	-11.5692
▁Товарищ	-11.5693
▁Грузии	-11.5693
рост	-11.5694
▁автобус	-11.5695
▁Хоть	-11.5696
▁Словом	-11.5696
▁вещество	-11.5697
He	-11.5697
оциалистической	-11.5697
▁2012	-11.5699
▁Луны	-11.5702
есть	-11.5702
нное	-11.5703
▁вывел	-11.5703
ній	-11.5703
утся	-11.5704
▁искали	-11.5704
▁достигла	-11.5704
▁сфер	-11.5705
-11	-11.5706
▁двинулись	-11.5709
▁способностью	-11.5709
▁определению	-11.571
идов	-11.5711
▁красной	-11.5712
▁East	-11.5713
▁заодно	-11.5713
философ	-11.5715
ыхъ	-11.5717
▁Дер	-11.5718
▁раздела	-11.5718
▁милиции	-11.572
▁петь	-11.572
▁поляков	-11.5722
▁испытывать	-11.5722
▁определенным	-11.5723
еро	-11.5723
▁истине	-11.5723
▁сия	-11.5724
▁любим	-11.5724
▁ближайшие	-11.5726
▁сосуд	-11.5727
▁пилот	-11.5727
▁надежде	-11.5728
▁стану	-11.5728
▁прямого	-11.5729
▁принадлежал	-11.5729
▁едино	-11.5729
▁опубликовал	-11.5732
▁атака	-11.5733
пущен	-11.5736
▁шпион	-11.5736
▁праздника	-11.5737
▁жертвоприношени	-11.5738
▁Times	-11.5738
▁дошло	-11.5739
▁мил	-11.574
▁Ричард	-11.574
▁слезами	-11.5741
▁роде	-11.5742
нг	-11.5742
▁северу	-11.5743
елю	-11.5743
▁individual	-11.5745
▁участь	-11.5746
▁высоком	-11.5747
ОМ	-11.5747
▁череп	-11.5748
▁схеме	-11.5749
▁равной	-11.575
▁скрыть	-11.5752
ren	-11.5752
▁китайской	-11.5754
gt	-11.5754
▁Union	-11.5757
▁разведывательно	-11.5757
▁отдавать	-11.5761
цин	-11.5763
▁field	-11.5765
▁напр	-11.5765
▁украшен	-11.5765
▁пласт	-11.5765
лый	-11.5767
▁жизненно	-11.5769
▁вскочил	-11.5771
▁реальных	-11.5773
▁церковной	-11.5773
дея	-11.5774
▁сцена	-11.5774
▁теме	-11.5774
▁родилась	-11.5774
▁сухо	-11.5775
▁Зем	-11.5775
▁фрагмент	-11.5775
▁крестьянин	-11.5776
▁банк	-11.5777
")	-11.5777
▁крупнейших	-11.5777
You	-11.5777
▁граждане	-11.5778
▁Бай	-11.5778
▁удовлетворения	-11.5779
▁протокол	-11.5779
кса	-11.5781
nes	-11.5781
▁странным	-11.5781
Бо	-11.5784
▁тяжелым	-11.5786
▁Слава	-11.5787
▁востоке	-11.5788
▁says	-11.5788
▁критик	-11.579
▁высокое	-11.5792
▁Готов	-11.5792
щен	-11.5792
▁психо	-11.5793
▁брали	-11.5794
▁mi	-11.5795
▁традиций	-11.5795
▁контролем	-11.5795
▁капли	-11.5796
▁работники	-11.5797
▁занимают	-11.5798
блюд	-11.5798
▁Ур	-11.5799
▁сознанием	-11.5799
ившиеся	-11.58
ug	-11.5802
▁излучения	-11.5802
It	-11.5804
▁левый	-11.5804
▁отдохнуть	-11.5807
▁чи	-11.5809
▁Красная	-11.581
ds	-11.581
▁спрос	-11.5812
▁шара	-11.5815
▁массой	-11.5816
▁газетах	-11.5816
▁Вполне	-11.5817
▁бат	-11.5817
▁action	-11.5818
▁Бело	-11.5819
▁Вос	-11.5822
▁баз	-11.5823
▁воспитание	-11.5825
▁Боге	-11.5825
We	-11.5826
▁носом	-11.5827
лон	-11.5827
ьной	-11.5827
▁совокупность	-11.5828
▁поврежден	-11.5829
ительно	-11.5829
▁технику	-11.5829
▁помогал	-11.5831
▁берут	-11.5831
▁обязательства	-11.5832
жат	-11.5832
▁картине	-11.5832
пала	-11.5833
▁перелом	-11.5833
▁предотвратить	-11.5834
▁personal	-11.5835
▁родных	-11.5835
▁соображения	-11.5836
▁ри	-11.5836
▁поп	-11.5837
▁печаль	-11.584
▁баб	-11.584
▁превратилась	-11.5841
ившего	-11.5842
lu	-11.5842
▁воздушных	-11.5843
3,	-11.5846
после	-11.5847
кладывать	-11.5847
оре	-11.5847
▁союзники	-11.5848
▁единицы	-11.5849
▁полон	-11.585
▁whom	-11.5851
▁снаряд	-11.5851
▁Эл	-11.5851
▁Пе	-11.5852
▁открытой	-11.5853
▁случается	-11.5854
▁командиру	-11.5854
▁применить	-11.5854
Те	-11.5855
▁поддерживал	-11.5855
▁San	-11.5856
▁официальной	-11.5856
▁праву	-11.5856
▁(13	-11.5858
▁выходят	-11.5861
▁завоевания	-11.5861
ведом	-11.5863
▁South	-11.5863
инская	-11.5863
▁летчики	-11.5864
▁принца	-11.5864
▁обречен	-11.5866
▁английские	-11.5869
▁2011	-11.5869
юк	-11.5869
▁побывал	-11.5869
▁полагает	-11.587
▁черного	-11.5871
лова	-11.5872
yn	-11.5872
▁силам	-11.5872
▁промышленных	-11.5872
▁широком	-11.5875
▁Ой	-11.5877
▁надобно	-11.5877
▁подготовить	-11.5878
▁приобрести	-11.588
▁пу	-11.588
▁погибших	-11.5881
▁дань	-11.5881
▁расстрел	-11.5881
▁Крест	-11.5882
▁предел	-11.5882
▁пророк	-11.5884
▁золотых	-11.5884
▁белым	-11.5884
▁деревень	-11.5887
▁польской	-11.589
▁science	-11.589
тип	-11.589
▁конкретные	-11.5891
▁кухне	-11.5891
▁продать	-11.5892
▁старших	-11.5892
▁Bd	-11.5894
▁объединение	-11.5894
▁старым	-11.5895
▁крупным	-11.5896
▁шее	-11.5897
▁думая	-11.5898
▁ground	-11.5898
▁опираясь	-11.5904
▁необходимостью	-11.5904
▁hours	-11.5904
▁горных	-11.5905
один	-11.5905
▁зиму	-11.5905
▁золотые	-11.5906
▁вступили	-11.5907
▁монах	-11.5907
▁заместителя	-11.5909
▁войсках	-11.591
mi	-11.5912
▁умирает	-11.5912
▁зверя	-11.5912
▁written	-11.5913
чина	-11.5914
▁председателем	-11.5914
▁700	-11.5917
▁пакет	-11.5918
ec	-11.5919
▁Бра	-11.5919
▁22.	-11.5919
▁Днепр	-11.5919
НЫЕ	-11.592
▁мирного	-11.592
▁Против	-11.5921
▁разговаривать	-11.5924
▁Ивановича	-11.5925
▁совету	-11.5925
▁совпадает	-11.5926
Йорке	-11.5927
▁бригад	-11.5927
стен	-11.5928
гал	-11.5929
цит	-11.593
α	-11.5931
▁комплект	-11.5932
▁немногих	-11.5932
пло	-11.5933
▁плохой	-11.5933
▁продвижение	-11.5933
▁range	-11.5934
Мир	-11.5934
▁Проблема	-11.5936
▁Самый	-11.5937
▁поступает	-11.5937
▁Ход	-11.5937
▁совершен	-11.5937
▁сотрудничество	-11.5938
▁культурных	-11.5938
▁Дмитрия	-11.5939
▁обычный	-11.5939
▁реп	-11.594
▁works	-11.5941
▁воспринимать	-11.5941
ируем	-11.5943
▁равны	-11.5943
ене	-11.5946
cos	-11.5948
человек	-11.5949
▁Граф	-11.5949
▁чая	-11.595
▁makes	-11.5951
ленные	-11.5952
▁strong	-11.5953
ay	-11.5955
ata	-11.5956
tal	-11.5957
▁частям	-11.5957
▁грязи	-11.5957
▁банки	-11.5958
▁поручил	-11.5961
▁мыслью	-11.5962
▁ситуациях	-11.5965
▁зритель	-11.5965
▁основ	-11.5965
▁ё	-11.5965
▁Фар	-11.5965
▁Государственной	-11.5966
▁слышно	-11.5967
▁ры	-11.5967
▁степи	-11.5967
▁методами	-11.5967
▁способностей	-11.5967
▁ходят	-11.5968
▁специальной	-11.5968
▁давлением	-11.5968
ворачива	-11.5968
▁хо	-11.5969
мина	-11.597
ИЯ	-11.5971
▁выборы	-11.5971
▁shall	-11.5972
▁Центрального	-11.5974
кое	-11.5974
▁чистого	-11.5975
▁оборудование	-11.5976
Вер	-11.5976
▁общему	-11.5977
▁тупик	-11.5977
▁убивать	-11.5978
▁серебра	-11.5979
▁ведомств	-11.5979
▁сим	-11.5979
чить	-11.5979
▁принимая	-11.5981
▁соблюдать	-11.5984
▁held	-11.5984
▁избегать	-11.5986
▁старается	-11.5986
чке	-11.5988
▁Всегда	-11.5988
ER	-11.5988
▁снаружи	-11.5989
▁Ельцин	-11.599
▁Bo	-11.599
▁Крыму	-11.599
▁usually	-11.599
▁духовно	-11.5992
▁Robert	-11.5992
▁поселения	-11.5993
▁проник	-11.5993
▁лодку	-11.5996
▁прокурор	-11.5996
▁Pre	-11.5997
▁враща	-11.5998
▁чиновники	-11.5999
3).	-11.5999
▁стрелкового	-11.6
▁0,5	-11.6
▁красоту	-11.6
▁внешние	-11.6001
▁впредь	-11.6002
▁совещания	-11.6003
▁правую	-11.6003
▁сахара	-11.6004
-8	-11.6005
▁Флор	-11.6006
▁любила	-11.6006
▁рабы	-11.6006
▁разработке	-11.6007
пет	-11.6009
▁каса	-11.6009
▁задолго	-11.6012
▁важность	-11.6013
▁probably	-11.6013
04	-11.6013
▁взвода	-11.6013
▁диалект	-11.6014
▁этаже	-11.6014
▁японских	-11.6014
set	-11.6014
▁lot	-11.6015
▁дождя	-11.6015
▁Иными	-11.6016
▁двинулся	-11.6017
▁южнее	-11.6019
▁начинали	-11.602
▁опубликован	-11.602
▁расширения	-11.6022
▁subject	-11.6022
▁сидят	-11.6023
▁национал	-11.6023
▁совесть	-11.6025
▁продовольственн	-11.6025
▁рассказывали	-11.6026
▁based	-11.6027
▁Имя	-11.6028
old	-11.6028
▁упоминает	-11.6029
▁doing	-11.6033
▁рыбу	-11.6034
▁population	-11.6034
▁массового	-11.6034
▁sun	-11.6034
▁Кат	-11.6036
▁охран	-11.6036
▁общаться	-11.6037
▁Ростов	-11.6037
▁просвещения	-11.6039
▁астроном	-11.6039
▁показывал	-11.604
▁Зе	-11.604
▁Муж	-11.604
▁обычай	-11.6042
iss	-11.6043
▁библиотеки	-11.6043
крас	-11.6043
▁подняли	-11.6044
▁шире	-11.6045
вый	-11.6046
▁дьявол	-11.6048
▁интерпретации	-11.6048
▁Таблица	-11.6048
▁кажутся	-11.6048
зон	-11.6049
▁bar	-11.6049
▁санитар	-11.6051
▁извне	-11.6051
нам	-11.6051
▁двести	-11.6052
фил	-11.6052
▁Совсем	-11.6054
▁Ницше	-11.6054
Се	-11.6056
ient	-11.6057
09	-11.6057
▁видения	-11.606
▁атак	-11.606
▁нужда	-11.6061
▁восстановление	-11.6062
▁―	-11.6063
▁держали	-11.6064
ектор	-11.6064
▁вреда	-11.6064
▁важности	-11.6065
ef	-11.6065
▁Дуб	-11.6065
▁печ	-11.6069
uch	-11.607
μ	-11.607
▁подо	-11.607
▁религиозного	-11.6071
▁кричал	-11.6072
▁table	-11.6073
▁собира	-11.6074
▁крае	-11.6074
▁super	-11.6075
▁Член	-11.6076
▁рассеян	-11.6076
▁Ba	-11.6077
▁Прошу	-11.6078
рии	-11.6079
▁экз	-11.6079
▁легенды	-11.6079
еру	-11.6079
▁занятие	-11.608
▁Сад	-11.608
▁умело	-11.6081
носил	-11.6081
▁102	-11.6081
▁дискуссии	-11.6083
▁объявили	-11.6083
▁строительстве	-11.6083
Та	-11.6084
▁(9	-11.6085
▁батальонов	-11.6085
▁удивление	-11.6087
иф	-11.6087
▁обратном	-11.6088
▁жестко	-11.6088
▁дивизию	-11.6089
▁видение	-11.609
▁сравнить	-11.6091
▁желательно	-11.6091
▁вооруженные	-11.6093
▁вызывать	-11.6094
▁members	-11.6094
▁старости	-11.6095
▁ранней	-11.6096
▁казалась	-11.6096
▁режиме	-11.6098
▁Тра	-11.6099
ea	-11.6099
сут	-11.6099
▁волну	-11.61
▁act	-11.61
ико	-11.6101
▁Система	-11.6102
▁крейсера	-11.6103
▁колеса	-11.6103
История	-11.6103
▁perhaps	-11.6103
▁Mr	-11.6104
▁специалист	-11.6105
▁кандидат	-11.6106
МО	-11.6106
див	-11.6107
▁China	-11.6107
овав	-11.6107
▁лидера	-11.6107
▁дохода	-11.6108
▁начальников	-11.6108
▁органами	-11.6108
▁технике	-11.6109
▁подтверждение	-11.6109
▁XXI	-11.6109
яс	-11.611
▁Ma	-11.6111
анский	-11.6112
▁гражданского	-11.6113
▁Газ	-11.6113
▁брошен	-11.6113
▁широких	-11.6114
▁пользуясь	-11.6114
tion	-11.6115
▁треугольник	-11.6115
▁возникнуть	-11.612
▁ожидая	-11.6122
Ба	-11.6122
▁крики	-11.6122
▁слои	-11.6122
▁включен	-11.6122
цо	-11.6122
ran	-11.6123
▁обвинение	-11.6123
▁метра	-11.6124
онос	-11.6124
▁future	-11.6124
▁обойтись	-11.6125
ator	-11.6126
ложение	-11.6127
▁жарко	-11.6128
атель	-11.6128
▁компромисс	-11.6129
▁доставить	-11.613
▁греческого	-11.613
▁решает	-11.613
▁(11	-11.6131
▁утрачен	-11.6131
▁Последнее	-11.6132
▁соблазн	-11.6133
▁проектов	-11.6133
▁выступают	-11.6135
▁акта	-11.6135
ological	-11.6136
▁желании	-11.6136
чук	-11.6137
доб	-11.6139
▁Ради	-11.6139
▁рассказов	-11.614
▁обществу	-11.6141
ring	-11.6142
▁духовный	-11.6143
▁отныне	-11.6145
▁Попов	-11.6145
▁МО	-11.6145
▁маг	-11.6146
▁необходима	-11.6147
my	-11.6148
▁десятилетий	-11.6148
▁интер	-11.6152
▁Япония	-11.6153
▁результата	-11.6153
▁наблюдений	-11.6155
▁гармонии	-11.6156
▁terms	-11.6157
▁ставил	-11.6158
стям	-11.6159
▁болѣе	-11.616
amp	-11.616
▁достижение	-11.6161
▁Архангельск	-11.6163
▁обычные	-11.6163
гран	-11.6163
▁1901	-11.6164
▁водо	-11.6165
▁заместителем	-11.6166
▁Института	-11.6167
▁заметила	-11.6168
▁органа	-11.6168
▁Чан	-11.6169
▁подчеркивает	-11.617
▁simply	-11.6172
▁малейшего	-11.6172
▁единое	-11.6172
▁казались	-11.6173
▁образцы	-11.6174
ill	-11.6174
▁делаю	-11.6174
▁Ночью	-11.6174
▁грустно	-11.6174
▁effect	-11.6175
▁поднимается	-11.6175
▁трети	-11.6176
▁knowledge	-11.6178
▁церквей	-11.6178
▁вирус	-11.6182
▁Италию	-11.6184
▁требованиям	-11.6185
▁истинной	-11.6185
▁написана	-11.6187
▁достать	-11.6187
▁польского	-11.6188
▁походе	-11.6188
▁захвачен	-11.619
02	-11.6192
▁верующих	-11.6192
▁престиж	-11.6193
▁обсуждение	-11.6193
▁обрести	-11.6195
▁разом	-11.6196
▁согласились	-11.6196
летней	-11.6197
▁подготовлен	-11.6198
72	-11.6199
гард	-11.6199
нымъ	-11.6201
▁случалось	-11.6201
▁равенства	-11.6203
▁исправить	-11.6203
▁стул	-11.6203
▁проходила	-11.6204
▁пот	-11.6205
▁атомов	-11.6207
▁намерение	-11.6207
▁тряс	-11.6207
яд	-11.6207
▁соответствуют	-11.6207
▁взглянуть	-11.6207
▁building	-11.6207
▁легкие	-11.6208
деля	-11.6208
▁всецело	-11.621
третьих	-11.6211
▁Even	-11.6211
▁отход	-11.6213
▁информацией	-11.6213
Ар	-11.6213
▁Михайлов	-11.6214
▁увеличивается	-11.6214
▁door	-11.6215
▁определяют	-11.6215
брав	-11.6216
против	-11.6216
▁молчание	-11.6217
гн	-11.6217
елем	-11.6217
▁сыновья	-11.6218
berg	-11.6218
▁молот	-11.6219
▁некотором	-11.6219
рия	-11.6221
▁Процесс	-11.6222
▁еврейской	-11.6222
▁Увы	-11.6223
▁ели	-11.6225
▁Фер	-11.6225
▁heard	-11.6226
овских	-11.6227
▁моряков	-11.6228
▁клад	-11.6228
▁pa	-11.6228
▁плодов	-11.6228
▁First	-11.6228
▁King	-11.6228
щим	-11.623
▁Прямо	-11.623
▁бывшей	-11.6232
▁сделаны	-11.6236
▁Мао	-11.6239
ven	-11.6239
▁контакты	-11.6239
ично	-11.624
▁служащих	-11.624
▁talk	-11.6241
хожу	-11.6241
ess	-11.6244
day	-11.6244
▁доли	-11.6244
▁бунт	-11.6245
▁Всю	-11.6245
▁известность	-11.6245
▁выполнен	-11.6246
▁северных	-11.6246
аре	-11.6247
▁броне	-11.6248
лежащ	-11.6248
▁поддерживает	-11.6251
▁text	-11.6252
▁качественно	-11.6253
▁переворота	-11.6253
овские	-11.6254
▁разгром	-11.6255
тяж	-11.6255
▁полиция	-11.6255
▁June	-11.6255
▁боялись	-11.6256
▁совершенства	-11.6256
▁сообща	-11.6256
▁хана	-11.6257
▁имеющий	-11.6257
▁перво	-11.6258
▁Валентин	-11.626
▁Артур	-11.6263
▁чет	-11.6263
ЕТ	-11.6264
▁максимум	-11.6264
▁демон	-11.6265
▁глубокого	-11.6265
▁months	-11.6266
▁помогали	-11.6267
▁bit	-11.6267
олов	-11.6268
▁глубокие	-11.627
tain	-11.6271
енок	-11.6271
jo	-11.6274
▁(20	-11.6275
▁ша	-11.6275
изировать	-11.6276
▁Рам	-11.6277
▁бесполезно	-11.6279
лия	-11.6279
▁мощности	-11.628
▁рубежом	-11.628
игра	-11.6283
▁немногие	-11.6283
▁патриарх	-11.6284
▁bo	-11.6285
▁организацией	-11.6285
▁метро	-11.6286
▁институте	-11.6289
▁нести	-11.6289
▁узнала	-11.629
ρ	-11.6291
▁московского	-11.6291
▁годам	-11.6292
her	-11.6292
▁101	-11.6293
▁познакомиться	-11.6293
следовательности	-11.6294
▁Lu	-11.6296
▁акций	-11.6297
▁low	-11.6297
▁ГЛАВА	-11.6297
▁Учитывая	-11.6298
▁камеры	-11.6299
▁завершения	-11.6299
▁вещах	-11.6299
▁продолжалась	-11.63
▁выбран	-11.63
ичен	-11.63
▁опасения	-11.6301
▁met	-11.6301
▁Васил	-11.6302
▁повесть	-11.6302
▁сравнения	-11.6303
▁Троцкого	-11.6303
▁ob	-11.6303
▁истинное	-11.6305
▁сесть	-11.6305
▁многократно	-11.6305
кали	-11.6305
▁отрядом	-11.6306
▁Фактически	-11.6306
▁культа	-11.6306
▁листов	-11.6307
▁108	-11.6307
▁опор	-11.6309
▁обещание	-11.6309
▁механизма	-11.6309
▁флотом	-11.6311
нке	-11.6311
▁признан	-11.6311
▁противоречит	-11.6311
▁бетон	-11.6311
▁участках	-11.6315
▁довелось	-11.6315
▁продолжалось	-11.6316
▁немецко	-11.6319
▁покое	-11.6319
стать	-11.6319
рь	-11.6321
▁соседних	-11.6321
▁бого	-11.6323
алась	-11.6325
тельной	-11.6326
▁западные	-11.6326
▁Пра	-11.6327
▁16-	-11.6331
ивших	-11.6331
▁попробовать	-11.6332
▁чудес	-11.6332
▁горячо	-11.6334
▁мифологии	-11.6335
▁богатые	-11.6336
спор	-11.6336
▁create	-11.6337
▁Ad	-11.6338
▁toward	-11.6339
рт	-11.6339
▁Смоленск	-11.6343
▁дружбы	-11.6345
▁настоящие	-11.6346
▁Марс	-11.6346
▁подавлен	-11.6346
бивать	-11.6346
▁прос	-11.6346
▁издал	-11.6347
▁13-	-11.6347
▁атмосферу	-11.6348
Для	-11.6348
▁заканчивается	-11.6348
▁заслуги	-11.6349
▁Вит	-11.6352
▁смотрела	-11.6353
▁Поль	-11.6353
оф	-11.6354
▁повреждения	-11.6355
▁Завтра	-11.6356
вис	-11.6356
▁узнает	-11.6357
▁объективно	-11.6357
▁109	-11.6359
КОВ	-11.6359
▁приказы	-11.6363
▁Джеймс	-11.6364
▁поехали	-11.6365
▁Будет	-11.6368
физ	-11.6368
▁температуре	-11.637
никова	-11.637
▁1:	-11.637
▁ступень	-11.6371
▁Кавказе	-11.6371
▁рисунок	-11.6372
▁основное	-11.6373
▁исполнить	-11.6374
å	-11.6375
▁научный	-11.6375
▁Полковник	-11.6378
▁six	-11.6382
▁ров	-11.6382
▁available	-11.6382
▁нулю	-11.6384
▁ядро	-11.6386
▁1902	-11.6387
▁образуется	-11.6388
дум	-11.6389
▁родственники	-11.6389
▁Вашингтон	-11.6389
▁углов	-11.6389
▁нанес	-11.639
▁распределение	-11.639
▁возвращался	-11.6391
▁гарнизона	-11.6391
того	-11.6392
▁присутствия	-11.6393
▁рапорт	-11.6394
▁церковных	-11.6395
АР	-11.6395
ест	-11.6395
ящие	-11.6396
▁достигнуть	-11.6396
алы	-11.6397
▁Обе	-11.6399
▁sometimes	-11.6399
▁глупо	-11.6401
▁заводы	-11.6402
Ком	-11.6402
тина	-11.6403
▁классе	-11.6403
▁молиться	-11.6403
слушива	-11.6405
▁знати	-11.6406
▁соотношения	-11.6407
▁султан	-11.6409
вѣ	-11.6409
▁поздней	-11.6409
бан	-11.6409
нера	-11.641
▁аргумент	-11.6411
="	-11.6412
▁обязанность	-11.6412
▁исследовании	-11.6413
▁удел	-11.6416
▁смесь	-11.6416
▁(3)	-11.6416
▁command	-11.6417
ИС	-11.6417
▁влюблен	-11.6417
▁battle	-11.6418
▁Ган	-11.6418
▁увлека	-11.6419
▁памятников	-11.6419
▁порог	-11.642
▁provide	-11.642
▁крупной	-11.6421
▁входил	-11.6423
▁зеркало	-11.6423
▁Art	-11.6424
▁случится	-11.6424
особенно	-11.6424
▁четверо	-11.6424
▁начальство	-11.6426
▁Уильям	-11.6426
▁физические	-11.6428
▁истинного	-11.6428
▁Це	-11.6428
▁друзьям	-11.6428
▁section	-11.6428
ийцы	-11.6429
¬	-11.643
▁христиане	-11.6431
mes	-11.6431
▁обезьян	-11.6432
▁делала	-11.6432
▁долине	-11.6432
ві	-11.6432
▁раскрыл	-11.6432
▁бросились	-11.6434
▁некое	-11.6434
▁верхом	-11.6435
▁выходе	-11.6438
▁почувствовать	-11.6439
▁лев	-11.6439
▁возврат	-11.644
▁Сара	-11.644
аций	-11.644
шир	-11.6441
▁недостатка	-11.6441
▁занимаются	-11.6441
▁Тим	-11.6443
шись	-11.6443
▁леп	-11.6445
ИЙ	-11.6445
▁указанных	-11.6445
▁случиться	-11.6448
опо	-11.6448
▁Егор	-11.6448
Ор	-11.6449
▁Противник	-11.6449
▁родины	-11.6449
▁led	-11.6449
▁экономика	-11.645
▁внутренним	-11.6452
креп	-11.6453
▁comp	-11.6453
▁проблемами	-11.6453
▁кавалер	-11.6454
кла	-11.6454
▁неудачи	-11.6456
подоб	-11.6456
▁возвраща	-11.6456
▁Car	-11.6457
▁отверстие	-11.646
des	-11.6461
tim	-11.6461
▁Christian	-11.6463
tt	-11.6463
▁моё	-11.6463
метр	-11.6465
▁Голос	-11.6466
▁эффективность	-11.6466
▁Румынии	-11.6467
▁повторить	-11.6467
▁Советском	-11.6468
▁неприятно	-11.6469
▁поверх	-11.6469
▁строения	-11.647
елли	-11.6471
▁вагон	-11.6471
▁окружен	-11.6472
▁четвертый	-11.6474
▁заказ	-11.6477
▁поведении	-11.6479
▁аспекты	-11.6479
жав	-11.6479
▁женщинам	-11.648
▁постановление	-11.6482
▁Washington	-11.6482
▁терять	-11.6483
▁July	-11.6484
▁Хал	-11.6484
гни	-11.6485
▁поэмы	-11.6485
▁Les	-11.6486
▁Але	-11.6488
▁повседневной	-11.6491
отвор	-11.6492
▁бумагу	-11.6492
арт	-11.6492
▁равенство	-11.6494
▁эр	-11.6495
иев	-11.6497
▁закончен	-11.6497
гром	-11.6498
нка	-11.6499
▁party	-11.6501
гру	-11.6501
▁тепла	-11.6501
▁секретарем	-11.6503
▁стыдно	-11.6504
люсь	-11.6504
▁социализм	-11.6505
▁International	-11.6506
▁En	-11.6508
▁Группа	-11.6509
▁лишним	-11.6509
▁Блок	-11.6509
▁разрешил	-11.651
▁Ил	-11.6511
▁данными	-11.6512
ath	-11.6513
▁потерян	-11.6513
▁Сол	-11.6514
Ха	-11.6514
▁Черт	-11.6515
▁добычи	-11.6515
▁парус	-11.6518
▁гре	-11.6518
ries	-11.6518
▁больнице	-11.652
▁выходил	-11.652
▁тюрем	-11.652
▁Подобные	-11.6521
▁хорошую	-11.6524
▁закончить	-11.6525
▁едет	-11.6525
▁Добро	-11.6527
▁пристально	-11.6527
▁имелось	-11.6527
▁дневник	-11.6527
▁снаряды	-11.6528
▁художественного	-11.6531
▁зашел	-11.6533
▁Ним	-11.6534
▁небольшом	-11.6534
▁намек	-11.6534
▁исполнять	-11.6535
▁zu	-11.6535
▁фактором	-11.6536
измом	-11.6536
▁Приказ	-11.6536
▁include	-11.6536
▁проведении	-11.6537
▁женского	-11.6538
▁последовал	-11.6538
▁плоть	-11.6538
▁Life	-11.654
▁находил	-11.654
▁мут	-11.6543
▁сводится	-11.6544
бав	-11.6545
▁18-	-11.6546
▁защита	-11.6547
▁следов	-11.6548
инка	-11.6549
▁Идея	-11.6552
ывать	-11.6553
▁металлов	-11.6554
шими	-11.6554
ослов	-11.6554
▁national	-11.6554
▁Харьков	-11.6555
▁Cor	-11.6556
▁интересует	-11.6556
je	-11.6556
▁листьев	-11.6558
▁ожидали	-11.6559
▁принесла	-11.656
▁внутренняя	-11.656
▁знакомство	-11.656
▁политикой	-11.6561
4).	-11.6561
▁Каким	-11.6562
▁рта	-11.6564
водя	-11.6564
▁согласован	-11.6564
▁try	-11.6564
▁вечной	-11.6564
▁желанию	-11.6564
цар	-11.6565
▁лекарства	-11.6566
нными	-11.6566
▁ночной	-11.6566
br	-11.6568
истые	-11.6568
▁seems	-11.6569
▁здоров	-11.6569
▁восторг	-11.657
▁кричит	-11.6571
▁15-	-11.6571
▁сочинение	-11.6571
▁trans	-11.6571
▁House	-11.6571
▁среда	-11.6573
▁George	-11.6574
▁внутреннюю	-11.6574
▁местным	-11.6574
▁Соответственно	-11.6577
▁торговля	-11.6577
Ку	-11.6577
▁Францией	-11.6577
▁отмечалось	-11.6578
▁round	-11.6579
▁списка	-11.6579
▁окружение	-11.658
ившие	-11.658
▁нс	-11.6581
▁подданных	-11.6581
дают	-11.6582
▁Вслед	-11.6582
▁хр	-11.6583
▁Пес	-11.6583
▁20.	-11.6583
▁снижение	-11.6583
▁состояний	-11.6583
леж	-11.6583
▁парламента	-11.6583
▁Вопросы	-11.6586
▁Hu	-11.6588
атом	-11.6588
▁пустой	-11.6588
▁барабан	-11.6588
▁Андреевич	-11.6588
▁сугубо	-11.6589
▁привет	-11.659
▁механизмы	-11.6591
▁приоритет	-11.6591
▁несправедливо	-11.6593
кри	-11.6594
▁отдельного	-11.6594
Су	-11.6595
▁рекорд	-11.6595
sin	-11.6595
▁тѣмъ	-11.6597
уди	-11.6598
▁некоего	-11.6599
▁стресс	-11.6601
▁инструкции	-11.6601
▁king	-11.6602
▁волей	-11.6603
▁Сократ	-11.6603
▁знакомые	-11.6605
ированные	-11.6606
▁взялся	-11.6606
2-	-11.6606
ische	-11.6607
▁Новые	-11.6608
▁битва	-11.6609
▁собираются	-11.661
▁тайна	-11.661
▁потребуется	-11.6612
▁Ибн	-11.6613
▁хозяйстве	-11.6613
▁Володя	-11.6614
▁Великая	-11.6614
▁абсолютной	-11.6615
▁твоим	-11.6616
▁связ	-11.6616
▁выполняет	-11.6617
▁вызывали	-11.6619
▁памят	-11.662
▁крупными	-11.6621
овки	-11.6623
▁боевую	-11.6623
▁ката	-11.6623
▁зону	-11.6624
▁Кле	-11.6624
лип	-11.6624
▁заговора	-11.6624
ката	-11.6625
▁Мам	-11.6626
▁кошмар	-11.6627
▁стекло	-11.6628
**	-11.6629
▁Соколов	-11.6629
▁спин	-11.6629
▁умы	-11.6631
▁критике	-11.6631
общ	-11.6631
оцен	-11.6631
оли	-11.6634
▁107	-11.6634
▁незадолго	-11.6634
▁Людовик	-11.6635
▁навыки	-11.6635
▁установка	-11.6636
▁возвратился	-11.6636
▁Пара	-11.6637
▁ОГПУ	-11.6639
▁foreign	-11.6639
▁зерно	-11.664
▁насилие	-11.6642
▁мировую	-11.6643
вести	-11.6644
▁морские	-11.6644
▁стихах	-11.6644
▁малыш	-11.6645
жда	-11.6646
▁улучшения	-11.6646
▁Лин	-11.6647
▁сохранение	-11.6649
▁Стало	-11.665
▁открытом	-11.665
▁Платона	-11.6652
VI	-11.6652
▁прямых	-11.6653
▁высотой	-11.6654
▁115	-11.6654
▁рукопись	-11.6657
▁Наряду	-11.6657
▁императрицы	-11.6658
▁помнил	-11.6659
▁авангард	-11.6661
евского	-11.6663
▁коммуникации	-11.6663
▁бег	-11.6664
▁западе	-11.6666
▁Герой	-11.6666
▁защищен	-11.6666
▁вмешательства	-11.6666
▁специального	-11.6668
▁бедных	-11.6669
▁быта	-11.6669
▁пришёл	-11.6669
▁Света	-11.6669
▁обнаружен	-11.6669
η	-11.6669
▁miles	-11.6669
▁стоп	-11.6671
▁будущий	-11.6671
▁Кому	-11.6672
▁действующих	-11.6673
▁основан	-11.6674
дорож	-11.6675
▁происхождении	-11.6676
ick	-11.6676
▁японцев	-11.6676
▁истинный	-11.6676
▁раба	-11.6676
▁родом	-11.6676
овцы	-11.6677
▁литературных	-11.6677
▁растение	-11.668
▁мешок	-11.668
▁били	-11.668
▁оставляя	-11.6681
▁перенес	-11.6683
▁Собор	-11.6684
AL	-11.6684
вязан	-11.6684
друж	-11.6685
▁полагаю	-11.6686
▁Главным	-11.6687
кѣ	-11.6689
▁пустыни	-11.6689
6).	-11.6689
▁серьезным	-11.6689
▁Сирии	-11.6689
▁дон	-11.6689
▁общественные	-11.669
▁буд	-11.669
▁Ta	-11.669
▁move	-11.6691
▁читали	-11.6694
ящих	-11.6694
▁желаний	-11.6694
▁feet	-11.6696
АК	-11.6697
▁сооружений	-11.6697
▁литературной	-11.6698
▁обратились	-11.6698
пел	-11.6698
▁газету	-11.6701
лиц	-11.6701
▁своею	-11.6701
▁тайну	-11.6703
▁бело	-11.6704
▁Алекс	-11.6704
▁гипер	-11.6704
дова	-11.6704
▁соединя	-11.6705
▁Пап	-11.6706
ore	-11.6706
▁бесплатно	-11.6707
5%	-11.6707
▁печени	-11.6708
▁верой	-11.6709
чуть	-11.6709
▁обществом	-11.671
▁фильтр	-11.6711
▁дис	-11.6711
▁Sp	-11.6713
▁некоторого	-11.6714
▁sort	-11.6716
▁островах	-11.6717
▁Получив	-11.6717
▁тяжелое	-11.6717
▁Rome	-11.6718
▁ПВО	-11.6718
▁ибн	-11.672
вяз	-11.6721
▁сообщений	-11.6721
▁Белого	-11.6722
▁переходе	-11.6722
wi	-11.6723
ностей	-11.6723
▁необходим	-11.6724
▁равновесие	-11.6726
ern	-11.6726
▁рассмотрим	-11.6726
гад	-11.6726
▁поднялись	-11.6726
▁трижды	-11.6727
▁задал	-11.6727
▁свойствами	-11.6728
▁рассматривал	-11.673
▁2,5	-11.6731
жан	-11.6731
▁наверх	-11.6732
▁космос	-11.6733
▁инстинкт	-11.6733
▁скалы	-11.6734
▁прочитать	-11.6735
▁документах	-11.6735
▁похорон	-11.6737
▁оставшихся	-11.6739
▁полагают	-11.6739
▁свят	-11.674
▁заимствован	-11.6743
▁чужие	-11.6744
▁божества	-11.6746
▁коммунисты	-11.6747
▁точкой	-11.6749
▁духовенства	-11.6751
▁творческой	-11.6751
▁столетий	-11.6751
▁дыма	-11.6751
▁таков	-11.6752
▁королевства	-11.6753
▁music	-11.6754
▁римской	-11.6755
fer	-11.6755
люд	-11.6756
▁Стро	-11.6756
▁широкого	-11.6757
▁упала	-11.6758
▁Болгарии	-11.6758
ичность	-11.6759
-9	-11.6759
▁океане	-11.676
щад	-11.6764
▁атмосфере	-11.6764
дина	-11.6765
▁design	-11.6767
▁уз	-11.6769
▁Чехословакии	-11.677
▁средний	-11.677
▁свойственно	-11.6772
▁рак	-11.6772
▁оснащен	-11.6773
▁September	-11.6773
▁мечтал	-11.6774
▁молитве	-11.6774
▁эскадры	-11.6775
енье	-11.6775
▁подчас	-11.6776
ейн	-11.6776
▁психиатр	-11.6777
▁мины	-11.6778
▁Кун	-11.6778
чь	-11.6779
бель	-11.678
▁передо	-11.6782
ныне	-11.6784
▁несчастье	-11.6786
▁унтер	-11.6786
дѣл	-11.6787
▁солдатами	-11.6788
▁культурного	-11.6788
▁заявляет	-11.6788
▁счету	-11.6788
▁Cha	-11.679
▁Ирина	-11.6792
хват	-11.6793
вшем	-11.6793
▁доходы	-11.6793
сия	-11.6794
▁бумаге	-11.6794
▁Достоевский	-11.6795
▁ссылки	-11.6797
▁даты	-11.6797
▁композитор	-11.6798
▁моно	-11.6798
инд	-11.68
▁размером	-11.68
около	-11.6801
▁morning	-11.6801
▁удовлетворить	-11.6802
▁выглядеть	-11.6803
▁активной	-11.6804
▁Малой	-11.6806
▁шест	-11.6807
▁ребенку	-11.6807
▁содержанию	-11.6808
▁Уч	-11.6808
▁ехал	-11.6808
▁основанием	-11.6809
▁написаны	-11.681
▁Григорьевич	-11.6811
▁варианта	-11.6812
▁карьеру	-11.6813
▁рассвете	-11.6814
▁вниманием	-11.6814
▁1890	-11.6815
▁интересом	-11.6815
основ	-11.6816
▁раскол	-11.6817
▁вызвала	-11.6817
▁Red	-11.6819
▁база	-11.6819
▁получило	-11.682
аш	-11.682
▁пообещал	-11.682
▁греки	-11.6821
▁Пет	-11.6821
US	-11.6822
▁таковой	-11.6822
▁deal	-11.6823
▁письмах	-11.6823
рев	-11.6823
▁называем	-11.6824
▁герб	-11.6825
▁приют	-11.6826
ЛЯ	-11.6827
▁комната	-11.6827
▁дитя	-11.6828
▁112	-11.6829
шер	-11.6829
▁чист	-11.6829
▁осуществлять	-11.6831
▁основатель	-11.6832
▁wife	-11.6833
▁породы	-11.6834
▁гора	-11.6834
▁добрых	-11.6834
▁Кузнецов	-11.6836
▁порыв	-11.6836
рина	-11.6837
▁Кай	-11.6839
▁спектакль	-11.6839
▁фактом	-11.684
▁сыграл	-11.684
▁книгой	-11.684
▁христианского	-11.684
▁созна	-11.6841
▁невозможным	-11.6842
well	-11.6844
06	-11.6848
▁разбор	-11.6849
▁dead	-11.6849
▁Гл	-11.685
▁Кирилл	-11.6852
▁солнцем	-11.6852
▁сторонники	-11.6854
▁реальные	-11.6854
ОТ	-11.6855
▁иди	-11.6856
▁знака	-11.6856
▁любому	-11.6857
НАЯ	-11.6857
▁помните	-11.6858
▁ближайших	-11.6859
▁зимы	-11.6859
гло	-11.686
▁1930-	-11.686
▁спокойствие	-11.6861
▁му	-11.6861
▁сцен	-11.6862
▁лорд	-11.6862
▁студенты	-11.6863
▁курсы	-11.6863
▁расширение	-11.6864
▁надписи	-11.6866
▁сравнение	-11.6867
▁знакомства	-11.6869
▁возможные	-11.6872
▁считались	-11.6874
вари	-11.6875
▁выпить	-11.6876
▁продажи	-11.6877
ischen	-11.6877
▁возрастает	-11.6878
телен	-11.6879
▁access	-11.6879
▁Peter	-11.6879
▁Ке	-11.688
▁Гре	-11.688
▁природных	-11.688
▁хранить	-11.6881
ленный	-11.6886
▁террор	-11.6887
дача	-11.6888
▁зверь	-11.6888
▁Государь	-11.6889
▁преследования	-11.689
▁103	-11.6892
▁уравнений	-11.6896
▁корпусов	-11.6897
▁проекты	-11.6897
▁выступили	-11.6898
▁контракт	-11.6898
▁Пожалуй	-11.6898
elle	-11.6899
нула	-11.69
▁мудр	-11.6901
▁инструментов	-11.6901
▁открывается	-11.6902
▁дочерью	-11.6903
▁дороже	-11.6906
▁sound	-11.6907
ущие	-11.6907
▁помешать	-11.6907
▁читаем	-11.6908
▁David	-11.6909
▁правах	-11.6909
▁смотря	-11.6909
▁призвал	-11.691
изацию	-11.6911
7).	-11.6915
языч	-11.6916
▁родителям	-11.6916
▁6)	-11.6917
▁Анатолий	-11.6917
▁сели	-11.6918
ys	-11.6918
ін	-11.692
▁Афин	-11.692
▁приготовлен	-11.692
▁разговоров	-11.692
▁искусству	-11.6921
▁госпиталь	-11.6922
▁Баз	-11.6922
▁крут	-11.6924
▁довести	-11.6924
▁потеряла	-11.6925
амъ	-11.6925
▁chapter	-11.6927
▁верный	-11.6928
▁характером	-11.6929
▁печи	-11.6929
▁прожил	-11.6931
▁лесов	-11.6931
руд	-11.6932
▁беспокойство	-11.6934
росс	-11.6934
▁эвакуации	-11.6934
▁созда	-11.6935
▁встречал	-11.6936
▁tr	-11.6937
еди	-11.6938
▁налет	-11.6938
▁фамилию	-11.6941
▁ввел	-11.6942
▁someone	-11.6942
▁Грин	-11.6944
▁Бой	-11.6945
▁бессмысленно	-11.6946
▁check	-11.6947
▁медитации	-11.6947
▁греческой	-11.6947
▁составлял	-11.6948
▁наследство	-11.695
▁майора	-11.6951
▁простое	-11.6951
▁крестьянства	-11.6951
#	-11.6953
▁es	-11.6953
скор	-11.6954
▁бас	-11.6955
▁Боб	-11.6956
числ	-11.6956
бери	-11.6957
▁вправе	-11.6957
▁прах	-11.6957
▁месяце	-11.6959
▁Петроград	-11.696
вела	-11.6961
▁рассказала	-11.6962
▁Сент	-11.6963
▁регионе	-11.6963
▁красным	-11.6965
▁записку	-11.6965
▁Говоря	-11.6965
nn	-11.6965
▁ask	-11.6966
▁куп	-11.6966
▁ночам	-11.6966
▁Вначале	-11.6967
▁секунды	-11.6968
▁Увидев	-11.697
▁center	-11.6971
вз	-11.6971
▁проводят	-11.6972
▁account	-11.6972
▁Not	-11.6972
▁замечание	-11.6973
▁высшие	-11.6973
▁учил	-11.6974
▁Будь	-11.6975
▁дефицит	-11.6975
лот	-11.6976
▁Жил	-11.6977
▁дама	-11.6978
▁letter	-11.6979
▁музыке	-11.6979
▁греческих	-11.6979
▁Помните	-11.698
▁выполнил	-11.698
over	-11.698
▁разгрома	-11.6982
▁исходит	-11.6982
▁повсеместно	-11.6985
▁создается	-11.6987
▁Гражданской	-11.6987
мой	-11.6987
▁иерархии	-11.6988
▁издании	-11.6989
▁April	-11.6989
▁элиты	-11.699
надцат	-11.699
▁Сон	-11.6991
▁заполнен	-11.6992
▁поступок	-11.6992
ающей	-11.6993
▁обоснован	-11.6993
▁обладать	-11.6994
▁конверт	-11.6995
▁former	-11.6999
▁высшим	-11.7
▁October	-11.7002
[...]
