<unk>	0
<s>	0
</s>	0
[PAD]	0
[UNK]	0
[CLS]	0
[SEP]	0
[MASK]	0
,	-2.85155
.	-3.18941
▁и	-3.96622
▁в	-4.06427
а	-4.47369
▁на	-4.79396
▁не	-4.79945
▁с	-4.85846
е	-4.98349
▁	-4.99835
-	-5.09214
и	-5.13345
▁что	-5.23473
▁—	-5.25406
▁«	-5.30325
▁по	-5.37428
у	-5.42046
м	-5.48544
ы	-5.50337
:	-5.5481
▁к	-5.62051
▁(	-5.6929
▁за	-5.7683
о	-5.77184
▁В	-5.80473
▁как	-5.84036
▁из	-5.8474
▁от	-5.84936
▁о	-5.85303
ов	-5.87822
ом	-5.88614
s	-5.89329
▁the	-5.92985
▁а	-5.95214
»	-5.96928
▁у	-5.98293
▁–	-5.99521
й	-6.023
▁его	-6.05942
▁он	-6.13117
х	-6.15297
▁я	-6.248
я	-6.2649
;	-6.27794
)	-6.27808
▁это	-6.31479
▁для	-6.3437
▁при	-6.35637
▁же	-6.36751
?	-6.39218
▁но	-6.40338
▁И	-6.42296
▁А	-6.43923
▁до	-6.44353
▁of	-6.45296
▁С	-6.455
▁то	-6.46561
▁все	-6.48034
ой	-6.54253
ся	-6.56878
ные	-6.57028
▁было	-6.57604
ами	-6.57838
ных	-6.58913
ной	-6.62827
ный	-6.63032
го	-6.6389
▁and	-6.63994
ю	-6.6551
▁или	-6.65657
то	-6.66315
▁вы	-6.66485
!	-6.67325
▁был	-6.69
▁так	-6.69015
▁их	-6.71423
▁г	-6.72158
ъ	-6.73
▁под	-6.73445
».	-6.75129
▁to	-6.75333
ми	-6.75564
в	-6.7937
ет	-6.79672
▁бы	-6.79697
ли	-6.79752
с	-6.81149
▁a	-6.82208
но	-6.83321
...	-6.83659
▁только	-6.8368
▁мы	-6.84327
▁-	-6.84679
ка	-6.85695
ия	-6.86735
▁in	-6.87965
л	-6.88758
ки	-6.89165
▁Но	-6.90942
▁они	-6.92047
ного	-6.92305
т	-6.94875
▁Я	-6.98888
▁про	-6.99069
▁со	-6.99676
ть	-6.99998
▁раз	-7.00674
на	-7.02161
ная	-7.02601
▁чтобы	-7.04374
»,	-7.0486
ах	-7.05374
▁были	-7.06871
▁во	-7.08351
▁ее	-7.09865
ным	-7.09968
).	-7.10858
▁когда	-7.115
▁уже	-7.13094
▁На	-7.13677
▁время	-7.14679
ии	-7.15329
▁еще	-7.16684
ed	-7.17029
▁По	-7.17907
ая	-7.19412
▁об	-7.1945
▁К	-7.21421
▁ни	-7.24766
),	-7.2814
ам	-7.28328
ого	-7.28496
▁она	-7.29075
▁У	-7.29377
▁того	-7.29761
▁Он	-7.30444
ий	-7.31078
▁меня	-7.31181
▁была	-7.32129
▁если	-7.32809
ное	-7.33544
▁М	-7.33571
ку	-7.34048
▁которые	-7.35471
ие	-7.35737
ную	-7.36069
▁Не	-7.36102
ь	-7.36929
▁том	-7.37606
’	-7.38298
ей	-7.38357
ию	-7.38958
▁мне	-7.39525
▁быть	-7.43162
▁О	-7.43894
ых	-7.44032
▁есть	-7.44383
▁без	-7.44419
ing	-7.44863
▁может	-7.4491
ла	-7.45458
▁этого	-7.45476
▁пере	-7.45626
▁чем	-7.4592
▁т	-7.46046
▁ли	-7.4648
ем	-7.4666
▁более	-7.47756
▁"	-7.47955
▁этом	-7.48049
н	-7.48473
▁Это	-7.48487
▁ему	-7.497
▁даже	-7.49918
▁I	-7.49955
ить	-7.52061
▁себя	-7.5217
▁года	-7.52745
▁тем	-7.53516
ые	-7.55163
не	-7.55476
▁где	-7.55771
д	-7.56386
ского	-7.57029
▁после	-7.57613
▁[	-7.58159
к	-7.58681
б	-7.58703
ый	-7.59694
ской	-7.59926
▁который	-7.6042
▁можно	-7.60771
С	-7.60791
▁нас	-7.61806
▁них	-7.62093
за	-7.62401
▁будет	-7.63012
▁также	-7.63588
▁очень	-7.63662
ок	-7.64071
ном	-7.66088
лись	-7.66216
ют	-7.6728
ым	-7.6807
ется	-7.68661
ными	-7.68671
t	-7.68869
d	-7.69627
ую	-7.69724
ский	-7.69764
▁that	-7.69836
сти	-7.71441
▁лет	-7.72346
▁2	-7.72442
▁всех	-7.72932
ке	-7.73975
▁1	-7.74309
ит	-7.74828
В	-7.75476
▁Г	-7.76687
им	-7.76867
▁За	-7.76893
▁жизни	-7.77122
▁П	-7.77185
▁При	-7.78273
▁него	-7.7949
р	-7.7951
ло	-7.7968
▁is	-7.80635
▁всего	-7.80988
▁“	-7.8118
ен	-7.814
▁между	-7.81899
▁себе	-7.82347
▁was	-7.8272
—	-7.83695
▁человек	-7.83792
ны	-7.8395
▁кто	-7.8417
г	-7.8446
▁этот	-7.84771
▁этой	-7.85023
▁ты	-7.8593
п	-7.86198
"	-7.8685
му	-7.86883
e	-7.87217
▁своей	-7.87705
▁Как	-7.89329
▁for	-7.89572
▁The	-7.89727
▁один	-7.90594
▁Если	-7.9117
▁через	-7.9127
]	-7.91312
ться	-7.91901
ил	-7.92065
▁эти	-7.92342
лся	-7.9452
та	-7.94758
▁больше	-7.95109
▁над	-7.96332
▁лишь	-7.96691
А	-7.96712
▁нет	-7.96884
y	-7.97017
▁им	-7.97435
▁перед	-7.97596
▁Т	-7.97786
ly	-7.98841
er	-7.99244
ш	-7.99816
▁3	-8.00196
или	-8.00286
▁Так	-8.00798
по	-8.02257
▁людей	-8.03205
▁там	-8.03221
сть	-8.03306
/	-8.0347
▁своих	-8.03604
▁много	-8.04319
▁Д	-8.04809
'	-8.05032
n	-8.05456
▁году	-8.06005
▁S	-8.06301
те	-8.07035
ое	-8.0714
лась	-8.07351
ются	-8.07661
▁несколько	-8.07927
▁Б	-8.08621
▁сказал	-8.08625
ских	-8.08883
их	-8.08952
▁свою	-8.09108
▁as	-8.09372
ни	-8.09689
▁Л	-8.09972
▁Н	-8.10252
▁with	-8.10307
▁против	-8.10777
▁которых	-8.11608
▁времени	-8.12001
▁потому	-8.13237
▁on	-8.13441
▁нам	-8.13495
▁да	-8.13981
от	-8.14254
▁человека	-8.14455
▁Мы	-8.14491
▁просто	-8.14567
▁тогда	-8.1522
▁образом	-8.15397
▁те	-8.15618
▁Вы	-8.15751
▁п	-8.15776
ские	-8.16178
ин	-8.16272
▁этих	-8.16338
▁Да	-8.16513
a	-8.16603
▁здесь	-8.16608
▁день	-8.172
ности	-8.17203
▁сам	-8.17464
▁Ф	-8.17475
▁Все	-8.17476
М	-8.1797
▁своего	-8.18375
ность	-8.18592
ская	-8.19504
▁it	-8.19549
2	-8.20196
▁A	-8.21747
▁всегда	-8.22064
i	-8.22234
ко	-8.22359
і	-8.22484
▁тот	-8.2274
(	-8.2298
ние	-8.23022
он	-8.23135
▁которой	-8.23682
▁других	-8.24275
▁которая	-8.24372
▁4	-8.24446
▁свои	-8.25003
кой	-8.25179
К	-8.25351
▁ним	-8.25752
лось	-8.25779
▁Когда	-8.25861
▁be	-8.25999
▁вот	-8.2603
ят	-8.26892
вер	-8.27066
ля	-8.27497
▁Однако	-8.2773
П	-8.28017
▁два	-8.28108
ков	-8.28172
з	-8.28614
▁=	-8.2885
▁Они	-8.29111
▁войны	-8.29135
Г	-8.29531
да	-8.29618
▁д	-8.30188
ния	-8.30813
ж	-8.3151
▁18	-8.31539
▁жизнь	-8.31576
И	-8.32183
ль	-8.32301
▁p	-8.32469
▁тех	-8.32486
▁мир	-8.32745
▁хотя	-8.33227
▁является	-8.33618
▁ничего	-8.33776
▁теперь	-8.34035
al	-8.34296
▁рас	-8.3455
▁5	-8.34718
▁ко	-8.34873
О	-8.35075
Б	-8.35247
ись	-8.35353
ф	-8.35386
▁люди	-8.35709
Д	-8.36157
ском	-8.36228
▁he	-8.36414
▁случае	-8.36511
▁by	-8.36658
ал	-8.36987
▁России	-8.37226
▁именно	-8.37391
▁стал	-8.37738
▁P	-8.3812
ч	-8.38201
1	-8.38261
▁Что	-8.39044
▁м	-8.39077
▁Р	-8.39183
”	-8.39516
▁тоже	-8.40129
▁потом	-8.40136
▁No	-8.40353
▁почти	-8.40353
ив	-8.40727
ѣ	-8.41023
▁надо	-8.41722
▁собой	-8.4186
▁мог	-8.42123
ну	-8.42202
ва	-8.42336
▁такой	-8.42712
▁вас	-8.43025
▁стороны	-8.43163
▁Из	-8.43182
Т	-8.44205
▁От	-8.44875
es	-8.4518
ня	-8.45237
ясь	-8.45373
▁три	-8.4554
ному	-8.45711
▁пред	-8.45861
o	-8.4613
ком	-8.4659
ыми	-8.46961
▁б	-8.4705
▁his	-8.48179
ту	-8.48545
▁другой	-8.48611
▁дело	-8.48695
▁въ	-8.48786
▁17	-8.48792
ения	-8.48939
▁которого	-8.49131
▁Во	-8.49411
▁свое	-8.49473
▁at	-8.49664
У	-8.49811
▁вместе	-8.49887
▁должны	-8.50102
▁всем	-8.50284
▁C	-8.50388
цы	-8.50731
ев	-8.50755
in	-8.50967
Л	-8.51131
Н	-8.51354
▁одной	-8.51414
▁могут	-8.51544
▁нужно	-8.51548
▁двух	-8.51608
ст	-8.51635
▁Вот	-8.51854
▁from	-8.51919
▁ней	-8.51944
ти	-8.51976
▁10	-8.52563
ась	-8.52567
▁Про	-8.52991
▁had	-8.53059
▁Она	-8.53066
▁пока	-8.53269
ать	-8.53297
▁де	-8.53387
ц	-8.53391
▁части	-8.53527
▁р	-8.53852
▁Для	-8.53879
ился	-8.53899
▁должен	-8.53941
▁тому	-8.54284
ство	-8.543
▁you	-8.54371
▁тут	-8.54496
S	-8.54917
▁15	-8.55586
ец	-8.55595
▁часть	-8.56228
▁После	-8.56605
Р	-8.57323
▁Его	-8.57362
ское	-8.57415
ение	-8.57419
f	-8.57469
▁or	-8.57702
са	-8.57719
▁которое	-8.5776
▁6	-8.58415
>	-8.5842
▁вам	-8.58749
▁not	-8.59034
p	-8.59111
▁место	-8.59159
▁de	-8.59502
▁армии	-8.59817
▁своим	-8.5988
▁слова	-8.60159
▁an	-8.60493
али	-8.60801
ер	-8.61153
ось	-8.61231
▁M	-8.6205
▁какой	-8.62436
▁другие	-8.62863
▁сейчас	-8.62864
▁одно	-8.62991
▁этим	-8.63283
▁СССР	-8.6337
▁эта	-8.63881
▁чего	-8.63982
ник	-8.64216
▁are	-8.64435
l	-8.6447
en	-8.64651
ства	-8.64752
▁свой	-8.64977
Я	-8.65008
де	-8.65091
▁эту	-8.65354
▁одного	-8.65408
ским	-8.65662
ова	-8.65801
m	-8.66097
скую	-8.66111
3	-8.66137
мер	-8.66276
ле	-8.67245
иться	-8.67265
▁сказать	-8.67398
r	-8.67757
▁оно	-8.6782
▁вопрос	-8.67855
▁друг	-8.68132
▁говорит	-8.6828
▁хорошо	-8.68294
▁истории	-8.68312
▁20	-8.68326
▁До	-8.68487
▁стали	-8.68525
▁совершенно	-8.68762
us	-8.68912
▁ей	-8.68998
▁Е	-8.69079
▁пор	-8.69268
▁особенно	-8.69321
ду	-8.6933
▁16	-8.6976
▁гор	-8.69781
▁затем	-8.6992
▁Э	-8.69998
▁никогда	-8.70062
вы	-8.70145
▁мира	-8.70221
ками	-8.70228
▁тебя	-8.70296
ди	-8.70307
▁пре	-8.7054
▁часто	-8.7068
овой	-8.70798
or	-8.70804
ги	-8.70891
нибудь	-8.70928
▁B	-8.711
▁имеет	-8.71389
A	-8.71627
▁всё	-8.71693
ты	-8.72133
ний	-8.72317
▁год	-8.72407
нее	-8.72441
c	-8.72494
э	-8.72512
re	-8.73242
га	-8.73522
из	-8.73635
▁само	-8.73662
C	-8.74607
ма	-8.75217
▁D	-8.7551
▁власти	-8.75536
▁менее	-8.76525
▁работы	-8.76769
цев	-8.77017
▁среди	-8.77044
▁7	-8.77183
Х	-8.77977
▁L	-8.78342
ились	-8.7836
▁То	-8.78686
▁this	-8.78727
▁/	-8.78778
–	-8.78936
▁конечно	-8.78994
ша	-8.79042
▁будут	-8.79112
тер	-8.79141
▁8	-8.7916
▁род	-8.79191
во	-8.79481
▁were	-8.79485
ина	-8.79572
▁ведь	-8.79701
Ф	-8.80038
▁have	-8.80463
▁снова	-8.80705
4	-8.80886
ому	-8.8093
▁конце	-8.81067
▁тебе	-8.81179
▁In	-8.81215
b	-8.81217
▁сразу	-8.81377
▁ж	-8.81633
ра	-8.8165
ием	-8.81694
▁могли	-8.81777
ор	-8.82003
ation	-8.82132
▁которую	-8.82265
▁Ну	-8.82267
x	-8.82302
▁свет	-8.82404
▁мало	-8.82413
th	-8.82512
▁З	-8.82661
5	-8.8272
же	-8.82957
▁быстро	-8.83102
Е	-8.83383
▁самом	-8.83425
▁город	-8.83486
▁н	-8.83701
▁силы	-8.84425
▁характер	-8.84445
па	-8.84652
овых	-8.8467
0	-8.84755
▁F	-8.84853
▁сил	-8.8499
▁H	-8.853
▁R	-8.85461
▁Под	-8.8552
▁Со	-8.85563
▁лучше	-8.85699
▁следует	-8.85766
▁(19	-8.86036
ической	-8.86112
▁воз	-8.86161
▁например	-8.86242
▁момент	-8.86498
▁Поэтому	-8.86525
до	-8.86559
▁Об	-8.86693
I	-8.86746
при	-8.86816
▁нем	-8.86849
▁такое	-8.86938
▁нашей	-8.86985
▁•	-8.87134
ан	-8.87263
▁связи	-8.87294
ца	-8.87342
ится	-8.87347
ут	-8.87451
▁котором	-8.87499
ман	-8.87619
▁дня	-8.87678
мен	-8.87917
▁кон	-8.88022
▁J	-8.88049
ья	-8.88162
▁12	-8.88172
▁сделать	-8.88428
▁е	-8.88486
ше	-8.88574
g	-8.88776
ис	-8.88795
чи	-8.88857
ри	-8.88935
▁таким	-8.89024
▁вообще	-8.89069
▁G	-8.89181
▁действительно	-8.89445
ре	-8.89482
▁дома	-8.89506
▁E	-8.89763
ян	-8.89895
▁II	-8.89951
▁совсем	-8.89954
!»	-8.90173
▁этому	-8.90382
▁однако	-8.90556
ар	-8.90618
▁Ш	-8.90627
6	-8.91018
▁s	-8.9117
▁около	-8.91516
▁всей	-8.91543
▁T	-8.91657
▁города	-8.91704
▁самого	-8.92054
▁деле	-8.92122
▁период	-8.92217
▁таких	-8.92277
▁прежде	-8.92374
вар	-8.92705
▁войск	-8.9287
▁почему	-8.93074
▁каждый	-8.93169
ите	-8.93267
▁той	-8.93289
▁9	-8.93327
ar	-8.93379
ость	-8.93504
▁две	-8.93684
сь	-8.93943
▁but	-8.94067
▁W	-8.94098
▁дела	-8.94316
ости	-8.9453
про	-8.94699
▁1.	-8.94752
ат	-8.95058
ешь	-8.95095
*	-8.95229
об	-8.95322
.)	-8.95401
z	-8.95512
it	-8.95596
D	-8.95617
▁такие	-8.95674
▁d	-8.9579
▁годы	-8.95853
▁з	-8.96301
▁ними	-8.96594
ск	-8.96738
▁поэтому	-8.96807
▁поскольку	-8.97026
▁дел	-8.97028
▁страны	-8.97153
▁Х	-8.97246
ум	-8.97916
▁одна	-8.98124
ила	-8.98176
мы	-8.98264
▁K	-8.98319
▁V	-8.98382
ры	-8.98491
ней	-8.9876
овые	-8.98944
h	-8.98958
B	-8.99141
▁х	-8.99158
▁Ты	-8.99189
▁we	-8.99329
▁века	-8.99532
▁та	-8.99605
P	-8.99606
▁возможно	-8.99609
▁f	-8.99713
▁//	-8.99719
▁re	-8.99765
▁тысяч	-8.99833
k	-8.99866
ик	-8.99891
▁стало	-9.00073
ического	-9.00139
▁which	-9.00219
▁смерти	-9.0027
▁др	-9.00296
on	-9.00367
▁генерал	-9.00499
▁должно	-9.00602
▁мой	-9.00692
M	-9.00729
▁all	-9.00735
▁пути	-9.00785
▁бес	-9.00816
▁достаточно	-9.00819
▁they	-9.00906
лен	-9.00922
▁прав	-9.00924
▁руки	-9.00975
▁э	-9.00986
род	-9.01064
);	-9.01079
▁качестве	-9.01719
▁N	-9.01801
▁гг	-9.01925
▁своем	-9.02167
▁нельзя	-9.02255
u	-9.02329
ает	-9.02386
▁народ	-9.02565
▁всю	-9.02753
▁труд	-9.02847
▁[1	-9.02944
че	-9.03211
7	-9.0324
ель	-9.03759
́	-9.03967
▁внимание	-9.04008
▁мере	-9.04231
▁США	-9.04235
ши	-9.04254
an	-9.04255
▁one	-9.0436
▁течение	-9.04391
▁многие	-9.04587
либо	-9.05085
нии	-9.05323
▁наши	-9.05453
▁2.	-9.05556
▁so	-9.05559
▁30	-9.05572
ников	-9.05747
ических	-9.06055
▁виде	-9.06062
▁their	-9.06087
ur	-9.06133
il	-9.06189
▁14	-9.06287
st	-9.06386
▁возможность	-9.06451
▁её	-9.06474
▁ответ	-9.06534
▁„	-9.06545
нов	-9.0667
се	-9.06844
▁области	-9.06885
▁говорил	-9.07032
▁выше	-9.07117
▁Ч	-9.07276
".	-9.07334
си	-9.07438
▁начала	-9.07443
▁весьма	-9.07589
▁Там	-9.07643
▁слишком	-9.07851
▁первый	-9.07884
вин	-9.07936
E	-9.08403
^	-9.08469
▁л	-9.08548
▁прямо	-9.08615
▁делать	-9.08644
▁Ю	-9.08745
▁см	-9.08803
ические	-9.08814
▁которым	-9.08895
▁будто	-9.09071
З	-9.09083
▁многих	-9.09119
▁глаза	-9.09237
le	-9.09291
вод	-9.09454
▁11	-9.09949
ве	-9.10016
ировать	-9.10089
ек	-9.10281
ках	-9.10408
ющий	-9.10432
▁роль	-9.10539
▁весь	-9.1062
▁ибо	-9.1074
▁наших	-9.10742
▁такого	-9.10985
илась	-9.1121
ье	-9.11211
▁can	-9.11363
▁25	-9.11459
▁Ж	-9.11534
▁второй	-9.11779
см	-9.11986
w	-9.11991
овать	-9.12233
▁He	-9.12422
▁мысли	-9.12517
ста	-9.12544
ба	-9.12664
▁13	-9.12691
▁куда	-9.12691
скому	-9.12711
ща	-9.12728
▁стран	-9.12728
ью	-9.12825
раз	-9.1287
▁дней	-9.12934
▁ещё	-9.12961
стью	-9.13325
▁противника	-9.13473
▁долго	-9.13628
ич	-9.1405
би	-9.14304
ic	-9.14313
▁должна	-9.1435
▁месте	-9.14519
▁+	-9.14721
▁вид	-9.14738
вший	-9.14803
ист	-9.14916
▁назад	-9.1495
▁і	-9.14977
▁мире	-9.15074
▁вполне	-9.1509
▁необходимо	-9.15203
▁равно	-9.15261
▁ту	-9.15406
▁никто	-9.15468
иль	-9.15502
um	-9.15517
Ш	-9.15536
▁no	-9.15577
▁путь	-9.1578
▁начал	-9.15845
су	-9.16069
йте	-9.16222
▁значит	-9.16331
▁пол	-9.16359
▁трех	-9.16492
лю	-9.16505
▁столь	-9.167
ers	-9.16712
▁стр	-9.16752
нь	-9.16777
▁состав	-9.16803
▁полу	-9.17043
O	-9.17179
▁19	-9.17259
▁большой	-9.17316
▁ф	-9.17415
▁‘	-9.17676
▁Ре	-9.17796
ают	-9.17836
T	-9.17872
со	-9.17889
ющих	-9.18042
▁сторону	-9.18067
▁кого	-9.18143
is	-9.18191
▁сегодня	-9.18206
▁наш	-9.18299
▁точно	-9.18391
ія	-9.18453
▁опыт	-9.18567
гу	-9.18579
▁(«	-9.18772
H	-9.18839
▁уж	-9.18968
▁значение	-9.19113
под	-9.19146
ющие	-9.19154
▁развития	-9.19175
ус	-9.19191
ос	-9.19238
▁me	-9.1938
­	-9.20396
▁нашего	-9.20397
▁земли	-9.20426
ча	-9.20465
8	-9.20502
ией	-9.20539
▁системы	-9.20758
▁Бог	-9.20763
▁ш	-9.20806
▁кроме	-9.20915
▁места	-9.2106
▁некоторые	-9.21089
ации	-9.21149
▁слово	-9.21199
▁Тогда	-9.21388
▁имя	-9.2143
▁партии	-9.21592
▁право	-9.21671
▁группы	-9.21782
▁получил	-9.22006
▁Здесь	-9.22079
▁могу	-9.22084
▁начале	-9.22205
▁интерес	-9.22284
▁какие	-9.22291
...»	-9.22402
▁результате	-9.22467
▁стала	-9.22519
▁числе	-9.2257
▁ре	-9.22638
ion	-9.22641
▁наиболее	-9.22685
▁легко	-9.22792
▁Мне	-9.22806
▁одним	-9.22868
▁обычно	-9.22887
▁работу	-9.22982
▁либо	-9.22999
▁детей	-9.2311
▁писал	-9.2311
as	-9.23229
▁говорить	-9.23344
ia	-9.23348
▁государства	-9.23387
▁помощью	-9.23511
прав	-9.23575
▁Раз	-9.23599
Э	-9.23714
▁действия	-9.23771
?»	-9.23774
▁Только	-9.23808
▁вокруг	-9.23881
ir	-9.2395
▁стоит	-9.24099
▁t	-9.24158
ика	-9.24162
G	-9.24166
▁войска	-9.24342
ха	-9.2462
▁знаю	-9.2464
▁идет	-9.24655
▁самой	-9.24841
▁постоянно	-9.25181
▁народа	-9.25287
▁Нет	-9.25481
▁удалось	-9.25543
ою	-9.2555
▁Таким	-9.25744
▁отношения	-9.25779
▁22	-9.25824
▁Теперь	-9.25874
▁своими	-9.25894
ала	-9.25931
мо	-9.25942
▁нему	-9.25954
▁would	-9.26041
▁работа	-9.26096
ический	-9.26673
▁иногда	-9.26693
▁цен	-9.26756
лет	-9.268
F	-9.26846
кон	-9.26997
▁дом	-9.27072
▁3.	-9.27383
ники	-9.27407
▁спросил	-9.27442
ника	-9.27535
▁общества	-9.27746
▁книги	-9.27861
et	-9.27867
L	-9.28022
▁кажется	-9.28218
▁ст	-9.28793
▁довольно	-9.28963
лин	-9.29015
▁знал	-9.29094
▁Эти	-9.29158
▁Кон	-9.29167
▁известно	-9.29266
ран	-9.29347
▁часов	-9.29486
ация	-9.29582
▁Этот	-9.29602
ическая	-9.29647
▁сколько	-9.29677
▁рядом	-9.29893
▁самое	-9.29991
▁Кор	-9.30079
▁самым	-9.30177
▁полностью	-9.30184
▁21	-9.30203
▁точки	-9.30235
id	-9.30359
▁Александр	-9.30366
▁рода	-9.30475
▁Бога	-9.30512
итель	-9.30568
▁степени	-9.30583
▁наконец	-9.30587
",	-9.30594
te	-9.3081
лу	-9.30839
▁ответил	-9.30872
▁24	-9.31103
ски	-9.31239
ё	-9.31376
ход	-9.31405
вид	-9.31502
▁тела	-9.31705
▁who	-9.31738
▁out	-9.31739
▁зрения	-9.3176
▁Германии	-9.31822
at	-9.32131
▁23	-9.32193
ович	-9.32431
▁нее	-9.32432
▁сын	-9.32493
стр	-9.32605
енный	-9.32611
ге	-9.32765
По	-9.32789
▁вдруг	-9.32804
лы	-9.3315
▁деятельности	-9.33242
ро	-9.33396
▁хотел	-9.33451
▁Тем	-9.33491
тель	-9.33617
▁сами	-9.33636
▁имени	-9.33648
▁класс	-9.33823
▁процесс	-9.34168
▁вновь	-9.34214
▁па	-9.3423
▁воды	-9.34407
Ч	-9.34469
▁земле	-9.34496
ница	-9.34639
▁движения	-9.34665
▁more	-9.34777
вшие	-9.34784
ическое	-9.34835
▁положение	-9.34839
оз	-9.34985
▁*	-9.35045
▁друга	-9.35199
▁сделал	-9.35301
▁солдат	-9.35383
▁факт	-9.35459
▁одном	-9.35468
▁ч	-9.35666
▁{	-9.35719
▁b	-9.35732
▁силу	-9.35815
▁одну	-9.35838
▁план	-9.35977
▁ясно	-9.35985
▁новые	-9.36004
▁возможности	-9.36016
v	-9.3609
ели	-9.36157
▁власть	-9.36386
▁опять	-9.36409
▁происходит	-9.36471
лов	-9.36573
▁первой	-9.36729
▁конца	-9.36789
▁her	-9.36797
▁my	-9.37035
ate	-9.37047
▁Кроме	-9.37054
▁>	-9.37089
▁ум	-9.37182
▁далеко	-9.3724
▁Ко	-9.37504
▁меньше	-9.37619
▁дальше	-9.37826
ении	-9.37874
▁становится	-9.38044
▁моей	-9.38265
“	-9.38315
лей	-9.38332
▁e	-9.38346
▁been	-9.38401
щ	-9.38475
мет	-9.3856
▁Ц	-9.38624
таки	-9.38626
▁самых	-9.38725
ового	-9.38756
j	-9.38807
енные	-9.3885
▁своему	-9.38861
▁закон	-9.38871
▁up	-9.38949
▁w	-9.38962
▁съ	-9.38971
▁фронта	-9.39037
бер	-9.39094
ент	-9.39226
тся	-9.3926
▁It	-9.39476
▁анти	-9.3963
▁отношении	-9.39974
ру	-9.39976
▁сильно	-9.40075
▁способ	-9.40076
рис	-9.40253
▁Ар	-9.40507
рон	-9.40566
▁имел	-9.40932
▁немного	-9.40972
ви	-9.41006
to	-9.41064
▁стать	-9.41114
▁удар	-9.41288
▁образ	-9.41308
бу	-9.41337
R	-9.41355
▁матери	-9.41372
лад	-9.41507
[	-9.41598
▁четыре	-9.41719
▁пар	-9.41764
▁условиях	-9.41793
▁(18	-9.41802
овым	-9.41943
▁голову	-9.42016
▁Эта	-9.42028
кам	-9.42451
ики	-9.42534
▁другим	-9.42587
ity	-9.42631
од	-9.42655
ch	-9.42675
▁вер	-9.42955
▁море	-9.42994
▁un	-9.43002
▁говоря	-9.4311
▁c	-9.43116
▁Ла	-9.43255
▁речь	-9.43348
1.	-9.43384
ева	-9.43494
9	-9.43531
00	-9.43695
▁26	-9.43733
его	-9.4379
19	-9.43874
▁Ведь	-9.43887
▁являются	-9.43959
▁иметь	-9.44132
▁найти	-9.44163
able	-9.44251
▁пять	-9.44319
▁трудно	-9.44406
ее	-9.44462
▁смысл	-9.44547
пер	-9.44634
▁См	-9.4474
изм	-9.44784
▁Ни	-9.44993
енко	-9.45114
нос	-9.45115
▁организации	-9.45117
изма	-9.45175
▁видел	-9.45223
▁невозможно	-9.45278
am	-9.45296
▁скоро	-9.45322
ско	-9.45374
▁населения	-9.45397
▁пришлось	-9.45466
▁раньше	-9.45617
шей	-9.45713
▁do	-9.45721
▁разных	-9.45785
▁деньги	-9.45971
▁суд	-9.46001
вал	-9.4602
ант	-9.46067
вших	-9.46165
▁нами	-9.46169
▁понять	-9.46196
▁решение	-9.46415
▁решил	-9.46456
ция	-9.46616
ним	-9.46652
el	-9.46798
▁очередь	-9.46821
▁n	-9.46914
▁цели	-9.46978
бор	-9.47034
▁число	-9.47055
жи	-9.47256
скими	-9.47371
ями	-9.47416
▁27	-9.47471
ска	-9.47471
▁мая	-9.4758
▁about	-9.47581
▁новых	-9.47612
▁мол	-9.47623
ment	-9.47696
▁количество	-9.47727
▁жить	-9.4781
стер	-9.47856
▁into	-9.47861
▁дни	-9.47915
▁28	-9.48152
лом	-9.48254
▁помощи	-9.48296
=	-9.48336
▁will	-9.48339
▁мной	-9.48409
мъ	-9.48424
ший	-9.48439
▁некоторых	-9.48485
емся	-9.48498
▁тело	-9.48557
юсь	-9.48625
▁внутри	-9.4866
▁взгляд	-9.48665
воз	-9.48689
ид	-9.48803
▁Еще	-9.48828
аль	-9.48869
дав	-9.48892
▁has	-9.48936
▁голос	-9.49009
▁русских	-9.49154
▁them	-9.49177
▁пер	-9.49181
▁минут	-9.49187
▁благодаря	-9.49328
ды	-9.49346
тор	-9.49425
▁случай	-9.49446
▁O	-9.49454
фа	-9.49674
▁находится	-9.49774
кин	-9.49777
▁могла	-9.49894
ол	-9.49957
▁работе	-9.50069
▁X	-9.50174
▁готов	-9.50292
дел	-9.50448
Ж	-9.5045
▁h	-9.50472
▁ди	-9.50513
ol	-9.50577
▁выход	-9.50672
ак	-9.50865
бо	-9.50904
▁брат	-9.51024
].	-9.51047
це	-9.51122
▁ряд	-9.51186
▁права	-9.51211
▁действий	-9.51241
она	-9.51407
год	-9.51496
ter	-9.51515
▁августа	-9.51742
енных	-9.51949
▁Затем	-9.5204
V	-9.5205
▁скорее	-9.5209
▁Те	-9.52156
▁Ли	-9.52282
▁сердце	-9.52302
ll	-9.52384
вшись	-9.52478
▁июля	-9.52618
▁давно	-9.52637
▁виду	-9.52771
▁him	-9.52812
▁кор	-9.52929
▁лица	-9.53047
▁Кто	-9.53091
ющего	-9.53135
▁практически	-9.53155
▁состоянии	-9.5324
кор	-9.53278
ent	-9.53297
▁стране	-9.53314
▁одновременно	-9.53676
шие	-9.53706
▁III	-9.53706
▁Пол	-9.53752
▁другом	-9.53757
▁поэт	-9.53792
▁знает	-9.5385
▁июня	-9.53889
▁лес	-9.53918
чин	-9.54021
▁имеют	-9.54202
▁there	-9.54301
▁самый	-9.5443
На	-9.54457
ун	-9.54518
іе	-9.54524
▁относительно	-9.54533
▁нового	-9.54553
▁туда	-9.5456
▁счет	-9.54607
▁язык	-9.54611
▁'	-9.54684
▁Ка	-9.54732
▁мои	-9.54777
дер	-9.54858
▁con	-9.5491
2.	-9.54976
▁каким	-9.55149
▁Именно	-9.55208
▁сама	-9.55244
ist	-9.55267
▁чуть	-9.55291
▁говорят	-9.55353
зи	-9.55357
▁цвет	-9.55417
▁Москве	-9.55453
▁its	-9.55466
ден	-9.55471
▁словно	-9.55498
ул	-9.55529
▁ночь	-9.55609
▁различных	-9.55711
бы	-9.55735
говор	-9.5597
20	-9.56088
10	-9.56119
альные	-9.56156
▁землю	-9.56178
▁час	-9.56181
▁иначе	-9.56216
▁любви	-9.56257
▁территории	-9.56259
▁смысле	-9.56392
ав	-9.56419
ine	-9.56565
▁дивизии	-9.56625
▁вз	-9.56652
▁time	-9.56698
▁автор	-9.56703
▁каждого	-9.56779
W	-9.56796
образ	-9.56879
30	-9.56911
▁дать	-9.57047
▁другого	-9.57101
ству	-9.57108
нию	-9.57122
▁Франции	-9.57261
▁when	-9.57365
ятся	-9.57514
ющей	-9.57721
▁Де	-9.57825
li	-9.57855
▁Вер	-9.57876
▁Хотя	-9.57952
▁русской	-9.5801
▁ради	-9.58097
▁вместо	-9.58136
ров	-9.58144
▁отец	-9.58186
▁поле	-9.58189
▁la	-9.58196
кий	-9.58222
▁Конечно	-9.58266
уз	-9.58292
▁хоть	-9.58319
est	-9.58356
▁руку	-9.58362
ступ	-9.5844
▁война	-9.5844
жа	-9.58511
▁центр	-9.58511
чат	-9.58556
▁существует	-9.58582
▁первого	-9.58729
▁благо	-9.5882
ve	-9.5903
▁вес	-9.59126
▁души	-9.59136
▁революции	-9.59168
▁other	-9.59173
▁которому	-9.59204
▁<	-9.59291
оп	-9.59304
нет	-9.59424
▁Даже	-9.59436
ie	-9.59512
альный	-9.59526
ез	-9.59578
пор	-9.59719
ry	-9.59736
▁сентября	-9.59758
▁Чтобы	-9.59937
_	-9.59946
▁бо	-9.59965
сон	-9.60105
ще	-9.60116
▁Ис	-9.60465
рос	-9.60512
ad	-9.60514
стве	-9.60523
мир	-9.60605
▁письмо	-9.60637
▁1-	-9.60666
▁времен	-9.60677
▁моя	-9.60685
▁марта	-9.60817
▁полка	-9.60848
▁Пере	-9.60916
▁лицо	-9.60917
▁Потом	-9.60991
▁октября	-9.61062
▁дал	-9.61158
▁состояние	-9.61217
альная	-9.6125
N	-9.61272
▁слов	-9.61397
▁управления	-9.61398
▁решения	-9.6146
пере	-9.61493
▁новый	-9.6154
мат	-9.61552
▁культуры	-9.61609
▁Мар	-9.61612
▁жил	-9.61674
▁m	-9.61936
▁новой	-9.62142
▁кур	-9.62172
▁Иван	-9.62204
▁Re	-9.62206
▁несмотря	-9.62256
▁29	-9.62299
▁сто	-9.62338
сов	-9.62427
▁какое	-9.62449
▁система	-9.62522
▁4.	-9.62538
ive	-9.62659
▁целью	-9.62662
▁годов	-9.62829
K	-9.62848
▁50	-9.62856
ическую	-9.6297
бр	-9.62985
пре	-9.63006
чу	-9.63018
▁приказ	-9.63037
▁лож	-9.63041
▁использовать	-9.63078
▁главе	-9.63161
▁церкви	-9.63191
▁гораздо	-9.63278
▁ужас	-9.63296
▁мед	-9.63313
▁жив	-9.6332
–19	-9.63394
▁отца	-9.63453
▁ком	-9.63557
▁помощь	-9.63578
▁пишет	-9.63831
нем	-9.63932
ци	-9.64018
▁получить	-9.64102
▁мест	-9.6411
▁всеми	-9.6412
▁другими	-9.64141
нул	-9.64162
em	-9.64179
Не	-9.64204
ut	-9.64264
ишь	-9.64347
▁мысль	-9.64558
ён	-9.6456
ul	-9.64583
ировал	-9.64607
▁моего	-9.64687
▁труда	-9.64758
▁she	-9.64857
▁Через	-9.64874
11	-9.64978
▁0	-9.6509
▁первых	-9.6509
ост	-9.65106
▁глаз	-9.65113
▁Сам	-9.65146
тон	-9.65154
мест	-9.65182
▁союз	-9.65238
стро	-9.65293
▁правительства	-9.65442
ению	-9.65452
ших	-9.65502
мор	-9.65511
ван	-9.6552
▁some	-9.65533
▁Их	-9.65544
▁нескольких	-9.65566
▁also	-9.65691
▁пе	-9.65751
овая	-9.65757
▁можем	-9.65858
▁your	-9.65895
ro	-9.65911
эн	-9.65987
▁проблемы	-9.65997
ера	-9.66056
▁%	-9.6606
▁числа	-9.66064
▁граждан	-9.66085
▁столько	-9.66141
▁over	-9.66356
▁руках	-9.66371
J	-9.66408
▁Та	-9.6667
цов	-9.6678
▁вопросы	-9.66942
▁мо	-9.67061
вшего	-9.67078
▁такая	-9.67092
▁правильно	-9.67118
▁if	-9.67209
▁пришел	-9.67323
▁самые	-9.67357
▁дает	-9.67409
▁военных	-9.67536
.”	-9.67701
▁2-	-9.67814
▁than	-9.67861
Ю	-9.67863
ете	-9.68
▁формы	-9.68005
▁типа	-9.68039
▁стар	-9.68073
кая	-9.68198
▁Ле	-9.68382
ур	-9.68399
▁отдел	-9.68518
▁100	-9.6859
de	-9.68725
▁тыс	-9.6874
▁вперед	-9.68866
ностью	-9.68871
▁et	-9.68886
▁буду	-9.68921
кова	-9.68955
▁ноября	-9.69251
▁1941	-9.69294
оль	-9.69359
вес	-9.69374
▁only	-9.69393
цами	-9.6942
▁40	-9.69424
ими	-9.69476
▁настолько	-9.69506
▁движение	-9.69542
ана	-9.69551
▁основе	-9.69562
▁времена	-9.69677
▁причем	-9.69699
▁De	-9.69766
цу	-9.69841
зы	-9.69938
▁i	-9.69953
▁вся	-9.69969
50	-9.69978
im	-9.70038
▁сих	-9.70055
▁января	-9.70129
▁история	-9.70169
man	-9.7017
▁роман	-9.70237
ій	-9.70256
ях	-9.70304
▁Почему	-9.70367
▁казалось	-9.70589
▁Один	-9.70641
ень	-9.70659
▁Ан	-9.7071
нуть	-9.70813
▁армия	-9.70818
▁плен	-9.70823
▁what	-9.70887
ne	-9.70967
стоя	-9.71064
▁k	-9.71113
▁любой	-9.7114
▁никак	-9.71169
▁оказался	-9.71242
чь	-9.71411
ющим	-9.71453
▁главным	-9.71617
рас	-9.71623
жен	-9.71659
▁Например	-9.71685
ило	-9.71715
ant	-9.71716
▁вовсе	-9.71719
▁бур	-9.71725
▁знать	-9.71798
ание	-9.71848
▁непосредственно	-9.7191
▁апреля	-9.72042
бе	-9.72143
▁мин	-9.72305
▁увидел	-9.72321
▁вскоре	-9.72366
se	-9.72385
▁людьми	-9.72432
▁никаких	-9.72465
and	-9.72466
▁ЦК	-9.72509
рез	-9.7252
▁причин	-9.72547
▁правительство	-9.72581
▁могло	-9.72732
3.	-9.72862
▁целом	-9.72882
нием	-9.7294
▁Может	-9.72962
▁войне	-9.72979
▁отношение	-9.73
▁декабря	-9.73028
▁путем	-9.73032
▁сад	-9.73034
▁St	-9.73075
чер	-9.73095
▁сначала	-9.73125
▁впервые	-9.7317
▁частности	-9.73188
▁начали	-9.73296
ta	-9.733
ary	-9.7341
ир	-9.73411
вшихся	-9.73483
▁U	-9.73507
▁делает	-9.73573
зем	-9.73646
▁людям	-9.73693
овал	-9.73806
▁чисто	-9.73824
▁будем	-9.73877
▁множество	-9.73993
▁Мо	-9.74014
том	-9.74015
ian	-9.74019
▁борьбы	-9.74032
▁зло	-9.74093
▁вещи	-9.74116
▁районе	-9.74189
▁крест	-9.74212
▁умер	-9.74213
▁имели	-9.74337
ёт	-9.74371
▁работать	-9.74458
сто	-9.74513
▁другое	-9.74528
▁женщины	-9.7454
▁случаях	-9.74555
▁could	-9.74623
теля	-9.74658
▁любовь	-9.74773
▁мировой	-9.74844
▁v	-9.74849
▁огонь	-9.74881
гор	-9.74969
▁форме	-9.74999
▁кол	-9.75048
ление	-9.75099
вел	-9.75101
сы	-9.75113
твор	-9.7515
14	-9.75207
▁разум	-9.75288
ания	-9.75295
▁пусть	-9.75316
os	-9.75349
зе	-9.75482
сп	-9.75554
▁человеком	-9.75559
▁взял	-9.7557
▁первые	-9.75681
▁исследования	-9.75691
<	-9.75731
▁обо	-9.75786
Ь	-9.7587
мин	-9.75902
вед	-9.75938
дар	-9.76074
▁принять	-9.76118
▁We	-9.76227
▁муж	-9.7631
▁like	-9.76323
аться	-9.76362
Ц	-9.76376
▁книге	-9.76383
▁сказала	-9.76441
ря	-9.76505
▁радио	-9.7653
.).	-9.76641
▁рабочих	-9.76657
▁связь	-9.76704
ющая	-9.76722
▁бой	-9.77056
▁едва	-9.77063
▁группа	-9.77169
▁важно	-9.77172
ад	-9.77191
▁сына	-9.77428
▁видеть	-9.77478
ическом	-9.77531
▁Ра	-9.7759
▁двумя	-9.77599
▁Сталин	-9.77662
альных	-9.77897
▁войну	-9.77928
▁значительно	-9.77932
▁словами	-9.78077
шего	-9.78127
▁написал	-9.78128
чка	-9.782
▁видно	-9.7822
▁домой	-9.78282
гр	-9.78319
три	-9.78334
▁r	-9.78369
ившись	-9.78372
▁крестьян	-9.78379
▁представляет	-9.7838
▁явно	-9.78403
▁ген	-9.78435
истов	-9.78436
рен	-9.78458
ated	-9.78481
▁последние	-9.78485
▁первую	-9.78488
▁вероятно	-9.78498
тели	-9.785
▁вести	-9.78502
тан	-9.78585
▁всему	-9.78674
▁состоит	-9.78743
▁ма	-9.78874
▁two	-9.78903
▁форм	-9.78907
вать	-9.78908
▁идти	-9.78913
▁линии	-9.78985
▁вне	-9.79064
▁бу	-9.79128
▁Гор	-9.79163
ню	-9.79178
13	-9.79181
▁женщин	-9.79199
▁Пер	-9.79206
ции	-9.79215
ген	-9.79321
▁принял	-9.79343
фе	-9.79464
▁означает	-9.7951
18	-9.79594
вшиеся	-9.79609
▁бед	-9.79774
▁текст	-9.79783
▁исход	-9.7979
▁This	-9.79837
▁говорили	-9.7994
▁знаком	-9.80086
вой	-9.80089
▁дороги	-9.80172
ины	-9.80212
▁хочет	-9.80267
ались	-9.80285
▁правда	-9.80303
чен	-9.80304
▁мер	-9.80319
▁поля	-9.80332
▁Бар	-9.80345
▁Петр	-9.80354
▁поводу	-9.80478
▁русского	-9.80549
ций	-9.80566
вшийся	-9.80639
▁Z	-9.80646
хи	-9.80704
▁доме	-9.80744
▁работ	-9.80757
▁которыми	-9.80827
изации	-9.80886
▁примерно	-9.8097
12	-9.80974
▁постепенно	-9.8103
25	-9.81036
▁дети	-9.81079
▁моря	-9.81092
▁pro	-9.81098
▁мнению	-9.81218
пол	-9.81228
▁вывод	-9.81261
▁взять	-9.81294
▁очевидно	-9.81386
▁большинство	-9.81529
исты	-9.81595
▁утра	-9.81598
▁философ	-9.81626
▁каких	-9.81642
▁наше	-9.81675
ce	-9.81676
За	-9.81725
▁штаб	-9.81747
раж	-9.81776
▁резко	-9.818
▁средства	-9.81816
▁машин	-9.81826
пад	-9.81864
▁царя	-9.8187
▁проект	-9.81917
▁лично	-9.81927
овый	-9.81932
гар	-9.81998
▁Можно	-9.82003
кс	-9.8205
▁энергии	-9.82105
ион	-9.82108
шу	-9.82166
▁Или	-9.82169
▁Пред	-9.82171
▁касается	-9.82172
▁хочу	-9.82177
▁искусства	-9.82239
пи	-9.82291
▁правило	-9.82321
▁Кар	-9.8234
▁начало	-9.82374
▁рис	-9.82407
▁результат	-9.82408
+	-9.8248
как	-9.82496
▁понял	-9.82547
▁вечер	-9.82599
цион	-9.82708
▁средств	-9.82715
▁двор	-9.8274
▁остается	-9.82768
▁изменения	-9.8287
лег	-9.82948
▁Владимир	-9.83023
▁смерть	-9.83062
▁l	-9.83083
▁штаба	-9.83175
гре	-9.833
▁направлении	-9.83316
▁влияние	-9.83471
кар	-9.83577
▁денег	-9.83606
▁участие	-9.83619
▁название	-9.83701
▁мать	-9.83723
енная	-9.83726
▁цель	-9.83734
▁февраля	-9.83869
ять	-9.83873
тур	-9.83917
атор	-9.83927
na	-9.84013
полн	-9.84061
ty	-9.84089
▁теории	-9.84097
15	-9.84143
▁произошло	-9.84194
чик	-9.84297
щий	-9.843
▁события	-9.84397
▁Пре	-9.84408
ался	-9.84425
U	-9.8447
тен	-9.84489
ra	-9.84493
▁назначен	-9.84596
▁полк	-9.84651
▁мое	-9.84741
зна	-9.84766
ьных	-9.84771
▁пяти	-9.84786
▁городе	-9.8496
тов	-9.8497
▁Ал	-9.85124
un	-9.85227
▁кар	-9.85271
▁кому	-9.85323
▁договор	-9.8546
ед	-9.8553
45	-9.85532
ест	-9.8555
уд	-9.85613
▁порт	-9.85746
ата	-9.85758
хот	-9.85762
вен	-9.85835
▁операции	-9.85842
▁first	-9.85843
▁десять	-9.85891
▁5.	-9.86018
▁событий	-9.86049
ies	-9.86062
▁пользу	-9.86125
é	-9.86257
▁Бер	-9.86267
▁совет	-9.8627
▁31	-9.86271
▁сторон	-9.86279
ющее	-9.86391
▁согласно	-9.86438
▁таком	-9.86446
▁символ	-9.86474
▁выбор	-9.86476
ину	-9.86543
ющихся	-9.86609
▁природы	-9.86644
ill	-9.86647
▁женщина	-9.86692
гер	-9.86738
▁co	-9.86788
▁внимания	-9.86805
▁считать	-9.86868
▁ниже	-9.86872
▁заметил	-9.86896
аж	-9.86912
▁теле	-9.87064
▁стол	-9.87084
▁сосед	-9.871
▁пр	-9.87139
▁исключительно	-9.87186
пар	-9.87254
4.	-9.87305
▁часа	-9.87386
▁заявил	-9.87461
брос	-9.87532
▁развитие	-9.87583
след	-9.87724
▁шаг	-9.87774
▁пост	-9.87778
▁Глава	-9.87845
▁плохо	-9.87849
▁никакого	-9.87857
▁немедленно	-9.87866
▁said	-9.8787
»)	-9.87922
ическим	-9.87952
▁письма	-9.87964
▁Бо	-9.87985
▁ю	-9.88039
той	-9.88051
хо	-9.88072
▁считал	-9.88146
▁оп	-9.88146
▁семьи	-9.88158
▁спас	-9.88161
▁New	-9.88162
кур	-9.88215
▁ex	-9.88286
▁станет	-9.88302
сен	-9.88333
age	-9.88357
шим	-9.88458
▁берегу	-9.88466
іи	-9.8848
илось	-9.88494
шая	-9.88535
▁основном	-9.88568
▁дух	-9.88631
▁дар	-9.88644
сел	-9.88699
лив	-9.88713
І	-9.88724
▁обратно	-9.88863
▁первым	-9.8887
ёр	-9.88892
▁нес	-9.88908
▁Мор	-9.88924
-19	-9.88925
ож	-9.89106
▁IV	-9.89141
the	-9.89157
▁ситуации	-9.8918
▁Тут	-9.89188
ел	-9.89193
ган	-9.89237
ri	-9.89252
▁Ди	-9.89276
▁корпуса	-9.89337
▁лиц	-9.89401
▁most	-9.89416
▁сер	-9.89445
ci	-9.89488
уль	-9.89614
ance	-9.89668
▁Итак	-9.89777
рей	-9.89778
▁позже	-9.89792
енной	-9.89803
▁реш	-9.89872
▁направлен	-9.90007
▁политики	-9.90124
ается	-9.90141
▁командир	-9.90195
▁Рас	-9.90199
▁ходе	-9.90216
▁условия	-9.90232
▁new	-9.90235
▁ос	-9.9024
▁плат	-9.90279
▁страх	-9.90333
▁Союза	-9.90371
▁g	-9.90462
вит	-9.90486
▁народов	-9.90559
▁Есть	-9.90678
la	-9.90726
▁каждой	-9.90745
▁концов	-9.90754
▁обороны	-9.90773
▁большую	-9.90851
40	-9.90904
▁поход	-9.9092
-1	-9.90925
дель	-9.90946
▁Наконец	-9.90952
▁вроде	-9.90963
▁ноги	-9.90977
son	-9.91027
▁Ку	-9.91041
атив	-9.91094
▁Кур	-9.911
▁производства	-9.91178
om	-9.91188
дан	-9.91223
▁нос	-9.91266
суд	-9.91267
▁империи	-9.91295
▁запад	-9.91306
лог	-9.9131
▁позиции	-9.9132
▁man	-9.91321
▁чувства	-9.91332
▁крас	-9.91363
▁Ха	-9.91371
ma	-9.91427
▁состоя	-9.91561
лан	-9.91596
▁погиб	-9.91656
▁чаще	-9.91769
ge	-9.91813
▁пример	-9.91825
чки	-9.91827
инг	-9.91863
▁Y	-9.91931
▁расположен	-9.91946
io	-9.91955
▁Европе	-9.92093
ирует	-9.92167
▁any	-9.92179
▁начальник	-9.92238
▁чувство	-9.9224
▁идеи	-9.92283
▁вред	-9.92287
▁крайней	-9.92321
▁следующий	-9.9246
▁Па	-9.92505
▁частей	-9.92506
▁информации	-9.92555
▁Англии	-9.92563
▁военной	-9.92578
-2	-9.92605
руч	-9.92617
▁перевод	-9.92666
▁оказалось	-9.92714
▁ин	-9.92721
▁Ме	-9.92728
▁значения	-9.92748
▁моих	-9.928
▁анализ	-9.92831
▁откуда	-9.92838
ton	-9.92858
▁рассказ	-9.92863
ена	-9.92889
▁временем	-9.92952
ям	-9.92957
▁деятельность	-9.93109
▁руб	-9.93198
▁последний	-9.93246
ѵ	-9.93341
▁сюда	-9.93351
▁отношений	-9.9343
ism	-9.93433
▁небес	-9.93439
▁Москву	-9.9344
60	-9.93456
▁крайне	-9.93468
ань	-9.93506
ницы	-9.93543
▁вышел	-9.93579
▁Надо	-9.93588
▁Впрочем	-9.93613
▁высоко	-9.93692
▁Ему	-9.93707
▁ста	-9.93727
▁фон	-9.93757
предел	-9.93758
▁науки	-9.93759
▁прекрасно	-9.93768
пут	-9.93784
▁наша	-9.93807
бин	-9.9382
цию	-9.93829
рад	-9.93961
▁недо	-9.93969
Y	-9.94014
▁Ма	-9.94121
▁оказались	-9.94134
тра	-9.9416
нес	-9.94162
▁спор	-9.94168
кол	-9.94172
телем	-9.94206
▁Мир	-9.94212
▁историю	-9.94292
крас	-9.94347
▁бывает	-9.94443
▁капитан	-9.94493
альной	-9.94502
▁основан	-9.9454
ём	-9.94597
▁большое	-9.94613
▁материал	-9.94614
▁шум	-9.94647
▁далее	-9.94681
ig	-9.94681
▁разве	-9.94783
▁термин	-9.94817
зов	-9.94852
▁метод	-9.94903
▁Ру	-9.95132
став	-9.95185
▁большим	-9.95213
▁Ор	-9.95254
▁вариант	-9.95283
овский	-9.95299
▁these	-9.95315
жд	-9.95367
▁Россия	-9.9546
▁крови	-9.95649
нут	-9.95677
▁нечто	-9.95681
▁склон	-9.95685
▁отношению	-9.95752
▁главное	-9.95793
кую	-9.95845
!..	-9.95869
▁четырех	-9.95916
лит	-9.95929
▁people	-9.96038
▁задачи	-9.96045
▁st	-9.96126
▁Ленин	-9.96144
▁врага	-9.96177
▁ну	-9.96184
лич	-9.96208
▁мор	-9.9628
▁коп	-9.96364
):	-9.96378
▁частью	-9.96432
▁отличие	-9.9649
ителя	-9.96497
нима	-9.9656
▁император	-9.96606
▁разговор	-9.9669
▁какая	-9.9672
▁встреча	-9.96724
пис	-9.96733
▁след	-9.96743
▁разные	-9.96801
▁написан	-9.96814
▁вкус	-9.96817
лага	-9.96823
▁членов	-9.96841
▁XX	-9.96848
▁животных	-9.96864
▁речи	-9.96997
▁Уже	-9.97034
▁человеку	-9.97053
нер	-9.97058
▁ду	-9.97105
▁our	-9.97107
форм	-9.97148
▁мужчин	-9.97174
▁книг	-9.97184
▁круг	-9.9729
▁стоял	-9.97326
▁Правда	-9.97356
▁Николай	-9.97368
▁Дж	-9.97396
17	-9.97456
стей	-9.97466
▁спустя	-9.97515
▁ход	-9.97523
телей	-9.9763
▁положения	-9.97655
ств	-9.97734
▁советских	-9.97771
▁силой	-9.97815
▁неожиданно	-9.97897
▁ранее	-9.97899
▁Le	-9.97949
▁Перед	-9.9795
нич	-9.97962
▁1)	-9.97995
▁But	-9.98012
▁такую	-9.98057
mo	-9.98077
вшей	-9.98144
леп	-9.98158
▁спокойно	-9.98317
▁сбор	-9.98356
▁христиан	-9.98365
▁Европы	-9.98393
ложен	-9.98409
▁роли	-9.98437
▁отряд	-9.985
▁Без	-9.98522
▁создан	-9.98531
▁суда	-9.98559
▁For	-9.98575
кро	-9.98584
ливо	-9.98669
▁окончательно	-9.98677
готов	-9.9881
вшейся	-9.98979
▁en	-9.99003
▁политической	-9.99059
▁большие	-9.99082
▁языка	-9.9914
▁продолжал	-9.99148
▁думаю	-9.99152
▁совершен	-9.99153
▁жал	-9.9916
▁естественно	-9.99223
ach	-9.9923
душ	-9.99295
▁al	-9.99306
▁сердца	-9.99436
▁see	-9.9952
▁земля	-9.9953
▁then	-9.99542
▁реки	-9.99563
▁сведения	-9.99594
6.	-9.99601
что	-9.99667
куп	-9.99685
част	-9.99736
вести	-9.99846
▁жена	-9.99879
▁построен	-9.9989
▁групп	-9.99895
▁доступ	-9.99912
▁общем	-9.99988
▁подход	-10
емых	-10.0001
▁бал	-10.0002
▁вод	-10.0002
▁обязательно	-10.0009
▁уровня	-10.0014
▁Между	-10.0018
▁such	-10.0022
▁ще	-10.0032
5.	-10.0034
▁воду	-10.0034
▁инженер	-10.0036
▁Га	-10.004
ких	-10.0041
▁короля	-10.0045
▁чувств	-10.0048
▁боя	-10.0049
▁доклад	-10.0056
ложил	-10.0056
▁рост	-10.0059
рав	-10.006
▁стороне	-10.0063
▁месяцев	-10.0075
▁корпус	-10.0075
▁сила	-10.0079
▁созда	-10.0079
кан	-10.0081
▁находился	-10.0086
стан	-10.0086
▁коллектив	-10.0086
▁рад	-10.0087
▁предложил	-10.009
равн	-10.009
▁какую	-10.0091
▁XIX	-10.0094
▁русские	-10.0094
пе	-10.0095
щи	-10.0104
▁тип	-10.0105
▁Сейчас	-10.0105
шки	-10.011
ацию	-10.0113
21	-10.0116
▁царь	-10.0117
▁To	-10.0121
ически	-10.0127
▁необходимости	-10.0132
▁переход	-10.0132
быт	-10.0133
олог	-10.0137
щу	-10.0145
клад	-10.0146
▁получен	-10.0155
енным	-10.0156
▁шесть	-10.0158
▁принцип	-10.0164
▁тепл	-10.0165
▁3-	-10.0165
°	-10.0178
ления	-10.0181
вшая	-10.0189
▁видим	-10.0191
▁изъ	-10.0199
▁2)	-10.0201
дж	-10.0205
▁школы	-10.0214
▁къ	-10.0215
▁рот	-10.0215
▁называется	-10.023
щие	-10.0233
шь	-10.0242
▁книга	-10.0243
▁мнение	-10.0252
▁Христа	-10.0253
▁представить	-10.0257
▁языке	-10.0268
▁офицер	-10.0271
▁местах	-10.0277
▁слав	-10.0279
▁самолет	-10.028
▁La	-10.0286
▁военного	-10.0298
▁проблема	-10.0306
he	-10.0309
▁фронт	-10.0313
▁света	-10.0313
ланд	-10.0315
▁посвящен	-10.0319
▁советской	-10.0321
ует	-10.0322
чет	-10.0331
▁dis	-10.0332
▁Возможно	-10.0333
вшим	-10.0343
нные	-10.0344
ot	-10.0344
▁эффект	-10.0344
▁знали	-10.0347
тро	-10.0349
▁pre	-10.0353
▁граф	-10.0358
▁приказал	-10.036
▁раздел	-10.0369
▁Москвы	-10.0378
▁небо	-10.0378
лер	-10.0379
▁флот	-10.0386
▁перемен	-10.0394
ations	-10.0395
▁ночью	-10.0411
▁ло	-10.0417
▁Су	-10.0418
дал	-10.0423
пр	-10.0423
▁двадцать	-10.0431
▁район	-10.0434
▁1942	-10.0436
▁какого	-10.0442
▁боль	-10.0443
▁шли	-10.0448
▁забот	-10.0448
▁after	-10.045
▁Кол	-10.0452
▁проблем	-10.0453
▁маг	-10.0453
иг	-10.0461
▁св	-10.0463
гранич	-10.0463
▁получили	-10.0475
▁глазами	-10.0481
me	-10.0482
кие	-10.0487
▁начинает	-10.0488
держ	-10.0489
▁6.	-10.0492
ук	-10.0499
▁рук	-10.05
▁кино	-10.0511
▁князь	-10.0516
ung	-10.0518
▁Пока	-10.052
яв	-10.0532
▁генерала	-10.0536
▁помочь	-10.0538
▁Тот	-10.0541
ud	-10.0546
▁насколько	-10.0548
эт	-10.0554
16	-10.0557
▁установлен	-10.0557
80	-10.0558
▁новое	-10.056
▁тысячи	-10.0561
▁Пусть	-10.0562
▁Господь	-10.0563
▁видели	-10.0563
▁большей	-10.0564
▁уверен	-10.0568
ху	-10.0571
▁полной	-10.0573
чит	-10.0577
▁Гитлер	-10.0577
ниц	-10.0581
22	-10.0584
▁воздух	-10.0587
▁честь	-10.0587
▁z	-10.0589
▁добро	-10.0595
айте	-10.0595
▁ныне	-10.0595
дов	-10.0599
▁сознания	-10.0604
lo	-10.0604
▁стоя	-10.0605
.—	-10.0606
▁курс	-10.0609
воль	-10.061
70	-10.0618
▁военно	-10.0622
▁борьбе	-10.0623
▁Хо	-10.0632
▁sh	-10.0634
▁назван	-10.064
▁Среди	-10.0643
▁уровне	-10.0649
ell	-10.065
▁дороге	-10.0655
▁знак	-10.0655
▁личности	-10.0657
▁позволяет	-10.066
▁службы	-10.0661
▁строго	-10.0663
▁головой	-10.0664
«	-10.0666
унд	-10.0669
слов	-10.0676
▁узнал	-10.068
▁медленно	-10.0683
▁just	-10.0687
мон	-10.0687
няя	-10.0693
▁состояния	-10.0693
▁создать	-10.0696
▁нужны	-10.0698
],	-10.0698
иков	-10.0698
▁масс	-10.07
▁зависимости	-10.0703
дор	-10.0705
▁приходилось	-10.0705
▁флота	-10.0716
▁уровень	-10.0717
▁широко	-10.072
▁би	-10.072
▁000	-10.072
еж	-10.0733
▁опер	-10.0736
омъ	-10.0745
▁part	-10.0745
▁поставлен	-10.0746
бил	-10.0753
▁конец	-10.0753
▁вернулся	-10.0757
▁машины	-10.0761
так	-10.0768
сад	-10.077
”.	-10.0772
очки	-10.0776
▁пошел	-10.078
▁...	-10.0781
емые	-10.0783
▁вынужден	-10.0789
▁офицеров	-10.0809
▁успешно	-10.081
▁вида	-10.0821
▁чему	-10.0821
▁безопасности	-10.0821
ред	-10.0825
▁1917	-10.0827
▁знания	-10.0846
▁задача	-10.0856
▁where	-10.0863
йтесь	-10.0863
▁35	-10.087
иш	-10.0872
▁случайно	-10.0873
▁думал	-10.0875
pe	-10.0876
▁отдельных	-10.0877
▁данном	-10.0885
ten	-10.0887
▁секрет	-10.089
тин	-10.0896
мент	-10.09
казан	-10.0908
ово	-10.0912
▁рассказал	-10.0912
▁приводит	-10.0916
ита	-10.092
▁дверь	-10.0921
▁Стар	-10.0922
▁60	-10.0925
op	-10.0926
енного	-10.0927
ирование	-10.0935
овую	-10.0935
▁специально	-10.094
▁абсолютно	-10.0941
ений	-10.0943
▁существ	-10.0943
▁настоящее	-10.0943
нев	-10.0949
▁душе	-10.0955
▁порядок	-10.096
зор	-10.097
▁карт	-10.0972
▁Богу	-10.0975
▁составе	-10.0976
▁ча	-10.0976
▁трав	-10.0979
ющиеся	-10.0985
▁As	-10.0992
▁готовы	-10.0995
рь	-10.0999
▁Ее	-10.1002
▁ла	-10.1007
зер	-10.1007
▁думать	-10.1007
▁глазах	-10.1009
▁акт	-10.1012
▁хотелось	-10.1013
▁работал	-10.1014
▁памяти	-10.102
▁представления	-10.1021
дол	-10.1025
▁Ман	-10.1027
▁ограничен	-10.1029
▁1918	-10.103
▁приходится	-10.1043
▁дав	-10.1044
▁книгу	-10.1044
▁пят	-10.1044
▁соответствии	-10.1047
▁наук	-10.1047
▁актив	-10.1047
▁ро	-10.1049
▁Пар	-10.105
▁князя	-10.1054
▁губ	-10.1055
▁ред	-10.1056
▁рез	-10.1059
▁Ри	-10.1062
ало	-10.1065
юр	-10.1073
▁горе	-10.108
▁пришли	-10.108
цией	-10.1083
per	-10.1083
▁прием	-10.1088
вели	-10.1093
our	-10.1097
▁можете	-10.1098
no	-10.1103
▁русский	-10.1111
ву	-10.1112
▁срок	-10.1119
▁первом	-10.1121
мар	-10.1121
▁Вас	-10.1123
▁x	-10.1123
▁Более	-10.1123
сер	-10.1127
▁зна	-10.1128
▁оружие	-10.1132
▁чтоб	-10.1136
▁нашу	-10.1137
23	-10.1139
креп	-10.114
▁функции	-10.1143
▁подумал	-10.1144
▁большая	-10.1147
▁больших	-10.1147
эй	-10.115
▁систему	-10.116
▁An	-10.1162
▁форма	-10.1165
▁Лев	-10.1165
The	-10.1168
видимому	-10.1178
▁прос	-10.1179
▁месяца	-10.1181
нный	-10.1182
▁отдал	-10.1183
▁Многие	-10.1187
▁увидеть	-10.1192
24	-10.1199
▁4-	-10.1203
▁одному	-10.1212
▁мозг	-10.1217
рин	-10.1218
▁шел	-10.1225
▁различ	-10.1233
шка	-10.1233
▁Некоторые	-10.1236
▁аппарат	-10.1239
▁идея	-10.1241
▁данные	-10.1241
рам	-10.1243
▁even	-10.1244
▁мою	-10.1249
▁se	-10.1251
▁ребенка	-10.1251
очка	-10.1253
итесь	-10.1257
овое	-10.1266
ющую	-10.1266
▁успех	-10.1279
▁1943	-10.1285
▁близко	-10.1286
лож	-10.1286
▁пал	-10.1286
▁And	-10.1287
▁полно	-10.1288
7.	-10.1289
▁шла	-10.1291
бежал	-10.1291
▁may	-10.1297
жив	-10.1299
▁Михаил	-10.1309
▁хлеб	-10.1312
▁Дон	-10.1312
▁предмет	-10.1312
▁общество	-10.1318
Да	-10.132
▁рукой	-10.1327
▁открыл	-10.1331
еть	-10.1332
них	-10.1333
▁другу	-10.1344
ha	-10.1345
ence	-10.1345
▁словам	-10.1347
▁различные	-10.1351
▁|	-10.1354
▁Ст	-10.1357
▁ума	-10.1366
▁глубоко	-10.137
альную	-10.1376
ti	-10.1385
▁Сталина	-10.1389
▁Люб	-10.1392
▁стен	-10.1392
▁Рим	-10.1395
▁будучи	-10.1395
▁І	-10.1396
ложить	-10.1397
▁der	-10.1401
▁j	-10.1405
▁партизан	-10.1409
▁автора	-10.1411
оч	-10.1413
▁Гер	-10.1415
▁собственной	-10.1418
co	-10.1421
ish	-10.1425
▁подобно	-10.1429
▁государство	-10.1431
▁чрезвычайно	-10.1435
▁данных	-10.1435
▁видимо	-10.1435
вор	-10.1439
бл	-10.144
ального	-10.1443
ея	-10.1447
▁низ	-10.1447
▁желание	-10.145
▁роз	-10.1455
|	-10.1456
▁0,	-10.1459
▁охран	-10.1461
▁душа	-10.1462
▁впечатление	-10.1466
▁Три	-10.1469
▁литературы	-10.1477
щего	-10.1477
▁поток	-10.1478
▁гон	-10.1487
▁миф	-10.1496
▁Красной	-10.1498
ительно	-10.1499
▁~	-10.1502
▁оружия	-10.1502
▁рождения	-10.1505
кат	-10.1512
вшегося	-10.1526
тр	-10.1528
бит	-10.1529
▁номер	-10.1532
▁Совет	-10.1535
фер	-10.1536
▁холод	-10.1536
ьные	-10.1539
,—	-10.154
пред	-10.1545
един	-10.1546
▁документ	-10.1546
▁^	-10.1547
▁порядка	-10.1548
35	-10.1551
▁many	-10.1551
▁Мин	-10.1554
зд	-10.1563
ением	-10.1565
▁Рис	-10.1565
▁особенности	-10.1566
▁идеал	-10.1567
спе	-10.1572
▁меч	-10.1573
вет	-10.1574
▁32	-10.1575
▁театр	-10.1575
АР	-10.1576
▁общего	-10.1581
▁оказывается	-10.1582
▁объем	-10.1582
ap	-10.1583
▁ми	-10.1583
▁ар	-10.1585
дум	-10.1587
▁процесса	-10.1591
▁боевых	-10.1591
овского	-10.1595
▁зависит	-10.1595
станов	-10.1595
▁Be	-10.1601
▁месяц	-10.1603
рус	-10.1605
ват	-10.1607
▁отлич	-10.161
▁самому	-10.1611
▁поверхности	-10.1614
тив	-10.1624
▁протяжении	-10.1626
иц	-10.163
▁действие	-10.1639
▁Бр	-10.1641
be	-10.1643
слав	-10.1644
▁смог	-10.1648
▁осталось	-10.1648
ировали	-10.165
▁наоборот	-10.165
вали	-10.1651
ard	-10.1652
▁Ma	-10.1653
▁болезни	-10.1654
▁начальника	-10.1658
38	-10.1661
▁нрав	-10.1664
▁память	-10.1667
?!	-10.1674
лев	-10.1678
мысл	-10.1679
уш	-10.1682
ведение	-10.1689
пас	-10.1696
▁пункт	-10.1703
▁обе	-10.1713
веч	-10.1714
пу	-10.1715
▁very	-10.1719
▁des	-10.1721
der	-10.1724
▁голод	-10.1724
шин	-10.1725
▁Советского	-10.1725
▁км	-10.1728
▁отвечал	-10.1729
▁Несмотря	-10.1731
▁делал	-10.1731
▁однажды	-10.1731
▁us	-10.1731
эр	-10.1743
}	-10.1752
▁считает	-10.1757
▁way	-10.1758
сом	-10.1763
▁did	-10.1766
▁риск	-10.1773
▁ночи	-10.1775
▁положении	-10.1778
▁кос	-10.178
▁лист	-10.1781
▁никакой	-10.1782
▁бар	-10.1784
ke	-10.1789
▁вверх	-10.1796
▁Con	-10.1796
ирования	-10.1802
▁кем	-10.1807
▁понятия	-10.1811
ица	-10.1812
▁оказалась	-10.1814
▁Bo	-10.1815
▁Ге	-10.1817
нт	-10.1819
26	-10.1821
тар	-10.1826
цам	-10.183
рак	-10.1833
▁Сан	-10.1833
▁знаем	-10.1834
▁тепло	-10.1834
▁товарищ	-10.1834
▁редко	-10.1834
▁компании	-10.1835
город	-10.1837
бав	-10.1839
▁Человек	-10.184
▁сел	-10.1845
▁успел	-10.1847
▁идей	-10.1848
▁создания	-10.1852
▁называют	-10.1853
▁through	-10.1858
▁силами	-10.1864
▁back	-10.1871
аются	-10.1877
ике	-10.1882
▁ран	-10.1883
▁1944	-10.1885
one	-10.1885
сс	-10.1886
▁образования	-10.1888
ous	-10.1888
▁философии	-10.1888
плат	-10.1888
▁sp	-10.1888
кры	-10.189
▁вниз	-10.1892
▁вещей	-10.1895
пло	-10.1895
▁Александра	-10.1896
▁слышал	-10.1896
цем	-10.1897
▁другую	-10.1898
ким	-10.1899
X	-10.19
▁вдоль	-10.19
▁проч	-10.1903
▁нерв	-10.1904
ier	-10.1909
ner	-10.1909
▁Бел	-10.191
▁нашем	-10.1913
▁форму	-10.1915
▁Потому	-10.1917
▁мод	-10.1923
ряд	-10.1926
ьный	-10.1927
▁стихи	-10.1928
▁млн	-10.1937
▁придется	-10.1938
▁мотив	-10.1939
▁Оно	-10.1939
▁руками	-10.194
▁случилось	-10.194
▁сигнал	-10.1942
▁эпохи	-10.1942
др	-10.1945
37	-10.1946
▁этими	-10.1947
При	-10.1955
▁утром	-10.1955
тал	-10.1959
▁новую	-10.1961
▁воин	-10.1961
▁ал	-10.1963
▁сознание	-10.1967
ас	-10.1975
▁распространен	-10.1976
▁оба	-10.199
▁how	-10.1992
▁возник	-10.1993
▁связан	-10.1998
▁Вам	-10.2001
▁ключ	-10.2002
ску	-10.2002
▁&	-10.2003
аз	-10.2007
фи	-10.201
ness	-10.201
▁член	-10.2013
овали	-10.2018
▁каждом	-10.2019
▁искать	-10.202
прежнему	-10.2026
▁середине	-10.2029
▁впоследствии	-10.203
▁штат	-10.2031
8.	-10.2032
▁Карл	-10.204
▁соч	-10.2043
▁пу	-10.2044
44	-10.2046
▁наступление	-10.2047
овъ	-10.2048
▁танков	-10.2052
зу	-10.2054
▁обществе	-10.2055
end	-10.2056
днев	-10.2056
щих	-10.2058
еля	-10.2059
▁попросил	-10.2065
▁самостоятельно	-10.2066
▁порядке	-10.2071
▁странах	-10.208
▁орган	-10.208
▁задач	-10.2081
пт	-10.2082
ice	-10.2082
▁меры	-10.2085
ite	-10.2087
ально	-10.2088
Ы	-10.2094
ством	-10.2097
▁существования	-10.2102
▁пан	-10.2102
▁слуша	-10.2106
уж	-10.2108
ари	-10.2113
▁избран	-10.2114
▁ман	-10.2119
▁Где	-10.2122
пал	-10.2123
каз	-10.2123
▁требует	-10.2126
▁полковник	-10.2134
▁запас	-10.2134
очных	-10.2137
енно	-10.2139
▁немало	-10.2139
▁свете	-10.2142
27	-10.2151
▁магазин	-10.2151
▁волн	-10.2154
стра	-10.2158
▁ц	-10.2158
дра	-10.2161
▁раза	-10.2164
▁показал	-10.2164
енную	-10.2165
▁относится	-10.2166
▁Каждый	-10.217
▁Виктор	-10.2173
иями	-10.2174
▁явля	-10.2175
▁некоторое	-10.2177
луч	-10.2178
▁черт	-10.2179
▁зем	-10.2184
первых	-10.2195
▁world	-10.2196
2)	-10.2196
▁правил	-10.22
шев	-10.2201
▁буквально	-10.2201
сте	-10.2202
▁говорю	-10.2206
▁головы	-10.2208
▁король	-10.2212
инский	-10.2214
▁вел	-10.2215
наго	-10.2218
28	-10.2222
ены	-10.2224
▁прибыл	-10.2224
▁war	-10.2227
▁проб	-10.2236
▁дым	-10.2242
▁36	-10.2244
▁север	-10.2246
фон	-10.2254
▁остался	-10.2255
▁Поскольку	-10.2257
▁мимо	-10.2266
▁per	-10.2267
▁Al	-10.2273
▁бор	-10.2275
▁част	-10.2278
▁Очень	-10.2279
▁неудач	-10.228
90	-10.2285
ура	-10.2287
▁семей	-10.2287
▁семь	-10.2294
▁7.	-10.2299
▁вол	-10.23
▁торгов	-10.2309
▁made	-10.2312
▁life	-10.2319
раст	-10.2319
▁выражен	-10.232
▁жителей	-10.2321
▁33	-10.2327
крат	-10.233
▁тихо	-10.233
39	-10.2331
sh	-10.2333
tion	-10.2335
▁немцы	-10.2336
▁понимал	-10.2338
▁Иисус	-10.2341
▁городов	-10.2346
руш	-10.2352
▁берег	-10.2355
▁процессе	-10.2356
▁здоров	-10.2358
▁автомат	-10.2359
ts	-10.2361
▁Me	-10.2362
▁ад	-10.2363
▁Дело	-10.2363
▁дочь	-10.2366
,”	-10.2368
ens	-10.2369
▁общей	-10.2371
▁решили	-10.2372
▁писатель	-10.2379
уч	-10.2382
жил	-10.2386
важ	-10.2386
▁представление	-10.239
▁жар	-10.2392
▁under	-10.2394
▁Киев	-10.2395
▁Mo	-10.2396
▁ma	-10.2396
▁первое	-10.2399
еров	-10.2402
ограф	-10.2406
▁пита	-10.2417
▁бег	-10.2417
▁кое	-10.242
бол	-10.2423
»).	-10.2427
работ	-10.2428
груз	-10.2431
▁between	-10.2432
ka	-10.2432
▁молодой	-10.2433
▁весел	-10.2436
▁раствор	-10.244
▁взят	-10.2442
числен	-10.2443
▁now	-10.2445
»:	-10.2446
▁200	-10.2449
▁транспорт	-10.2452
▁писать	-10.2454
щая	-10.2455
▁президент	-10.2455
▁этап	-10.2457
▁метров	-10.2461
емый	-10.2462
▁границы	-10.2463
бел	-10.2467
▁всяком	-10.247
нулся	-10.2473
▁остальные	-10.2476
▁down	-10.2476
жда	-10.2481
▁всякого	-10.2482
▁Гу	-10.2482
▁use	-10.2484
▁систем	-10.2486
▁Бор	-10.2491
▁жертв	-10.2491
аю	-10.2492
▁Свет	-10.2494
▁описан	-10.2495
▁второго	-10.2497
▁облада	-10.2498
▁класса	-10.2499
▁лице	-10.25
36	-10.25
▁лишен	-10.2504
▁)	-10.2506
▁остров	-10.2507
ическими	-10.2507
▁недавно	-10.2513
ьте	-10.2514
▁системе	-10.2515
▁Вскоре	-10.2517
ющими	-10.2518
▁архив	-10.252
▁находились	-10.2524
▁куп	-10.253
рик	-10.2534
▁отъ	-10.2535
▁свободы	-10.2535
▁труб	-10.2535
▁ярко	-10.2536
РА	-10.2538
▁Гре	-10.2543
9.	-10.2548
▁Ба	-10.2549
▁служит	-10.255
▁own	-10.255
▁угол	-10.2552
43	-10.2557
33	-10.2564
tic	-10.2566
тяж	-10.2568
▁команд	-10.2569
нят	-10.2572
▁45	-10.2573
▁because	-10.2579
▁нашим	-10.258
ьев	-10.2581
▁Меня	-10.2585
▁o	-10.2587
▁дипломат	-10.2591
ешься	-10.2593
29	-10.2593
тельный	-10.2593
уют	-10.2593
▁культур	-10.2595
▁взрыв	-10.2596
▁вос	-10.2604
▁end	-10.2611
чей	-10.2613
▁возникает	-10.2618
анд	-10.2618
меча	-10.2618
жу	-10.2618
▁чу	-10.2621
▁work	-10.2626
▁тай	-10.2627
▁душу	-10.264
▁пап	-10.2645
▁комплекс	-10.2648
▁друзей	-10.265
ow	-10.2651
iv	-10.2654
▁даль	-10.2655
▁произведения	-10.2655
пы	-10.2658
доб	-10.266
альным	-10.266
▁крыш	-10.2661
▁Было	-10.2664
▁get	-10.2669
▁Особенно	-10.2669
стар	-10.267
рат	-10.267
▁начать	-10.267
рок	-10.2673
тельные	-10.2675
▁well	-10.2682
ора	-10.2685
▁пара	-10.2688
▁before	-10.2693
▁будущем	-10.2694
▁звезд	-10.2694
ьная	-10.2697
▁Фа	-10.2698
лон	-10.27
▁занима	-10.2701
▁подробно	-10.2708
▁Антон	-10.271
▁резерв	-10.2713
мал	-10.2714
▁служил	-10.2718
▁Иногда	-10.272
▁водой	-10.2722
▁Ти	-10.2734
▁живет	-10.2736
”,	-10.2737
▁фактически	-10.2737
▁характера	-10.2739
▁божеств	-10.2743
▁York	-10.2743
q	-10.2743
вшаяся	-10.2749
▁раст	-10.2749
ac	-10.275
▁существование	-10.2756
▁Им	-10.2762
ted	-10.2764
▁Бу	-10.2766
фф	-10.2769
▁внезапно	-10.2778
пел	-10.278
up	-10.2782
▁Москва	-10.2789
▁1920	-10.2789
▁Иванович	-10.2794
▁принимать	-10.2796
▁бог	-10.2797
▁Сегодня	-10.2798
▁долг	-10.2801
▁дорогу	-10.2803
▁ими	-10.2806
дет	-10.2814
ні	-10.2816
▁ног	-10.2816
▁горы	-10.2817
цен	-10.2824
▁лежит	-10.2831
▁немцев	-10.2833
▁телефон	-10.2837
▁лег	-10.2837
▁Чем	-10.2839
▁норм	-10.2841
кра	-10.2848
ром	-10.2849
▁представлен	-10.2853
онов	-10.2854
ители	-10.2855
▁Mar	-10.2858
▁солнце	-10.2862
▁опубликован	-10.2864
▁став	-10.2866
вол	-10.2867
▁люб	-10.2867
▁37	-10.2871
▁вечером	-10.2873
▁нашел	-10.2876
▁сопровожда	-10.2879
▁годах	-10.2885
▁узнать	-10.2885
▁обще	-10.2899
▁Запад	-10.2904
▁духа	-10.2904
ling	-10.2908
▁should	-10.2908
47	-10.291
зо	-10.2913
000	-10.2913
▁Кам	-10.2913
▁вода	-10.2915
▁1945	-10.2915
вест	-10.2916
▁природе	-10.292
жат	-10.2923
▁сказано	-10.2924
▁боевой	-10.2924
31	-10.2925
▁голове	-10.2925
▁корабля	-10.2927
▁сообщил	-10.2927
▁край	-10.2927
▁корм	-10.293
▁Ro	-10.2931
▁принято	-10.2931
▁видит	-10.2933
▁гости	-10.2937
▁меж	-10.2938
ушка	-10.2941
▁состава	-10.2942
▁Италии	-10.2947
▁масштаб	-10.2948
▁императора	-10.2949
▁сей	-10.295
▁Че	-10.2951
▁последних	-10.2953
етесь	-10.2954
▁und	-10.296
нных	-10.2961
▁ле	-10.2962
▁жизнью	-10.2969
дин	-10.2975
▁Мак	-10.2982
▁понятие	-10.2986
▁гроз	-10.2986
▁Ев	-10.2987
глядыва	-10.2987
гон	-10.2988
▁врач	-10.299
▁мал	-10.2995
кал	-10.3001
▁Вол	-10.3005
остью	-10.3006
хват	-10.3006
▁развива	-10.3007
▁Си	-10.3008
▁So	-10.3012
ес	-10.3015
▁великого	-10.3015
▁недостаточно	-10.3019
▁занят	-10.3021
▁завод	-10.3022
▁бр	-10.3026
▁традиции	-10.3027
▁years	-10.3031
▁Россию	-10.3039
▁позднее	-10.304
▁металл	-10.3041
▁клуб	-10.3042
йся	-10.3044
ирован	-10.3045
▁кро	-10.3046
▁much	-10.305
▁армию	-10.3051
▁form	-10.306
▁Север	-10.3062
▁Ро	-10.307
▁бомб	-10.3072
▁дали	-10.3074
min	-10.3074
▁появились	-10.3076
▁военные	-10.3081
▁know	-10.3082
05	-10.3082
Про	-10.3085
град	-10.3085
▁видов	-10.3088
▁ваш	-10.3089
езд	-10.3091
red	-10.3097
▁сожалению	-10.3098
жал	-10.3102
▁самим	-10.3103
Как	-10.3106
▁привести	-10.3107
les	-10.3111
—19	-10.3112
▁Ту	-10.3118
лок	-10.3118
▁Пан	-10.3119
▁голов	-10.3119
▁баб	-10.3121
▁Второй	-10.3128
▁кровь	-10.3142
▁чувствовал	-10.3144
ара	-10.3147
йдя	-10.3148
ical	-10.315
▁лицом	-10.3154
42	-10.3157
знач	-10.3161
▁оставил	-10.3162
▁качества	-10.3163
▁Ду	-10.3164
▁склад	-10.3167
▁славян	-10.3167
▁первая	-10.3168
▁Воз	-10.3168
ial	-10.317
▁промышленности	-10.3172
▁улице	-10.3173
▁евреев	-10.3175
аем	-10.3177
▁тщательно	-10.3178
▁авиа	-10.3182
▁земель	-10.3183
▁натур	-10.3185
ці	-10.319
▁пошли	-10.3194
▁церковь	-10.3196
▁кораблей	-10.32
ток	-10.32
▁следовательно	-10.3204
▁последнее	-10.3208
▁говорится	-10.321
▁сверх	-10.3211
бар	-10.3211
▁ракет	-10.3212
▁встал	-10.3214
▁художник	-10.3217
▁собира	-10.3219
▁38	-10.3222
▁батальон	-10.3224
▁Мал	-10.3226
▁авторитет	-10.3226
▁политических	-10.3227
▁чин	-10.3228
▁тяжело	-10.3229
▁гл	-10.323
▁миру	-10.3233
▁They	-10.3233
▁источник	-10.3234
▁пи	-10.3235
▁нож	-10.3236
тя	-10.3238
▁дат	-10.3239
▁Мон	-10.3241
▁вопросов	-10.3241
01	-10.3245
вторых	-10.3245
ено	-10.3245
▁34	-10.3246
▁сюжет	-10.3249
ab	-10.325
иан	-10.3252
ОР	-10.3253
▁показывает	-10.3255
▁суть	-10.3256
▁Совета	-10.3256
▁итоге	-10.3256
▁Род	-10.3256
альное	-10.3257
кер	-10.3259
▁сделали	-10.3266
▁область	-10.3268
дон	-10.3269
led	-10.3271
all	-10.3274
ителей	-10.3277
▁пулемет	-10.3278
ящий	-10.3279
▁фронте	-10.3285
▁Пу	-10.3287
▁заключается	-10.3289
ub	-10.3291
дом	-10.3296
▁результаты	-10.3299
ick	-10.3303
▁Го	-10.3303
▁тверд	-10.3306
сыл	-10.3306
46	-10.3307
▁мост	-10.3308
▁go	-10.3313
▁du	-10.3314
▁семье	-10.3317
ni	-10.3321
▁вели	-10.3327
▁молча	-10.3328
▁жили	-10.333
▁Се	-10.3334
ительные	-10.3338
▁живот	-10.3341
▁края	-10.3342
▁возраста	-10.3346
▁противо	-10.3352
▁праздник	-10.3353
ющийся	-10.3354
▁Лу	-10.3355
▁последнего	-10.3358
55	-10.3362
▁объяснить	-10.3365
▁трудом	-10.3365
ak	-10.3365
▁хотели	-10.3366
▁решительно	-10.3367
▁основания	-10.337
кус	-10.3371
чив	-10.3373
▁зад	-10.3375
▁недели	-10.3376
49	-10.3384
▁большого	-10.339
лик	-10.339
▁явления	-10.3392
ании	-10.3394
енное	-10.3397
▁потери	-10.3401
▁поезд	-10.3402
▁огня	-10.3403
▁Люди	-10.3403
\	-10.3408
▁Нам	-10.3411
▁войсками	-10.3414
32	-10.342
ів	-10.3422
▁профессор	-10.3424
▁действовать	-10.3426
▁миллионов	-10.3428
▁брата	-10.3428
▁электро	-10.3429
▁центре	-10.3431
▁Союз	-10.3431
ине	-10.3432
меша	-10.3434
▁сути	-10.3435
▁указ	-10.3436
▁находятся	-10.3437
▁same	-10.344
▁1940	-10.3443
▁атом	-10.3444
▁открыто	-10.3444
лиз	-10.3444
▁иностранных	-10.3446
▁(1	-10.3447
▁мил	-10.3452
▁создание	-10.3455
▁тро	-10.3456
▁работает	-10.3457
▁Руси	-10.3462
▁покор	-10.3463
»),	-10.3468
вая	-10.3472
▁Пе	-10.3473
▁одни	-10.3474
овыми	-10.3478
▁пытался	-10.3479
оф	-10.3481
лем	-10.3483
▁послал	-10.3483
▁напротив	-10.3486
▁опыта	-10.3487
▁po	-10.3489
ологии	-10.3489
ывал	-10.3492
иях	-10.35
▁содержание	-10.3502
▁Хар	-10.3502
▁социально	-10.3505
▁служить	-10.3506
▁каком	-10.3515
▁прошлом	-10.3515
все	-10.3515
▁вернуться	-10.3516
65	-10.3518
▁Марк	-10.3519
▁Однажды	-10.3524
▁Петра	-10.3525
ял	-10.3526
▁составляет	-10.3527
▁If	-10.3535
ража	-10.3538
▁стояли	-10.3544
▁непо	-10.3547
▁sc	-10.3547
▁несчаст	-10.3547
▁острова	-10.3547
▁потеря	-10.3551
▁небольшой	-10.3552
▁хуже	-10.3553
руб	-10.3558
▁хор	-10.3563
▁Азии	-10.3566
▁лен	-10.3567
пуск	-10.3568
пустить	-10.357
▁посмотрел	-10.3574
▁министр	-10.3577
▁those	-10.3578
▁ры	-10.358
ему	-10.3583
▁ру	-10.3595
▁make	-10.3595
▁приехал	-10.3602
do	-10.3605
ован	-10.3606
ft	-10.3607
▁похоже	-10.3611
▁имела	-10.3614
▁Ши	-10.3615
▁Ин	-10.3619
▁рублей	-10.3622
▁сидел	-10.363
▁минуту	-10.3634
▁услышал	-10.3636
верен	-10.3637
зин	-10.3637
▁окруж	-10.3638
au	-10.3642
▁командира	-10.3643
▁делают	-10.3644
▁периода	-10.3646
▁сотни	-10.3647
инского	-10.3648
давать	-10.3651
▁современной	-10.3653
чал	-10.3655
шен	-10.3659
▁представителей	-10.3664
действительности	-10.3665
▁смерт	-10.3668
▁Согласно	-10.3669
щей	-10.3674
▁газ	-10.3675
ело	-10.3677
▁будущее	-10.3678
▁дев	-10.3678
▁men	-10.3679
▁крупных	-10.3679
▁поднима	-10.3682
ником	-10.3687
▁ближе	-10.3693
нских	-10.3699
hi	-10.37
▁основных	-10.3701
▁якобы	-10.3704
mer	-10.3705
▁long	-10.3706
▁момента	-10.3706
ag	-10.3708
▁завтра	-10.371
▁немецких	-10.3711
ируют	-10.3713
▁верно	-10.3713
Ка	-10.3715
гн	-10.3716
кр	-10.3717
▁cr	-10.372
▁пространство	-10.3725
53	-10.3725
еры	-10.3726
джи	-10.373
▁вед	-10.3733
ber	-10.3736
uc	-10.3738
▁журналист	-10.374
▁тобой	-10.3742
▁зачем	-10.3748
▁камен	-10.3752
▁сделан	-10.3753
ушки	-10.3754
▁стены	-10.3755
▁place	-10.3757
▁ученик	-10.3762
трен	-10.3764
▁отсутствие	-10.3764
▁такими	-10.3765
▁словом	-10.3766
▁игра	-10.3771
▁свят	-10.3772
▁сомнения	-10.3773
▁определить	-10.3773
▁принес	-10.3774
▁2000	-10.3774
▁отправился	-10.3776
▁Разве	-10.3776
▁показать	-10.3778
рес	-10.3778
da	-10.3781
ог	-10.3785
▁Ша	-10.3787
селен	-10.3794
▁XVIII	-10.3796
▁нередко	-10.3798
▁понятно	-10.38
▁VI	-10.3804
▁делу	-10.3805
48	-10.3807
ование	-10.3808
▁товар	-10.3812
▁причине	-10.3813
шее	-10.3826
хан	-10.3828
▁ряда	-10.3828
илл	-10.3834
▁being	-10.3836
▁мечта	-10.3837
▁лов	-10.3837
рет	-10.3838
▁плот	-10.384
▁службу	-10.3842
▁Народ	-10.3845
▁человеческого	-10.3845
фор	-10.3852
▁Мат	-10.3853
ho	-10.3853
▁организован	-10.3853
▁агент	-10.3856
▁элементов	-10.386
{	-10.3864
▁пле	-10.3865
▁всякий	-10.3867
▁веру	-10.3868
▁назвать	-10.3873
▁Первый	-10.3876
сил	-10.3879
od	-10.3882
▁Co	-10.3882
▁ею	-10.3884
▁1939	-10.3886
▁шар	-10.3886
лам	-10.3887
▁вопроса	-10.3888
▁попал	-10.389
▁прошлого	-10.389
▁водо	-10.3892
▁портрет	-10.3893
▁веке	-10.3893
▁основании	-10.3894
▁ведет	-10.3902
▁Пушкин	-10.3906
рев	-10.3908
▁собственно	-10.3909
57	-10.3914
▁мат	-10.3914
аг	-10.3918
▁веры	-10.3918
▁проведен	-10.3919
▁старик	-10.3921
нк	-10.3922
▁y	-10.3926
▁Ло	-10.393
▁побед	-10.3934
чем	-10.3939
75	-10.3942
▁другая	-10.3943
щим	-10.3944
▁дик	-10.3944
▁рос	-10.3945
▁полном	-10.3946
▁семья	-10.3946
▁интересов	-10.3946
▁противоположно	-10.3947
▁оттуда	-10.3949
ЕТ	-10.395
41	-10.3951
▁труп	-10.3953
▁Иванов	-10.3954
От	-10.3956
▁включая	-10.3959
ise	-10.3959
пан	-10.3962
»;	-10.3963
▁поведения	-10.3964
▁достижения	-10.3965
▁70	-10.3966
▁доктор	-10.397
▁You	-10.3972
▁быт	-10.3975
▁подвиг	-10.3977
вис	-10.3979
аков	-10.398
▁Ос	-10.398
▁обл	-10.3981
▁горд	-10.3981
тельно	-10.3981
гин	-10.3981
▁вследствие	-10.3983
ающих	-10.3983
wa	-10.3984
▁Богом	-10.3986
нная	-10.3991
коп	-10.3992
▁On	-10.3993
веща	-10.3995
кле	-10.3995
▁8.	-10.3996
▁противник	-10.3998
▁гол	-10.3999
▁статьи	-10.3999
▁скорость	-10.3999
стрел	-10.4
▁сквозь	-10.4003
▁араб	-10.4004
ею	-10.4005
▁мужа	-10.4007
▁голуб	-10.4009
▁верх	-10.4012
▁ваши	-10.4013
▁остались	-10.4014
▁брак	-10.4014
▁рассказывал	-10.4015
▁органов	-10.4015
запад	-10.4018
▁адрес	-10.4018
▁составлен	-10.4023
▁государств	-10.4024
нова	-10.4027
сан	-10.4028
▁героя	-10.4029
▁газеты	-10.4029
▁образован	-10.4032
▁случаев	-10.4033
ающий	-10.4037
▁искусство	-10.4039
▁указан	-10.404
▁груз	-10.4042
▁Прав	-10.4043
▁способны	-10.4046
▁десяти	-10.4047
Ъ	-10.4048
▁отдела	-10.4053
▁долларов	-10.4053
ику	-10.4058
▁строй	-10.4058
▁члены	-10.4061
▁двери	-10.4065
▁кавалер	-10.407
▁good	-10.4074
ительный	-10.4074
▁Вместе	-10.4078
▁никого	-10.4079
▁дальнейшем	-10.4082
▁управление	-10.4084
опо	-10.4086
▁имеется	-10.4087
сн	-10.4088
▁несомненно	-10.409
▁концу	-10.4092
рабатыва	-10.4094
▁открыт	-10.4095
дать	-10.4103
▁еврей	-10.4103
▁рус	-10.4105
▁руч	-10.4106
▁1919	-10.4107
08	-10.4112
бран	-10.4114
▁Ки	-10.4118
уса	-10.4121
com	-10.4128
пят	-10.4128
▁журнал	-10.4135
▁Армии	-10.4136
lic	-10.4137
▁человечества	-10.4138
▁страну	-10.414
▁требовал	-10.4147
▁шести	-10.4153
тельных	-10.4155
▁Джон	-10.4156
нин	-10.4156
▁судьба	-10.4157
бой	-10.4163
▁собою	-10.4165
▁выйти	-10.4166
▁великий	-10.4166
▁Земли	-10.4166
▁сложно	-10.4167
▁мм	-10.4169
▁отчет	-10.4171
▁мозга	-10.4173
лл	-10.4175
▁подобных	-10.4179
▁лейтенант	-10.4179
▁НА	-10.4181
▁чел	-10.4183
ions	-10.4183
▁Цар	-10.4187
▁блок	-10.4188
ИН	-10.4188
▁площади	-10.4193
▁Сер	-10.4196
▁Ленина	-10.4198
▁пояс	-10.4198
▁вечно	-10.4198
ov	-10.4204
34	-10.4204
▁наблюда	-10.4205
▁способность	-10.4205
▁Крас	-10.4205
68	-10.4206
▁Pro	-10.4208
▁учеб	-10.4208
лес	-10.4209
ide	-10.421
▁right	-10.4211
07	-10.4212
КА	-10.4212
▁полез	-10.4214
▁аэродром	-10.4215
ийского	-10.4215
▁самая	-10.4222
щен	-10.4223
ating	-10.4225
▁священ	-10.4228
ьи	-10.4231
▁сущности	-10.4231
гра	-10.4231
вшимся	-10.4234
▁желания	-10.4236
▁орудий	-10.4239
▁успеха	-10.4241
▁остро	-10.4249
▁вижу	-10.4252
▁действ	-10.4253
ивший	-10.4255
▁История	-10.4259
ходить	-10.426
зван	-10.4261
▁вышли	-10.4261
ивая	-10.4261
%	-10.4264
пит	-10.4266
дя	-10.4272
▁предан	-10.4275
▁моим	-10.4276
sk	-10.4281
ацией	-10.4286
▁ca	-10.4286
▁цвета	-10.4286
▁любит	-10.429
без	-10.4295
▁Ми	-10.4296
евич	-10.4296
▁«...	-10.4297
▁епископ	-10.4299
▁победы	-10.4299
▁северо	-10.4307
▁used	-10.4308
bi	-10.431
▁лун	-10.4311
▁читал	-10.4314
▁появился	-10.4314
▁ан	-10.4315
▁обоих	-10.4318
▁неделю	-10.4318
▁демон	-10.4321
шло	-10.4323
▁бесконечно	-10.4326
less	-10.4327
▁ваше	-10.4328
ію	-10.4328
▁структур	-10.4328
▁комиссар	-10.4329
▁Би	-10.4329
▁возраст	-10.4331
▁цел	-10.4332
▁Ch	-10.4333
ph	-10.4333
вяз	-10.4334
▁осад	-10.4335
▁читать	-10.4337
oc	-10.4338
▁круж	-10.434
▁наверное	-10.4341
▁руководство	-10.4342
▁страшно	-10.4345
еп	-10.4346
рек	-10.4348
▁неизбежно	-10.4351
▁бок	-10.4354
▁благород	-10.4355
ative	-10.4357
▁баз	-10.4357
▁армий	-10.4358
▁мальчик	-10.436
▁мною	-10.436
▁At	-10.4362
мышлен	-10.4364
▁смотреть	-10.4365
▁di	-10.4365
ицы	-10.4371
ающие	-10.4371
▁нашли	-10.4371
▁веков	-10.4375
▁образов	-10.438
евой	-10.4381
▁контакт	-10.4381
кла	-10.4388
▁именем	-10.439
▁обед	-10.4392
▁Генерал	-10.4393
▁син	-10.4397
▁принимал	-10.4397
▁количества	-10.4402
▁целый	-10.4403
▁грамот	-10.4405
▁татар	-10.4406
▁Ибо	-10.4409
ума	-10.441
ош	-10.4411
▁защиты	-10.4412
▁вашей	-10.4412
▁знают	-10.4412
▁возле	-10.4415
ида	-10.4416
▁будущего	-10.4421
▁внимательно	-10.4421
ex	-10.4421
ile	-10.4426
▁борьба	-10.4428
▁главный	-10.4428
ure	-10.4431
▁закона	-10.4432
▁предназначен	-10.4433
голов	-10.4433
цеп	-10.4435
▁борьбу	-10.4437
▁каса	-10.4437
больш	-10.4441
▁причины	-10.4444
▁особ	-10.4445
99	-10.4445
▁существу	-10.4445
скаго	-10.4448
▁поведение	-10.4449
▁Сергей	-10.445
▁век	-10.4453
▁Павел	-10.4454
▁опор	-10.4455
▁организация	-10.4461
▁заключен	-10.4462
▁особо	-10.4467
лі	-10.447
▁ба	-10.4471
▁меди	-10.4472
▁сон	-10.4473
▁корабль	-10.4476
пон	-10.4478
▁активно	-10.448
sa	-10.448
нской	-10.4481
▁comp	-10.4482
▁кот	-10.4482
ful	-10.4483
ностей	-10.4483
▁раб	-10.4483
чные	-10.4483
▁режим	-10.4484
дач	-10.4484
▁начинается	-10.4484
▁выражение	-10.4484
тек	-10.4487
▁охот	-10.4491
вил	-10.4493
▁вызывает	-10.4503
▁захват	-10.4505
▁провел	-10.4506
va	-10.4507
▁свод	-10.4507
▁лед	-10.4508
▁Церкви	-10.4508
щик	-10.4509
▁звук	-10.451
▁счастье	-10.4514
рот	-10.4514
▁$	-10.4518
▁пришла	-10.4519
▁третий	-10.4519
▁жены	-10.4519
дат	-10.452
▁стан	-10.4522
▁Чер	-10.4524
▁существенно	-10.4525
▁мастер	-10.4527
▁понимать	-10.4533
▁названием	-10.4534
▁Св	-10.4535
тки	-10.4535
▁реч	-10.4537
-3	-10.454
▁Рад	-10.4542
▁§	-10.4542
val	-10.4543
▁самолетов	-10.4543
▁хозяйства	-10.4545
ительных	-10.4548
▁рамках	-10.455
щую	-10.4552
▁обнаружил	-10.4552
▁задачу	-10.4553
▁начина	-10.4554
▁эпоху	-10.4555
▁Тер	-10.4556
ca	-10.4556
▁фи	-10.4556
шую	-10.4557
▁сильнее	-10.4557
▁роста	-10.4559
▁усилия	-10.456
▁ра	-10.4561
▁пространства	-10.4563
имся	-10.457
06	-10.457
▁литературе	-10.4572
▁дают	-10.4572
▁Чу	-10.4572
▁Париж	-10.4573
ЛА	-10.4574
▁отряда	-10.4577
чев	-10.4578
▁воли	-10.4579
▁держав	-10.4579
кос	-10.4581
▁попытки	-10.4581
▁пожар	-10.4582
▁(20	-10.4583
▁окна	-10.4584
▁Филипп	-10.4585
▁школ	-10.4588
▁человеческой	-10.4589
▁Эр	-10.4595
▁считают	-10.4601
нского	-10.4603
▁господин	-10.4603
▁мотор	-10.4604
ницу	-10.4604
▁слабо	-10.4604
▁девушка	-10.4605
▁религии	-10.4606
▁отношениях	-10.4607
ителем	-10.4607
▁сопротивление	-10.4609
▁техники	-10.4614
▁направля	-10.4615
go	-10.4616
тей	-10.4616
con	-10.4616
▁района	-10.4617
мана	-10.4618
▁контроль	-10.4618
▁угодно	-10.4621
lu	-10.4627
▁удач	-10.4628
▁Значит	-10.4629
▁считали	-10.463
▁Нью	-10.4631
▁желез	-10.4632
▁внутренних	-10.4634
▁принадлежит	-10.4635
▁off	-10.4636
ight	-10.4636
▁шут	-10.4637
▁твердо	-10.4638
иров	-10.4639
кого	-10.4641
▁80	-10.4642
▁встречи	-10.4649
мена	-10.4649
▁необходимость	-10.4651
▁отметить	-10.4657
▁вооружен	-10.4657
89	-10.4666
▁Новгород	-10.4666
▁сможет	-10.4668
▁day	-10.4668
ld	-10.4673
ga	-10.4673
▁советского	-10.4673
▁помощник	-10.4674
ron	-10.4676
▁Тро	-10.4679
▁поставил	-10.4689
▁реформ	-10.4693
▁высокой	-10.4693
ОВ	-10.4696
▁точка	-10.4702
▁предложение	-10.4705
▁веществ	-10.4707
▁массы	-10.4714
▁свободу	-10.4716
▁3)	-10.4716
▁произнес	-10.4716
▁восемь	-10.4719
ae	-10.472
▁неизвестно	-10.4722
инов	-10.4722
▁зато	-10.4724
▁There	-10.4724
▁повел	-10.4727
▁found	-10.473
▁помню	-10.473
▁Много	-10.4731
▁(17	-10.4731
▁население	-10.4733
ступал	-10.4733
очные	-10.4733
▁торжеств	-10.4736
имо	-10.4738
еев	-10.4741
▁канал	-10.4744
▁СПб	-10.4744
▁науч	-10.4745
ище	-10.4749
▁независимо	-10.4749
▁le	-10.475
ске	-10.475
▁(2	-10.4751
▁Буд	-10.4752
▁любил	-10.4752
▁кат	-10.4753
▁мама	-10.4757
▁дет	-10.4759
яз	-10.4761
▁тесно	-10.4763
▁идеолог	-10.4765
▁почувствовал	-10.4765
▁последней	-10.477
▁Кат	-10.4771
▁способности	-10.4773
▁зла	-10.4775
▁влияния	-10.4775
▁черно	-10.4776
▁провести	-10.4779
▁боли	-10.478
▁Господа	-10.4782
58	-10.4782
▁инструмент	-10.4784
син	-10.4784
▁ветер	-10.4785
▁сравнению	-10.4785
авших	-10.4787
▁знаете	-10.4788
ν	-10.479
mb	-10.4792
▁ситуация	-10.4796
Если	-10.4797
▁Само	-10.4801
хов	-10.4802
56	-10.4803
глас	-10.4804
▁актер	-10.4804
03	-10.4806
▁условий	-10.4808
НИ	-10.4814
▁мусульман	-10.4814
▁Ответ	-10.482
▁разумеется	-10.4822
▁производство	-10.4822
▁удивительно	-10.4822
ual	-10.4823
нув	-10.4824
▁игры	-10.4827
раб	-10.4829
▁следующее	-10.483
▁демократ	-10.4831
ess	-10.4831
ируем	-10.4833
▁восток	-10.4837
▁бога	-10.4841
рит	-10.4841
дем	-10.4844
рог	-10.4845
▁информацию	-10.4845
ведения	-10.4846
▁просил	-10.485
▁леса	-10.4852
совет	-10.4852
ors	-10.4855
▁Автор	-10.4855
04	-10.4859
▁посредством	-10.486
▁называли	-10.4866
▁dr	-10.487
▁должности	-10.4877
?..	-10.4884
▁War	-10.4889
▁1990	-10.4892
▁вопросу	-10.4899
74	-10.4901
▁Чи	-10.4902
mp	-10.4907
▁проход	-10.4908
крыл	-10.4908
▁расчет	-10.4909
▁расс	-10.4912
▁хотят	-10.4912
▁фигур	-10.4914
изация	-10.4914
эл	-10.4914
▁какъ	-10.4916
▁государственной	-10.4919
▁спец	-10.492
▁молод	-10.4937
tor	-10.4938
был	-10.4939
ze	-10.494
ийский	-10.4942
▁Гос	-10.4943
den	-10.4949
ЕР	-10.495
вшее	-10.4951
пущен	-10.4951
▁направление	-10.4952
▁вышла	-10.4952
▁Оп	-10.4956
09	-10.4956
Мы	-10.4957
▁Свят	-10.4958
▁талант	-10.496
▁пару	-10.4962
ическому	-10.4964
88	-10.4966
▁новым	-10.497
полит	-10.4971
чувств	-10.4971
ющейся	-10.4971
овской	-10.4974
Это	-10.4975
▁Гар	-10.4975
учи	-10.4975
▁психолог	-10.4978
ger	-10.4978
▁Ван	-10.4979
ev	-10.4984
Что	-10.4984
▁герои	-10.4985
берг	-10.4985
ируя	-10.4986
▁научно	-10.4989
▁Великой	-10.4989
▁свойства	-10.499
эм	-10.499
▁представляют	-10.4996
▁вызван	-10.4998
▁стремление	-10.5
▁эпизод	-10.5
▁выделя	-10.5005
ЛИ	-10.5005
▁вплоть	-10.5006
▁семи	-10.5006
▁авиации	-10.5008
свет	-10.5009
▁превосход	-10.5009
▁звон	-10.501
▁создал	-10.501
▁плав	-10.5011
▁понимаю	-10.5013
▁лежа	-10.5018
▁заговор	-10.5021
95	-10.5023
▁днем	-10.5023
▁назвал	-10.5023
▁километров	-10.5024
▁храм	-10.5025
▁Мер	-10.5026
▁слух	-10.5031
▁данной	-10.5031
ah	-10.5032
▁солдаты	-10.5032
▁дивизия	-10.5033
смотр	-10.5033
ack	-10.5034
▁полит	-10.5038
▁воде	-10.5042
act	-10.5048
▁заниматься	-10.5054
▁глава	-10.5057
▁ощущение	-10.5057
▁партнер	-10.5058
сты	-10.5059
▁тре	-10.5063
▁целей	-10.5066
ug	-10.5068
▁Бе	-10.5075
▁полет	-10.5076
▁American	-10.5078
▁половине	-10.5078
▁новая	-10.5082
▁проник	-10.5087
ther	-10.5088
▁толст	-10.5089
▁направления	-10.5089
▁берега	-10.509
▁воздуха	-10.5094
ывать	-10.5105
ьным	-10.511
▁сход	-10.511
▁добиться	-10.5112
▁9.	-10.5113
we	-10.5113
хъ	-10.5114
73	-10.5117
▁ново	-10.5117
▁поступил	-10.5117
▁39	-10.5118
▁луч	-10.5119
▁связано	-10.5121
Ма	-10.5122
▁жест	-10.5122
96	-10.5125
дея	-10.5126
ore	-10.5128
точ	-10.5128
▁дур	-10.5131
▁основные	-10.5134
▁must	-10.5134
▁разведки	-10.5134
▁статус	-10.5136
енс	-10.5139
него	-10.5139
▁командование	-10.5141
сар	-10.5142
▁самих	-10.5142
▁делом	-10.5145
лез	-10.5145
ныя	-10.5148
▁Над	-10.5151
ища	-10.5154
стях	-10.5156
иф	-10.5157
lin	-10.5163
66	-10.5164
▁Лит	-10.5164
алась	-10.5166
▁Николаевич	-10.5168
▁тра	-10.5169
▁исследований	-10.5171
▁each	-10.5173
▁внешней	-10.5174
▁дед	-10.5175
land	-10.5177
гла	-10.5178
▁электрон	-10.5183
▁Иоанн	-10.5191
▁центра	-10.5191
▁500	-10.5191
si	-10.5197
рыв	-10.5198
▁утро	-10.5199
▁огне	-10.5201
▁приходит	-10.5202
▁вагон	-10.5202
ОН	-10.5205
▁хочется	-10.5209
▁имея	-10.521
производ	-10.5211
▁втором	-10.5212
▁Ha	-10.5213
▁Ги	-10.5215
▁политика	-10.5215
nd	-10.5221
▁вход	-10.5222
▁сп	-10.5222
▁понимание	-10.5225
чков	-10.5228
▁потенциал	-10.523
тельная	-10.523
▁партия	-10.5231
ср	-10.5231
▁die	-10.5232
▁признать	-10.5232
▁Кал	-10.5235
98	-10.5237
▁мужчина	-10.5237
▁опасности	-10.5238
▁данным	-10.5239
▁никому	-10.5239
▁горизонт	-10.5242
▁подготовки	-10.5243
вай	-10.5244
▁друзья	-10.5248
▁бою	-10.5252
▁fl	-10.5253
▁школе	-10.5257
▁стрел	-10.5258
бат	-10.526
▁Центр	-10.5261
▁set	-10.5262
▁предложения	-10.5264
реш	-10.5264
▁42	-10.5265
▁принимает	-10.5266
веден	-10.5268
▁началась	-10.5269
▁совета	-10.5269
шн	-10.5273
▁дл	-10.5276
▁любого	-10.5279
ёл	-10.528
гл	-10.5283
▁запах	-10.5283
▁впереди	-10.5284
▁плане	-10.5284
▁университета	-10.5287
фу	-10.5288
ектор	-10.529
▁австр	-10.5291
▁горяч	-10.5292
ощ	-10.5292
истор	-10.5292
▁Борис	-10.53
лия	-10.5305
▁идут	-10.5306
4)	-10.5306
▁соответственно	-10.5313
▁пусты	-10.5315
▁образование	-10.5316
ou	-10.5319
▁наступления	-10.5323
hr	-10.5335
Вы	-10.5336
▁Ах	-10.5339
▁Press	-10.5346
▁уме	-10.535
▁Бур	-10.5351
ock	-10.5352
▁провод	-10.5352
▁сказали	-10.5354
кина	-10.5354
емой	-10.5357
▁смеш	-10.5358
▁партий	-10.5359
ьную	-10.5359
стран	-10.536
▁three	-10.536
▁судов	-10.5361
ходит	-10.5365
шек	-10.5366
▁Хорошо	-10.5366
До	-10.5367
ler	-10.5369
▁ор	-10.5372
мел	-10.5373
ворачива	-10.5378
▁корабли	-10.5378
▁врагов	-10.5378
▁Далее	-10.538
▁still	-10.5384
▁худ	-10.5386
над	-10.5387
▁Sch	-10.5387
▁основной	-10.539
низ	-10.5392
▁Кир	-10.5397
▁интересно	-10.5397
тик	-10.5398
▁борт	-10.5402
рожден	-10.5403
▁послан	-10.5405
▁правила	-10.5405
51	-10.5406
▁опасность	-10.5408
▁волос	-10.5411
▁протест	-10.5412
▁историк	-10.5413
▁программы	-10.5413
▁ждать	-10.5415
▁XVI	-10.5416
ver	-10.5416
▁группу	-10.5417
▁both	-10.5419
ich	-10.542
▁Максим	-10.542
▁законы	-10.5421
62	-10.5421
▁XVII	-10.5423
▁квадрат	-10.5424
▁комитет	-10.5425
▁предложен	-10.5425
▁цикл	-10.5425
‐	-10.5425
усь	-10.5427
▁туман	-10.5428
▁отдельные	-10.5428
ning	-10.5429
85	-10.5433
▁вечера	-10.5436
▁Андрей	-10.5437
сим	-10.5437
▁карман	-10.5437
▁воздухе	-10.5437
▁документы	-10.5437
▁300	-10.544
прос	-10.5443
ec	-10.5446
сек	-10.5446
▁подобные	-10.5446
▁Василий	-10.5447
▁вашего	-10.5447
▁серьезно	-10.5449
▁рыб	-10.5451
▁оставалось	-10.5453
граф	-10.5455
▁реальности	-10.5455
▁народу	-10.5457
ота	-10.5459
дыха	-10.5467
▁честно	-10.5467
▁vi	-10.547
▁огнем	-10.5471
▁четко	-10.5472
▁Мол	-10.5473
▁fa	-10.5477
яр	-10.5477
писан	-10.5478
▁местных	-10.5481
▁колхоз	-10.5481
▁объект	-10.5482
▁использовал	-10.5483
▁фланг	-10.5488
▁сорок	-10.549
▁социальной	-10.5492
ьян	-10.5494
▁хвост	-10.5496
пов	-10.5496
▁получив	-10.5498
буд	-10.5503
▁объявил	-10.5505
if	-10.5507
▁последствия	-10.551
тика	-10.5511
▁бан	-10.5512
▁поднял	-10.5514
▁программ	-10.5518
52	-10.5521
▁внутренней	-10.5522
▁нежели	-10.5524
чек	-10.5524
лат	-10.5525
вшееся	-10.5527
чная	-10.5528
нѣ	-10.5528
▁станции	-10.5531
!)	-10.5534
▁am	-10.5534
▁навсегда	-10.5535
▁гром	-10.5535
▁комнате	-10.5535
ang	-10.5536
▁модели	-10.5536
КО	-10.5539
▁Российской	-10.5541
▁контр	-10.5542
▁Прежде	-10.5543
▁Тар	-10.5552
▁Ген	-10.5552
евский	-10.5557
▁книж	-10.5561
ода	-10.5562
▁достиг	-10.5564
&	-10.5569
▁рано	-10.557
▁смогли	-10.5572
▁чай	-10.5573
▁здоровье	-10.5574
▁связаны	-10.5575
64	-10.5575
▁Оста	-10.5577
▁изменить	-10.5578
▁живут	-10.558
▁поворот	-10.5581
▁оставить	-10.5582
▁зап	-10.5582
3)	-10.5585
▁установить	-10.5586
▁письме	-10.5589
▁получила	-10.5589
▁сборник	-10.559
▁относятся	-10.5592
силь	-10.5593
▁общее	-10.5594
▁подо	-10.5596
▁экономики	-10.5597
▁посад	-10.5598
▁bi	-10.5601
плет	-10.5601
▁заранее	-10.5606
дали	-10.5609
▁жен	-10.5612
▁понят	-10.5613
▁Vol	-10.5613
▁нач	-10.5615
ition	-10.5617
йдут	-10.5618
▁спорт	-10.5623
▁sub	-10.5624
ною	-10.5627
▁любим	-10.5628
▁ранен	-10.563
res	-10.563
▁отсюда	-10.5633
▁бел	-10.5635
▁When	-10.5636
▁Японии	-10.5636
▁обратился	-10.5637
рел	-10.5639
▁Вид	-10.5639
▁great	-10.564
▁молодых	-10.5641
▁She	-10.5644
▁следующие	-10.5648
шт	-10.565
▁кризис	-10.565
▁содержа	-10.565
▁оста	-10.5651
▁встретил	-10.5655
▁занял	-10.5657
▁древне	-10.5658
▁поставить	-10.566
59	-10.5661
▁глубин	-10.5661
▁пусто	-10.5662
▁уст	-10.5663
▁легче	-10.5666
▁бригады	-10.5666
▁обязан	-10.5668
очку	-10.5668
▁согласился	-10.5673
▁Нас	-10.5673
аций	-10.5675
ny	-10.5675
глав	-10.5678
▁перспектив	-10.5681
54	-10.5682
▁Кан	-10.5682
сот	-10.5683
▁устав	-10.5686
▁остальных	-10.569
▁отправля	-10.569
ющему	-10.5691
▁Тре	-10.5693
▁заключа	-10.5694
▁главного	-10.5698
Z	-10.5699
▁ак	-10.5701
шла	-10.5701
▁Иисуса	-10.5703
▁становятся	-10.5706
▁коллег	-10.571
▁поздно	-10.5711
▁сего	-10.5712
▁мужчины	-10.5712
▁собран	-10.5715
ology	-10.5715
хим	-10.5721
▁отлича	-10.5722
▁песни	-10.5725
▁Суд	-10.5726
▁выстрел	-10.5732
▁обеспечить	-10.5734
▁смысла	-10.5737
▁смотрел	-10.5737
▁главных	-10.574
▁com	-10.5742
67	-10.5742
мут	-10.5742
▁against	-10.5743
▁ше	-10.5744
несли	-10.5744
▁44	-10.5746
▁душ	-10.5752
▁Ar	-10.5757
стат	-10.5757
чист	-10.5762
пп	-10.5763
вшую	-10.5764
▁43	-10.577
▁древних	-10.5772
und	-10.5772
▁птиц	-10.5773
▁дорог	-10.5777
ложение	-10.5777
lt	-10.578
тес	-10.5781
▁справ	-10.5781
▁мар	-10.5787
▁гнев	-10.5789
▁вещества	-10.5791
▁повод	-10.5792
▁круп	-10.5794
еле	-10.5797
▁дам	-10.5797
▁Париже	-10.5801
▁швед	-10.5801
▁пожалуй	-10.5804
нс	-10.5804
▁представлял	-10.5806
▁Эй	-10.5807
щем	-10.5808
▁ушел	-10.5809
76	-10.5809
▁примеру	-10.581
▁удел	-10.5811
▁need	-10.5817
тельным	-10.5817
▁Сначала	-10.5818
▁знаешь	-10.5818
▁повторя	-10.5818
▁самолета	-10.5825
▁might	-10.5826
▁обман	-10.5827
97	-10.5827
▁материала	-10.5828
▁1937	-10.5828
sp	-10.5829
▁мораль	-10.583
▁указывает	-10.5833
енд	-10.5837
▁физик	-10.5838
чиков	-10.5839
еч	-10.584
▁дорога	-10.5841
▁Кра	-10.5846
▁сохранить	-10.5846
▁hand	-10.5847
▁уз	-10.5847
ally	-10.5853
▁возрасте	-10.5854
способ	-10.5855
▁следовало	-10.5855
▁учение	-10.5856
▁играть	-10.5856
▁реально	-10.5857
цел	-10.586
аты	-10.5862
ai	-10.5864
▁жир	-10.5866
▁клад	-10.587
▁комнату	-10.5873
▁Тур	-10.5875
бен	-10.5876
▁Был	-10.5877
▁появилась	-10.588
▁ответственность	-10.5882
▁Боже	-10.5883
они	-10.5883
▁университет	-10.5884
▁троп	-10.5884
▁признан	-10.5885
ib	-10.5885
▁многое	-10.5888
▁pa	-10.5892
▁take	-10.5892
▁оборон	-10.5892
есс	-10.5893
бри	-10.5895
анс	-10.5895
лас	-10.5897
▁организм	-10.5898
▁хотите	-10.5899
топ	-10.5901
▁впрочем	-10.5905
▁полное	-10.5906
▁Украины	-10.5907
▁деревни	-10.5909
▁набор	-10.591
нг	-10.5911
▁холм	-10.5916
▁стих	-10.5917
▁вчера	-10.592
▁арт	-10.5921
▁41	-10.5924
роз	-10.5924
87	-10.5926
▁Тор	-10.5926
зен	-10.5926
▁институт	-10.5929
▁любом	-10.5929
men	-10.593
▁5-	-10.593
▁орудия	-10.5932
є	-10.5933
▁редактор	-10.5933
▁помог	-10.5933
рем	-10.5938
реж	-10.5938
▁артиллерии	-10.5938
надцат	-10.5939
ii	-10.5944
▁переправ	-10.5945
▁чист	-10.5949
нную	-10.595
▁приведен	-10.595
стями	-10.595
▁палат	-10.5951
▁почита	-10.5953
▁монарх	-10.5958
▁командиров	-10.5962
ee	-10.5963
▁богов	-10.5965
▁тотчас	-10.597
▁приговор	-10.5974
69	-10.5977
▁красно	-10.5978
–18	-10.5982
ывают	-10.5986
▁мудр	-10.599
▁классов	-10.5994
▁Бес	-10.5996
ология	-10.5996
▁Америки	-10.5996
▁соединения	-10.5996
▁order	-10.5998
▁свин	-10.5998
емого	-10.6006
это	-10.6011
▁Несколько	-10.6012
▁Отец	-10.6013
▁призыв	-10.6021
нц	-10.6021
▁строя	-10.6025
вшими	-10.6027
ris	-10.6028
двор	-10.603
▁близ	-10.603
▁дворе	-10.6031
▁прямой	-10.6031
ошел	-10.6035
▁inter	-10.6036
▁сообщения	-10.6038
▁бер	-10.6039
▁родителей	-10.604
▁попада	-10.6041
▁Закон	-10.6041
ue	-10.6043
vi	-10.6044
нские	-10.6047
▁каждая	-10.6051
Й	-10.6051
5)	-10.6052
▁сумел	-10.6052
▁кап	-10.6054
▁отнюдь	-10.6054
▁представители	-10.6055
ично	-10.6056
▁домов	-10.6061
▁сосредоточен	-10.6061
▁another	-10.6062
▁элементы	-10.6062
▁Сто	-10.6064
▁финансов	-10.6066
02	-10.6068
▁Бен	-10.6068
▁юго	-10.6068
▁48	-10.6069
▁черты	-10.6072
▁послуш	-10.6078
раста	-10.6081
▁твой	-10.6081
охран	-10.6081
▁радость	-10.6082
▁исключением	-10.6082
ныхъ	-10.6083
іі	-10.6083
ome	-10.6084
▁един	-10.6084
ела	-10.6086
леж	-10.6087
▁компьютер	-10.6087
▁правления	-10.6091
▁ch	-10.6092
▁рассказывает	-10.6093
mi	-10.6094
▁получает	-10.6097
▁фильм	-10.6099
▁дочери	-10.61
общ	-10.6102
Об	-10.6103
НО	-10.611
▁писателя	-10.6113
▁колон	-10.6114
▁ок	-10.6118
пеш	-10.6122
▁Ком	-10.6125
▁престол	-10.6125
ерн	-10.6125
▁картин	-10.6127
▁начиная	-10.6128
▁кал	-10.6132
▁теми	-10.6133
▁Просто	-10.6135
▁расход	-10.6136
▁car	-10.6137
очный	-10.6141
▁благоприят	-10.6143
vo	-10.6147
▁попытка	-10.6148
▁причина	-10.6149
▁here	-10.6153
▁каждому	-10.6155
que	-10.6155
▁тридцать	-10.6157
▁pr	-10.616
ченко	-10.616
овича	-10.616
дь	-10.6167
цин	-10.6169
▁хлеба	-10.617
ап	-10.617
▁принят	-10.617
▁пад	-10.6173
▁собственных	-10.6176
подоб	-10.6179
▁учения	-10.618
sch	-10.618
▁использования	-10.6181
▁страха	-10.6181
▁РФ	-10.6182
▁грех	-10.6184
▁располага	-10.6191
ran	-10.6191
▁представитель	-10.6194
▁упомина	-10.6195
тый	-10.62
▁нужна	-10.6201
po	-10.6202
▁поэта	-10.6204
▁every	-10.6204
▁too	-10.6206
▁банк	-10.6207
▁ученых	-10.6208
ключа	-10.6209
▁страна	-10.6213
▁магнит	-10.6213
▁Всё	-10.6214
▁слеп	-10.6215
▁Th	-10.6216
▁Po	-10.6219
▁преступ	-10.6222
▁Un	-10.6224
▁мнения	-10.6226
▁принадлежа	-10.6229
лян	-10.6229
▁Ново	-10.6234
еб	-10.6235
▁собственного	-10.6238
▁прошел	-10.6243
▁делали	-10.6245
▁кн	-10.6245
▁German	-10.6247
▁двое	-10.6249
▁вряд	-10.6252
▁University	-10.6257
▁ne	-10.6257
▁Благо	-10.6258
▁Do	-10.626
▁заряд	-10.6261
▁Кара	-10.6262
шли	-10.6264
▁моему	-10.6265
▁интересы	-10.6266
▁голова	-10.6267
▁выгод	-10.6268
▁энергия	-10.6268
▁тревож	-10.627
▁точку	-10.627
спо	-10.627
тельной	-10.627
▁обход	-10.6271
ЕН	-10.6272
бан	-10.6272
ay	-10.6275
ящих	-10.6275
▁главной	-10.6277
▁должность	-10.6277
▁Ge	-10.6277
▁соответствует	-10.6284
▁Отсюда	-10.6284
▁пройти	-10.629
77	-10.629
▁Ян	-10.6296
▁инд	-10.6302
▁первоначально	-10.6303
▁объектив	-10.6305
слыша	-10.6306
▁par	-10.6308
▁Никто	-10.6309
▁текста	-10.6311
▁родился	-10.6311
клон	-10.6312
оцен	-10.6313
▁find	-10.6314
▁реакции	-10.6314
енными	-10.6317
▁занятия	-10.6319
▁never	-10.6319
▁ствол	-10.6322
стой	-10.6325
лѣ	-10.6326
2,	-10.6328
▁машина	-10.6331
▁London	-10.6334
▁произведен	-10.6337
▁имена	-10.6338
▁оборот	-10.6341
▁теория	-10.6344
▁скорости	-10.6345
▁получается	-10.6346
▁десант	-10.6349
▁поражение	-10.6349
ключи	-10.6349
ep	-10.635
▁опасно	-10.6354
шему	-10.6354
ывая	-10.6357
▁маневр	-10.6357
влек	-10.6361
воен	-10.6362
восточн	-10.6362
▁играл	-10.6362
чан	-10.6362
▁велико	-10.6363
▁наука	-10.6364
▁авто	-10.6366
цар	-10.6367
▁тонн	-10.6368
телю	-10.6372
▁Петербург	-10.6372
▁отдыха	-10.6372
▁гигант	-10.6373
ада	-10.6374
▁другому	-10.6374
▁Николая	-10.6376
▁ситуацию	-10.6377
▁радости	-10.6384
▁ro	-10.6384
▁истины	-10.6386
▁Такие	-10.6387
яс	-10.6389
▁потребовал	-10.639
▁мертв	-10.6392
za	-10.6392
▁ворот	-10.6392
▁передать	-10.6392
сона	-10.6394
уя	-10.6395
▁Том	-10.6395
▁Одна	-10.6395
▁украин	-10.6396
НА	-10.6397
▁существо	-10.6403
▁ребенок	-10.6404
94	-10.6404
▁внешне	-10.6405
Мо	-10.6406
▁появляется	-10.6409
▁стандарт	-10.6409
▁порой	-10.6416
▁судьбы	-10.6417
дро	-10.6418
уме	-10.6418
▁вспоминал	-10.642
▁запрет	-10.642
di	-10.6421
▁живых	-10.6421
▁обид	-10.6422
▁отказ	-10.6423
оро	-10.6423
▁говорилось	-10.6424
мур	-10.6424
fi	-10.6426
▁воскрес	-10.6427
▁везде	-10.643
эконом	-10.6431
▁бытия	-10.6434
▁обладает	-10.6436
▁вызов	-10.6436
▁Кстати	-10.6437
▁пра	-10.6438
▁будете	-10.6441
нд	-10.6442
78	-10.6443
93	-10.6444
▁Май	-10.6444
▁прост	-10.6445
▁Se	-10.6446
▁причиной	-10.6448
▁приняли	-10.6449
▁крепости	-10.6453
▁Ник	-10.6454
▁came	-10.6456
ляр	-10.6459
Со	-10.646
▁непрерывно	-10.646
лова	-10.6461
нным	-10.6461
▁руководством	-10.6461
▁жители	-10.6462
ард	-10.6468
▁команды	-10.6469
▁Одно	-10.6473
▁Христос	-10.6475
дева	-10.6475
▁продолжать	-10.6477
▁часы	-10.6478
щение	-10.6479
дают	-10.648
игра	-10.6481
86	-10.6482
▁призван	-10.6482
▁отвечает	-10.6483
ind	-10.6486
out	-10.6487
▁Бат	-10.6491
▁армией	-10.6493
нн	-10.6493
ьер	-10.6494
бал	-10.6496
▁1991	-10.6497
▁пространстве	-10.6498
▁while	-10.6501
▁здания	-10.6501
▁НКВД	-10.6502
▁10.	-10.6505
▁осуществля	-10.6505
▁нужда	-10.6505
▁Мой	-10.6506
▁известный	-10.6507
еш	-10.6511
▁Russian	-10.6511
ba	-10.6512
як	-10.6513
виз	-10.6513
▁нашему	-10.6514
▁следующим	-10.6514
иста	-10.6515
щиков	-10.6516
▁бывший	-10.6516
▁существуют	-10.6521
72	-10.6525
▁Индии	-10.6526
▁преступления	-10.653
▁br	-10.6531
кри	-10.6536
63	-10.6539
▁картины	-10.654
▁миг	-10.6541
тянут	-10.6545
▁найден	-10.6546
▁фоне	-10.6553
79	-10.6554
ting	-10.6559
▁быстрее	-10.6562
▁Гитлера	-10.6562
там	-10.6562
▁Император	-10.6562
ницей	-10.6563
▁поддержку	-10.6564
▁обознач	-10.6565
▁наличие	-10.6569
мп	-10.6569
кт	-10.6571
ывали	-10.6573
кнул	-10.6576
▁восста	-10.6578
▁наблюдения	-10.6579
▁лесу	-10.6581
печат	-10.6582
▁тур	-10.6583
▁Михайлович	-10.6586
ложения	-10.6587
▁понимает	-10.6587
▁практике	-10.6587
▁Шу	-10.6588
блюд	-10.6589
▁президента	-10.6589
▁прод	-10.659
▁old	-10.6592
▁свободно	-10.6592
▁Фе	-10.6595
▁come	-10.6596
▁двига	-10.6597
водит	-10.6598
анта	-10.6599
▁собак	-10.66
▁Сил	-10.6601
▁Указ	-10.6601
▁Алексей	-10.6602
▁подошел	-10.6604
▁убежден	-10.6605
▁возврат	-10.6605
▁Сын	-10.6606
▁Сен	-10.6607
▁кредит	-10.6607
▁Два	-10.6607
чай	-10.6608
▁крик	-10.6608
обра	-10.6609
▁среды	-10.661
▁Син	-10.6613
▁военный	-10.6615
▁Кри	-10.6615
▁министра	-10.6616
▁Зо	-10.6616
центр	-10.6616
▁масса	-10.6617
No	-10.6617
▁ПО	-10.6618
РЕ	-10.6621
▁формул	-10.6623
десят	-10.6623
▁<...>	-10.6623
ведом	-10.6625
gen	-10.6627
▁велел	-10.6628
▁подвод	-10.6629
▁многом	-10.663
мол	-10.6631
▁150	-10.6633
▁заметно	-10.6634
порт	-10.6634
▁привет	-10.6635
▁племен	-10.6635
нок	-10.6636
uch	-10.6637
▁пря	-10.6642
шёл	-10.6642
рю	-10.6643
▁крут	-10.6646
▁превраща	-10.6646
чики	-10.6646
▁плод	-10.6647
▁совместно	-10.6647
▁минуты	-10.6649
▁странно	-10.6652
пали	-10.6653
▁name	-10.6654
▁соединя	-10.6656
РУ	-10.6657
ставлен	-10.6659
▁зале	-10.666
▁ангел	-10.6661
ik	-10.6665
▁пытались	-10.6667
тре	-10.6668
▁оставаться	-10.6668
▁выходит	-10.6668
изирован	-10.6677
▁ритуал	-10.6677
теле	-10.6679
деж	-10.668
▁Сколько	-10.6681
▁громко	-10.6683
чество	-10.6683
бур	-10.6684
Во	-10.6687
71	-10.6689
▁human	-10.6689
▁косм	-10.669
▁Жуков	-10.669
▁сохраня	-10.6692
ship	-10.6692
▁большинства	-10.6696
▁материалы	-10.6696
$	-10.6697
▁замуж	-10.6697
▁тон	-10.6698
▁лав	-10.6698
лива	-10.6701
▁конфликт	-10.6702
61	-10.6709
▁привык	-10.6709
▁документов	-10.6711
ывает	-10.6712
очек	-10.6713
▁общин	-10.6717
91	-10.6719
▁Пи	-10.6721
▁прочим	-10.6723
аны	-10.6723
▁крепко	-10.6726
▁безусловно	-10.6728
ати	-10.673
▁little	-10.673
▁позицию	-10.673
▁изображен	-10.6731
▁картина	-10.6731
▁спасти	-10.6733
▁na	-10.6734
▁зная	-10.6735
пат	-10.6736
▁напряжен	-10.6737
▁миром	-10.6739
ds	-10.6739
▁дабы	-10.6741
▁изд	-10.6742
▁газет	-10.6742
AN	-10.6745
сыла	-10.6747
▁явление	-10.6753
▁46	-10.6754
▁Нужно	-10.6755
art	-10.6755
▁выглядел	-10.6755
▁каждое	-10.6756
▁советские	-10.6756
ins	-10.6757
int	-10.6757
ized	-10.6757
▁полков	-10.676
грамм	-10.6766
▁(3	-10.6766
▁гре	-10.6768
▁1938	-10.6768
пил	-10.6771
▁организма	-10.6773
▁услов	-10.6775
действ	-10.6776
▁example	-10.6776
»?	-10.6781
▁пик	-10.6782
▁проходит	-10.6783
▁событие	-10.6787
▁машину	-10.6787
▁Вар	-10.6788
▁судеб	-10.6788
▁директор	-10.6789
ring	-10.679
соб	-10.679
▁прибыли	-10.6791
▁цеп	-10.6792
ct	-10.6794
▁почт	-10.6798
▁different	-10.6798
атов	-10.68
▁театра	-10.6802
ивать	-10.6803
▁called	-10.6804
▁Иерусалим	-10.6808
▁ждал	-10.681
▁Эн	-10.6811
▁утверждает	-10.6815
▁дворян	-10.6818
▁рок	-10.6819
▁имеем	-10.682
▁взяли	-10.682
▁добавил	-10.6822
▁руководства	-10.6825
▁корон	-10.6828
▁одинаково	-10.6828
брасыва	-10.6829
▁золот	-10.6829
▁герой	-10.683
ren	-10.683
служ	-10.683
▁приятно	-10.6832
▁простой	-10.6836
▁ничем	-10.6836
▁му	-10.6837
▁летом	-10.6839
▁Лишь	-10.6839
▁пользова	-10.684
▁Китай	-10.6844
акт	-10.6847
▁собрания	-10.6848
▁Шт	-10.6849
▁определен	-10.6852
▁Гол	-10.6857
▁Константин	-10.6857
▁тему	-10.6858
ичный	-10.6858
щее	-10.686
рач	-10.6861
▁феномен	-10.6862
ступать	-10.6864
▁Фу	-10.6864
▁справедливо	-10.6866
обр	-10.6867
▁каждым	-10.6868
▁Фи	-10.6868
▁don	-10.6873
ium	-10.6874
▁турецк	-10.6874
▁Дом	-10.6877
92	-10.6877
α	-10.6881
▁эксперимент	-10.6882
аго	-10.6884
▁материалов	-10.6885
▁small	-10.6887
▁единиц	-10.6887
▁статье	-10.6888
▁комиссии	-10.6889
бра	-10.6891
▁фин	-10.6892
▁im	-10.6894
▁Следовательно	-10.6895
летел	-10.6896
▁непри	-10.6896
▁моем	-10.6897
▁печати	-10.6897
▁47	-10.6898
ования	-10.6898
▁деревне	-10.6899
▁зуб	-10.6902
▁влиянием	-10.6902
вшуюся	-10.6904
▁современных	-10.6905
▁ничто	-10.6905
▁Вал	-10.6906
▁избежать	-10.6907
▁половины	-10.6907
▁вспомнил	-10.6908
ителю	-10.6914
▁dec	-10.6922
▁лев	-10.6926
иса	-10.6928
кров	-10.6929
▁камень	-10.6931
▁сыр	-10.6934
▁друж	-10.6936
▁Ничего	-10.6936
▁груди	-10.694
▁bo	-10.6943
лить	-10.6948
тем	-10.6949
например	-10.6949
▁структуры	-10.695
▁участвовал	-10.6951
ru	-10.6951
▁чувствует	-10.6951
арь	-10.6952
▁ха	-10.6952
▁ученые	-10.6953
▁лагеря	-10.6956
ительная	-10.6958
▁происходило	-10.6958
▁аспект	-10.6959
▁выступил	-10.6962
▁счастлив	-10.6963
тел	-10.6963
существ	-10.6969
ающей	-10.6969
▁регион	-10.697
▁атаку	-10.6971
▁развитии	-10.6971
кач	-10.6971
▁большинстве	-10.6975
▁описание	-10.6977
▁чудес	-10.6979
▁столетия	-10.698
▁решить	-10.6981
▁важным	-10.6983
▁океан	-10.6983
шко	-10.6988
руд	-10.6989
▁without	-10.6993
▁искр	-10.6993
ип	-10.6993
▁90	-10.6995
лист	-10.6997
▁приближа	-10.6999
▁модель	-10.7
анов	-10.7
▁power	-10.7001
▁Ba	-10.7002
mm	-10.7003
▁нужен	-10.7003
▁плана	-10.7005
▁упомянут	-10.7006
▁переговоры	-10.701
▁площадь	-10.7012
▁раду	-10.7014
▁способом	-10.7015
gu	-10.7015
числ	-10.7017
▁55	-10.7018
tro	-10.7019
▁подъем	-10.702
нюю	-10.702
зр	-10.702
▁неё	-10.7021
ТО	-10.7022
▁властью	-10.7023
▁существа	-10.7024
закон	-10.7025
▁войско	-10.7027
▁Такое	-10.7027
тягива	-10.7029
▁страниц	-10.7032
▁сем	-10.7033
▁Советской	-10.7034
нье	-10.7034
▁начинают	-10.7035
▁транс	-10.7036
▁связ	-10.704
▁зон	-10.7041
▁Дух	-10.7042
▁Мария	-10.7043
▁применение	-10.7046
▁свидетельствует	-10.7047
▁ед	-10.7049
дей	-10.7051
▁обещал	-10.7052
оре	-10.7056
ющегося	-10.7057
▁максимально	-10.7057
▁1914	-10.7058
яет	-10.7058
▁ac	-10.7059
рид	-10.706
▁уйти	-10.7061
вания	-10.7062
▁преимущественно	-10.7063
работать	-10.7063
▁фото	-10.7064
▁двадцати	-10.7065
▁подготовлен	-10.7065
мах	-10.7066
ящего	-10.7066
нки	-10.7069
▁фактор	-10.7069
▁золото	-10.7069
гал	-10.7069
▁выхода	-10.7069
▁воле	-10.707
▁Soviet	-10.7071
чика	-10.7072
▁Жен	-10.7072
▁требования	-10.7073
tal	-10.7073
▁убит	-10.7077
▁группе	-10.7084
▁романа	-10.7085
пл	-10.7085
▁гос	-10.7085
▁during	-10.7086
▁атаки	-10.7087
ГА	-10.7088
▁едино	-10.7088
фиц	-10.7088
сказ	-10.7091
▁полиции	-10.7092
▁всякой	-10.7093
▁VII	-10.7094
метр	-10.7094
▁разрушен	-10.7098
▁громад	-10.71
▁number	-10.71
ster	-10.7107
рист	-10.7107
▁глав	-10.7107
▁картину	-10.7108
pa	-10.7112
▁собор	-10.7113
▁волны	-10.7113
нула	-10.7114
▁темно	-10.7115
ческой	-10.7118
▁распространя	-10.712
Он	-10.712
ико	-10.7121
щад	-10.7125
нский	-10.7126
▁считается	-10.7128
ег	-10.7132
ьной	-10.7133
▁страш	-10.7133
▁будь	-10.7133
инь	-10.7135
▁хочешь	-10.7136
бес	-10.7136
▁планы	-10.7137
▁села	-10.7139
▁уничтожен	-10.7139
▁Город	-10.7139
▁батальона	-10.7141
▁Ленинград	-10.7141
▁крупные	-10.7141
нка	-10.7147
▁sin	-10.7149
▁Земле	-10.7151
▁high	-10.7153
▁городах	-10.7154
гром	-10.7155
▁lo	-10.7159
▁выражения	-10.716
итар	-10.7161
▁высшей	-10.7162
сут	-10.7165
1)	-10.7165
▁cl	-10.7165
qui	-10.7166
▁экипаж	-10.7168
▁вступил	-10.717
bo	-10.7171
▁Ху	-10.7173
фр	-10.7174
▁пить	-10.7174
▁уехал	-10.7174
▁проводить	-10.7175
▁пьян	-10.7175
енность	-10.7176
▁Q	-10.7176
▁й	-10.7176
▁Америке	-10.7178
дается	-10.7184
▁Миш	-10.7185
▁Такой	-10.7186
▁Австр	-10.7186
▁Эд	-10.7188
▁способен	-10.7189
▁обмен	-10.7189
▁школу	-10.719
▁солнца	-10.7191
▁участников	-10.7191
▁фа	-10.7192
становлен	-10.7192
▁Действительно	-10.7193
маз	-10.7194
▁бросил	-10.7195
▁знание	-10.7195
▁рассматривать	-10.7196
▁around	-10.7197
▁Li	-10.72
▁статья	-10.7204
▁Хан	-10.7204
84	-10.7206
тай	-10.7207
▁вошел	-10.7208
▁Федор	-10.721
▁повышен	-10.7212
ност	-10.7212
fe	-10.7213
▁later	-10.7213
▁главы	-10.7215
▁спать	-10.7216
▁point	-10.7216
▁75	-10.7217
▁few	-10.7217
▁що	-10.7219
пин	-10.722
▁среде	-10.7222
▁духов	-10.7222
▁старый	-10.7224
▁Шар	-10.7226
▁союзников	-10.723
щит	-10.723
▁class	-10.7231
▁созна	-10.7233
▁катастроф	-10.7235
▁свобод	-10.7236
▁Васильевич	-10.7237
▁помимо	-10.724
министр	-10.7243
времен	-10.7243
государственного	-10.7245
▁Ивана	-10.7247
1,	-10.7247
ip	-10.7247
Ан	-10.7248
▁system	-10.7251
▁арестован	-10.7253
▁вошли	-10.7254
▁Гра	-10.7258
ивает	-10.7258
ans	-10.7259
правлен	-10.7265
▁зал	-10.7265
ER	-10.7265
▁источников	-10.7265
▁поколения	-10.7265
▁политические	-10.7265
▁старший	-10.7267
▁исчез	-10.7268
▁прошло	-10.727
▁концерт	-10.7271
ийской	-10.7273
▁отказался	-10.7275
eg	-10.7276
джа	-10.7281
▁гибели	-10.7282
роч	-10.7284
лод	-10.7285
▁полного	-10.7286
ius	-10.7286
▁Глав	-10.7294
▁началось	-10.7296
информ	-10.7297
▁республик	-10.7301
йдет	-10.7301
▁идею	-10.7303
фин	-10.7304
▁1980	-10.7305
▁op	-10.7307
ust	-10.7308
▁капитал	-10.731
▁Na	-10.731
уча	-10.731
▁оставался	-10.7312
▁вторая	-10.7312
▁посмотреть	-10.7313
Из	-10.7313
▁help	-10.7314
▁рабочего	-10.7322
ини	-10.7323
▁1960	-10.7329
▁ge	-10.7331
ake	-10.7332
▁местности	-10.7335
▁происхождения	-10.7335
сель	-10.7336
▁сообщение	-10.7339
▁апостол	-10.7341
▁сравнительно	-10.7342
нар	-10.7342
▁методы	-10.7343
▁large	-10.7344
Де	-10.7344
mit	-10.7345
▁прогресс	-10.7348
▁мета	-10.7352
▁приход	-10.7355
▁русским	-10.7356
▁КПСС	-10.7357
▁обряд	-10.7358
▁удив	-10.736
▁продолжает	-10.7361
гнал	-10.7361
▁дис	-10.7362
▁государственных	-10.7362
▁задан	-10.7364
▁болот	-10.7364
▁частиц	-10.7365
▁победу	-10.7367
▁ядер	-10.7371
поль	-10.7371
rs	-10.7371
▁руко	-10.7372
тека	-10.7372
▁стояла	-10.7374
ене	-10.7376
▁социальных	-10.7379
▁голоса	-10.738
▁кг	-10.7383
▁изменение	-10.7383
▁самую	-10.7383
▁Аль	-10.7387
tu	-10.7388
▁сохрани	-10.739
▁волю	-10.7391
ew	-10.7391
ящие	-10.7394
▁лошадей	-10.7396
ируется	-10.7402
ities	-10.7404
▁увеличива	-10.7406
▁давать	-10.7413
гло	-10.7414
▁подобного	-10.7415
▁каб	-10.7421
нять	-10.7422
ace	-10.7422
▁итальян	-10.7425
▁торговли	-10.7427
▁КП	-10.7428
▁список	-10.7428
▁head	-10.7428
▁знач	-10.7433
▁частично	-10.7434
▁сверху	-10.7438
▁собственные	-10.7439
гляд	-10.744
▁ворота	-10.744
▁тыл	-10.7441
▁применения	-10.7441
водить	-10.7443
▁официально	-10.7444
сторон	-10.7444
▁Китае	-10.7445
▁куб	-10.745
▁повтор	-10.7451
▁слегка	-10.7454
▁понимания	-10.7456
▁последовательно	-10.7456
▁представляется	-10.7457
▁написано	-10.7457
▁сед	-10.7457
▁законов	-10.7458
▁want	-10.7462
шем	-10.7462
▁будешь	-10.7464
▁нравится	-10.7465
▁количестве	-10.7466
ьем	-10.7469
▁знаний	-10.7475
cal	-10.7475
вей	-10.7476
bu	-10.7477
0%	-10.7477
▁заказ	-10.7477
▁костюм	-10.7478
▁получения	-10.7485
▁Хи	-10.7487
▁рука	-10.7491
▁собрать	-10.7491
▁Сав	-10.7491
▁Иосиф	-10.7495
▁Lo	-10.7495
▁open	-10.7496
▁вслед	-10.7498
▁отрыв	-10.7501
▁данного	-10.7501
▁перенос	-10.7501
▁1970	-10.7502
нной	-10.7508
▁play	-10.7511
народ	-10.7513
▁участия	-10.7514
▁титул	-10.7515
▁передал	-10.7516
▁Берлин	-10.7517
▁чет	-10.7517
▁цивилизации	-10.7524
▁написать	-10.753
▁политике	-10.7533
bl	-10.7534
▁покупа	-10.7536
▁произвел	-10.7536
unt	-10.7537
беж	-10.7539
▁Й	-10.7541
83	-10.7541
ложи	-10.7542
пира	-10.7542
▁el	-10.7542
▁помогает	-10.7543
ствовал	-10.7544
▁возвраща	-10.755
▁рек	-10.7557
Рус	-10.7561
▁премьер	-10.7561
▁подчинен	-10.7561
▁своё	-10.7562
▁огромное	-10.7563
рай	-10.7563
▁находилась	-10.7564
▁вклад	-10.7565
nn	-10.7565
▁тел	-10.7567
Q	-10.7568
мед	-10.7576
▁названия	-10.7576
пле	-10.7577
ворот	-10.7583
▁верхов	-10.7585
чок	-10.7585
тир	-10.7587
▁офицеры	-10.7588
▁умел	-10.759
▁отличается	-10.7592
▁игр	-10.7593
▁четверт	-10.7593
▁столб	-10.7595
ale	-10.7599
▁имело	-10.7599
▁американских	-10.7601
▁Маг	-10.7603
▁полный	-10.7603
▁вещь	-10.7604
кли	-10.7605
▁мышления	-10.7607
одно	-10.7608
▁значительной	-10.7608
▁подлинно	-10.7613
▁священник	-10.7614
▁конечном	-10.7616
▁предо	-10.7617
▁верить	-10.7618
▁обер	-10.7618
▁отправлен	-10.7619
▁стоят	-10.762
▁стимул	-10.762
▁выполнен	-10.762
▁этн	-10.7621
▁отлично	-10.7621
▁коридор	-10.7623
▁патриарх	-10.7625
▁реке	-10.7627
▁сфере	-10.7627
тельную	-10.7627
wi	-10.763
цвет	-10.7633
▁собрание	-10.7633
▁живой	-10.7635
▁держать	-10.7638
▁целях	-10.7639
▁Наполеон	-10.764
▁хан	-10.7642
▁дер	-10.7644
американ	-10.7644
▁thought	-10.7645
▁Вопрос	-10.7645
▁совершил	-10.7646
▁лучших	-10.7648
▁fact	-10.7648
▁скал	-10.7649
▁брать	-10.7649
▁управля	-10.7651
▁немецкой	-10.7654
▁Также	-10.7655
▁единственный	-10.7656
▁надежды	-10.7657
меш	-10.7658
▁следующем	-10.766
никами	-10.7664
▁Инд	-10.7665
▁пойти	-10.7666
▁требуется	-10.7667
ича	-10.7667
▁роты	-10.7667
▁бригад	-10.7668
▁11.	-10.7668
▁определения	-10.767
▁Западной	-10.7673
▁скажем	-10.7673
▁волосы	-10.7674
▁Александрович	-10.7676
бле	-10.7676
▁Or	-10.7678
ef	-10.7679
82	-10.7681
uck	-10.7682
ін	-10.7683
▁взаимо	-10.7683
▁организаций	-10.769
tain	-10.7692
▁микро	-10.7692
▁кара	-10.7693
луча	-10.7695
вала	-10.7697
▁наклон	-10.7698
зон	-10.7699
▁Гал	-10.7702
▁кабинет	-10.7705
▁Северной	-10.7706
▁учит	-10.7707
▁груб	-10.7708
▁восторг	-10.7708
АН	-10.7714
Ар	-10.7715
▁спрос	-10.7716
▁началом	-10.7718
орт	-10.7718
план	-10.7718
▁Дан	-10.7719
гур	-10.772
▁чита	-10.772
▁функция	-10.772
▁англичан	-10.7722
▁далек	-10.7726
▁увидели	-10.7727
▁завода	-10.7727
▁Вся	-10.7728
лина	-10.7731
▁ци	-10.7733
port	-10.7735
▁пещер	-10.7738
▁называет	-10.7739
▁Испании	-10.7742
анти	-10.7743
▁делах	-10.7745
sen	-10.7745
▁Всего	-10.7747
кот	-10.7748
▁прошли	-10.7749
▁элемент	-10.7749
▁state	-10.775
▁политику	-10.7759
врат	-10.7759
очной	-10.776
▁app	-10.7761
▁ответствен	-10.7761
▁съезд	-10.777
▁братья	-10.7771
▁gra	-10.7771
▁обусловлен	-10.7772
яется	-10.7775
▁пределы	-10.7776
▁хозяин	-10.7778
тельство	-10.7779
▁манер	-10.7779
▁ошиб	-10.7784
▁писателей	-10.779
Все	-10.779
кое	-10.7792
▁дерево	-10.7793
▁оказа	-10.7795
ory	-10.7795
▁плеч	-10.7796
▁Вместо	-10.7797
▁линия	-10.7798
▁кстати	-10.78
▁бумаги	-10.7801
▁признал	-10.7802
▁imp	-10.7803
▁носил	-10.7804
▁ходить	-10.7805
сла	-10.7805
ek	-10.7807
▁Крым	-10.7809
рова	-10.781
▁воинов	-10.7811
▁ответа	-10.7814
▁общественного	-10.7817
бить	-10.7817
лый	-10.7818
гад	-10.7818
▁ad	-10.7819
Ре	-10.782
▁Жан	-10.7821
own	-10.7822
▁вино	-10.7825
▁политического	-10.7825
▁навстречу	-10.7826
нести	-10.7826
писыва	-10.7828
▁средне	-10.7829
емое	-10.783
▁эпи	-10.7832
▁предприятия	-10.7836
дает	-10.7836
▁знала	-10.7836
▁упор	-10.7838
▁дивизий	-10.7839
ающего	-10.7842
▁real	-10.7845
ings	-10.7846
▁Гр	-10.7846
нял	-10.7848
▁сосуд	-10.7851
▁сущность	-10.7851
ВО	-10.7852
тянул	-10.7855
▁обсужда	-10.7856
ear	-10.7857
▁Зачем	-10.7857
▁неоднократно	-10.7857
▁образу	-10.7858
▁буд	-10.7862
▁республики	-10.7863
▁камер	-10.7867
▁строительства	-10.7867
▁фашист	-10.7868
▁контроля	-10.7869
dy	-10.787
▁минимум	-10.7873
▁папа	-10.7873
▁печаль	-10.7876
▁аргумент	-10.7878
лекс	-10.788
▁букв	-10.788
7].	-10.7885
▁морской	-10.7885
▁закрыт	-10.7886
▁икон	-10.7886
▁мягко	-10.7889
▁старых	-10.7889
мель	-10.7891
▁судить	-10.7891
▁основу	-10.7892
тические	-10.7893
▁приобрел	-10.7896
▁учителя	-10.7896
▁Пр	-10.7897
▁журнала	-10.7901
▁вопросам	-10.7903
▁ритм	-10.7904
▁всяких	-10.7904
дела	-10.7905
▁tr	-10.7906
tra	-10.7906
ийских	-10.7907
ущий	-10.7909
ствовать	-10.791
▁изо	-10.7911
▁лежал	-10.7912
▁6-	-10.7913
лоб	-10.7918
▁Разумеется	-10.7918
▁связанные	-10.7919
ДА	-10.792
▁Sa	-10.792
▁Петров	-10.7927
▁Пушкина	-10.7927
рост	-10.7928
ительным	-10.7929
▁Ярослав	-10.7932
иев	-10.7935
▁Петрович	-10.7935
▁кратко	-10.7938
▁необходимым	-10.7939
▁делам	-10.7942
люб	-10.7943
▁доход	-10.7944
▁взаимно	-10.7946
изован	-10.7948
▁сильным	-10.7949
▁лап	-10.7954
▁Германия	-10.7956
▁артист	-10.796
нуться	-10.796
▁растения	-10.7961
▁Первая	-10.7963
▁направил	-10.7966
▁Юр	-10.7966
81	-10.7966
▁All	-10.7968
▁природа	-10.7968
ward	-10.7969
▁тракт	-10.7969
▁содержания	-10.7969
▁недель	-10.7972
▁left	-10.7974
ема	-10.7979
▁ходил	-10.7979
▁град	-10.7979
еты	-10.7981
яли	-10.7981
▁ремонт	-10.7982
▁XV	-10.7983
шни	-10.7984
▁Герман	-10.7986
▁лад	-10.7987
▁органы	-10.7987
▁настоящий	-10.7991
жим	-10.7994
▁Мари	-10.7995
чку	-10.7995
▁Тай	-10.7997
▁определяется	-10.7997
▁энергию	-10.8001
енности	-10.8001
шир	-10.8001
▁познания	-10.8002
физ	-10.8002
▁Дев	-10.8003
▁факты	-10.8007
▁put	-10.8008
звуч	-10.801
▁планет	-10.801
▁команду	-10.8011
ana	-10.8011
▁аль	-10.8014
ваться	-10.8016
работа	-10.8016
ады	-10.8018
▁округа	-10.8019
▁процентов	-10.8019
▁мет	-10.8021
▁Фил	-10.8021
▁рабочие	-10.8021
▁фрагмент	-10.8021
нам	-10.8024
ѳ	-10.8026
▁хитр	-10.8026
ТА	-10.8026
▁твое	-10.8029
▁смех	-10.803
▁пуст	-10.8031
▁объединен	-10.8032
анию	-10.8033
▁штурм	-10.8034
▁свыше	-10.8035
▁забыл	-10.8036
mon	-10.8038
▁окончания	-10.804
▁наследник	-10.804
нице	-10.804
люд	-10.8041
▁определение	-10.8041
▁колен	-10.8041
тельного	-10.8042
шел	-10.8042
▁содержит	-10.8045
йдем	-10.8046
▁родители	-10.8047
▁John	-10.8047
▁парк	-10.8047
▁броне	-10.805
лейтенант	-10.8051
▁Наиболее	-10.8051
▁Man	-10.8052
▁арест	-10.8052
▁похорон	-10.8053
ley	-10.8055
-4	-10.8055
▁командованием	-10.8056
ніе	-10.8057
▁exp	-10.8058
▁осужден	-10.806
▁ежедневно	-10.8063
уха	-10.8064
rit	-10.8064
ι	-10.8065
▁личного	-10.8065
▁еже	-10.8066
▁изображения	-10.8069
щими	-10.807
▁процессов	-10.8071
резан	-10.8076
уг	-10.8077
5].	-10.8083
▁last	-10.8083
▁продаж	-10.8086
▁положил	-10.8093
▁упал	-10.8094
▁фр	-10.8095
▁канон	-10.8097
▁какими	-10.8098
▁границу	-10.81
▁руке	-10.8102
▁отдельно	-10.8104
▁сестра	-10.8104
▁русском	-10.8105
носит	-10.8108
▁продолжали	-10.8109
▁49	-10.811
▁издания	-10.811
▁вып	-10.8111
▁окружен	-10.8114
вшему	-10.8115
роб	-10.8116
▁гарант	-10.8117
лаж	-10.8117
▁персонаж	-10.8117
▁признак	-10.8118
▁Гри	-10.8119
▁заболевания	-10.8123
▁поэзии	-10.8127
дели	-10.813
юль	-10.8131
мудр	-10.8133
▁спросила	-10.8136
КИ	-10.8136
▁правом	-10.8137
~	-10.8137
▁советник	-10.8137
▁выбрал	-10.8138
жать	-10.8138
▁намного	-10.8139
▁заповед	-10.814
▁u	-10.814
▁Ca	-10.8141
▁мел	-10.8141
обыч	-10.8141
▁парламент	-10.8142
▁Тан	-10.8142
Ст	-10.8147
демократ	-10.8148
▁че	-10.8153
▁страдания	-10.8155
▁многочисленные	-10.8156
▁Сар	-10.8156
▁занимался	-10.8156
▁say	-10.8158
▁расстояние	-10.8159
▁думает	-10.816
ki	-10.8161
▁Ад	-10.8162
▁Di	-10.8162
▁казн	-10.8163
▁мае	-10.8166
▁творчества	-10.8167
▁революция	-10.8167
▁проводил	-10.8169
▁высоты	-10.8169
▁65	-10.817
6]	-10.817
овод	-10.8172
▁сознательно	-10.8177
арх	-10.818
▁пора	-10.8183
▁коров	-10.8183
▁оригинал	-10.8184
▁пределах	-10.8185
казать	-10.8185
исто	-10.8185
▁отказаться	-10.8185
▁лагерь	-10.8186
▁регулярно	-10.8189
▁ходу	-10.819
▁фаз	-10.8191
ord	-10.8193
▁Причем	-10.8194
▁сидя	-10.8194
▁проекта	-10.8195
▁ответить	-10.8196
▁Сал	-10.8197
▁прибор	-10.8198
▁вере	-10.8199
инской	-10.8201
▁царств	-10.8201
6].	-10.8201
lar	-10.8201
▁куст	-10.8205
▁строк	-10.8207
▁студент	-10.8208
▁знамен	-10.821
▁отчасти	-10.8211
ї	-10.8211
▁отмечал	-10.8213
▁захвачен	-10.8214
няв	-10.8219
▁XIV	-10.8219
▁бояр	-10.822
▁кост	-10.8221
▁потерял	-10.8221
▁виды	-10.8223
кл	-10.8223
▁низко	-10.8224
▁выпуска	-10.8225
▁подразделения	-10.8225
▁учитель	-10.8227
▁урок	-10.8229
рош	-10.8229
▁соглас	-10.823
били	-10.8231
тира	-10.8232
жение	-10.8233
учить	-10.8234
▁52	-10.8234
▁танк	-10.8234
вз	-10.8237
▁импульс	-10.8237
▁современного	-10.8237
раг	-10.8238
оны	-10.8238
▁ап	-10.8239
емая	-10.824
▁светло	-10.8241
пуст	-10.8245
▁анализа	-10.8246
▁Вос	-10.8249
▁пароход	-10.8249
разум	-10.8251
▁Отечественной	-10.8252
▁отделения	-10.8254
▁отход	-10.8256
▁выс	-10.8258
бул	-10.8264
слуша	-10.8264
▁нечего	-10.8264
▁отправ	-10.8267
▁возможным	-10.8267
▁проща	-10.8268
▁непременно	-10.8268
▁великой	-10.827
▁злоб	-10.827
▁поражен	-10.8272
▁линию	-10.8272
майор	-10.8273
▁механизм	-10.8275
▁заметить	-10.8276
▁разгром	-10.8277
▁Ше	-10.8278
▁сообщает	-10.8279
▁Благодаря	-10.8282
▁общий	-10.8284
▁стрелков	-10.8285
▁рассказать	-10.8287
▁ль	-10.8287
льд	-10.8288
▁женой	-10.8288
▁осталась	-10.8289
▁ваших	-10.8291
линг	-10.8291
▁рассказа	-10.8292
▁Car	-10.8294
gi	-10.8295
ates	-10.8295
▁решений	-10.8295
▁уч	-10.8298
▁общим	-10.8298
королев	-10.8299
▁важное	-10.83
▁Вене	-10.83
▁ценности	-10.83
▁шт	-10.8303
▁образа	-10.8306
▁ra	-10.8306
▁far	-10.8307
▁Роман	-10.8311
▁Форм	-10.8312
▁можешь	-10.8313
▁рай	-10.8314
▁XII	-10.8314
▁негатив	-10.8314
▁играет	-10.8314
ейн	-10.8316
▁бизнес	-10.8317
▁аналог	-10.8317
ходя	-10.8318
▁це	-10.8319
▁выступ	-10.832
▁украшен	-10.8321
▁дорож	-10.8322
▁работой	-10.8322
8].	-10.8325
ыр	-10.8325
/2	-10.8326
▁обеих	-10.8327
яд	-10.8329
▁болезнь	-10.833
1]	-10.8331
▁снег	-10.8332
онос	-10.8333
▁1921	-10.8334
▁function	-10.8336
▁лодки	-10.8339
▁Время	-10.8341
ons	-10.8342
▁выступления	-10.8344
▁Давид	-10.8344
9].	-10.8344
▁скрыт	-10.8347
▁ошибки	-10.8347
ious	-10.8347
орган	-10.8349
▁мас	-10.8349
5]	-10.8353
▁again	-10.8354
▁остаться	-10.8356
▁народного	-10.8357
▁think	-10.8357
▁Юж	-10.8358
line	-10.8359
▁оси	-10.8361
▁импер	-10.8362
▁каждую	-10.8362
▁пригласил	-10.8363
▁культура	-10.8363
▁оружием	-10.8366
бург	-10.8366
▁снаряд	-10.8368
▁осторожно	-10.8368
▁обращен	-10.8369
▁специалист	-10.837
▁выполнять	-10.8374
▁Рус	-10.8375
▁дожд	-10.8379
▁жесток	-10.838
▁данный	-10.8381
МА	-10.8382
▁глядя	-10.8385
▁экономической	-10.8385
▁интер	-10.8386
▁операций	-10.8387
▁качество	-10.8387
▁останется	-10.8387
▁видом	-10.8387
▁12.	-10.8391
нит	-10.8391
▁изгнан	-10.8395
▁подобное	-10.8395
▁голосом	-10.8396
ити	-10.8397
▁облик	-10.8398
слушива	-10.84
▁реклам	-10.8401
▁подписан	-10.8402
тических	-10.8403
▁основа	-10.8403
▁тайны	-10.8403
▁детьми	-10.841
▁языков	-10.8412
▁ти	-10.8412
▁привлек	-10.8414
▁деятель	-10.8416
▁ba	-10.8416
▁сражения	-10.8418
▁известны	-10.8422
▁public	-10.8423
▁изучения	-10.8424
▁креп	-10.8424
▁комитета	-10.8426
ственный	-10.8428
▁целиком	-10.8428
▁майор	-10.8429
▁разума	-10.8429
▁монастыря	-10.8429
▁His	-10.8431
чёт	-10.8432
AR	-10.8438
▁Прим	-10.8439
1].	-10.8441
7]	-10.8442
▁ar	-10.8442
▁благ	-10.8443
▁2001	-10.8446
▁приказа	-10.8447
▁home	-10.8447
▁лидер	-10.8448
аф	-10.8448
▁защиту	-10.8449
▁муч	-10.845
▁разнообраз	-10.8452
▁След	-10.8455
▁прочих	-10.8456
▁вал	-10.8457
▁истинно	-10.8458
▁работали	-10.8458
▁ho	-10.846
рим	-10.8461
бросил	-10.8461
тру	-10.8462
▁каза	-10.8462
▁герцог	-10.8464
▁дву	-10.8465
▁data	-10.8466
быть	-10.8471
работал	-10.8472
чного	-10.8475
▁искренне	-10.8477
▁млад	-10.8478
▁предполагает	-10.8482
▁службе	-10.8483
▁ящик	-10.8485
хожу	-10.8486
▁возвышен	-10.8487
глядел	-10.8487
полз	-10.8489
▁получа	-10.8491
▁хлоп	-10.8491
див	-10.8494
▁берегов	-10.8497
▁Сибири	-10.8499
▁скажет	-10.85
ns	-10.85
▁Paris	-10.8501
▁Пра	-10.8505
▁мыслей	-10.8509
▁кулак	-10.851
скій	-10.8513
▁сан	-10.8514
▁духовной	-10.8515
rt	-10.8515
лых	-10.8521
верс	-10.8522
ичным	-10.8523
чива	-10.8527
2].	-10.8527
тил	-10.8528
арт	-10.8529
▁мужик	-10.853
▁счастья	-10.853
?”	-10.8531
▁усили	-10.8534
ушку	-10.8534
▁дерева	-10.8537
▁атак	-10.8537
▁особого	-10.8539
▁Ак	-10.8539
ko	-10.8541
▁онъ	-10.8545
▁предоставлен	-10.8547
▁экс	-10.8547
▁поддержки	-10.855
▁1999	-10.8554
▁mo	-10.8557
▁отдать	-10.8558
евского	-10.8559
ицу	-10.856
ien	-10.8562
ast	-10.8563
▁пору	-10.8565
▁гряз	-10.8566
▁люблю	-10.8566
▁критик	-10.8566
▁0.	-10.8568
▁пос	-10.8568
▁дорогой	-10.857
▁вспомнить	-10.8571
вое	-10.8575
революцион	-10.8575
▁sa	-10.8576
▁собственности	-10.8576
стин	-10.8577
▁51	-10.8577
for	-10.8578
▁визит	-10.8579
▁пришло	-10.858
▁великих	-10.8582
▁ЗА	-10.8584
▁единственным	-10.8585
▁великим	-10.8588
шку	-10.8592
евым	-10.8593
конча	-10.8594
▁Вообще	-10.8594
▁58	-10.8595
▁Op	-10.8595
ительную	-10.8596
▁старого	-10.8596
▁проявил	-10.8596
▁слаб	-10.8596
▁абсолют	-10.8598
▁продуктов	-10.8599
▁(4	-10.86
▁Ур	-10.8601
Петербург	-10.8602
терпе	-10.8602
▁научных	-10.8607
▁ведут	-10.8608
▁работников	-10.8609
▁Церковь	-10.8613
▁Наши	-10.8613
▁секс	-10.8614
▁боев	-10.8618
▁улицы	-10.8619
▁письмен	-10.862
тка	-10.8621
nes	-10.8625
▁тор	-10.8625
нская	-10.8627
стал	-10.8629
цер	-10.8629
ВА	-10.863
▁Му	-10.8631
тики	-10.8632
нулась	-10.8632
▁связыва	-10.8633
▁ребята	-10.8635
▁временно	-10.8636
▁проще	-10.8636
оне	-10.8637
▁строительство	-10.8639
ame	-10.8642
▁желал	-10.8642
▁Обычно	-10.8642
▁пьес	-10.8643
ову	-10.8644
ственные	-10.8646
▁наблюдал	-10.8646
zi	-10.8651
▁Али	-10.8651
▁относи	-10.8651
▁room	-10.8651
▁действует	-10.8651
▁собрал	-10.8654
нное	-10.8657
▁силе	-10.8658
▁Лю	-10.8658
▁взор	-10.8659
доволь	-10.866
▁храма	-10.8661
▁щит	-10.8661
▁вершин	-10.8663
▁усилива	-10.8664
▁Такая	-10.8664
▁известных	-10.8667
▁утверждение	-10.8667
плыл	-10.8668
иск	-10.8669
▁хороший	-10.867
▁представил	-10.8671
оса	-10.8671
▁одежды	-10.8676
▁флаг	-10.8678
▁записи	-10.8679
▁стакан	-10.8679
▁блюд	-10.8679
тт	-10.868
▁проявления	-10.8682
▁чудовищ	-10.8684
▁обеспечения	-10.8684
▁правду	-10.8685
спан	-10.8686
▁бывшего	-10.8686
▁объекта	-10.8686
▁отказа	-10.8687
▁обязанности	-10.8688
als	-10.8689
▁Велик	-10.869
▁trans	-10.8691
▁ваша	-10.8692
▁враг	-10.8695
2]	-10.8695
▁трудности	-10.8696
▁связанных	-10.8698
▁национальной	-10.8698
▁Адам	-10.87
▁освобожден	-10.87
▁голода	-10.87
▁Sp	-10.8701
для	-10.8702
ä	-10.8703
▁Очевидно	-10.8706
▁участник	-10.8707
▁смертью	-10.8707
▁латин	-10.8708
▁препарат	-10.8708
▁расстоянии	-10.8711
▁растений	-10.8712
сток	-10.8712
ern	-10.8712
▁использование	-10.8713
▁Гали	-10.8713
▁Др	-10.8715
ственная	-10.8715
▁прийти	-10.8716
▁Gu	-10.8716
▁белых	-10.8719
▁топ	-10.872
нец	-10.8721
▁Роберт	-10.8721
▁встрече	-10.8723
▁старые	-10.8724
▁СС	-10.8725
бот	-10.8726
▁подчиня	-10.8726
▁института	-10.8728
бре	-10.8728
row	-10.8729
▁pp	-10.8729
▁Кр	-10.8729
▁личность	-10.873
▁1996	-10.8732
▁здоровья	-10.8733
▁боевые	-10.8734
▁поиск	-10.8735
▁Анна	-10.8735
▁основным	-10.8735
▁Большинство	-10.8735
▁Vi	-10.8736
ере	-10.8737
day	-10.8737
ε	-10.8738
▁Павлов	-10.8738
▁ислам	-10.8738
ments	-10.8741
▁оказаться	-10.8741
▁здрав	-10.8742
▁Fa	-10.8748
▁Ra	-10.8749
▁старо	-10.875
▁здание	-10.875
▁vo	-10.8752
▁Стр	-10.8755
▁Жизнь	-10.8755
▁кри	-10.8755
▁Востоке	-10.8756
▁диск	-10.8758
пс	-10.8762
лек	-10.8762
ign	-10.8763
нат	-10.8763
бира	-10.8763
строй	-10.8765
летний	-10.8767
эль	-10.8767
▁Ваше	-10.8767
▁предположить	-10.8767
▁разработан	-10.8768
▁лоб	-10.8768
эк	-10.8768
▁районах	-10.8769
▁1993	-10.8769
▁маленький	-10.877
▁имею	-10.8771
▁разрыв	-10.8772
ёв	-10.8772
чий	-10.8773
▁сидит	-10.8773
▁Китая	-10.8774
цом	-10.8775
ющееся	-10.8776
дент	-10.8777
кажет	-10.8778
еса	-10.878
▁достал	-10.8783
ющимся	-10.8784
▁удара	-10.8787
рал	-10.8788
ино	-10.879
▁подвиж	-10.8792
▁ущерб	-10.8792
герман	-10.88
▁святой	-10.88
▁обучения	-10.88
▁проблему	-10.8803
▁занимал	-10.8803
▁Юго	-10.8805
▁восстания	-10.8808
ущего	-10.8808
▁non	-10.8811
▁очередной	-10.8812
логи	-10.8813
вѣ	-10.8815
▁коммунист	-10.8816
3].	-10.8817
▁девять	-10.882
▁close	-10.8821
▁фирм	-10.8821
▁старой	-10.8823
лот	-10.8823
▁хотела	-10.8823
▁показали	-10.8823
▁выглядит	-10.8825
▁некогда	-10.8826
▁объяснил	-10.883
▁пищи	-10.883
tre	-10.8831
▁Въ	-10.8831
▁смел	-10.8832
▁знаменит	-10.8832
▁незнаком	-10.8833
▁поверхность	-10.8834
▁сильный	-10.8835
▁обратил	-10.8837
▁Ho	-10.8837
ослов	-10.8838
пись	-10.8838
▁исследование	-10.884
▁Христов	-10.8841
▁получал	-10.8842
▁Кос	-10.8843
way	-10.8844
▁включен	-10.8845
Йорк	-10.8845
▁полагал	-10.8845
тической	-10.8846
▁огромные	-10.8847
▁перейти	-10.885
▁кивнул	-10.885
▁поражения	-10.8854
▁немецкие	-10.8855
▁1994	-10.8856
▁точке	-10.8856
чест	-10.8859
▁авторов	-10.886
ina	-10.886
▁утверждал	-10.8862
▁пропаганд	-10.8863
▁любовью	-10.8865
гни	-10.8865
ient	-10.8868
▁стат	-10.8868
▁устал	-10.8869
iz	-10.8869
▁прекратил	-10.887
▁привело	-10.8873
пра	-10.8874
▁царство	-10.8875
▁подтвердил	-10.8875
рой	-10.8875
▁климат	-10.8877
оза	-10.8879
олом	-10.8883
фт	-10.8884
рица	-10.8885
▁53	-10.8887
ковский	-10.8887
9]	-10.8889
▁прим	-10.8889
ечный	-10.889
измом	-10.889
▁1995	-10.8896
▁бе	-10.8896
▁second	-10.8897
уда	-10.8899
▁молодого	-10.89
лё	-10.8906
деля	-10.8906
кут	-10.8906
▁54	-10.8909
▁произведение	-10.8909
▁fi	-10.8911
▁духе	-10.8911
?"	-10.8912
▁уничтожить	-10.8913
4].	-10.8915
of	-10.8918
класс	-10.8919
▁одних	-10.8919
sis	-10.8919
cr	-10.892
росс	-10.8921
▁заключение	-10.8921
▁останавлива	-10.8921
яг	-10.8922
▁древней	-10.8924
бег	-10.8925
▁средствами	-10.8925
▁марте	-10.8926
▁достичь	-10.8927
альд	-10.8929
▁bl	-10.8929
▁Жив	-10.8931
еха	-10.8931
▁вина	-10.8932
▁Варшав	-10.8935
‘	-10.8936
▁француз	-10.8937
▁воздействия	-10.8937
ющаяся	-10.8939
▁огромный	-10.894
▁явился	-10.8941
▁провал	-10.8942
▁something	-10.8942
▁воскликнул	-10.8942
▁обстоятельства	-10.8945
уди	-10.8947
▁лог	-10.8947
▁оставались	-10.8949
друг	-10.8951
▁выделен	-10.8955
▁Sh	-10.8956
▁кра	-10.8958
ющем	-10.8959
▁святых	-10.896
▁сопротивления	-10.896
▁писа	-10.896
▁искусстве	-10.8961
Но	-10.8963
лежащ	-10.8963
лав	-10.8965
▁обстоятельство	-10.8965
▁игру	-10.8966
нули	-10.8968
by	-10.897
str	-10.897
▁Польши	-10.8971
▁воспоминания	-10.8973
▁продолжа	-10.8974
▁поп	-10.8976
веков	-10.8977
▁комнаты	-10.8977
льский	-10.8977
▁Ск	-10.8978
▁братьев	-10.8979
шков	-10.8979
▁августе	-10.898
▁испытания	-10.8981
▁чьи	-10.8984
▁различия	-10.8987
▁исторической	-10.8988
▁mon	-10.8989
▁Кап	-10.8989
Ис	-10.8993
▁имеются	-10.8994
▁обыкновен	-10.8994
▁Вин	-10.8997
▁похвал	-10.8997
▁оставлен	-10.8999
▁пытается	-10.9
▁VIII	-10.9001
▁56	-10.9002
▁гроб	-10.9003
▁ответственности	-10.9004
гли	-10.9005
▁озера	-10.9005
щики	-10.9007
▁Порт	-10.9008
▁жену	-10.9009
8)	-10.9013
▁кров	-10.9014
▁проведения	-10.9014
кси	-10.9014
казал	-10.9017
▁пород	-10.9019
▁учреждения	-10.9021
▁святого	-10.9021
▁говорила	-10.9023
▁полным	-10.9023
sc	-10.9026
▁Мен	-10.9027
▁начинал	-10.9028
▁парень	-10.903
▁лошади	-10.9031
▁территорию	-10.9033
▁Мед	-10.9034
▁Ср	-10.9034
лаг	-10.9035
▁Баб	-10.9038
ound	-10.9038
▁устроен	-10.9039
▁скот	-10.904
носить	-10.904
▁черн	-10.9041
▁языком	-10.9042
▁режима	-10.9043
▁become	-10.9044
▁давление	-10.9044
▁любое	-10.9045
▁дуб	-10.9045
▁называем	-10.9049
▁доказать	-10.9053
▁фронтов	-10.9054
▁1950	-10.9058
▁восьми	-10.9058
▁маршал	-10.9061
▁реальность	-10.9061
ЕВ	-10.9062
▁процессы	-10.9062
▁Восточной	-10.9063
▁tra	-10.9064
▁маршрут	-10.9067
▁пилот	-10.9068
жит	-10.9071
▁Зато	-10.9071
▁хватает	-10.9071
▁фильма	-10.9073
▁обвиня	-10.9074
▁ab	-10.9075
▁Были	-10.9077
▁возможностей	-10.9077
меч	-10.9078
▁пошла	-10.9079
рван	-10.9079
▁берет	-10.908
▁Верховного	-10.9082
▁person	-10.9084
▁ощущения	-10.9084
▁often	-10.9085
vel	-10.9085
ize	-10.9085
▁Tr	-10.9086
▁Почти	-10.9087
▁высокого	-10.9088
▁What	-10.9088
▁Великий	-10.9089
▁Мил	-10.9092
▁наверняка	-10.9092
авр	-10.9094
иды	-10.9095
▁настоящего	-10.9095
ившего	-10.9095
▁боях	-10.9096
▁давал	-10.9099
▁house	-10.91
▁Бело	-10.9101
▁называл	-10.9102
культур	-10.9103
▁1997	-10.9104
▁Влад	-10.9106
▁Великого	-10.9113
8]	-10.9113
▁выступает	-10.9114
▁режиссер	-10.9115
итов	-10.9116
▁получают	-10.9117
▁himself	-10.9118
▁предпринима	-10.9119
cent	-10.9119
▁войн	-10.912
▁ри	-10.912
▁уничтожа	-10.9122
шими	-10.9126
▁невест	-10.9131
▁ослаб	-10.9131
▁нравственно	-10.9132
▁предлагал	-10.9134
▁люд	-10.9135
▁дерев	-10.9135
▁выполнения	-10.9135
▁считаю	-10.9135
▁важных	-10.9141
▁мясо	-10.9143
екс	-10.9143
▁назнача	-10.9143
▁большевиков	-10.9143
▁предварительно	-10.9146
▁ru	-10.9147
▁яко	-10.9148
▁Бра	-10.9148
▁ша	-10.915
ТИ	-10.915
дите	-10.9151
▁2003	-10.9151
▁1989	-10.9153
▁приняты	-10.9153
▁Королев	-10.9154
▁силах	-10.9154
▁нормально	-10.9155
▁1922	-10.9156
зелен	-10.9157
▁рак	-10.9159
▁командования	-10.9159
▁гражданской	-10.9161
▁Речь	-10.9161
▁обеспечен	-10.9163
мес	-10.9163
▁шест	-10.9164
▁старше	-10.9165
▁4)	-10.9166
▁оценки	-10.9167
▁наряду	-10.9167
▁глуп	-10.9168
проб	-10.9168
▁новом	-10.9168
▁формально	-10.9168
▁договора	-10.9172
сед	-10.9172
▁поможет	-10.9173
▁обстоятельств	-10.9173
▁хим	-10.9174
▁применя	-10.9177
▁ихъ	-10.9178
▁создавал	-10.9181
ект	-10.9182
▁твои	-10.9182
▁пище	-10.9182
▁произведений	-10.9183
пыт	-10.9186
▁создает	-10.9187
▁средство	-10.9188
▁сети	-10.919
▁Лен	-10.9191
▁слез	-10.9192
▁случаи	-10.9193
▁принц	-10.9196
зв	-10.9197
hen	-10.9198
yn	-10.9198
▁устойчив	-10.92
▁границ	-10.9201
▁Жел	-10.9201
▁Слово	-10.9201
ski	-10.9202
▁side	-10.9203
ong	-10.9203
множ	-10.9205
è	-10.9205
▁особой	-10.9206
▁немецкого	-10.9206
▁less	-10.9206
▁девушки	-10.9206
▁глагол	-10.9206
▁диалог	-10.9207
▁нападения	-10.9208
!"	-10.9208
su	-10.921
▁1933	-10.921
▁диалект	-10.921
нз	-10.9212
▁исполня	-10.9214
ишься	-10.9215
▁Этим	-10.9215
▁дивизион	-10.9216
▁произ	-10.9216
▁God	-10.9216
ящей	-10.9217
▁1998	-10.9217
▁узнав	-10.9218
▁богослов	-10.9219
ставля	-10.9219
чества	-10.9219
▁сделано	-10.9221
▁ed	-10.9221
▁show	-10.9221
опа	-10.9223
пет	-10.9224
▁ногами	-10.9226
▁ши	-10.9228
чё	-10.9231
▁неба	-10.9233
▁последним	-10.9234
рк	-10.9236
▁фонд	-10.9237
созна	-10.9238
фо	-10.9238
анг	-10.9238
▁придет	-10.9239
▁1992	-10.924
ei	-10.9242
▁Един	-10.9243
▁country	-10.9244
ven	-10.9245
▁Кро	-10.9247
сып	-10.9247
▁золота	-10.9248
реал	-10.9248
▁always	-10.9249
▁заинтересован	-10.9249
▁look	-10.9249
РИ	-10.925
орд	-10.9251
▁крепость	-10.9251
3]	-10.9252
монт	-10.9252
▁результатов	-10.9254
▁Мало	-10.9255
▁больных	-10.9256
▁лекарств	-10.9257
▁бомбардировщик	-10.9257
ОЛ	-10.9258
▁лечения	-10.9263
ding	-10.9264
▁казни	-10.9264
ивших	-10.9266
▁невидим	-10.9269
▁бюджет	-10.927
ичные	-10.9271
скор	-10.9272
рт	-10.9274
ером	-10.9276
▁полную	-10.9277
лай	-10.9278
▁400	-10.928
друж	-10.9281
дз	-10.9281
▁Уч	-10.9281
ице	-10.9282
изу	-10.9284
ey	-10.9284
▁клиент	-10.9285
▁держа	-10.9286
▁столом	-10.9287
use	-10.9289
▁родов	-10.9289
▁покой	-10.929
▁пользоваться	-10.929
▁открыть	-10.9293
▁мелко	-10.9294
▁проклят	-10.9294
▁допрос	-10.9294
▁предметы	-10.9295
гнать	-10.9295
▁губернатор	-10.9297
▁2002	-10.9299
▁серд	-10.93
▁разруша	-10.9302
▁взглядом	-10.9303
▁сторона	-10.9305
▁20-	-10.9305
▁заставить	-10.9306
▁Пас	-10.9307
▁Куб	-10.9308
▁монет	-10.9308
чение	-10.9308
▁био	-10.9311
▁сна	-10.9312
-5	-10.9313
иде	-10.9315
▁IX	-10.9315
▁танки	-10.9316
▁требу	-10.9316
ible	-10.9318
▁причинам	-10.9319
▁внутреннего	-10.9322
▁1930	-10.9322
▁гр	-10.9328
▁2004	-10.9329
ийские	-10.9329
▁рев	-10.9331
▁Дю	-10.9335
▁ресторан	-10.9335
▁XIII	-10.9337
▁Тра	-10.9338
▁информация	-10.9338
▁связана	-10.9338
верх	-10.9339
ck	-10.9339
ительной	-10.934
▁товарищей	-10.9346
▁педагог	-10.9347
▁общих	-10.9351
▁57	-10.9353
▁обладал	-10.9353
▁Рай	-10.9355
▁настроение	-10.9357
▁высокий	-10.9358
вались	-10.9358
▁размер	-10.9361
▁строить	-10.9362
очного	-10.9362
благодар	-10.9363
▁глубине	-10.9364
▁остановился	-10.9367
▁Польше	-10.9368
▁снят	-10.9368
ank	-10.9369
▁away	-10.937
▁привели	-10.9371
▁went	-10.9372
▁зенит	-10.9372
тона	-10.9374
▁объектов	-10.9374
▁разрешения	-10.9374
▁входит	-10.9377
▁Советский	-10.9377
▁давали	-10.9379
ЛО	-10.9379
▁дому	-10.9381
▁сыном	-10.9381
▁1905	-10.9383
уру	-10.9384
▁фундамент	-10.9385
▁взгляды	-10.9387
4]	-10.9388
ставив	-10.9388
▁формирования	-10.9389
▁почет	-10.939
mission	-10.9391
▁Работа	-10.9392
▁исторических	-10.9393
▁su	-10.9394
держан	-10.9394
кажите	-10.9395
▁Нельзя	-10.9396
▁вызвать	-10.9396
▁things	-10.9396
арм	-10.9397
▁Особ	-10.9399
▁Вселенной	-10.94
▁математик	-10.9402
▁кандидат	-10.9405
▁преоблада	-10.9406
▁пересек	-10.9409
▁получилось	-10.9409
▁задачей	-10.9412
▁est	-10.9413
▁выпуск	-10.9415
▁старался	-10.9416
▁конференции	-10.9418
▁Col	-10.9418
▁традиция	-10.942
▁континент	-10.942
▁указания	-10.9421
▁Крест	-10.9422
▁предприятий	-10.9425
▁vol	-10.9426
▁изучение	-10.9427
▁эволюции	-10.943
▁обстановке	-10.943
ose	-10.943
▁небе	-10.9431
▁обез	-10.9432
▁судьбу	-10.9433
▁перво	-10.9433
▁принципе	-10.9433
рд	-10.9436
▁Маркс	-10.9436
стре	-10.944
ступление	-10.9441
аешь	-10.9442
▁счастью	-10.9443
люби	-10.9444
ied	-10.9444
водил	-10.9446
ica	-10.9446
▁Ad	-10.9448
▁интервью	-10.9449
нить	-10.9449
▁молодые	-10.9449
ческие	-10.945
▁добра	-10.9452
ade	-10.9453
▁’	-10.9453
▁Афин	-10.9459
▁встреч	-10.9468
▁пресс	-10.9469
ыш	-10.9472
▁астроном	-10.9473
▁клетки	-10.9473
▁степень	-10.9473
имый	-10.9474
▁1936	-10.9475
▁эшелон	-10.9475
▁держал	-10.9475
▁Пал	-10.9476
▁Ta	-10.9476
▁пес	-10.9478
▁эффективно	-10.9479
▁множества	-10.948
▁four	-10.9482
▁поднялся	-10.9483
ехал	-10.9484
▁секунд	-10.9486
▁ехать	-10.9491
▁чуд	-10.9493
▁звезды	-10.9494
▁подполь	-10.9496
▁поддерживать	-10.9496
▁координат	-10.9497
▁офицера	-10.9498
▁субъектив	-10.9502
▁удален	-10.9503
вез	-10.9503
нія	-10.9504
▁одинаковы	-10.9505
▁ставит	-10.9505
▁вектор	-10.9505
▁сотрудников	-10.9507
▁сочета	-10.9507
телями	-10.9508
строен	-10.951
▁рынка	-10.9513
▁скажу	-10.9515
▁охотник	-10.9516
▁попасть	-10.9516
▁десятки	-10.9516
▁называть	-10.9518
▁социал	-10.9518
▁выразил	-10.9519
▁Америка	-10.9521
▁сель	-10.9522
▁исполнен	-10.9522
тического	-10.9522
▁определил	-10.9524
инд	-10.9524
serv	-10.9524
▁разреша	-10.9525
дой	-10.9527
▁позиций	-10.9534
▁give	-10.9535
▁трон	-10.9535
волок	-10.9535
▁являлся	-10.9536
▁неизменно	-10.9539
рап	-10.9541
▁расстрел	-10.9543
▁ha	-10.9544
длин	-10.9544
▁волну	-10.9545
▁характеристик	-10.9545
▁best	-10.9547
▁слушал	-10.9548
▁Военно	-10.9549
▁воевод	-10.9551
▁гал	-10.9552
▁свойств	-10.9554
▁исключ	-10.9554
▁появления	-10.9555
▁художника	-10.9556
береж	-10.9557
если	-10.9562
иной	-10.9565
▁западных	-10.9565
ff	-10.9565
▁планеты	-10.9567
▁Командир	-10.9567
▁группой	-10.9569
▁нацист	-10.9569
▁народы	-10.957
▁хватало	-10.9571
▁эскадр	-10.9571
ани	-10.9572
зим	-10.9574
▁единство	-10.9574
▁американской	-10.9574
▁немецкий	-10.9575
▁семью	-10.9576
ists	-10.9578
Ѵ	-10.9579
▁дыхание	-10.958
шеств	-10.958
▁fr	-10.9581
▁указал	-10.9581
нен	-10.9582
▁темы	-10.9582
▁недалеко	-10.9582
▁прошлое	-10.9582
▁героев	-10.9587
▁th	-10.9588
▁деревья	-10.9588
▁took	-10.9588
ящ	-10.9588
▁вынуждены	-10.9589
▁Востока	-10.9591
▁Сп	-10.9592
▁источника	-10.9593
▁Pa	-10.9596
▁Павла	-10.9596
▁заканчива	-10.9596
биты	-10.9597
£	-10.9598
rr	-10.9599
▁компания	-10.9599
▁отправил	-10.9599
фан	-10.96
▁Украин	-10.9601
▁предметов	-10.9601
▁древ	-10.9602
▁состоял	-10.9604
▁услуг	-10.9604
▁стола	-10.9605
▁уравнения	-10.9606
fin	-10.9606
▁природу	-10.9607
▁крив	-10.961
▁сидели	-10.961
▁случая	-10.9611
▁Больше	-10.9612
▁хозяйств	-10.9614
▁усилий	-10.9614
▁Иоанна	-10.9623
ari	-10.9624
▁связей	-10.9625
хар	-10.9629
▁120	-10.9629
▁вызыва	-10.9629
▁темп	-10.963
▁наступил	-10.963
▁экспедиции	-10.9631
▁явлений	-10.9631
вый	-10.9631
▁детям	-10.9634
▁занимает	-10.9636
▁кости	-10.9637
реб	-10.9637
юн	-10.9638
ization	-10.9639
▁монах	-10.964
▁смотрит	-10.9641
▁варвар	-10.9642
▁поста	-10.9642
▁пыта	-10.9643
опас	-10.9643
▁early	-10.9644
▁отряды	-10.9644
▁существовать	-10.9645
▁марш	-10.9645
▁многим	-10.965
фир	-10.965
▁Тебе	-10.9653
имые	-10.9654
▁настроен	-10.9655
▁неправильно	-10.9655
▁str	-10.9656
▁land	-10.9657
ичных	-10.9659
▁call	-10.966
▁перестал	-10.9661
▁Ka	-10.9667
▁лошадь	-10.9669
▁сталкива	-10.9669
▁напряжение	-10.9671
▁английский	-10.9671
▁военным	-10.9672
▁защит	-10.9672
▁Алекс	-10.9673
▁One	-10.9676
▁book	-10.9676
▁тонко	-10.9676
▁печ	-10.9677
▁твоей	-10.9678
▁общения	-10.9678
▁разряд	-10.968
ающая	-10.9681
▁особое	-10.9681
гов	-10.9681
Па	-10.9681
▁ожидать	-10.9687
▁начальником	-10.9687
ующие	-10.9688
слы	-10.9688
▁жилищ	-10.9692
▁операция	-10.9693
▁открытия	-10.9693
▁ср	-10.9694
вок	-10.9696
▁present	-10.9698
▁ti	-10.9699
▁сочинения	-10.9702
▁Новый	-10.9702
▁общественной	-10.9704
иком	-10.9706
▁дворец	-10.9707
▁Оба	-10.9708
▁пас	-10.9708
▁влия	-10.9709
шись	-10.9709
щин	-10.971
▁мен	-10.9711
▁приходил	-10.9713
tr	-10.9714
▁подверга	-10.9716
▁спи	-10.9717
ЕЙ	-10.9717
▁Солнце	-10.9717
▁человеческих	-10.9717
▁вопросом	-10.9718
▁наград	-10.9718
▁специалистов	-10.9719
▁отцом	-10.9723
▁выража	-10.9723
▁движении	-10.9723
оген	-10.9724
▁гряд	-10.9725
▁одежду	-10.9725
dr	-10.9726
▁составляют	-10.9726
sky	-10.9729
▁кадров	-10.973
ys	-10.973
ses	-10.9731
▁гибель	-10.9732
▁встречается	-10.9733
▁конкретно	-10.9734
нувшись	-10.9734
▁меньшей	-10.9736
▁изменений	-10.9736
таль	-10.9737
form	-10.9738
ступает	-10.9739
▁2005	-10.974
▁лат	-10.974
▁arm	-10.9741
▁сахар	-10.9744
ea	-10.9747
▁стратег	-10.9748
пек	-10.9748
кса	-10.9749
▁череп	-10.975
ja	-10.975
▁жестоко	-10.975
▁высоте	-10.9752
помни	-10.9752
ческого	-10.9753
брошен	-10.9756
бли	-10.9757
▁сознании	-10.9757
▁Кре	-10.9759
▁разно	-10.976
▁многочисленных	-10.9762
▁res	-10.9763
отвор	-10.9763
▁накануне	-10.9764
▁ob	-10.9764
▁going	-10.9764
▁привычн	-10.9765
▁личной	-10.9765
▁покров	-10.9765
▁французский	-10.9766
▁Святого	-10.9767
▁принципа	-10.9768
▁механик	-10.977
Ко	-10.9771
▁полезно	-10.9771
имен	-10.9771
▁XI	-10.9773
▁дневник	-10.9773
▁жид	-10.9773
▁крат	-10.9773
▁отверг	-10.9775
мышля	-10.9777
▁пехоты	-10.9777
▁Ай	-10.9777
▁кам	-10.9778
ИС	-10.9778
▁пророк	-10.9779
▁получаем	-10.978
▁дисциплин	-10.978
▁юг	-10.9782
▁перехода	-10.9782
▁process	-10.9783
ради	-10.9784
▁покрыт	-10.9785
▁mi	-10.9788
▁pass	-10.9788
▁мах	-10.9789
ьного	-10.9789
▁does	-10.979
▁Одновременно	-10.9791
▁практики	-10.9792
▁коня	-10.9793
вос	-10.9793
здоров	-10.9793
▁участке	-10.9794
цит	-10.9794
▁мороз	-10.9794
▁Одним	-10.9795
▁стреми	-10.9795
▁Кас	-10.9796
▁сокровищ	-10.9797
настоящему	-10.9798
техн	-10.98
считыва	-10.98
▁встречаются	-10.98
▁делается	-10.98
пом	-10.9801
▁космос	-10.9802
▁Фер	-10.9802
▁расп	-10.9802
▁стремится	-10.9803
▁вернулись	-10.9804
▁Наш	-10.9805
▁мощно	-10.9808
▁дан	-10.9808
гора	-10.9812
▁государ	-10.9812
▁схватил	-10.9814
so	-10.9816
тая	-10.9816
оваться	-10.9818
▁Вероятно	-10.9818
▁Точно	-10.982
поз	-10.9821
▁считая	-10.9823
▁республика	-10.9823
▁источником	-10.9825
ert	-10.9827
ath	-10.9827
ходил	-10.9828
ric	-10.9829
▁всякое	-10.9831
▁бороться	-10.9831
лён	-10.9834
лли	-10.9835
▁смут	-10.9837
0].	-10.9838
ОЙ	-10.984
▁кампании	-10.9841
▁water	-10.9841
▁became	-10.9843
▁детали	-10.9847
нулись	-10.9847
▁вооруженных	-10.9848
кул	-10.9849
▁развит	-10.985
▁чрез	-10.9851
▁парт	-10.9852
ивания	-10.9852
▁таинств	-10.9855
рн	-10.9855
lect	-10.9856
▁столице	-10.9859
▁гидро	-10.986
▁правой	-10.9862
▁остаются	-10.9862
▁test	-10.9865
кто	-10.9869
▁привел	-10.9869
▁Ир	-10.987
▁сентябре	-10.9871
гул	-10.9871
отдел	-10.9872
▁mar	-10.9872
▁получать	-10.9873
верш	-10.9874
▁подверг	-10.9875
где	-10.9876
▁трудов	-10.9876
▁Хрущев	-10.9876
▁спасения	-10.9878
▁юж	-10.9884
▁статей	-10.9885
▁улицу	-10.9885
▁духовного	-10.9886
▁товарищи	-10.9887
▁производил	-10.9889
▁качеств	-10.9889
▁действовал	-10.989
▁Какой	-10.9893
▁Другие	-10.9894
▁счита	-10.9896
▁удобно	-10.9897
▁самолеты	-10.9897
▁спрашивает	-10.9897
ушке	-10.9898
▁деревьев	-10.9899
▁поверх	-10.9899
▁принадлежал	-10.99
▁находим	-10.99
▁европей	-10.9901
пустил	-10.9902
▁удовольствие	-10.9904
▁бывают	-10.9904
бек	-10.9904
▁гранат	-10.9904
▁национально	-10.9905
лении	-10.9905
дова	-10.9907
ивают	-10.9908
▁Пят	-10.9912
▁просвет	-10.9912
▁тороп	-10.9914
Ну	-10.9914
▁Ран	-10.9915
▁План	-10.9918
▁телом	-10.9918
▁общественных	-10.9919
▁увлека	-10.9921
qu	-10.9922
▁Пис	-10.9924
▁My	-10.9925
▁кип	-10.9926
▁Аб	-10.9926
нку	-10.9929
▁тени	-10.993
▁взрыва	-10.9931
▁убить	-10.9932
▁хо	-10.9932
▁ВКП	-10.9932
▁питания	-10.9934
▁создании	-10.9935
▁высших	-10.9935
▁поклон	-10.9936
▁упрек	-10.9936
▁бре	-10.9937
лета	-10.9938
▁вера	-10.9939
уров	-10.994
▁нашими	-10.9941
сол	-10.9943
▁соединен	-10.9946
ОК	-10.9949
▁код	-10.995
механ	-10.995
▁Com	-10.9951
▁улыб	-10.9951
▁case	-10.9951
▁(16	-10.9951
▁сектор	-10.9956
old	-10.9957
ics	-10.9959
▁владения	-10.996
▁итог	-10.9962
▁ровно	-10.9963
▁ждет	-10.9964
rel	-10.9964
▁главнокомандующ	-10.9965
▁жертву	-10.9966
▁короб	-10.9966
▁кожи	-10.9967
уется	-10.9969
▁последнем	-10.9971
▁разд	-10.9973
▁месту	-10.9973
▁купить	-10.9974
▁скоростью	-10.9974
бог	-10.9974
▁bar	-10.9976
нском	-10.9976
▁налет	-10.9978
▁сутки	-10.9978
▁выступал	-10.9978
▁красив	-10.9979
▁реку	-10.998
▁напоминает	-10.998
▁light	-10.9982
▁май	-10.9984
▁похожи	-10.9984
▁Лондон	-10.9985
▁губернии	-10.9988
▁разу	-10.9988
▁переговоров	-10.9991
ущее	-10.9991
du	-10.9993
ставить	-10.9994
▁Великобритании	-10.9996
ущих	-10.9996
▁Слова	-10.9997
ализм	-10.9998
▁некоторым	-10.9999
▁научной	-11
▁устройства	-11.0003
▁председатель	-11.0003
▁соглаша	-11.0004
▁писем	-11.0005
▁Сад	-11.0005
▁Южной	-11.0006
▁пойдет	-11.0007
kin	-11.0007
▁страда	-11.0008
▁позиция	-11.0011
▁появление	-11.0013
▁кофе	-11.0014
▁культ	-11.0014
ношения	-11.0016
▁человеке	-11.0016
▁называ	-11.0018
ble	-11.0019
▁сфер	-11.002
▁сухо	-11.0021
▁пистолет	-11.0024
▁похода	-11.0025
▁последовал	-11.0025
▁убийства	-11.0026
тянуть	-11.0026
▁Духа	-11.0027
▁драма	-11.0027
▁позор	-11.0028
Ты	-11.0028
▁лук	-11.003
▁словах	-11.003
▁оставив	-11.0031
▁попытался	-11.0035
▁спутник	-11.0038
вязал	-11.0039
▁вызвал	-11.0041
▁cos	-11.0042
ks	-11.0043
▁object	-11.0044
▁правительственн	-11.0045
sion	-11.0045
▁Марии	-11.0046
▁среднего	-11.0047
ix	-11.0047
ходило	-11.0048
АК	-11.0048
▁стадии	-11.0049
og	-11.0051
▁владе	-11.0052
tin	-11.0053
лой	-11.0054
иллер	-11.0055
▁следы	-11.0056
0)	-11.0056
▁клин	-11.0059
селение	-11.006
▁взаимодействия	-11.0061
ственно	-11.0061
дес	-11.0062
cl	-11.0063
▁Бл	-11.0063
▁заявление	-11.0065
▁бойцов	-11.0066
еро	-11.0066
▁третьего	-11.0068
▁Россией	-11.007
▁Кле	-11.007
▁спиной	-11.0072
тян	-11.0072
▁дважды	-11.0073
▁весной	-11.0076
▁удастся	-11.0078
овка	-11.008
▁весело	-11.008
▁gl	-11.0082
▁сцене	-11.0082
▁роскош	-11.0083
вик	-11.0084
▁Дар	-11.0084
▁напряжения	-11.0086
имость	-11.0086
▁январе	-11.0086
РО	-11.0087
▁высоких	-11.0087
▁упорно	-11.0088
▁отцов	-11.0088
перед	-11.0091
ложив	-11.0092
▁передачи	-11.0092
▁Следует	-11.0092
▁даст	-11.0094
▁ответила	-11.0096
▁издан	-11.0097
▁Помимо	-11.0097
▁control	-11.0098
▁декабре	-11.01
писи	-11.0101
▁Казалось	-11.0102
oss	-11.0103
▁одинок	-11.0103
tes	-11.0104
▁окажется	-11.0106
▁откровенно	-11.0109
▁view	-11.0109
мина	-11.0111
▁дежур	-11.0113
изацию	-11.0114
лева	-11.0115
▁пожал	-11.0116
▁пытаясь	-11.0117
▁важные	-11.0118
▁убийц	-11.0119
▁приступ	-11.012
▁course	-11.0122
дам	-11.0123
▁октябре	-11.0123
▁намерен	-11.0126
▁передан	-11.0126
▁закончил	-11.0129
▁желая	-11.0129
▁товаров	-11.013
▁кровью	-11.013
▁пребывания	-11.0131
▁французской	-11.0131
▁торпед	-11.0131
▁большими	-11.0135
▁изначально	-11.0136
▁).	-11.0138
▁Красно	-11.0138
▁назначения	-11.0139
▁наблюдать	-11.0139
▁реп	-11.0139
▁air	-11.0141
▁путешеств	-11.0142
▁монастырь	-11.0143
▁Владимира	-11.0143
▁успели	-11.0145
▁точнее	-11.0146
лаз	-11.0147
▁выводу	-11.0148
▁Став	-11.0148
▁железной	-11.0149
▁музыка	-11.0149
▁Часть	-11.015
▁присутствие	-11.0151
▁support	-11.0151
▁пушки	-11.0152
▁кристалл	-11.0153
▁Вашингтон	-11.0154
звол	-11.0155
OR	-11.0157
▁хорош	-11.0157
тти	-11.0157
▁началу	-11.0158
▁надежно	-11.0158
благо	-11.0159
▁li	-11.0162
▁gu	-11.0163
▁объявлен	-11.0164
сло	-11.0164
▁main	-11.0166
▁имен	-11.0167
av	-11.0169
▁гармон	-11.017
▁постиг	-11.0173
ρ	-11.0174
▁патриот	-11.0174
▁блажен	-11.0174
▁Эм	-11.0174
az	-11.0176
▁определенные	-11.0179
▁Украине	-11.0179
▁Британ	-11.0181
▁since	-11.0181
▁заключения	-11.0185
▁испытывал	-11.0185
ОС	-11.0187
▁мистер	-11.0192
ческих	-11.0193
▁ранга	-11.0194
▁64	-11.0195
▁ожида	-11.0195
▁ценность	-11.0196
▁необходимые	-11.0197
▁надел	-11.0197
▁имущество	-11.0197
▁положительно	-11.0198
▁большом	-11.0199
▁пластин	-11.02
сия	-11.0205
зар	-11.0206
▁Пор	-11.0208
кре	-11.0208
▁французского	-11.0211
▁культуре	-11.0211
▁бывших	-11.0214
▁показалось	-11.0215
▁тест	-11.0217
0]	-11.022
▁слушать	-11.022
нским	-11.0223
▁уступ	-11.0223
▁могил	-11.0224
летнего	-11.0229
▁осенью	-11.0229
▁предлагает	-11.0229
▁корен	-11.023
▁долю	-11.023
▁субъект	-11.0231
▁второе	-11.0231
▁белые	-11.0232
▁обстоятельствах	-11.0232
▁срочно	-11.0232
▁Смоленск	-11.0234
▁описания	-11.0237
▁Западе	-11.0237
▁прошу	-11.0237
▁созерца	-11.0237
▁высказал	-11.0238
▁обнаружен	-11.024
рах	-11.0241
▁союза	-11.0242
▁руга	-11.0244
ивается	-11.0245
▁создавать	-11.0246
press	-11.0246
рук	-11.0248
▁трое	-11.0248
▁Ган	-11.0248
rd	-11.0249
▁Per	-11.0249
чн	-11.025
▁Ju	-11.025
▁поняли	-11.0253
▁World	-11.0254
fa	-11.0255
▁den	-11.0259
▁равна	-11.026
▁английского	-11.026
ЕМ	-11.026
▁gr	-11.0261
▁проявля	-11.0261
▁провинции	-11.0263
▁членом	-11.0265
▁границе	-11.0265
▁капитана	-11.0268
▁наказания	-11.0269
▁жертвы	-11.0269
ыч	-11.027
▁Олег	-11.0271
▁автомобиль	-11.0271
▁предшеству	-11.0272
▁ожидал	-11.0273
▁Лун	-11.0273
мога	-11.0274
жига	-11.0278
-10	-11.0278
▁чём	-11.028
▁Russia	-11.0281
▁Зим	-11.0283
изатор	-11.0284
ever	-11.0285
елл	-11.0285
▁множеств	-11.0286
▁реакция	-11.0286
▁руководителей	-11.0286
▁стыд	-11.0286
▁Дмитрий	-11.0286
троф	-11.0287
етъ	-11.0287
вязать	-11.0288
▁продукты	-11.029
▁That	-11.0292
▁секретарь	-11.0292
▁науке	-11.0293
троп	-11.0294
▁вернуть	-11.0296
are	-11.0296
▁двора	-11.0297
▁заставил	-11.0297
▁налогов	-11.0298
▁выполнить	-11.0298
▁сне	-11.0299
▁government	-11.0302
очке	-11.0304
-18	-11.0305
пот	-11.0305
▁коротко	-11.0306
▁подготовке	-11.0306
▁социального	-11.0306
шке	-11.0308
▁ВВС	-11.0309
▁Su	-11.031
Кр	-11.031
▁night	-11.0311
▁издание	-11.0312
▁лагере	-11.0313
▁теоретически	-11.0315
▁местные	-11.0316
▁Мои	-11.0316
▁капитала	-11.0317
тическая	-11.032
▁соблазн	-11.0326
▁Неужели	-11.0326
▁намерения	-11.0329
▁гнезд	-11.0332
▁проверя	-11.0333
▁гвардейск	-11.0335
▁функций	-11.0335
▁зл	-11.0336
▁cit	-11.0336
▁ост	-11.0337
▁лак	-11.0337
люблен	-11.0338
▁общ	-11.0339
оруж	-11.0339
▁наруша	-11.034
▁Qu	-11.034
▁позволил	-11.0341
▁орден	-11.0342
▁ворон	-11.0342
ИЙ	-11.0343
ough	-11.0343
тельное	-11.0343
хин	-11.0345
▁стад	-11.0347
▁необ	-11.0348
▁Изд	-11.0348
▁Bi	-11.0348
▁синтез	-11.0351
▁глас	-11.0352
лях	-11.0354
▁2006	-11.0355
▁Эк	-11.0355
▁статью	-11.0355
▁important	-11.0355
▁дыр	-11.0356
▁коллеги	-11.0356
▁литература	-11.0358
▁until	-11.0359
▁Ча	-11.0361
писал	-11.0361
▁команда	-11.0366
▁груд	-11.0366
▁Ци	-11.0367
▁пределами	-11.0368
▁тремя	-11.0368
нного	-11.0369
—3	-11.037
жима	-11.0371
крест	-11.0371
▁повсюду	-11.0373
ава	-11.0374
▁(15	-11.0375
▁Мас	-11.0376
▁решать	-11.0378
ator	-11.0379
▁катер	-11.038
ственным	-11.038
▁окно	-11.038
даль	-11.0384
пев	-11.0384
▁сотрудник	-11.0384
▁работают	-11.0387
▁возникают	-11.039
▁суток	-11.0391
▁спрашивал	-11.0394
▁барон	-11.0394
▁принципиально	-11.0394
▁тайно	-11.0394
▁отража	-11.0395
▁острове	-11.0395
▁цепи	-11.0396
▁грубо	-11.04
▁мятеж	-11.0401
▁next	-11.0402
▁разговора	-11.0402
▁появляются	-11.0403
▁экзамен	-11.0405
▁хозяйство	-11.0407
▁развитию	-11.0408
▁бол	-11.041
▁Запада	-11.0411
▁произвол	-11.0412
▁фабрик	-11.0412
▁эксперт	-11.0414
Дж	-11.0415
▁удивлен	-11.0415
▁открыва	-11.0415
▁стремительно	-11.0416
hu	-11.0421
вист	-11.0421
тип	-11.0422
оты	-11.0422
▁чиновник	-11.0425
давали	-11.0425
▁КГБ	-11.0425
ленный	-11.0428
▁Кавказ	-11.043
▁столицы	-11.0435
▁выбора	-11.0436
▁распоряжение	-11.0437
▁греб	-11.0439
▁отцу	-11.0441
▁te	-11.0444
▁Росс	-11.0444
▁карты	-11.0444
▁митрополит	-11.0446
▁1934	-11.0447
▁левой	-11.0447
кали	-11.0448
▁придержива	-11.0449
▁пребыва	-11.0451
▁повыша	-11.0452
▁удивля	-11.0454
▁полос	-11.0456
вич	-11.0458
▁ногу	-11.0458
еда	-11.0459
▁АН	-11.046
веду	-11.0462
▁Необходимо	-11.0462
греш	-11.0462
▁Fe	-11.0463
▁Ред	-11.0466
▁Михайлов	-11.0467
▁адмирал	-11.0467
▁враща	-11.0467
▁детства	-11.0469
▁8-	-11.047
▁принципы	-11.0474
чего	-11.0474
▁рассматрива	-11.0477
стон	-11.0479
▁противоположны	-11.0481
har	-11.0481
добр	-11.0481
▁добр	-11.0483
▁живопис	-11.0483
▁апреле	-11.0484
части	-11.0485
▁творчески	-11.0488
▁Куда	-11.049
▁прошла	-11.0491
▁определенной	-11.0492
σ	-11.0492
▁Земля	-11.0494
▁Первой	-11.0494
▁казаков	-11.0495
▁либеральн	-11.0495
▁океана	-11.0495
▁fe	-11.0496
бон	-11.0496
кі	-11.0497
глуш	-11.0498
писывал	-11.0499
▁ударил	-11.05
▁1915	-11.0501
▁человечество	-11.0507
▁освободи	-11.0509
▁Петербурге	-11.0511
▁двигаться	-11.0513
сред	-11.0515
▁Her	-11.0518
▁ветра	-11.0519
сам	-11.0519
▁талантлив	-11.052
кому	-11.0522
▁РСФСР	-11.0522
▁советско	-11.0523
Ле	-11.0523
▁Ver	-11.0524
▁30-	-11.0526
▁law	-11.0528
▁зачастую	-11.0528
ометр	-11.0528
▁тяжелые	-11.053
▁Академии	-11.0531
▁американского	-11.0531
евых	-11.0532
▁воен	-11.0534
▁этапе	-11.0534
ичность	-11.0536
▁воздействие	-11.0537
▁13.	-11.0538
▁63	-11.0538
▁народом	-11.0539
▁Har	-11.0539
оид	-11.054
▁показания	-11.054
▁категории	-11.0542
▁пыл	-11.0543
▁Васильев	-11.0543
▁сделала	-11.0548
▁искусств	-11.0549
▁угла	-11.055
ляется	-11.055
▁service	-11.0551
▁твоя	-11.0552
▁запрос	-11.0552
▁Ne	-11.0555
▁хорошим	-11.0558
тическое	-11.0558
▁похож	-11.056
▁Мел	-11.056
▁царю	-11.056
▁всячески	-11.0561
▁профессиональны	-11.0561
жива	-11.0561
▁продолжение	-11.0562
▁утвержден	-11.0566
лению	-11.0566
▁городу	-11.0568
альными	-11.0571
▁1946	-11.0571
▁1000	-11.0573
▁Днепр	-11.0575
▁Пример	-11.0579
▁Die	-11.058
рия	-11.0581
▁ламп	-11.0582
▁читатель	-11.0583
дѣл	-11.0587
▁концепции	-11.0587
овки	-11.0587
▁Арх	-11.0588
▁бумаг	-11.0591
▁аппарата	-11.0591
▁line	-11.0592
▁уезд	-11.0593
▁радостно	-11.0593
▁Джордж	-11.0593
▁экран	-11.0593
▁подумать	-11.0594
▁отказыва	-11.0594
▁By	-11.0596
ливый	-11.0596
▁молитвы	-11.0596
▁дала	-11.0597
▁десят	-11.0599
▁лозунг	-11.0599
рг	-11.06
▁love	-11.06
▁Пир	-11.0601
▁гриб	-11.0604
▁занять	-11.0604
▁Какие	-11.0605
▁Франция	-11.0606
ym	-11.0606
▁осуществлен	-11.0606
▁окон	-11.0606
▁\	-11.0609
▁разведчик	-11.0609
ждение	-11.061
▁снял	-11.0611
▁Царь	-11.0611
тельства	-11.0615
▁стул	-11.0616
▁reason	-11.0617
▁пыль	-11.0617
▁платье	-11.0618
▁раскрыва	-11.0621
▁political	-11.0622
▁автоном	-11.0624
▁элемента	-11.0625
▁предстояло	-11.0626
сту	-11.0627
ировав	-11.0627
▁удовлетворя	-11.0632
▁гарнизон	-11.0632
Ин	-11.0634
зн	-11.0635
▁бит	-11.0636
▁Хе	-11.0636
▁изображение	-11.0636
▁носит	-11.0636
▁нарком	-11.0637
▁учиться	-11.0638
▁city	-11.064
▁приезд	-11.0641
▁огромным	-11.0642
▁Созда	-11.0643
▁окоп	-11.0643
pi	-11.0643
смотреть	-11.0644
▁используется	-11.0644
▁Сталинград	-11.0645
пала	-11.0645
гун	-11.0646
▁Орлов	-11.0647
▁определенных	-11.0649
▁простым	-11.0649
▁si	-11.0649
▁граб	-11.0649
цкий	-11.065
вшимися	-11.0651
очная	-11.0653
▁гад	-11.0653
▁объ	-11.0656
▁2008	-11.0657
нцев	-11.066
▁Первые	-11.0662
ü	-11.0662
▁курса	-11.0663
▁мн	-11.0663
покой	-11.0664
▁демократии	-11.0664
ировала	-11.0665
▁камня	-11.0667
▁information	-11.0668
▁авторы	-11.0672
iss	-11.0672
▁протокол	-11.0673
▁мелких	-11.0674
▁подходит	-11.0676
сет	-11.0676
▁утеш	-11.0678
▁бежать	-11.0678
рі	-11.0679
▁que	-11.0682
▁огромной	-11.0683
▁расширя	-11.0683
иты	-11.0684
▁полов	-11.0685
▁hard	-11.0685
▁билет	-11.0686
▁got	-11.0688
▁мгновение	-11.0688
▁восстановить	-11.069
▁степ	-11.0693
ya	-11.0698
▁сумму	-11.0698
▁приспособлен	-11.0698
▁крикнул	-11.0699
идов	-11.07
▁внутрь	-11.0701
Так	-11.0701
▁эмоционально	-11.0703
▁Кер	-11.0704
▁богат	-11.0705
▁Roman	-11.0705
▁плач	-11.0705
▁духом	-11.0706
▁бело	-11.0708
▁мгновенно	-11.071
▁www	-11.071
аган	-11.0712
▁Казан	-11.0714
▁продукции	-11.0716
▁батареи	-11.0719
эс	-11.0721
▁торжественно	-11.0721
▁видя	-11.0721
▁продолжил	-11.0722
▁known	-11.0722
▁господству	-11.0725
▁государь	-11.0725
▁Фридрих	-11.0728
▁бого	-11.0728
▁июле	-11.0729
▁разверну	-11.0729
▁любые	-11.0731
овская	-11.0731
▁довод	-11.0732
▁Цел	-11.0732
▁каш	-11.0734
▁полета	-11.0737
▁year	-11.074
▁июне	-11.0741
▁распространение	-11.0741
▁школа	-11.0742
▁монопол	-11.0742
▁судя	-11.0742
бель	-11.0743
▁спал	-11.0743
▁62	-11.0743
▁близких	-11.0743
▁составил	-11.0744
шиб	-11.0748
▁треть	-11.075
▁половину	-11.075
▁целое	-11.0752
ящая	-11.0752
ступают	-11.0753
▁ненависть	-11.0755
▁река	-11.0755
▁европейских	-11.0756
▁узнали	-11.0756
▁рубеж	-11.0756
чения	-11.0758
▁дворца	-11.0758
▁шпион	-11.0759
рии	-11.076
втор	-11.0762
▁псих	-11.0762
hy	-11.0762
▁изменил	-11.0763
тический	-11.0763
атель	-11.0764
▁рассказы	-11.0765
▁настроения	-11.0766
▁шло	-11.0768
▁Леонид	-11.0768
▁Bar	-11.0769
▁Первое	-11.0769
▁собирался	-11.077
▁1916	-11.0772
▁желает	-11.0773
▁Ок	-11.0774
▁пищу	-11.0774
шедших	-11.0774
▁нём	-11.0774
▁продукт	-11.0776
час	-11.0776
▁графа	-11.0784
▁единого	-11.0785
▁простор	-11.0785
▁полку	-11.0786
▁победа	-11.0789
▁Начал	-11.0789
▁станут	-11.079
▁пятьдесят	-11.0792
▁освобождения	-11.0792
▁разными	-11.0793
▁сержант	-11.0794
▁обстрел	-11.0796
▁беседы	-11.0797
▁признание	-11.0799
Щ	-11.08
▁59	-11.0801
▁высшего	-11.0801
„	-11.0803
cc	-11.0804
▁Юрий	-11.0804
▁морских	-11.0805
▁театре	-11.0805
▁Часто	-11.0806
▁цветов	-11.0807
▁бои	-11.0808
лечен	-11.0808
▁Мама	-11.0809
▁НЕ	-11.0809
▁бежал	-11.081
▁признавал	-11.0813
▁живу	-11.0813
▁Стра	-11.0815
▁запреща	-11.0815
▁половина	-11.0816
▁включает	-11.0816
▁told	-11.0817
▁1925	-11.0817
жан	-11.0817
▁1923	-11.0819
▁объяснение	-11.0821
▁находит	-11.0821
▁Молод	-11.0825
шний	-11.0826
▁отметил	-11.0828
▁Рима	-11.0828
▁обуча	-11.0828
▁Восток	-11.0829
▁once	-11.0829
▁ушли	-11.0829
▁критически	-11.0829
▁дополнительно	-11.083
▁Весь	-11.083
▁уравнение	-11.0831
дѣ	-11.0831
совершен	-11.0831
▁различными	-11.0831
▁оборону	-11.0833
▁академии	-11.0837
ивные	-11.084
▁спин	-11.0841
пуга	-11.0842
▁составляли	-11.0843
▁усилен	-11.0845
▁Главное	-11.0846
▁убийств	-11.0847
▁though	-11.0852
▁улыбнулся	-11.0852
▁century	-11.0852
▁успехом	-11.0854
▁остатки	-11.0855
▁поврежден	-11.0855
▁показывал	-11.0856
▁восприятия	-11.0858
▁стиле	-11.0859
ивал	-11.086
▁предмета	-11.0861
▁Вдруг	-11.0861
▁высокие	-11.0861
▁войти	-11.0865
gue	-11.0865
▁феодал	-11.0867
▁обнаружили	-11.0868
верг	-11.0868
ON	-11.087
▁Михаила	-11.087
▁грудь	-11.087
▁позади	-11.0871
▁управлять	-11.0871
▁живым	-11.0873
▁монгол	-11.0875
горел	-11.0876
▁памятник	-11.0876
▁соли	-11.0878
▁1935	-11.0879
велич	-11.0879
яться	-11.0879
сей	-11.0882
▁Джо	-11.0884
In	-11.0885
▁нации	-11.0885
▁российской	-11.0885
▁западной	-11.0886
▁rep	-11.0886
▁моно	-11.0886
▁реализации	-11.0886
хал	-11.0887
▁лучшие	-11.0887
▁подавлен	-11.0887
▁палуб	-11.0887
▁покоя	-11.0887
▁Ростов	-11.0887
▁снижа	-11.0887
▁идеально	-11.0887
▁твоего	-11.0888
▁квартиру	-11.0889
▁(6	-11.089
▁тексте	-11.089
▁1956	-11.089
▁национального	-11.0891
резать	-11.0891
шение	-11.0893
▁получали	-11.0895
▁внук	-11.0896
ull	-11.0896
▁справедливости	-11.0896
▁Другой	-11.0898
▁Француз	-11.09
▁русская	-11.09
сков	-11.09
▁требуют	-11.0901
▁Обо	-11.0903
▁Соф	-11.0903
▁жанр	-11.0904
▁представляю	-11.0904
черк	-11.0905
андр	-11.0906
гнул	-11.0908
чиво	-11.0908
▁песен	-11.0909
▁отбор	-11.0911
▁Моя	-11.0912
густ	-11.0914
▁окончил	-11.0914
▁дум	-11.0915
dic	-11.0917
основ	-11.0917
▁обеда	-11.0918
▁собственную	-11.0919
▁Труд	-11.092
▁Ex	-11.0921
анда	-11.0921
▁кафедр	-11.0923
▁патрон	-11.0923
▁Da	-11.0924
▁following	-11.0926
▁определяет	-11.0926
аев	-11.0927
винов	-11.0927
▁кожа	-11.0928
стен	-11.0932
che	-11.0935
▁примет	-11.0935
▁приводил	-11.0937
▁tell	-11.0938
▁заставляет	-11.0939
▁уход	-11.0942
▁супруг	-11.0942
▁тер	-11.0943
▁Ельцин	-11.0944
king	-11.0944
▁давления	-11.0945
▁психо	-11.0945
▁индивиду	-11.0947
▁посла	-11.0948
▁Николаев	-11.0948
▁]	-11.0949
▁среднем	-11.0949
▁Петроград	-11.095
▁охотно	-11.095
▁известен	-11.095
▁используют	-11.095
▁Te	-11.0951
▁вырос	-11.0951
▁используя	-11.0951
▁пат	-11.0953
▁советский	-11.0953
▁принимали	-11.0953
▁выяснилось	-11.0954
▁невероятно	-11.0955
▁поднять	-11.0955
▁сельскохозяйств	-11.0956
▁among	-11.0956
▁обращение	-11.0957
▁господ	-11.0958
▁комп	-11.0959
▁Иран	-11.0959
▁лодка	-11.0959
спор	-11.0959
ага	-11.0959
▁высказыва	-11.096
▁1968	-11.0961
▁происхождение	-11.0962
▁публично	-11.0962
»...	-11.0963
▁позволяют	-11.0964
▁2007	-11.0964
ческая	-11.0964
▁приз	-11.0965
▁равны	-11.0965
▁основы	-11.0965
▁забыв	-11.0966
▁1929	-11.0967
▁краю	-11.0968
ТЕ	-11.0968
▁ткани	-11.0969
▁учеников	-11.0971
▁бат	-11.0972
▁числу	-11.0972
Раз	-11.0972
стоял	-11.0973
▁смело	-11.0974
mor	-11.098
▁Алексеев	-11.0982
▁крейсер	-11.0983
▁Харьков	-11.0984
▁трактат	-11.0987
▁Mon	-11.0988
▁признаки	-11.0988
▁следовать	-11.0989
чил	-11.0991
▁(5	-11.0992
инга	-11.0998
▁Go	-11.0999
▁upon	-11.1
▁брю	-11.1
gg	-11.1
▁битвы	-11.1001
▁богатство	-11.1002
ash	-11.1002
▁командовал	-11.1003
▁япон	-11.1003
▁mind	-11.1004
жения	-11.1004
▁возвращения	-11.1005
▁просит	-11.1005
чо	-11.1009
двига	-11.1009
▁обрати	-11.101
▁нарушение	-11.1011
▁брон	-11.1013
▁боги	-11.1013
▁ряде	-11.1014
▁нарушения	-11.1015
▁Большой	-11.1016
amp	-11.1017
▁див	-11.1017
▁ордена	-11.1018
▁Книга	-11.1018
▁76	-11.1019
▁History	-11.1021
▁66	-11.1022
▁стене	-11.1023
▁феврале	-11.1024
ращение	-11.1025
▁сыграл	-11.1025
▁180	-11.1025
▁хи	-11.1026
▁показывают	-11.1026
▁від	-11.1028
▁социалист	-11.1034
ute	-11.1035
▁general	-11.1036
ЧЕ	-11.1039
ключ	-11.104
van	-11.1041
▁сезон	-11.1042
хотя	-11.1042
▁агрессивн	-11.1043
▁восстание	-11.1043
▁кризиса	-11.1043
зя	-11.1043
давал	-11.1043
щика	-11.1044
▁kind	-11.1044
писывать	-11.1045
▁квартире	-11.1046
▁любить	-11.1047
стов	-11.1047
стям	-11.1047
▁пен	-11.1048
ire	-11.1048
▁выполнял	-11.1049
▁вокзал	-11.1049
▁Серг	-11.1049
коль	-11.1051
ущ	-11.1056
side	-11.1058
▁using	-11.1058
▁Тол	-11.1059
▁земной	-11.106
▁большее	-11.1061
▁вопреки	-11.1061
▁биограф	-11.1062
уры	-11.1063
▁покинул	-11.1064
▁понимали	-11.1064
▁добровольно	-11.1065
▁охраны	-11.1065
▁отражение	-11.1069
уля	-11.1069
▁Господи	-11.1069
учен	-11.1069
▁задание	-11.107
▁использовали	-11.1073
▁тема	-11.1073
▁участок	-11.108
▁газета	-11.108
▁местного	-11.1082
▁лу	-11.1083
рѣ	-11.1083
▁given	-11.1084
ok	-11.1085
▁некий	-11.1086
▁допустить	-11.1086
▁крестьяне	-11.1088
ними	-11.1089
▁поехал	-11.1089
▁Втор	-11.1091
▁полковника	-11.1092
▁полки	-11.1092
ó	-11.1093
▁Первым	-11.1093
▁хорошие	-11.1094
▁председателя	-11.1096
▁программу	-11.1098
▁продолжительно	-11.1099
нными	-11.1099
▁звание	-11.1101
нист	-11.1101
▁оценка	-11.1105
▁делами	-11.1109
▁жестко	-11.1114
▁язы	-11.1115
ахъ	-11.1117
▁Видимо	-11.1118
▁исторического	-11.1118
▁защищать	-11.1119
▁уста	-11.112
берт	-11.1122
▁травм	-11.1123
▁Сид	-11.1123
▁потребность	-11.1123
▁свобода	-11.1124
▁укреплен	-11.1127
▁восстановлен	-11.1129
▁многими	-11.113
▁Ильич	-11.113
▁очерк	-11.113
▁Август	-11.1131
▁ten	-11.1132
дев	-11.1132
есть	-11.1132
▁цит	-11.1133
альном	-11.1137
▁музыкант	-11.1137
▁увеличение	-11.1142
▁потряс	-11.1142
▁показан	-11.1143
▁бледн	-11.1144
▁Анти	-11.1145
ИТ	-11.1145
▁тан	-11.1148
app	-11.1148
▁Обще	-11.1148
▁гостей	-11.115
▁параметр	-11.115
▁базы	-11.1151
▁построить	-11.1151
рв	-11.1152
▁Йо	-11.1153
▁сферы	-11.1155
ляет	-11.1155
▁переводчик	-11.1155
xi	-11.1157
СС	-11.1158
▁легенд	-11.1158
rain	-11.116
▁Поли	-11.1162
▁убил	-11.1163
скольз	-11.1163
▁1988	-11.1163
▁методов	-11.1164
▁Григорий	-11.1165
▁Федерации	-11.1165
▁производитель	-11.1167
▁14.	-11.1168
плот	-11.117
▁death	-11.117
▁Марс	-11.117
чной	-11.117
ившие	-11.117
▁справа	-11.1172
▁открытие	-11.1172
▁social	-11.1172
▁залив	-11.1174
анные	-11.1174
ави	-11.1176
мета	-11.1178
▁ta	-11.1179
вѣт	-11.118
▁конгресс	-11.118
против	-11.1182
Мар	-11.1184
овала	-11.1185
▁Русь	-11.1186
селя	-11.1188
▁ученый	-11.1191
ѣд	-11.1192
ЕНИЕ	-11.1192
▁Ab	-11.1192
▁von	-11.1193
▁банд	-11.1193
овались	-11.1193
▁точек	-11.1195
▁руководителя	-11.1196
▁числ	-11.1197
▁began	-11.1198
▁скромно	-11.12
▁Бол	-11.1201
▁программа	-11.1201
▁фигуры	-11.1203
▁перв	-11.1207
ближ	-11.1207
▁сильное	-11.1207
▁эфир	-11.1207
▁Ер	-11.1208
▁доказательства	-11.1208
▁return	-11.1211
▁такому	-11.1212
▁присутствовал	-11.1212
▁видела	-11.1212
▁стоимость	-11.1213
▁означало	-11.1213
▁плоскости	-11.1215
▁массив	-11.1216
зыв	-11.1216
▁слоя	-11.1217
▁рассматривал	-11.1217
▁листья	-11.1217
▁избав	-11.1219
▁судьбе	-11.122
▁кле	-11.1223
▁plan	-11.1224
ax	-11.1226
▁сеть	-11.1227
▁хотим	-11.1228
▁цари	-11.1229
▁сыновей	-11.1231
казывать	-11.1232
▁путей	-11.1232
▁эстет	-11.1233
кажу	-11.1233
▁старшего	-11.1234
▁искал	-11.1236
▁организовать	-11.1237
▁face	-11.1239
▁источники	-11.1239
нья	-11.124
▁шоссе	-11.124
▁СО	-11.1241
▁массу	-11.1242
▁наполнен	-11.1243
▁отправились	-11.1246
Те	-11.1247
▁слезы	-11.1247
▁следствие	-11.1247
▁побережье	-11.1247
▁young	-11.1247
▁Платон	-11.1247
праздн	-11.1247
нейший	-11.1249
чный	-11.125
сок	-11.125
▁традиционно	-11.1251
▁Думаю	-11.1251
яют	-11.1252
▁посту	-11.1253
▁Рассказ	-11.1253
▁находиться	-11.1253
▁Спас	-11.1254
марк	-11.1254
▁act	-11.1255
gr	-11.1255
яя	-11.1255
▁древности	-11.1256
▁Чехов	-11.1258
▁депутат	-11.1259
▁купил	-11.1259
▁леп	-11.1259
▁случаю	-11.1261
▁нигде	-11.1261
▁Jo	-11.1262
▁социализма	-11.1262
овских	-11.1262
▁After	-11.1263
ивали	-11.1263
▁attack	-11.1266
▁Поль	-11.1266
▁приблизительно	-11.1266
▁наряд	-11.127
▁Але	-11.127
▁свеже	-11.127
лил	-11.1271
▁заняты	-11.1272
лар	-11.1275
▁утвержда	-11.1276
вато	-11.1276
▁вооружение	-11.1277
▁благополучно	-11.1277
▁родной	-11.1278
▁чувствовать	-11.1279
▁1924	-11.1279
▁опира	-11.1281
▁El	-11.1281
▁прожив	-11.1282
▁государя	-11.1283
везли	-11.1283
▁тревог	-11.1284
▁£	-11.1285
▁кирпич	-11.1285
▁середины	-11.1285
▁пласт	-11.1285
AT	-11.1286
gar	-11.1288
▁Божий	-11.1288
▁обратиться	-11.1288
▁элит	-11.1289
RE	-11.129
▁действиях	-11.129
ящим	-11.1292
▁известной	-11.1294
▁свидетельство	-11.1295
▁Mi	-11.1297
ческий	-11.1298
▁просить	-11.1298
▁евреи	-11.1301
ствова	-11.1302
▁центром	-11.1303
▁снять	-11.1304
чать	-11.1305
▁селе	-11.1306
▁рабочий	-11.1307
▁слава	-11.1309
меня	-11.131
▁круга	-11.131
▁законом	-11.131
▁сведений	-11.1311
▁тягот	-11.1311
▁1932	-11.1313
ыск	-11.1313
▁тяжелых	-11.1317
▁камни	-11.1318
▁продвига	-11.132
▁61	-11.1322
▁подъ	-11.1323
▁Толстой	-11.1323
▁рабочим	-11.1323
▁Молотов	-11.1323
▁помогал	-11.1323
▁фл	-11.1326
▁Утром	-11.1327
тяну	-11.1327
вот	-11.1329
▁цифр	-11.1329
▁комсомол	-11.133
▁1975	-11.1332
несен	-11.1333
▁народных	-11.1335
▁укрепления	-11.1338
фикс	-11.134
ple	-11.1341
ражен	-11.1342
ателей	-11.1344
▁хвал	-11.1344
▁Львов	-11.1345
ведении	-11.1345
чное	-11.1345
▁версии	-11.1346
гай	-11.1349
▁possible	-11.1349
▁Br	-11.1349
▁начались	-11.1351
▁слева	-11.1351
▁проявляется	-11.1352
думал	-11.1353
▁требование	-11.1355
▁читателя	-11.1357
▁возникла	-11.1361
нами	-11.1361
▁встрети	-11.1362
▁ноябре	-11.1363
тератур	-11.1364
▁вероятность	-11.1364
▁альтернатив	-11.1365
▁мышц	-11.1365
само	-11.1366
▁призыва	-11.1366
▁1973	-11.1367
II	-11.1371
▁плит	-11.1372
▁1967	-11.1373
▁колонн	-11.1373
▁сестры	-11.1375
▁вначале	-11.1376
СК	-11.1377
—1	-11.1378
▁son	-11.1379
▁Царств	-11.138
let	-11.1381
шеб	-11.1382
▁Ed	-11.1385
▁трус	-11.1385
▁любят	-11.1386
лъ	-11.1387
era	-11.1388
▁процент	-11.1388
▁поисках	-11.1388
ham	-11.1389
▁доложил	-11.139
▁along	-11.1391
мит	-11.1392
▁академик	-11.1394
ians	-11.1395
слѣд	-11.1395
▁средней	-11.1396
▁Начальник	-11.1397
▁устройство	-11.1397
▁ценностей	-11.1399
▁воля	-11.1399
▁Германию	-11.1399
▁душевно	-11.1399
▁присутствии	-11.14
сев	-11.1402
▁подполковник	-11.1402
ковского	-11.1402
▁Сред	-11.1403
▁Кот	-11.1404
▁Лондоне	-11.1405
▁квартал	-11.1405
▁within	-11.1406
ability	-11.1407
▁критики	-11.1408
▁остановить	-11.1409
▁мероприятия	-11.141
▁стоять	-11.141
1).	-11.1411
давая	-11.1411
▁достойно	-11.1414
▁женщину	-11.1416
абель	-11.1417
▁богатства	-11.1419
▁указывал	-11.1419
вернул	-11.1421
▁обраща	-11.1423
▁областях	-11.1423
▁Павл	-11.1423
▁Времен	-11.1424
ο	-11.1424
▁стрельб	-11.1425
▁начался	-11.1428
▁противником	-11.1428
▁Северо	-11.1429
▁недолго	-11.1433
▁славу	-11.1433
▁указание	-11.1437
▁газете	-11.1438
▁достоинства	-11.1439
▁броса	-11.1441
▁расти	-11.1442
живать	-11.1442
▁шанс	-11.1442
▁жила	-11.1443
▁выразить	-11.1445
ктор	-11.1446
▁волк	-11.1447
▁озер	-11.1449
носил	-11.1449
начал	-11.1452
гиба	-11.1455
los	-11.1456
меж	-11.1456
▁результатом	-11.1456
▁67	-11.1456
▁sw	-11.1456
▁sl	-11.1457
▁коэффициент	-11.1458
гнали	-11.1459
▁воспользоваться	-11.1462
▁людях	-11.1462
▁2010	-11.1463
▁психологически	-11.1466
▁факторов	-11.1468
▁верил	-11.1469
//	-11.1469
▁days	-11.1471
▁гипотез	-11.1473
▁творчество	-11.1475
мещен	-11.1475
100	-11.1475
ющимися	-11.1475
▁особый	-11.1475
бега	-11.1476
▁rest	-11.1476
cess	-11.1476
ob	-11.1478
▁величины	-11.1479
овцы	-11.1479
▁полем	-11.1482
▁обоз	-11.1483
▁1979	-11.1483
▁несколькими	-11.1484
▁двум	-11.1488
cre	-11.1491
▁дорого	-11.1497
▁решила	-11.1498
▁принимают	-11.1498
ущая	-11.1499
▁гео	-11.1499
▁ѵ	-11.1499
▁полтора	-11.1499
▁дождь	-11.1499
▁американский	-11.1501
▁чер	-11.1501
ς	-11.1502
вращ	-11.1508
▁Черн	-11.1508
▁1978	-11.1509
ave	-11.151
▁компонент	-11.1512
▁властей	-11.1513
lan	-11.1514
ированных	-11.1515
▁погон	-11.1516
▁собаки	-11.1518
las	-11.1518
▁стиль	-11.1519
▁let	-11.152
ительного	-11.1522
▁Святой	-11.1522
▁оставили	-11.1523
▁пут	-11.1523
▁известным	-11.1525
▁уклон	-11.1525
▁печать	-11.1525
▁объяснения	-11.1526
▁учил	-11.153
▁товарища	-11.1532
ступлен	-11.1533
▁углу	-11.1533
▁верст	-11.1534
▁Санкт	-11.1534
▁Dr	-11.1534
▁Московского	-11.1535
▁метода	-11.1535
▁оправдыва	-11.1536
стил	-11.1537
▁Вод	-11.1538
▁командующий	-11.1538
▁Лучше	-11.1538
мешан	-11.154
▁Ол	-11.154
▁ver	-11.154
▁предел	-11.1541
▁существовало	-11.1542
▁займ	-11.1542
μ	-11.1546
▁экономического	-11.1547
▁ждали	-11.1549
помин	-11.1549
▁арм	-11.1552
()	-11.1552
▁моменты	-11.1553
▁цех	-11.1553
▁вздохнул	-11.1554
▁Вит	-11.1554
▁Вед	-11.1555
▁станов	-11.1555
▁Щ	-11.1556
▁бассейн	-11.1556
▁7-	-11.1557
▁ошибка	-11.1557
сох	-11.1557
▁sur	-11.1557
▁городом	-11.1557
▁строки	-11.1558
овна	-11.156
▁Ум	-11.1562
▁реальной	-11.1562
▁структура	-11.1564
▁чувствую	-11.1565
200	-11.1566
▁песня	-11.1567
▁звуки	-11.1568
▁путешествия	-11.1568
▁тридцати	-11.1569
▁достав	-11.1569
▁появилось	-11.1571
ОМ	-11.1572
▁династии	-11.1572
▁любую	-11.1572
▁войной	-11.1574
▁словес	-11.1577
▁удовольствием	-11.1579
кими	-11.1581
▁перешел	-11.1581
▁парус	-11.1582
▁птицы	-11.1583
▁партию	-11.1583
КОВ	-11.1583
янь	-11.1585
▁military	-11.1586
▁изменя	-11.1586
пусти	-11.1587
▁red	-11.1588
▁расстройств	-11.1589
▁представ	-11.1589
▁зимой	-11.1589
▁Дже	-11.159
▁Ей	-11.1591
▁bur	-11.1592
▁сдержива	-11.1593
▁молодым	-11.1593
▁En	-11.1594
▁выдвига	-11.1594
par	-11.1595
плод	-11.1596
▁Интересно	-11.1597
▁планов	-11.1598
▁history	-11.1601
▁чести	-11.1601
ражение	-11.1603
▁неприятель	-11.1605
▁тезис	-11.1605
▁практика	-11.1605
▁Лес	-11.1606
мож	-11.161
▁землей	-11.1612
▁собственный	-11.1612
▁прочие	-11.1612
▁pi	-11.1612
▁1928	-11.1612
ключение	-11.1613
ствен	-11.1613
ищ	-11.1615
русски	-11.1615
ИМ	-11.1617
▁очереди	-11.1619
лиц	-11.1619
▁Федоров	-11.162
▁еду	-11.162
▁освещен	-11.1621
▁типов	-11.1623
тъ	-11.1623
ившийся	-11.1623
хватить	-11.1624
АМ	-11.1625
▁десятилетия	-11.1625
▁клан	-11.1626
▁1927	-11.1626
▁мастера	-11.1626
▁пленных	-11.1628
щет	-11.163
▁Вторая	-11.163
▁частях	-11.1631
▁известного	-11.1631
bin	-11.1631
▁Греции	-11.1633
▁оказывал	-11.1635
▁Александров	-11.1635
▁объясняется	-11.1637
▁мрачн	-11.1639
▁рынок	-11.1639
четвер	-11.164
известны	-11.1642
▁танковой	-11.1642
плач	-11.1643
▁учетом	-11.1644
▁протянул	-11.1645
ствует	-11.1647
хватил	-11.1648
▁судно	-11.1649
▁стекл	-11.165
▁72	-11.1651
▁доктрин	-11.1651
лип	-11.1652
рва	-11.1653
▁пир	-11.1653
антов	-11.1655
—18	-11.1655
▁ведения	-11.1657
▁British	-11.1658
ните	-11.1659
▁ребят	-11.166
▁белый	-11.1661
▁осуществить	-11.1662
▁рожден	-11.1662
вернуть	-11.1663
▁применять	-11.1663
AL	-11.1665
▁террор	-11.1665
наруж	-11.1667
▁шкур	-11.1668
▁ужасно	-11.1669
▁лучшим	-11.1671
▁государственно	-11.1671
▁матрос	-11.1672
ць	-11.1672
ned	-11.1672
▁рожда	-11.1672
▁шап	-11.1674
явля	-11.1675
▁искусственно	-11.1676
▁танка	-11.1676
ающее	-11.1676
▁чудо	-11.1676
▁друзьями	-11.1677
▁прибыв	-11.1678
▁experience	-11.1681
ающим	-11.1681
губ	-11.1681
▁получит	-11.1682
▁уходит	-11.1683
▁машине	-11.1684
игр	-11.1684
▁музыки	-11.1684
енном	-11.1686
гран	-11.1686
▁девочка	-11.1687
▁порыв	-11.1688
▁забав	-11.1689
▁активности	-11.1689
ийская	-11.1689
▁бандит	-11.1689
ленные	-11.1689
▁обращения	-11.1689
ируются	-11.1689
оном	-11.1691
▁добавить	-11.1691
свобод	-11.1694
▁Эль	-11.1694
ological	-11.1694
▁ток	-11.1695
▁профессионально	-11.1695
валь	-11.1696
▁невольно	-11.1696
▁самыми	-11.1697
нское	-11.1697
▁сделает	-11.1698
пускать	-11.1702
▁англ	-11.1703
ущие	-11.1704
▁подобным	-11.1705
▁хорошего	-11.1709
▁1972	-11.1709
▁Fr	-11.1713
▁1953	-11.1713
▁исполнение	-11.1716
лями	-11.1716
▁студентов	-11.1718
бах	-11.172
▁Две	-11.172
Ба	-11.172
▁новыми	-11.1722
пресс	-11.1722
▁независимы	-11.1723
▁сообща	-11.1723
ография	-11.1723
ase	-11.1724
▁10-	-11.1724
▁гиб	-11.1724
▁развед	-11.1725
▁Сем	-11.1726
шина	-11.1726
ставлять	-11.1726
▁практику	-11.1727
истый	-11.1728
▁взлет	-11.1729
▁позвонил	-11.1731
▁пациент	-11.1732
▁вышло	-11.1733
▁опустил	-11.1734
▁обыкновенно	-11.1736
цкого	-11.1741
вержен	-11.1742
речен	-11.1743
аюсь	-11.1744
вание	-11.1744
▁кислот	-11.1745
▁производит	-11.1746
▁закону	-11.1746
▁застав	-11.1746
▁пах	-11.1746
▁short	-11.1748
▁Риме	-11.1748
▁мут	-11.1749
никам	-11.1751
▁жу	-11.1751
▁двенадцать	-11.1752
ps	-11.1752
▁дьявол	-11.1753
▁конструктор	-11.1754
▁пакет	-11.1755
нимает	-11.1755
—2	-11.1755
▁равнин	-11.1756
▁корабле	-11.1757
пря	-11.1758
▁turn	-11.1758
▁Год	-11.176
мас	-11.176
▁Иначе	-11.1761
▁кольцо	-11.1762
▁Германией	-11.1762
▁Соб	-11.1764
▁особых	-11.1764
емым	-11.1765
des	-11.1766
▁перес	-11.1768
ms	-11.1769
▁Флор	-11.177
▁68	-11.1772
▁страсти	-11.1775
▁освобожда	-11.1778
▁Ь	-11.1779
▁er	-11.178
▁зоны	-11.1781
яков	-11.1782
служен	-11.1782
▁главная	-11.1782
сор	-11.1782
▁детстве	-11.1782
іемъ	-11.1785
гип	-11.1786
▁религиозно	-11.1787
▁военное	-11.1788
▁собеседник	-11.1788
▁вторую	-11.1788
▁географ	-11.1789
ленд	-11.1789
▁выходил	-11.1789
▁рат	-11.1789
▁method	-11.1791
▁следующей	-11.1791
▁устройств	-11.1792
▁Естественно	-11.1792
▁наказание	-11.1793
▁Подобно	-11.1794
опис	-11.1795
▁Энгельс	-11.1798
давались	-11.18
▁отрицательно	-11.18
▁главные	-11.18
▁children	-11.1801
▁Хор	-11.1801
граб	-11.1804
очно	-11.1804
▁карьер	-11.1805
▁велик	-11.1805
▁видят	-11.1808
▁плечи	-11.1809
")	-11.1809
▁областей	-11.1811
▁доверие	-11.1815
▁персонал	-11.1815
ЛЕ	-11.1816
лоп	-11.1816
▁1926	-11.1818
▁нужды	-11.182
lia	-11.182
▁Вен	-11.182
▁порог	-11.1823
▁1985	-11.1823
ступив	-11.1824
▁Двор	-11.1824
▁врача	-11.1826
▁перешли	-11.1828
▁Бон	-11.1828
▁жит	-11.1829
▁образы	-11.1831
▁миллиона	-11.1831
▁захватить	-11.1833
пен	-11.1833
▁Лив	-11.1836
▁оправдан	-11.1838
▁проверить	-11.1838
Когда	-11.1838
▁85	-11.1839
▁1982	-11.184
nt	-11.1841
her	-11.1843
▁1974	-11.1843
▁российских	-11.1845
нис	-11.1845
▁pl	-11.1846
▁интеллект	-11.1847
▁штук	-11.1848
айн	-11.1851
вязан	-11.1852
▁ПРО	-11.1852
▁смотрели	-11.1853
▁некое	-11.1854
▁потребности	-11.1854
▁материи	-11.1856
ившихся	-11.1857
▁1965	-11.1857
▁утверждения	-11.186
плав	-11.186
▁обоснован	-11.1861
▁фотограф	-11.1864
▁увидев	-11.1864
▁°	-11.1865
▁единственно	-11.1865
tle	-11.1869
▁however	-11.1869
▁газа	-11.187
▁расправ	-11.187
▁скрип	-11.1871
▁установки	-11.1872
▁Павлович	-11.1872
▁настоящим	-11.1872
▁факультет	-11.1875
▁near	-11.1876
▁наличии	-11.1882
▁новому	-11.1884
▁1961	-11.1884
▁больно	-11.1887
▁следующего	-11.1889
чих	-11.1889
▁Чита	-11.1889
▁храбр	-11.189
▁собственным	-11.189
▁попали	-11.189
МО	-11.1893
▁Чего	-11.1894
▁ресурсов	-11.1896
▁стоп	-11.1898
▁Атлант	-11.1898
▁бюрократ	-11.1899
tri	-11.1899
▁утверждать	-11.1902
▁сос	-11.1904
▁Берлине	-11.1904
▁ходили	-11.1904
▁голосов	-11.1905
▁сэр	-11.1905
▁Солнца	-11.1906
▁исправ	-11.1908
▁забыть	-11.1908
считал	-11.1909
▁хорошее	-11.1911
▁обладают	-11.1912
▁Гур	-11.1913
▁поддерживал	-11.1913
▁мелкие	-11.192
▁индивид	-11.1921
▁являлись	-11.1921
енц	-11.1922
▁вирус	-11.1923
▁звер	-11.1925
▁English	-11.1926
носят	-11.1927
▁народной	-11.1927
▁таблиц	-11.1928
ita	-11.1928
▁бунт	-11.1929
труд	-11.1929
▁крестьянин	-11.193
▁оставалась	-11.193
▁командующего	-11.193
▁температуры	-11.1932
▁family	-11.1933
▁соответствующие	-11.1933
▁сыновья	-11.1933
▁1983	-11.1934
▁1964	-11.1935
▁юге	-11.1935
ЕД	-11.1936
▁облака	-11.1937
▁утоп	-11.1937
▁последнюю	-11.1938
шнее	-11.1939
▁закончен	-11.194
гнут	-11.1941
▁пил	-11.1942
▁250	-11.1943
▁сыну	-11.1943
▁убийство	-11.1943
водится	-11.1945
▁захотел	-11.1945
▁положен	-11.1946
▁сумм	-11.1946
▁долгое	-11.1946
▁такъ	-11.1947
▁следующих	-11.1947
сыпа	-11.1947
▁собака	-11.1948
фантаст	-11.1949
ture	-11.1949
▁Карла	-11.1949
ОД	-11.195
▁These	-11.1951
▁напоминал	-11.1951
ets	-11.1952
▁график	-11.1952
изме	-11.1952
рут	-11.1953
лест	-11.1957
ір	-11.1957
▁виноват	-11.1958
▁сцены	-11.1959
▁1962	-11.1959
▁благослов	-11.196
▁Вильгельм	-11.196
▁районов	-11.1962
знаком	-11.1962
▁Характер	-11.1963
▁молодежи	-11.1963
▁run	-11.1964
▁правительством	-11.1964
▁древние	-11.1967
▁Ваш	-11.1967
▁Политбюро	-11.197
ированные	-11.1972
▁переводе	-11.1972
▁политический	-11.1972
▁ряды	-11.1974
▁помнить	-11.1974
▁столе	-11.1975
▁звучит	-11.1978
нах	-11.198
▁рабов	-11.198
▁отличаются	-11.1981
аре	-11.1982
▁1969	-11.1982
сса	-11.1984
▁вблизи	-11.1985
▁капиталистическ	-11.1985
имых	-11.1985
▁гостя	-11.1985
▁Горбачев	-11.1991
▁несет	-11.1991
▁активность	-11.1993
▁отстав	-11.1994
свят	-11.1994
▁Бул	-11.1995
▁совершить	-11.1995
pl	-11.1997
▁рукав	-11.1997
кою	-11.1998
▁гипер	-11.1999
▁общие	-11.1999
АС	-11.1999
▁Вечером	-11.2
лёт	-11.2002
▁Боль	-11.2004
▁проявление	-11.2004
▁Твое	-11.2006
/1	-11.2006
▁соверша	-11.2006
▁ставил	-11.2007
▁очаг	-11.2007
▁способы	-11.2008
▁With	-11.2008
▁военную	-11.2009
▁раненых	-11.201
▁сколь	-11.2012
НЫЙ	-11.2012
дри	-11.2014
▁процедур	-11.2015
ES	-11.2018
енгер	-11.2018
ants	-11.2019
сущ	-11.202
правил	-11.2022
▁post	-11.2026
▁получится	-11.2026
▁взяты	-11.2027
▁da	-11.2027
ata	-11.2028
▁третьей	-11.2028
▁Матери	-11.2029
▁холодно	-11.203
ступая	-11.2032
▁лицу	-11.2032
▁государственный	-11.2034
▁1931	-11.2035
▁вашим	-11.2035
▁предстоит	-11.2035
▁теорию	-11.2035
▁прочно	-11.2036
cle	-11.2038
▁фактов	-11.2039
▁думали	-11.2039
▁мудрость	-11.204
▁Эс	-11.204
тера	-11.2041
▁хирург	-11.2042
▁тылу	-11.2042
▁пожалуйста	-11.2044
рина	-11.2045
▁понимают	-11.2047
▁необходимы	-11.205
▁United	-11.2052
▁независимость	-11.2053
анная	-11.2054
•	-11.2054
▁баланс	-11.2058
▁предметом	-11.2059
шней	-11.206
▁Сол	-11.206
▁слуг	-11.2062
▁отделение	-11.2063
бирать	-11.2063
tur	-11.2065
▁Пет	-11.2068
▁определял	-11.207
▁Около	-11.207
▁Современн	-11.207
▁дано	-11.207
▁отнес	-11.2072
ительное	-11.2073
▁Ibid	-11.2073
▁характеристики	-11.2073
анты	-11.2074
▁многочислен	-11.2075
▁стресс	-11.2075
▁занимались	-11.2075
▁закричал	-11.2076
бед	-11.2077
щения	-11.2077
▁собрались	-11.2078
ars	-11.2078
▁Андреев	-11.2078
▁отклик	-11.2078
ственных	-11.208
быв	-11.2081
НЕ	-11.2082
▁исходя	-11.2082
вшем	-11.2082
▁Шел	-11.2083
▁интересах	-11.2083
▁ce	-11.2085
▁годами	-11.2085
▁1984	-11.2085
▁уверенность	-11.2085
атели	-11.2086
ope	-11.2087
▁писали	-11.2089
▁1977	-11.2089
▁цитат	-11.2089
ere	-11.209
▁Наверное	-11.209
▁доказательство	-11.2091
ностях	-11.2092
sta	-11.2092
▁нежно	-11.2095
▁чт	-11.2097
везти	-11.2097
▁раскол	-11.2097
▁имеющие	-11.2099
orn	-11.21
▁1948	-11.2103
▁вылет	-11.2106
ичная	-11.2106
ивание	-11.2108
▁дне	-11.2109
▁спектр	-11.2109
евр	-11.211
▁происходящ	-11.2111
▁князей	-11.2111
▁сохранил	-11.2113
фен	-11.2113
▁былъ	-11.2114
никова	-11.2114
▁загадоч	-11.2115
▁Кн	-11.2116
▁зеркал	-11.2117
▁замкнут	-11.212
телям	-11.212
риф	-11.2121
чную	-11.2121
▁горах	-11.2121
▁Cr	-11.2122
ующих	-11.2123
▁помещения	-11.2123
▁1957	-11.2124
▁спирт	-11.2124
▁готовность	-11.2125
ёж	-11.2125
вещ	-11.2125
▁температур	-11.2127
▁удается	-11.2129
▁ров	-11.2131
▁Суворов	-11.2132
▁мѣст	-11.2134
ded	-11.2138
▁start	-11.214
дут	-11.2141
▁радостью	-11.2143
▁1987	-11.2144
ялся	-11.2144
▁шляп	-11.2146
▁клеток	-11.2146
▁поднят	-11.2147
▁замечательно	-11.215
▁целого	-11.215
▁жене	-11.2151
▁объективно	-11.2151
СП	-11.2152
▁нормы	-11.2152
cus	-11.2154
истом	-11.2155
въ	-11.2157
▁Кирилл	-11.2157
▁обнаружить	-11.2158
▁побежал	-11.2158
▁удал	-11.2159
▁Коль	-11.2159
▁обеспечив	-11.216
▁последняя	-11.2163
▁Луи	-11.2164
▁толпы	-11.2164
▁приближен	-11.217
▁прекраща	-11.217
▁Ko	-11.2171
дур	-11.2172
▁важный	-11.2172
штаб	-11.2172
зан	-11.2173
▁описывает	-11.2173
▁сожале	-11.2176
vin	-11.2176
ніи	-11.2177
▁частями	-11.2177
▁удавалось	-11.2178
ИЯ	-11.2179
▁враждебно	-11.218
▁better	-11.218
-6	-11.2181
▁вашу	-11.2182
▁организатор	-11.2184
зой	-11.2185
утся	-11.2186
речь	-11.2187
▁доказательств	-11.2187
▁выяснить	-11.2187
▁религия	-11.2188
▁избавиться	-11.2189
гель	-11.2191
▁фигура	-11.2192
▁мешал	-11.2193
▁примитив	-11.2195
▁2009	-11.2196
тали	-11.2197
▁собственное	-11.2199
▁Шах	-11.2202
▁базе	-11.2202
▁int	-11.2203
ходили	-11.2204
▁депутатов	-11.2206
▁крае	-11.2206
▁(7	-11.2207
▁обслужива	-11.2207
▁перевоз	-11.2207
ори	-11.2208
▁оценить	-11.2208
ниж	-11.2209
▁положить	-11.2209
▁спину	-11.221
▁падения	-11.2212
▁others	-11.2213
тис	-11.2213
▁зр	-11.2213
▁проходил	-11.2213
▁заговорил	-11.2214
▁христианства	-11.2214
жид	-11.2215
чке	-11.2216
ux	-11.2217
гг	-11.2218
▁Обе	-11.2219
▁технологии	-11.2222
▁Рыб	-11.2222
▁вспоминает	-11.2222
электр	-11.2223
▁биолог	-11.2223
ставил	-11.2223
▁физически	-11.2226
▁страсть	-11.2226
▁сидеть	-11.2226
▁соединений	-11.2227
▁журнале	-11.2228
▁del	-11.2229
▁}	-11.2231
▁1971	-11.2235
▁69	-11.2235
▁инстинкт	-11.2235
▁проф	-11.2237
▁Цз	-11.2237
▁повести	-11.2238
▁масла	-11.2238
коло	-11.2238
▁Нор	-11.2239
▁q	-11.2242
▁реформы	-11.2242
▁йог	-11.2243
елли	-11.2244
икой	-11.2244
▁Карт	-11.2245
работка	-11.2246
▁Божественно	-11.2247
mal	-11.2248
▁частот	-11.2249
зия	-11.225
▁Скорее	-11.225
толкнул	-11.2251
▁Эту	-11.2253
▁бывало	-11.2254
▁разобраться	-11.2254
▁волна	-11.2254
▁бл	-11.2256
▁Позже	-11.2257
▁заместитель	-11.2257
актив	-11.2258
▁возникновения	-11.2264
ийцев	-11.2268
▁конструкции	-11.2268
▁выбран	-11.2268
▁старшин	-11.2269
▁1:	-11.227
▁стабил	-11.227
▁сомнений	-11.2271
руп	-11.2273
▁простых	-11.2274
▁снарядов	-11.2276
▁выводы	-11.2277
ола	-11.2278
▁Васил	-11.2279
▁племени	-11.228
▁населен	-11.2282
▁эмоции	-11.2282
▁осужда	-11.2283
▁матерью	-11.2283
▁царства	-11.2283
▁Дра	-11.2284
▁психологии	-11.2285
▁Dis	-11.2285
▁улов	-11.2286
▁free	-11.2288
▁температура	-11.2288
▁бомбы	-11.2289
▁требовалось	-11.229
Крас	-11.229
▁провели	-11.229
плыв	-11.229
▁легенда	-11.229
Вот	-11.2291
▁рем	-11.2292
▁миномет	-11.2293
шедшие	-11.2294
▁постели	-11.2294
▁напечатан	-11.2294
▁городской	-11.2295
ЛЯ	-11.2296
vis	-11.2298
прост	-11.2298
▁расположение	-11.2299
ration	-11.23
▁показ	-11.2302
▁любых	-11.2304
▁Пла	-11.2306
▁предшественник	-11.2307
▁молоко	-11.2308
печ	-11.2308
член	-11.2309
▁затрат	-11.2309
▁экономических	-11.2311
▁славы	-11.2313
▁впечатления	-11.2314
нина	-11.2314
▁предков	-11.2314
▁нечист	-11.2318
нике	-11.2323
▁Ga	-11.2323
▁обвинения	-11.2324
fer	-11.2326
▁поговорить	-11.2329
▁зависимость	-11.2331
чным	-11.2331
горе	-11.2334
оры	-11.2335
ческое	-11.2336
▁1981	-11.2336
▁французских	-11.2337
▁телеграмм	-11.2337
▁Генрих	-11.2338
связ	-11.2339
▁взгляда	-11.234
▁Ага	-11.2341
▁русскими	-11.2342
нимая	-11.2345
▁visit	-11.2346
▁врагом	-11.2346
▁возможных	-11.2346
▁рядов	-11.2347
▁read	-11.2348
кля	-11.2348
▁1976	-11.2351
arch	-11.2352
пада	-11.2353
▁преодолеть	-11.2356
▁слухи	-11.2358
хай	-11.236
▁ОТ	-11.2361
ood	-11.2362
▁имущества	-11.2363
▁националист	-11.2364
▁валют	-11.2366
!”	-11.2366
▁закрыл	-11.2368
делать	-11.2368
▁принятия	-11.2368
▁body	-11.2369
▁1947	-11.2369
▁играли	-11.237
стол	-11.237
oo	-11.2371
▁совести	-11.2371
▁крем	-11.2372
▁убедить	-11.2374
▁промышленность	-11.2374
▁Аг	-11.2374
▁современник	-11.2375
▁известные	-11.2377
▁согласие	-11.2379
▁умереть	-11.2379
▁основание	-11.2382
▁раскрыт	-11.2383
▁нужд	-11.2383
▁запрещен	-11.2383
▁груст	-11.2384
▁морально	-11.2384
▁period	-11.2384
тых	-11.2386
▁инициатив	-11.239
▁Si	-11.2391
сман	-11.2394
▁тень	-11.2395
▁ел	-11.2396
лять	-11.2398
▁отсутствия	-11.2399
▁просьбой	-11.2399
▁свидетельствуют	-11.2399
▁group	-11.24
▁преподава	-11.2401
▁(10	-11.2401
МИ	-11.2402
дина	-11.2404
▁отрица	-11.2404
▁взяв	-11.2406
жей	-11.2406
▁убор	-11.2408
▁1958	-11.2408
ТЬ	-11.2409
▁измерения	-11.2409
▁пожела	-11.241
▁легких	-11.2411
chi	-11.2411
▁сильные	-11.2413
▁Известно	-11.2413
τ	-11.2414
▁размеров	-11.2416
▁настоящей	-11.2416
▁серии	-11.2417
▁разрешение	-11.2417
юще	-11.2417
даются	-11.2418
▁Екатерина	-11.2419
слан	-11.242
π	-11.242
▁равен	-11.2421
▁устроить	-11.2421
▁свидетельства	-11.2422
жев	-11.2423
▁Образ	-11.2424
▁запись	-11.2424
языч	-11.2425
▁государством	-11.2425
▁съем	-11.2426
позитив	-11.2427
местить	-11.2428
▁открытым	-11.2429
нтон	-11.2429
▁дереве	-11.243
нди	-11.243
унг	-11.2431
▁Сир	-11.2431
▁space	-11.2431
▁установил	-11.2433
тами	-11.2435
▁Иль	-11.2435
▁Бир	-11.2436
▁позво	-11.2437
▁устроил	-11.2437
овские	-11.2437
опыт	-11.2438
▁противоречия	-11.2438
▁600	-11.2438
▁видите	-11.2441
▁аристократ	-11.2442
▁кругу	-11.2442
▁fire	-11.2442
▁орудие	-11.2442
▁обязаны	-11.2443
▁matter	-11.2446
елей	-11.2447
ker	-11.2447
динами	-11.2447
▁See	-11.2448
▁награжден	-11.2449
▁состояла	-11.245
кладывать	-11.245
▁отчетливо	-11.2451
▁карте	-11.2452
▁рынке	-11.2453
▁отмечен	-11.2454
и́	-11.2455
▁бросить	-11.2458
льц	-11.2459
▁войскам	-11.2462
▁парад	-11.2463
▁language	-11.2463
▁надежда	-11.2464
pro	-11.2465
чно	-11.2466
ТР	-11.2469
▁физики	-11.247
бир	-11.2471
▁1959	-11.2472
▁великое	-11.2473
▁съезда	-11.2473
следователь	-11.2473
ослав	-11.2475
гам	-11.2476
ST	-11.2476
▁Комп	-11.2476
▁десятков	-11.2477
▁соглашения	-11.2477
▁Дела	-11.2478
академ	-11.2479
▁Мур	-11.2481
▁путешествие	-11.2482
▁design	-11.2483
▁бюро	-11.2483
bit	-11.2483
▁удосто	-11.2484
рё	-11.2484
▁ever	-11.2485
▁единства	-11.2488
▁окружающей	-11.2489
▁строитель	-11.249
брат	-11.2491
▁Президент	-11.2492
▁повторил	-11.2492
▁руководил	-11.2492
▁Пес	-11.2494
▁соглашение	-11.2495
▁немецко	-11.2497
▁позволить	-11.2497
▁цены	-11.25
▁льв	-11.2501
â	-11.2502
▁армян	-11.2502
седа	-11.2504
▁увеличен	-11.2505
перв	-11.2507
▁защитник	-11.2508
▁хватит	-11.2508
▁шир	-11.2508
▁наполня	-11.2509
▁several	-11.251
▁рассуждения	-11.251
▁условии	-11.251
▁level	-11.251
▁поли	-11.251
енія	-11.251
▁неприятно	-11.2511
▁saw	-11.2514
▁didn	-11.2516
▁Семен	-11.2516
▁старались	-11.2516
▁keep	-11.2517
▁интриг	-11.2517
ерт	-11.2517
vers	-11.2517
▁Наполеона	-11.2518
▁Каза	-11.2518
▁Оль	-11.2519
езжал	-11.252
2-	-11.252
▁контексте	-11.252
ў	-11.252
▁различие	-11.2521
▁обезьян	-11.2521
крытие	-11.2522
▁1986	-11.2522
Ни	-11.2523
▁упражнения	-11.2523
9).	-11.2525
▁согласия	-11.2526
▁enough	-11.2528
▁лжи	-11.2531
▁дек	-11.2531
▁воспитан	-11.2532
иваются	-11.2532
▁Пен	-11.2533
▁перерыв	-11.2533
▁смогут	-11.2533
▁1949	-11.2534
nie	-11.2534
летней	-11.2535
хрон	-11.2536
▁предполагал	-11.2537
▁композитор	-11.2538
▁тюрьме	-11.2538
▁популярны	-11.2538
▁приглашен	-11.2539
istic	-11.2541
▁Письмо	-11.2541
▁употребля	-11.2542
▁фар	-11.2543
▁христианской	-11.2545
▁art	-11.2546
вого	-11.2546
▁девят	-11.2546
▁сообщал	-11.2549
▁Израиля	-11.2549
▁религиозных	-11.2549
хор	-11.2551
▁сочинений	-11.2553
Там	-11.2554
pr	-11.2554
br	-11.2554
жден	-11.2555
▁целую	-11.2556
▁мг	-11.2556
▁музей	-11.2557
▁Диа	-11.2559
uff	-11.256
дох	-11.2561
фей	-11.2562
▁заняли	-11.2562
тать	-11.2566
▁1966	-11.2566
▁красоты	-11.2568
▁грандиоз	-11.2571
▁nothing	-11.2571
▁современном	-11.2572
▁взвод	-11.2572
Хо	-11.2573
▁переходит	-11.2574
человек	-11.2574
НОВ	-11.2575
▁побережья	-11.2575
▁серьезные	-11.2575
▁инф	-11.2575
нымъ	-11.2578
ийцы	-11.2578
енько	-11.2579
▁конфликта	-11.2579
▁используем	-11.2579
▁сует	-11.258
ившей	-11.258
любов	-11.2582
▁almost	-11.2582
▁гражданин	-11.2582
▁Хал	-11.2584
ставляя	-11.2585
▁покида	-11.2589
▁подрыв	-11.259
шедший	-11.2591
▁служат	-11.2591
▁эконом	-11.2592
сид	-11.2595
ПА	-11.2596
▁эмигрант	-11.2596
▁музыку	-11.2596
▁имѣ	-11.2597
▁шагом	-11.2598
▁чувством	-11.2599
▁достигает	-11.2599
▁рассе	-11.2599
прям	-11.26
▁объединения	-11.2602
следован	-11.2602
▁литов	-11.2603
нке	-11.2604
▁освобождение	-11.2606
▁преступник	-11.2607
▁whole	-11.2607
▁Божия	-11.2607
▁дружин	-11.2608
фил	-11.2609
ved	-11.2609
слал	-11.2613
▁Джа	-11.2613
ces	-11.2615
▁благодарность	-11.2616
lat	-11.2617
ходящих	-11.2618
▁Соединенных	-11.2618
▁законодательств	-11.2618
ерс	-11.2619
ont	-11.262
▁зря	-11.262
▁times	-11.262
▁бронз	-11.2621
▁поставили	-11.2622
▁Стран	-11.2623
хоз	-11.2623
▁cause	-11.2624
ныне	-11.2625
▁предположение	-11.2626
▁Макс	-11.2626
▁системой	-11.2629
АТ	-11.263
cial	-11.2633
несла	-11.2634
▁схема	-11.2635
▁cur	-11.2636
▁задания	-11.2636
▁major	-11.2636
▁всѣ	-11.2637
▁1963	-11.2638
▁форт	-11.2638
▁общины	-11.2641
▁болгар	-11.2644
▁хозяина	-11.2645
Ро	-11.2645
нику	-11.2646
▁коммунистов	-11.2646
ьными	-11.2647
▁помогать	-11.2648
▁result	-11.2648
анный	-11.2649
▁Наша	-11.265
▁рабочей	-11.2651
▁Никак	-11.2652
верт	-11.2653
▁внутренние	-11.2653
▁©	-11.2655
▁насилия	-11.2656
звал	-11.2656
оле	-11.2657
тич	-11.2658
держав	-11.2659
ящими	-11.2659
▁командиром	-11.2659
▁грехов	-11.2661
▁дрож	-11.2661
▁мышление	-11.2663
▁блага	-11.2666
опер	-11.2668
▁шагов	-11.2668
▁потреб	-11.2669
▁ослаблен	-11.267
fr	-11.2671
▁успев	-11.2671
▁пролив	-11.2671
▁хаос	-11.2672
▁Шан	-11.2673
▁already	-11.2673
▁диа	-11.2676
▁государстве	-11.2676
▁маленькие	-11.2677
5%	-11.2677
ношен	-11.2677
▁изучал	-11.2678
ook	-11.2679
▁текстов	-11.2679
6).	-11.2682
▁толпа	-11.2682
▁внешних	-11.2684
жные	-11.2685
падает	-11.2686
▁масло	-11.2686
▁остальное	-11.2688
ССР	-11.2688
▁доктора	-11.2691
▁отпуск	-11.2692
▁сурово	-11.2692
▁стремился	-11.2692
▁бригада	-11.2692
▁Товарищ	-11.2693
▁истину	-11.2694
▁блока	-11.2694
▁тюрем	-11.2695
▁автобус	-11.2695
▁воины	-11.2695
▁rather	-11.2695
ency	-11.2696
▁убеждения	-11.2698
▁понятий	-11.2698
▁индивидуально	-11.2698
▁министров	-11.2698
▁покинуть	-11.2699
▁соперник	-11.27
▁кругом	-11.27
влечь	-11.27
один	-11.2701
▁отрядов	-11.2702
▁обратить	-11.2702
нор	-11.2702
▁привержен	-11.2703
▁работах	-11.2703
▁Дальше	-11.2703
▁жизне	-11.2705
▁укрепля	-11.2707
▁выполнение	-11.2709
▁представлений	-11.2709
истые	-11.271
▁Трудно	-11.2711
▁корни	-11.2712
▁мя	-11.2712
▁выпустил	-11.2714
▁Небес	-11.2717
▁потеряли	-11.2717
нтер	-11.2718
▁тиран	-11.2719
оров	-11.2719
▁ожесточен	-11.2722
▁May	-11.2723
dd	-11.2724
▁фамилии	-11.2724
брать	-11.2725
▁приказу	-11.2725
раздел	-11.2728
▁кусок	-11.2728
жно	-11.2729
▁отстаива	-11.2729
▁завтрак	-11.273
▁профессора	-11.2732
▁Бал	-11.2732
▁завершен	-11.2732
▁господа	-11.2735
▁Сим	-11.2735
mann	-11.2735
▁тяжелым	-11.2737
▁правительству	-11.2738
Кор	-11.274
▁лето	-11.2741
▁Сергеевич	-11.2745
▁position	-11.2748
ринг	-11.2748
▁полюс	-11.2749
▁истина	-11.2749
▁верхней	-11.2749
ku	-11.275
ush	-11.275
▁front	-11.275
iti	-11.2752
серд	-11.2754
▁представителя	-11.2757
▁слышать	-11.2758
▁принести	-11.2758
▁least	-11.2758
▁ставить	-11.2759
энд	-11.276
▁находилось	-11.2763
-15	-11.2763
▁личных	-11.2763
бож	-11.2764
▁asked	-11.2765
▁приходят	-11.2765
▁адвокат	-11.2765
▁автоматически	-11.2766
▁движением	-11.2768
▁удары	-11.2769
cul	-11.2771
▁притом	-11.2771
ставка	-11.2772
▁распоряжении	-11.2772
атр	-11.2772
телен	-11.2777
▁эпох	-11.2777
▁газов	-11.278
▁лит	-11.278
▁представляли	-11.278
▁увидела	-11.2781
▁отражен	-11.2782
ходим	-11.2783
▁замок	-11.2785
ног	-11.2785
▁консул	-11.2785
▁организацию	-11.2785
▁1913	-11.2786
▁ряду	-11.2786
щему	-11.2787
▁Египет	-11.2787
▁учебник	-11.2787
▁важную	-11.2788
▁сердцем	-11.2788
▁становились	-11.2789
вернут	-11.2792
▁Симон	-11.2792
▁Европу	-11.2794
▁выполнил	-11.2795
▁целые	-11.2796
▁коз	-11.2798
▁77	-11.2798
▁Journal	-11.2798
▁common	-11.2798
▁посреди	-11.28
▁rule	-11.28
▁миль	-11.2801
▁эм	-11.2801
▁разбира	-11.2802
обор	-11.2807
▁Питер	-11.2807
▁растет	-11.2807
▁вовремя	-11.2808
▁табл	-11.2808
волоч	-11.2809
▁represent	-11.2809
▁ужин	-11.2811
▁ката	-11.2813
ящее	-11.2813
▁назначение	-11.2814
оград	-11.2814
▁Ще	-11.2815
▁Ход	-11.2816
▁Спасибо	-11.2817
▁вице	-11.2818
lie	-11.2818
▁сумма	-11.2819
▁States	-11.2819
▁мощь	-11.282
▁фотографии	-11.2822
▁ракеты	-11.2823
lm	-11.2824
ified	-11.2825
▁готовности	-11.2826
ента	-11.2828
▁экспорт	-11.2828
чар	-11.2829
▁автором	-11.283
тора	-11.2831
▁акцент	-11.2832
▁колонны	-11.2832
▁Бре	-11.2833
влад	-11.2834
▁принадлежат	-11.2834
▁Василия	-11.2835
▁Любовь	-11.2836
▁заключил	-11.2837
щут	-11.2839
▁социальные	-11.2839
▁Англия	-11.284
▁ri	-11.2841
ult	-11.2841
▁переведен	-11.2842
▁знаменитый	-11.2843
сі	-11.2843
len	-11.2845
▁высоту	-11.2846
▁собирались	-11.2847
equ	-11.2847
▁французов	-11.2848
ущим	-11.2848
пед	-11.285
▁профсоюз	-11.285
ступит	-11.2852
▁Впервые	-11.2858
▁контракт	-11.2859
ben	-11.2859
▁model	-11.2863
ированный	-11.2864
есси	-11.2864
▁границей	-11.2865
▁некоторой	-11.2865
▁День	-11.2866
▁зелено	-11.2867
▁родину	-11.2868
▁Am	-11.2869
▁отправиться	-11.2869
▁греха	-11.2869
▁больного	-11.2869
▁che	-11.287
оход	-11.2871
ann	-11.2872
АЗ	-11.2874
▁идеологии	-11.2876
▁поддержке	-11.2876
▁желаю	-11.2877
▁words	-11.288
4-	-11.288
анской	-11.2881
ицей	-11.2883
▁гимн	-11.2884
▁молекул	-11.2884
▁всюду	-11.2885
▁Кант	-11.2886
▁заседании	-11.2887
tan	-11.2888
▁спасение	-11.2888
▁effect	-11.2889
восток	-11.2892
▁самоубийств	-11.2895
▁mu	-11.2896
▁придумал	-11.2897
▁поздней	-11.2897
ево	-11.2897
▁исполнитель	-11.29
▁орд	-11.2901
▁собора	-11.2902
перт	-11.2903
▁смирен	-11.2904
▁заверша	-11.2904
▁помещ	-11.2904
жин	-11.2905
▁потерь	-11.2906
▁cap	-11.2907
нас	-11.2907
ГИ	-11.2907
▁движ	-11.2908
▁разделен	-11.2908
▁миллион	-11.291
▁плечо	-11.2911
▁островов	-11.2911
Под	-11.2911
▁оказать	-11.2913
▁взглядов	-11.2914
▁5)	-11.2915
▁глубины	-11.2915
Чер	-11.2915
uk	-11.2917
любопыт	-11.2917
®	-11.2917
▁королю	-11.2917
▁local	-11.2918
Нет	-11.2919
▁sign	-11.2919
рабатывать	-11.2921
▁неплохо	-11.2921
▁Вис	-11.2921
▁английских	-11.2921
▁THE	-11.2921
▁роб	-11.2923
▁легион	-11.2923
движен	-11.2924
▁заседания	-11.2925
▁читателей	-11.2926
чим	-11.2926
▁малыш	-11.2926
bel	-11.2927
▁опытом	-11.2928
▁атмосфер	-11.2929
▁чиновников	-11.2933
▁искажен	-11.2933
▁соль	-11.2934
епт	-11.2935
▁half	-11.2936
▁ступень	-11.2936
▁Член	-11.2938
▁губы	-11.2939
глад	-11.2939
▁рукописи	-11.294
eu	-11.2942
▁кочев	-11.2944
▁создали	-11.2944
eb	-11.2947
▁пола	-11.2948
▁лодок	-11.2948
▁сторонам	-11.295
▁верит	-11.2951
▁училище	-11.2952
▁квартиры	-11.2952
дикт	-11.2954
гей	-11.2954
инки	-11.2955
▁чисел	-11.2961
▁действовали	-11.2961
▁внутренний	-11.2961
▁means	-11.2961
▁незаметно	-11.2962
ург	-11.2963
▁шахт	-11.2963
▁Рам	-11.2963
uss	-11.2964
гру	-11.2964
▁ste	-11.2964
▁материально	-11.2965
▁бесед	-11.2965
▁Дума	-11.2966
▁высоким	-11.2966
тяг	-11.2967
бай	-11.2968
gn	-11.297
á	-11.297
▁разбит	-11.297
▁плечами	-11.297
треб	-11.2973
▁change	-11.2974
▁сменил	-11.2976
эд	-11.2977
▁созданию	-11.2977
▁прорыв	-11.2977
▁терп	-11.2978
▁пытаются	-11.2978
▁объяснял	-11.2981
▁местом	-11.2982
▁геолог	-11.2983
▁Круп	-11.2983
▁пункта	-11.2984
шкой	-11.2986
▁стоило	-11.2986
▁мальчика	-11.2988
▁жалоб	-11.2988
▁внизу	-11.2989
▁участвовать	-11.2989
▁винтов	-11.2989
чко	-11.299
ётся	-11.299
овав	-11.299
aw	-11.2991
меньш	-11.2991
▁производить	-11.2991
▁Роз	-11.2992
лая	-11.2993
▁приготовлен	-11.2994
▁успоко	-11.2994
ches	-11.2996
▁зубы	-11.2996
▁вождя	-11.2997
▁program	-11.2997
▁возрос	-11.2999
▁достоверн	-11.2999
▁комнат	-11.3
▁ОБ	-11.3002
маш	-11.3004
▁суб	-11.3005
col	-11.3007
▁привлечен	-11.3008
▁небольшие	-11.3008
▁распространи	-11.3008
чина	-11.3009
▁домик	-11.3009
сердеч	-11.301
▁какому	-11.301
▁умеет	-11.301
rus	-11.3011
▁поездки	-11.3011
▁секретаря	-11.3012
▁разница	-11.3012
▁ездил	-11.3014
▁лорд	-11.3015
IN	-11.3015
▁чеш	-11.3016
▁операцию	-11.3017
▁Pol	-11.3023
▁расстояния	-11.3023
▁физической	-11.3023
▁расцвет	-11.3023
▁обречен	-11.3024
ссо	-11.3026
▁кругов	-11.3026
▁выбрать	-11.3026
смеш	-11.3027
болев	-11.3027
mes	-11.3028
энерг	-11.3029
вад	-11.3029
▁европейской	-11.303
▁ресурс	-11.303
▁itself	-11.303
ju	-11.3032
государств	-11.3032
▁власт	-11.3034
▁тюрьмы	-11.3034
▁Валентин	-11.3034
▁счете	-11.3035
▁говорим	-11.3035
jo	-11.3035
▁колод	-11.3036
▁Лид	-11.3038
▁Ричард	-11.3038
▁организовал	-11.3038
▁отрази	-11.3039
АЛ	-11.3039
▁прислал	-11.3039
▁эк	-11.304
▁топор	-11.304
▁Долго	-11.3041
альность	-11.3042
▁толков	-11.3043
▁Ste	-11.3045
работки	-11.3045
▁Ап	-11.3046
▁Егор	-11.3046
▁9-	-11.3047
▁вооружения	-11.305
▁сотен	-11.3051
арев	-11.3052
▁отдых	-11.3053
▁сложных	-11.3054
▁San	-11.3055
▁постоянной	-11.3055
▁черные	-11.3056
▁Er	-11.3056
acy	-11.3058
▁занятий	-11.306
▁Кажется	-11.3061
бив	-11.3061
▁73	-11.3061
▁ввиду	-11.3063
стор	-11.3063
▁глубокой	-11.3063
▁американские	-11.3065
▁встречал	-11.3065
▁объясняет	-11.3065
дре	-11.3065
▁предельно	-11.3066
▁Леон	-11.3066
▁черв	-11.3067
▁погружен	-11.3069
▁met	-11.3069
▁брошен	-11.307
нями	-11.3072
резал	-11.3072
▁политическую	-11.3074
▁профессионал	-11.3075
▁колени	-11.3075
▁Март	-11.3077
▁превращается	-11.3077
евые	-11.308
▁входили	-11.308
rie	-11.3081
▁остан	-11.3081
▁Напротив	-11.3082
тина	-11.3082
станет	-11.3084
▁выявлен	-11.3087
▁трат	-11.3088
нрав	-11.3089
▁служили	-11.309
▁уши	-11.3091
Пер	-11.3091
▁Урал	-11.3091
спект	-11.3091
▁поддержал	-11.3091
▁проходили	-11.3092
▁милость	-11.3093
▁1906	-11.3093
чие	-11.3097
▁умение	-11.3097
▁стараясь	-11.3098
▁Откуда	-11.3099
▁разбил	-11.3101
▁сцена	-11.3102
▁Ангел	-11.3102
▁1912	-11.3103
▁поняла	-11.3105
олюбив	-11.3105
▁зритель	-11.3106
есь	-11.3108
▁Бед	-11.3109
▁совету	-11.3109
▁устранен	-11.3112
7).	-11.3112
▁Коз	-11.3114
▁столицу	-11.3115
ming	-11.3115
▁банков	-11.3117
▁value	-11.3117
▁точности	-11.3118
▁ссор	-11.3119
▁Вспомни	-11.3119
▁спуска	-11.312
▁частных	-11.312
▁золотой	-11.3121
lit	-11.3122
▁звучал	-11.3124
▁сохранения	-11.3124
▁десятка	-11.3126
▁возвращается	-11.3126
▁Попов	-11.3127
ставим	-11.3128
▁донос	-11.313
▁Мать	-11.313
▁телеграф	-11.3131
▁погибли	-11.3132
казание	-11.3133
бирают	-11.3134
▁общая	-11.3135
IS	-11.3135
▁поколение	-11.3137
▁приносит	-11.3138
▁настойчиво	-11.3138
▁достигли	-11.3138
▁пары	-11.3139
▁interest	-11.314
▁комендант	-11.3141
▁национальных	-11.3141
▁принципов	-11.3142
▁Толстого	-11.3142
ущей	-11.3143
▁60-	-11.3144
▁путешественник	-11.3145
▁повышение	-11.3146
ИЛ	-11.3146
▁владык	-11.3149
ированы	-11.3151
▁Christian	-11.3151
позна	-11.3152
▁законам	-11.3152
▁Африке	-11.3152
▁воспитыва	-11.3153
водя	-11.3154
▁Афганистан	-11.3156
▁воров	-11.3157
▁скоп	-11.3158
▁князья	-11.3158
▁карту	-11.3159
part	-11.3159
▁происходят	-11.316
▁американцы	-11.316
▁развод	-11.3161
▁испытыва	-11.3161
дже	-11.3161
▁своём	-11.3162
страда	-11.3163
▁Андре	-11.3164
служил	-11.3164
▁деревню	-11.3165
шер	-11.3165
▁Some	-11.3166
▁записал	-11.3166
▁служба	-11.3169
▁Then	-11.317
▁количеством	-11.3171
▁масон	-11.3172
▁заменить	-11.3172
▁завет	-11.3174
▁первыми	-11.3175
▁удовольствия	-11.3176
▁трудящихся	-11.3176
IV	-11.3178
▁военачальник	-11.3179
▁естественным	-11.318
▁cha	-11.3182
два	-11.3186
лые	-11.3186
крепост	-11.319
▁открыли	-11.3191
▁Маш	-11.3191
зь	-11.3192
ties	-11.3193
▁дурак	-11.3193
▁95	-11.3195
▁кладбище	-11.3195
elle	-11.3195
▁Теле	-11.3197
▁центральной	-11.3197
▁носить	-11.3198
скал	-11.3201
▁максим	-11.3201
▁Давайте	-11.3202
сос	-11.3203
▁красиво	-11.3205
▁отвечать	-11.3206
▁71	-11.3209
▁научного	-11.321
▁всякие	-11.321
ковым	-11.321
▁разрешен	-11.3213
ечных	-11.3213
▁разговоры	-11.3214
▁women	-11.3214
служеб	-11.3214
▁окружения	-11.3215
▁Вз	-11.3215
▁сорока	-11.3216
▁блеск	-11.3217
▁повернул	-11.3218
spect	-11.322
▁фокус	-11.3222
▁пятнадцать	-11.3222
▁признаков	-11.3224
▁сине	-11.3224
ута	-11.3225
▁together	-11.3226
▁full	-11.3226
▁отмечает	-11.3227
▁меняется	-11.3228
▁маленькой	-11.323
▁встречу	-11.3232
уга	-11.3233
▁специальных	-11.3233
▁клятв	-11.3233
▁Мит	-11.3234
▁наблюдение	-11.3234
▁бытие	-11.3234
доста	-11.3235
▁прицел	-11.3235
мира	-11.3238
казав	-11.3238
рать	-11.324
▁va	-11.324
еньки	-11.324
▁администрации	-11.3241
ті	-11.3242
ившиеся	-11.3242
▁полагать	-11.3243
▁брод	-11.3244
▁плох	-11.3248
▁готова	-11.3249
ві	-11.3249
▁self	-11.3249
tt	-11.3249
▁Ради	-11.3249
▁движений	-11.3249
▁чинов	-11.325
▁залива	-11.325
▁входил	-11.3252
▁смогла	-11.3252
▁парашют	-11.3253
▁следов	-11.3253
ёк	-11.3254
cell	-11.3255
▁англичане	-11.3255
▁полная	-11.3256
▁использован	-11.3256
▁листов	-11.3258
▁фирмы	-11.3258
▁строе	-11.3258
▁малых	-11.3259
▁преступление	-11.326
▁ежегодно	-11.3261
щина	-11.3261
▁событиях	-11.3262
желт	-11.3262
▁Степан	-11.3264
▁соответствующих	-11.3264
ализации	-11.3265
▁встретить	-11.3265
▁переживания	-11.3265
▁форс	-11.3265
▁прогноз	-11.3266
▁цифры	-11.3267
▁сражение	-11.3268
▁душой	-11.3268
▁Псков	-11.3269
▁Завет	-11.3269
▁Кост	-11.3271
нью	-11.3271
▁обруши	-11.3272
▁подряд	-11.3278
водят	-11.3278
▁внешнего	-11.3279
▁коррект	-11.3279
раш	-11.328
▁никуда	-11.328
▁Андрея	-11.3281
▁Цит	-11.3281
▁Понятно	-11.3284
▁хр	-11.3285
▁особым	-11.3285
ённых	-11.3287
▁спросить	-11.3288
▁рамки	-11.329
▁своя	-11.3291
▁скуч	-11.3292
▁сельского	-11.3292
▁подошли	-11.3292
Ку	-11.3294
НИК	-11.3294
▁чтение	-11.3294
чить	-11.3295
▁Уильям	-11.3295
▁обеспечивает	-11.3298
▁отнести	-11.3298
кевич	-11.3298
▁пута	-11.3298
▁окружающих	-11.33
▁мирового	-11.3301
▁ухо	-11.3302
▁удержива	-11.3303
▁СП	-11.3303
▁восприятие	-11.3303
▁охват	-11.3304
▁мяса	-11.3304
нера	-11.3305
▁нанести	-11.3306
ense	-11.3306
▁товары	-11.3306
▁French	-11.3307
▁германских	-11.3307
▁type	-11.3308
▁числом	-11.3308
▁чи	-11.3309
▁порок	-11.3311
ama	-11.3312
▁бывал	-11.3312
▁плоды	-11.3313
▁оснований	-11.3314
▁рыба	-11.3316
щины	-11.3318
еніе	-11.3318
▁прокурор	-11.3318
▁согласован	-11.3318
▁капитализма	-11.3318
▁внешним	-11.3319
▁философия	-11.3319
▁Египта	-11.3323
▁крупно	-11.3324
▁Дор	-11.3326
▁брал	-11.3326
▁галер	-11.3326
▁Шо	-11.3326
▁Африки	-11.3327
▁Рейн	-11.3327
▁платформ	-11.3329
▁светом	-11.3329
▁вдохнов	-11.3329
▁1955	-11.3329
▁Блок	-11.333
▁рассказывать	-11.3333
cz	-11.3335
▁Романов	-11.3336
очкой	-11.3336
▁Куп	-11.3338
▁Муж	-11.3338
▁обучение	-11.3339
▁английской	-11.3339
▁примеры	-11.334
ьное	-11.334
форд	-11.334
▁78	-11.3341
▁Кали	-11.3341
▁редакции	-11.3342
леч	-11.3344
▁справиться	-11.3346
▁необычно	-11.3346
лена	-11.3346
▁Нового	-11.3347
▁сообщить	-11.335
енци	-11.335
реч	-11.3353
▁непонят	-11.3353
▁лежат	-11.3354
▁Спустя	-11.3354
▁пунктов	-11.3355
ö	-11.3358
▁опубликовал	-11.3358
▁цилиндр	-11.3362
▁болезней	-11.3362
▁обращается	-11.3362
▁ошибок	-11.3362
▁прелест	-11.3364
▁документа	-11.3365
нек	-11.3366
очную	-11.3368
То	-11.337
▁грунт	-11.337
▁уча	-11.337
▁гар	-11.3373
▁соедини	-11.3373
▁рефлекс	-11.3374
▁подготовку	-11.3374
только	-11.3375
–5	-11.3375
▁зарплат	-11.3378
▁захватил	-11.338
wer	-11.338
▁животные	-11.3381
▁игрок	-11.3382
▁74	-11.3382
▁секунду	-11.3384
▁walk	-11.3386
душев	-11.3386
писывают	-11.3389
▁2011	-11.3389
ведем	-11.339
▁аромат	-11.3391
анцев	-11.3391
рюк	-11.3392
ценз	-11.3392
зда	-11.3393
▁сформирован	-11.3395
▁христианство	-11.3395
▁революционер	-11.3398
▁колос	-11.3398
топлен	-11.3399
ведению	-11.3399
▁sense	-11.3399
айт	-11.3401
▁як	-11.3401
▁правды	-11.3401
▁значении	-11.3403
▁формирование	-11.3403
pp	-11.3403
▁независимости	-11.3404
▁показатель	-11.3405
▁скандал	-11.3407
ира	-11.3409
▁чужд	-11.341
стать	-11.3412
▁основой	-11.3414
ОСТ	-11.3414
екции	-11.3414
хождения	-11.3416
▁past	-11.3417
▁исследователь	-11.3418
▁contain	-11.3418
▁принужден	-11.3418
▁аренд	-11.342
▁Europe	-11.342
▁оркестр	-11.3421
▁Последний	-11.3421
валось	-11.3423
ink	-11.3423
my	-11.3423
▁мудрости	-11.3424
▁разным	-11.3424
тельность	-11.3424
▁германской	-11.3425
▁взяла	-11.3425
▁father	-11.3425
▁Тихо	-11.3427
евая	-11.3428
▁белой	-11.343
док	-11.3431
▁согласиться	-11.3432
власт	-11.3436
▁сцен	-11.3436
tel	-11.3437
▁севере	-11.3437
▁обычным	-11.3437
▁предписан	-11.3437
▁seen	-11.3438
▁жрец	-11.3438
ami	-11.344
ava	-11.344
▁звуков	-11.344
▁архитектор	-11.3441
▁Лан	-11.3441
зол	-11.3441
▁подписал	-11.3442
▁Советском	-11.3442
естествен	-11.3445
▁привез	-11.3446
▁освоен	-11.3447
▁problem	-11.3449
▁платить	-11.345
финанс	-11.3453
▁университете	-11.3456
▁Сразу	-11.3457
▁требовали	-11.3458
▁пыш	-11.3459
лера	-11.3459
hal	-11.3459
▁вспомни	-11.346
▁направился	-11.3462
▁Отца	-11.3462
▁code	-11.3462
▁матер	-11.3462
ban	-11.3463
lor	-11.3465
▁пишут	-11.3467
гард	-11.3468
▁ожидания	-11.3468
атора	-11.3468
▁бак	-11.3468
▁оскорблен	-11.3469
▁соединение	-11.3469
▁ученым	-11.3471
▁having	-11.3473
▁довери	-11.3473
—4	-11.3474
▁прорыва	-11.3475
▁подхода	-11.3476
▁исследователи	-11.3477
▁молитв	-11.3478
▁нераз	-11.3479
чью	-11.348
▁Скоро	-11.348
▁преемник	-11.3481
кавказ	-11.3481
маг	-11.3483
chen	-11.3487
▁six	-11.3489
▁пережив	-11.3489
▁предлага	-11.3489
▁thing	-11.3489
▁неправ	-11.3491
трав	-11.3491
▁членами	-11.3492
ИЗ	-11.3492
▁Данил	-11.3493
▁выехал	-11.3495
▁рассеян	-11.3496
▁диаметр	-11.3497
▁Опять	-11.3497
▁строг	-11.3498
▁Дер	-11.3498
▁town	-11.3498
▁насчет	-11.3501
▁общую	-11.3501
▁глубину	-11.3501
▁сзади	-11.3501
▁ga	-11.3502
▁структуру	-11.3503
▁Хорош	-11.3504
пир	-11.3505
ляция	-11.3506
▁примером	-11.3506
▁сердечно	-11.3507
▁Сел	-11.3508
▁Прос	-11.3508
▁ищет	-11.3509
fl	-11.3511
▁обстановка	-11.3512
▁великие	-11.3514
▁решении	-11.3514
ообразно	-11.3515
еву	-11.3515
▁84	-11.3515
▁изготовлен	-11.3516
▁англо	-11.3516
▁Команд	-11.3517
▁половиной	-11.3519
▁сложности	-11.352
ированной	-11.352
▁становилось	-11.3521
▁выброс	-11.3523
шняя	-11.3523
чук	-11.3523
í	-11.3524
▁условие	-11.3525
▁держит	-11.3527
▁содержится	-11.3529
имости	-11.3529
▁использует	-11.3531
ably	-11.3531
▁последующие	-11.3532
▁млрд	-11.3532
rm	-11.3534
-20	-11.3534
▁сцену	-11.3538
wo	-11.3538
▁угрозы	-11.354
▁воевать	-11.3541
ische	-11.3542
▁цирк	-11.3544
рожа	-11.3546
▁румын	-11.3548
круж	-11.3548
▁канала	-11.3549
▁широкой	-11.3552
▁барабан	-11.3552
▁Древ	-11.3553
▁тяжелой	-11.3553
▁стихов	-11.3553
▁50-	-11.3554
остей	-11.3554
шних	-11.3555
▁Цель	-11.3555
пух	-11.3556
писать	-11.3559
▁Боб	-11.3559
▁исключения	-11.356
▁туч	-11.3562
гуля	-11.3563
cip	-11.3563
read	-11.3564
▁Яр	-11.3567
▁примеров	-11.3567
▁решению	-11.3567
▁adv	-11.3567
▁найдет	-11.357
▁насыщен	-11.3571
▁существовании	-11.3572
шар	-11.3573
когда	-11.3573
▁теряет	-11.3573
▁Захар	-11.3574
▁week	-11.3574
▁правителя	-11.3575
ters	-11.3576
▁научиться	-11.3576
▁Юл	-11.3577
▁единой	-11.3578
▁естеств	-11.3578
ez	-11.3579
▁тока	-11.3579
▁Какая	-11.3579
▁разрешил	-11.3581
СЯ	-11.3582
▁праздно	-11.3583
▁Рядом	-11.3584
▁Турции	-11.3585
▁мук	-11.3586
▁левом	-11.3587
▁энергией	-11.3588
вёл	-11.3588
▁выходить	-11.359
▁плацдарм	-11.3592
двинул	-11.3593
▁Бах	-11.3594
▁Pe	-11.3594
▁человеч	-11.3598
▁размеры	-11.3599
▁добыва	-11.3599
ливым	-11.3599
▁Израиль	-11.36
▁намек	-11.3601
air	-11.3603
иска	-11.3604
▁Отечеств	-11.3605
▁мудрец	-11.3607
кать	-11.3607
рожд	-11.3608
▁Опер	-11.3609
▁аэро	-11.361
ole	-11.3611
▁убежда	-11.3611
▁велика	-11.3612
▁подал	-11.3615
▁ограничения	-11.3615
▁собственность	-11.3616
▁action	-11.3617
иваться	-11.3617
light	-11.3617
▁рыбы	-11.3618
▁приняв	-11.3618
▁книгах	-11.3619
чтен	-11.3619
▁вернее	-11.362
▁Мое	-11.3623
▁1910	-11.3624
мерз	-11.3624
▁расположи	-11.3625
▁зоне	-11.3625
▁Стро	-11.3626
EN	-11.3627
▁экз	-11.3627
Кон	-11.3628
▁проводник	-11.3628
▁увидим	-11.3629
нейшим	-11.363
боя	-11.363
▁поверил	-11.3632
▁бра	-11.3632
▁Важно	-11.3635
▁задумыва	-11.3636
▁продолжала	-11.3637
▁теря	-11.3639
▁американцев	-11.364
▁российского	-11.364
▁пролетар	-11.364
▁определенным	-11.3641
▁введен	-11.3641
▁эр	-11.3642
▁anti	-11.3643
▁побег	-11.3643
▁заявления	-11.3644
▁800	-11.3644
британ	-11.3644
▁заводе	-11.3645
еру	-11.3649
еду	-11.3651
▁военнопленных	-11.3652
▁долга	-11.3652
▁Лин	-11.3654
▁рва	-11.3654
ьном	-11.3655
▁рассматриваем	-11.3655
▁замечает	-11.3659
▁яблок	-11.3659
▁88	-11.3659
▁свойство	-11.3659
▁примере	-11.366
остро	-11.366
▁дай	-11.3661
▁рейд	-11.3661
ТОР	-11.3662
ГО	-11.3662
λ	-11.3664
bor	-11.3667
▁moment	-11.3668
поряд	-11.3671
▁Брат	-11.3671
▁распада	-11.3672
▁соответствовал	-11.3672
▁соотношение	-11.3672
андер	-11.3673
▁question	-11.3673
строить	-11.3673
▁шат	-11.3673
▁свободе	-11.3674
▁видны	-11.3674
▁чтения	-11.3675
▁встретиться	-11.3675
▁Библии	-11.3676
▁печата	-11.3676
▁XXI	-11.3676
▁рассмотрен	-11.3677
▁собирать	-11.3678
дай	-11.3678
▁относиться	-11.3679
time	-11.368
▁протестант	-11.3682
▁переворот	-11.3682
▁племена	-11.3682
▁старт	-11.3682
▁слой	-11.3684
▁суммы	-11.3684
▁including	-11.3685
▁прямым	-11.3686
▁Рез	-11.3687
техник	-11.3689
▁алтар	-11.3691
▁Вып	-11.3691
▁(12	-11.3692
▁записан	-11.3693
▁контекст	-11.3694
говаривал	-11.3695
▁алкогол	-11.3699
▁враги	-11.3699
▁достойны	-11.37
▁обобщен	-11.3701
▁France	-11.3701
lk	-11.3701
▁Никогда	-11.3702
▁битве	-11.3702
▁параллельно	-11.3704
▁ударов	-11.3705
▁Пле	-11.3705
▁Ru	-11.3706
▁здорово	-11.3707
▁определенного	-11.3708
cher	-11.371
▁члена	-11.3711
▁оператор	-11.3712
▁плотно	-11.3712
забот	-11.3714
▁Пара	-11.3716
▁слышали	-11.3717
▁посол	-11.3718
▁Cor	-11.3718
▁ССР	-11.3719
▁формой	-11.3719
степен	-11.372
▁социализм	-11.372
▁течения	-11.3721
чуж	-11.3722
▁укр	-11.3723
▁молот	-11.3723
▁individual	-11.3725
▁really	-11.3726
▁посланник	-11.3726
▁еды	-11.3726
▁называемые	-11.3726
▁вопросе	-11.3727
▁руководя	-11.3729
хол	-11.373
▁скрыть	-11.3733
▁суждения	-11.3733
▁действием	-11.3734
▁хар	-11.3734
▁черный	-11.3734
▁необходимых	-11.3735
▁мечтал	-11.3735
▁обяза	-11.3736
метки	-11.3736
инка	-11.3736
its	-11.3737
▁хранил	-11.3738
▁(1)	-11.3739
▁Аллах	-11.374
▁слове	-11.374
▁перс	-11.374
шив	-11.3742
▁серб	-11.3743
зрев	-11.3743
▁Кей	-11.3743
ющуюся	-11.3745
▁consider	-11.3746
bre	-11.3746
▁Bu	-11.3746
▁Средне	-11.3747
▁директора	-11.3747
▁борту	-11.3748
▁забрал	-11.3749
поло	-11.3749
▁играют	-11.3749
▁архиепископ	-11.3749
▁произошла	-11.3749
▁условно	-11.375
▁современные	-11.3754
анский	-11.3755
дорож	-11.3755
▁лез	-11.3756
сю	-11.3757
▁tu	-11.3758
▁огромную	-11.3758
▁третьем	-11.3758
▁лиша	-11.3759
▁Томас	-11.3759
шат	-11.376
ведя	-11.376
пост	-11.3763
▁наказ	-11.3763
▁непонятно	-11.3764
ложены	-11.3765
▁Брюс	-11.3765
▁отсутствии	-11.3766
▁поспешил	-11.3766
пать	-11.3766
▁допустим	-11.3766
▁дракон	-11.3768
писка	-11.3772
▁правилам	-11.3773
▁доля	-11.3773
ane	-11.3774
СА	-11.3774
▁страдал	-11.3774
▁плоти	-11.3774
▁идёт	-11.3775
▁приглаш	-11.3775
/3	-11.3777
сыпал	-11.3777
▁животного	-11.3777
gh	-11.3778
▁лестнице	-11.3778
▁поиска	-11.3779
ега	-11.3779
вир	-11.3779
▁бас	-11.378
олит	-11.3781
ater	-11.3782
▁Позднее	-11.3782
▁позволит	-11.3783
енька	-11.3784
▁ve	-11.3785
▁деятельностью	-11.3785
▁черед	-11.3786
тюр	-11.3787
▁длиной	-11.3787
sum	-11.3788
▁распространения	-11.3788
▁собирается	-11.3788
▁provide	-11.379
▁учреждений	-11.3792
▁историки	-11.3792
ываю	-11.3793
els	-11.3793
lay	-11.3793
звезд	-11.3797
▁возвыша	-11.3798
▁подчеркива	-11.3799
▁страной	-11.3799
радост	-11.3799
ping	-11.38
▁themselves	-11.3803
▁Мик	-11.3803
▁духовных	-11.3803
▁высот	-11.3803
ываем	-11.3803
цкой	-11.3805
▁Вес	-11.3809
▁звали	-11.3811
▁функцию	-11.3811
▁социолог	-11.3812
▁ref	-11.3812
итет	-11.3814
▁поразил	-11.3816
▁стоимости	-11.3816
▁плюс	-11.3816
▁бухт	-11.3817
▁leg	-11.3818
▁мак	-11.3818
▁юноша	-11.3819
▁реже	-11.382
▁тексты	-11.3821
▁узнает	-11.3821
даст	-11.3821
ключить	-11.3821
▁National	-11.3823
▁сверка	-11.3824
▁стремились	-11.3826
▁построения	-11.3827
ries	-11.3827
▁желто	-11.3829
▁заново	-11.3829
▁избиратель	-11.383
▁конкурент	-11.3831
▁Республики	-11.3831
car	-11.3831
колеба	-11.3831
over	-11.3833
хождение	-11.3835
▁скульптур	-11.3835
▁поверить	-11.3836
▁цветы	-11.3836
▁знаков	-11.3836
▁Была	-11.3837
▁юмор	-11.3839
▁пушек	-11.3839
▁обычных	-11.384
▁кан	-11.3842
▁настаивал	-11.3842
▁способов	-11.3842
▁Гран	-11.3843
зло	-11.3843
▁Du	-11.3844
▁попытку	-11.3844
ost	-11.3844
▁произвести	-11.3844
▁нарушен	-11.3844
▁захватили	-11.3845
▁продолжи	-11.3846
▁объекты	-11.3847
▁задержива	-11.3847
Пол	-11.3848
▁фашизм	-11.3848
▁сторонников	-11.3849
▁мужество	-11.3849
▁разбор	-11.3849
▁разрушения	-11.3851
▁бить	-11.3851
▁осуществляется	-11.3853
бас	-11.3856
▁небольших	-11.3856
▁магистр	-11.3858
ПО	-11.3858
шит	-11.3859
▁совершал	-11.3859
▁Масс	-11.386
мі	-11.3862
▁митинг	-11.3865
▁падение	-11.3865
ква	-11.3866
▁Сама	-11.3867
▁свободного	-11.3869
говорил	-11.387
явлен	-11.387
▁шага	-11.387
▁животное	-11.3871
▁господство	-11.3871
ыхъ	-11.3871
▁обстановки	-11.3872
▁Существ	-11.3873
▁шок	-11.3874
▁штык	-11.3875
▁политическая	-11.3875
▁старух	-11.3879
тесь	-11.388
▁letter	-11.388
Кар	-11.3881
рбит	-11.3882
-16	-11.3884
падать	-11.3884
▁Русский	-11.3885
▁специальные	-11.3885
▁зовут	-11.3885
▁подготовка	-11.3885
▁находясь	-11.3885
▁Уж	-11.3885
цах	-11.3886
▁личным	-11.3886
▁коне	-11.3887
▁знаки	-11.3888
▁немцами	-11.3889
▁публикации	-11.3889
вшемся	-11.389
Гр	-11.3891
▁Расс	-11.3891
▁заставлял	-11.3891
▁обрыв	-11.3892
▁простые	-11.3893
ожде	-11.3893
▁Судя	-11.3894
▁видишь	-11.3894
▁камней	-11.3894
▁Реш	-11.3896
реза	-11.3896
▁ложь	-11.3898
▁Лавр	-11.3898
▁Русской	-11.3899
▁Фар	-11.3899
▁сторонник	-11.3901
ges	-11.3901
говорить	-11.3902
▁America	-11.3905
▁Говорят	-11.3906
тю	-11.3906
▁семинар	-11.3907
тельными	-11.3907
▁Ром	-11.3908
▁Ля	-11.3908
▁врачей	-11.3908
▁Величеств	-11.3908
▁conf	-11.3909
▁Золот	-11.3909
▁Велико	-11.3913
▁знакомых	-11.3915
▁Центральной	-11.3915
▁word	-11.3917
луг	-11.3918
▁руководитель	-11.3919
ковой	-11.3919
▁единственной	-11.3923
▁82	-11.3923
▁щедро	-11.3924
групп	-11.3925
▁грани	-11.3926
▁Ke	-11.3926
▁late	-11.3927
▁tri	-11.3928
▁новейш	-11.393
▁стратегии	-11.393
▁2012	-11.3931
близ	-11.3931
▁выдержал	-11.3931
▁оставлял	-11.3933
шкин	-11.3934
▁Gra	-11.3936
честву	-11.3937
▁формиру	-11.3939
скоп	-11.3942
▁nu	-11.3943
▁военная	-11.3945
▁оказываются	-11.3945
rin	-11.3945
▁общение	-11.3945
▁интеллигент	-11.3945
▁твоих	-11.3945
▁язв	-11.3946
▁считалось	-11.3947
▁special	-11.3947
▁родственников	-11.3947
-7	-11.3948
▁телефону	-11.3948
▁подготовить	-11.3949
▁обороне	-11.3949
▁отзыв	-11.395
▁продолжают	-11.3953
organ	-11.3953
дир	-11.3956
▁спасен	-11.3957
▁осмотр	-11.3957
▁перелом	-11.3957
▁торг	-11.3959
бери	-11.3962
▁81	-11.3963
▁накоплен	-11.3963
▁двигатель	-11.3965
▁Fi	-11.3966
▁личный	-11.3966
Бог	-11.3966
▁1900	-11.3967
▁горожан	-11.3968
▁рож	-11.3968
▁ушла	-11.3968
▁возвращение	-11.3969
▁посетил	-11.3969
фар	-11.3969
▁кадет	-11.397
▁истребитель	-11.3971
cho	-11.3971
▁прекрасный	-11.3972
▁фраза	-11.3973
▁саду	-11.3973
▁привела	-11.3974
▁age	-11.3974
АТЬ	-11.3975
▁старым	-11.3976
аторов	-11.3976
put	-11.3977
ничество	-11.3978
▁Самое	-11.3979
▁объедини	-11.3982
▁намерение	-11.3982
публ	-11.3982
ident	-11.3983
мона	-11.3984
▁башни	-11.3985
▁комфорт	-11.3989
▁позволял	-11.3989
▁нуждается	-11.3991
▁порох	-11.3991
rum	-11.3991
рий	-11.3993
▁эмиграции	-11.3993
gent	-11.3994
▁пропаганды	-11.3994
▁true	-11.3994
▁area	-11.3994
популяр	-11.3996
▁конкретных	-11.3997
▁переселен	-11.3999
▁террорист	-11.3999
▁фронтом	-11.4
▁Фор	-11.4001
▁царской	-11.4001
иваем	-11.4001
▁касс	-11.4003
▁(2)	-11.4004
▁длинно	-11.4004
ийским	-11.4006
▁внутренним	-11.4008
▁Капитан	-11.401
съ	-11.4011
▁образцов	-11.4011
▁12-	-11.4014
▁буржуазии	-11.4014
▁les	-11.4014
▁опасны	-11.4014
▁вывести	-11.4014
▁образца	-11.4016
юк	-11.4016
▁близким	-11.4016
▁техника	-11.4017
▁летчик	-11.4017
▁сильной	-11.4017
▁character	-11.4018
▁Яков	-11.4018
▁симпат	-11.4018
▁подарок	-11.4019
▁выдал	-11.4019
▁Федорович	-11.4019
▁пошло	-11.4019
▁idea	-11.402
дос	-11.4021
▁99	-11.4022
▁толка	-11.4022
▁убили	-11.4023
▁министерства	-11.4023
▁почве	-11.4023
▁темноте	-11.4024
▁обороня	-11.4025
▁паспорт	-11.4027
ствие	-11.4029
пли	-11.403
▁звезда	-11.4032
гас	-11.4032
падет	-11.4033
▁труды	-11.4033
▁приема	-11.4033
Свобод	-11.4034
▁недостаток	-11.4035
▁остановиться	-11.4036
▁каст	-11.4036
▁Коп	-11.4036
▁получим	-11.4036
▁Мартин	-11.4037
▁big	-11.4037
полнение	-11.4038
рыж	-11.4039
▁расширен	-11.4041
шах	-11.4041
вешен	-11.4041
енье	-11.4042
▁Ясно	-11.4043
ą	-11.4043
рест	-11.4044
▁обеща	-11.4046
▁районы	-11.4048
▁(14	-11.4049
унов	-11.4049
▁участка	-11.4049
конструир	-11.4049
НЫ	-11.4051
▁star	-11.4052
чева	-11.4053
▁угрозу	-11.4053
ога	-11.4053
▁плакал	-11.4054
хва	-11.4054
▁глух	-11.4056
айд	-11.4057
▁Советов	-11.4059
▁mass	-11.406
▁месяцы	-11.4063
▁удержать	-11.4063
▁вдов	-11.4063
моему	-11.4064
▁произошел	-11.4064
▁писала	-11.4065
▁пользовались	-11.4065
печен	-11.4065
ывание	-11.4066
поли	-11.4067
▁цепь	-11.4068
▁Воло	-11.4068
▁королем	-11.4068
трога	-11.4069
ённый	-11.4071
ственной	-11.4071
▁Раб	-11.4071
ивных	-11.4072
▁school	-11.4072
▁альбом	-11.4072
▁используются	-11.4073
▁remain	-11.4073
дил	-11.4074
▁обстановку	-11.4077
▁пассажир	-11.4077
win	-11.4077
кисл	-11.4079
▁необычайно	-11.408
▁прежних	-11.4081
▁повезло	-11.4081
▁доблест	-11.4081
▁значительные	-11.4081
▁Ирак	-11.4082
роп	-11.4083
▁счастливы	-11.4084
▁фольклор	-11.4085
▁понес	-11.4087
▁stand	-11.4089
пі	-11.4089
▁fo	-11.4089
▁подвал	-11.4089
▁прожил	-11.4091
▁динамик	-11.4091
▁снеж	-11.4092
▁эксп	-11.4092
▁милости	-11.4093
▁полз	-11.4093
▁knew	-11.4094
▁поручил	-11.4096
▁падает	-11.4096
▁able	-11.4098
▁Тул	-11.4098
▁How	-11.41
▁Решение	-11.4102
▁вызвало	-11.4104
▁вызывают	-11.4104
▁белого	-11.4104
▁мент	-11.4105
ect	-11.4105
▁Алексеевич	-11.4105
▁mis	-11.4105
▁бросился	-11.4105
▁царем	-11.4106
▁технолог	-11.4107
▁красных	-11.4107
▁ПРИ	-11.4108
истами	-11.4108
▁Республик	-11.411
▁директив	-11.411
▁радиус	-11.4111
▁черной	-11.4112
▁живописи	-11.4113
▁мужем	-11.4114
▁трубку	-11.4114
▁sta	-11.4114
▁входа	-11.4116
▁направить	-11.4117
ходящие	-11.4117
▁считаться	-11.4119
▁развивается	-11.412
▁производстве	-11.4121
▁сквер	-11.4121
▁done	-11.4123
▁Какое	-11.4123
▁восход	-11.4124
▁Балт	-11.4124
▁ранних	-11.4124
▁характеризу	-11.4127
▁yet	-11.4127
ключен	-11.4127
ili	-11.4127
люстр	-11.4127
▁казак	-11.4128
▁работала	-11.4128
▁входят	-11.4128
▁86	-11.4131
▁Впоследствии	-11.4131
сечен	-11.4132
▁Божие	-11.4133
▁музыкально	-11.4133
▁боялся	-11.4134
▁привлечь	-11.4135
▁целым	-11.4135
держать	-11.4135
▁английском	-11.4136
▁strong	-11.4136
волю	-11.4138
cer	-11.4138
▁cover	-11.4138
▁Коло	-11.4139
▁ведомств	-11.4139
yp	-11.4141
тайн	-11.4143
▁Гей	-11.4144
▁остановил	-11.4148
гут	-11.4148
меди	-11.415
▁Дол	-11.415
изировать	-11.4151
▁1,5	-11.4152
▁Князь	-11.4153
▁длинные	-11.4153
▁крах	-11.4154
▁деятелей	-11.4157
▁Chi	-11.4157
▁корне	-11.4159
лак	-11.416
▁диван	-11.416
▁sent	-11.4162
▁Государственн	-11.4162
east	-11.4164
ляя	-11.4164
▁вступить	-11.4166
есса	-11.4167
▁расходы	-11.4167
▁force	-11.4169
eck	-11.417
▁князю	-11.417
▁недостатка	-11.417
▁МО	-11.417
▁лишил	-11.417
▁технику	-11.417
▁Гус	-11.4171
▁1954	-11.4172
▁Черно	-11.4173
▁personal	-11.4173
▁овладел	-11.4174
▁Дома	-11.4174
▁лежали	-11.4174
▁why	-11.4175
▁убедиться	-11.4175
CH	-11.4176
▁field	-11.4177
▁уменьша	-11.4178
▁тормоз	-11.4178
ображен	-11.4178
ивный	-11.4179
▁думают	-11.418
▁1904	-11.4181
▁улыбкой	-11.4182
▁устремлен	-11.4183
▁определенный	-11.4184
▁объявля	-11.4184
▁штраф	-11.4187
▁восстановления	-11.4188
▁Кла	-11.4189
▁рам	-11.4189
▁частицы	-11.419
▁принесли	-11.419
▁романе	-11.4191
брав	-11.4191
▁логически	-11.4192
udi	-11.4193
▁пуга	-11.4194
▁рассмотреть	-11.4194
▁матриц	-11.4195
шить	-11.4195
▁защитить	-11.4195
▁желаем	-11.4196
▁чистой	-11.4198
лах	-11.4198
служив	-11.4199
▁природой	-11.42
нте	-11.42
▁требованиям	-11.42
▁мелоди	-11.42
ировании	-11.4201
▁обращаться	-11.4203
▁телевизор	-11.4204
▁чужой	-11.4204
▁психически	-11.4205
tric	-11.4206
▁поступать	-11.4206
▁женщине	-11.4207
▁Хуан	-11.4207
▁Федер	-11.4207
ken	-11.4208
▁воспоминаний	-11.4208
▁слову	-11.4208
▁сделав	-11.4209
офицер	-11.4209
овало	-11.421
изо	-11.4211
▁130	-11.4211
▁носили	-11.4212
ичности	-11.4212
▁боевого	-11.4212
▁критика	-11.4213
▁лом	-11.4214
ino	-11.4215
▁шу	-11.4216
▁обычной	-11.4216
▁восьм	-11.4217
▁уничтожения	-11.4218
ливость	-11.4219
очным	-11.422
▁трагедии	-11.4221
▁действуют	-11.4222
▁лечение	-11.4222
▁подробности	-11.4222
ging	-11.4223
▁пользовался	-11.4224
ДЕ	-11.4224
▁глубже	-11.4225
▁ядра	-11.4226
▁вела	-11.4226
▁Wi	-11.4227
▁фраз	-11.4227
vision	-11.4228
разному	-11.4228
▁трибун	-11.4229
▁ликвид	-11.4229
▁Францию	-11.4231
плю	-11.4231
▁прочитал	-11.4233
▁примеч	-11.4235
люсь	-11.4235
▁Руб	-11.4235
вати	-11.4237
▁answer	-11.4238
▁колебания	-11.4238
▁догмат	-11.4239
каль	-11.424
▁пропал	-11.424
▁яйца	-11.4242
▁Финляндии	-11.4242
▁оппозиции	-11.4242
▁поистине	-11.4242
▁Война	-11.4244
▁выступление	-11.4244
хлоп	-11.4246
бывал	-11.4248
▁Артур	-11.425
ній	-11.425
▁специфически	-11.4251
▁Тебя	-11.4251
льского	-11.4252
▁падал	-11.4254
▁позволяю	-11.4255
▁Mr	-11.4255
кидыва	-11.4257
-17	-11.4258
АВ	-11.4261
священ	-11.4262
Литератур	-11.4263
▁участники	-11.4264
▁Право	-11.4266
боль	-11.4267
▁плоско	-11.4269
▁казаки	-11.427
▁осуществления	-11.4271
олов	-11.4271
чак	-11.4272
человеч	-11.4276
▁Оказалось	-11.4276
▁кровати	-11.4277
овку	-11.4278
далек	-11.4278
▁молчал	-11.4278
нца	-11.4281
▁корня	-11.4281
нях	-11.4281
▁римлян	-11.4281
▁музея	-11.4282
rom	-11.4282
▁Добр	-11.4282
eth	-11.4285
НЫЕ	-11.4285
▁русско	-11.4286
▁учился	-11.4286
▁численности	-11.4287
▁Лет	-11.4288
цк	-11.4289
страш	-11.429
виде	-11.4292
▁уничтожение	-11.4293
▁тюрьму	-11.4294
▁миссии	-11.4295
жир	-11.4295
▁79	-11.4296
▁влюблен	-11.4296
▁2014	-11.4297
▁Австрии	-11.4297
▁важнейших	-11.4298
▁султан	-11.4298
▁представителями	-11.4299
▁озеро	-11.43
▁уверенно	-11.4302
ę	-11.4302
▁исследователей	-11.4302
▁соверши	-11.4303
▁Эл	-11.4306
ives	-11.4306
дак	-11.4306
стру	-11.4307
▁политическим	-11.4307
▁германского	-11.4307
▁дальнейшего	-11.4307
ged	-11.4307
▁действиями	-11.4308
▁сустав	-11.4309
фри	-11.4309
▁высота	-11.4311
▁решал	-11.4312
▁объясня	-11.4316
▁Хай	-11.4317
значен	-11.4317
ВС	-11.4317
жки	-11.4317
▁qu	-11.4318
▁taken	-11.4318
mar	-11.4319
шал	-11.4319
ька	-11.432
▁Одни	-11.4327
▁list	-11.4328
▁Северного	-11.4328
▁группировки	-11.4329
▁готовил	-11.4331
▁государственные	-11.4331
▁достоинство	-11.4332
▁твою	-11.4333
▁воспитания	-11.4334
▁колес	-11.4335
▁позволило	-11.4336
кула	-11.4336
▁воображение	-11.4337
▁следствием	-11.4338
▁мифолог	-11.4339
▁симптом	-11.4339
▁1952	-11.4339
▁решено	-11.434
▁толку	-11.434
▁Белорус	-11.4341
▁pe	-11.4341
▁увлечен	-11.4341
▁clear	-11.4342
vit	-11.4343
▁оказал	-11.4344
▁видео	-11.4344
▁военном	-11.4345
rop	-11.4345
▁гвардии	-11.4345
▁пользы	-11.4345
▁осени	-11.4346
▁смогу	-11.4346
КС	-11.4346
▁подходил	-11.4347
▁храни	-11.4349
▁бомбардир	-11.435
ically	-11.4351
▁мешает	-11.4351
шно	-11.4352
▁нейтрал	-11.4352
мѣр	-11.4353
▁бешен	-11.4353
▁метафор	-11.4355
▁маленьких	-11.4358
▁средних	-11.4358
▁угроза	-11.4359
нейших	-11.4362
▁au	-11.4363
▁комиссия	-11.4363
▁сокращен	-11.4363
-11	-11.4363
▁Рей	-11.4363
тав	-11.4364
AS	-11.4365
▁вольно	-11.4367
tical	-11.4367
▁учитывать	-11.4368
▁почв	-11.4371
▁начнет	-11.4373
▁сравнива	-11.4374
▁Жил	-11.4374
▁include	-11.4375
▁эксплуатации	-11.4376
▁исполнения	-11.4376
▁описал	-11.4377
▁живого	-11.4378
▁морали	-11.4378
tem	-11.4378
▁Стан	-11.4379
йдите	-11.4379
▁служащ	-11.438
▁рецепт	-11.4381
сле	-11.4382
[...]
