<unk>	0
<s>	0
</s>	0
[PAD]	0
[UNK]	0
[CLS]	0
[SEP]	0
[MASK]	0
,	-2.76575
.	-3.10503
▁и	-3.89428
▁в	-4.01105
а	-4.75645
▁не	-4.7625
▁на	-4.76339
▁с	-4.89252
-	-5.03568
▁что	-5.14954
▁—	-5.16838
е	-5.18171
▁«	-5.21771
и	-5.32902
▁	-5.38066
:	-5.47151
▁по	-5.48963
▁к	-5.59091
▁(	-5.61517
у	-5.6414
м	-5.66345
▁как	-5.75983
▁В	-5.76759
ы	-5.7832
▁из	-5.80632
▁the	-5.84642
▁от	-5.86334
»	-5.88172
▁за	-5.88381
▁а	-5.90493
▁–	-5.90955
▁о	-5.91129
▁его	-5.97386
s	-6.03312
▁он	-6.05064
о	-6.09527
▁у	-6.10099
ом	-6.10686
й	-6.1136
▁я	-6.19198
;	-6.22379
▁это	-6.23131
▁для	-6.25821
)	-6.2615
х	-6.27397
ов	-6.28122
▁же	-6.30192
?	-6.31778
▁но	-6.34205
▁of	-6.36738
▁то	-6.4072
▁И	-6.40932
▁все	-6.41037
▁А	-6.4287
я	-6.4604
▁до	-6.48625
▁было	-6.4897
▁при	-6.50144
▁and	-6.5543
▁или	-6.56351
!	-6.595
▁С	-6.59724
▁был	-6.60899
▁их	-6.62407
ой	-6.63168
▁так	-6.63501
то	-6.67583
▁to	-6.67586
».	-6.67618
ся	-6.68695
▁бы	-6.73095
▁г	-6.74386
▁только	-6.75132
▁-	-6.76212
ъ	-6.76339
▁a	-6.77147
▁мы	-6.77376
...	-6.78089
▁вы	-6.79762
ми	-6.80549
▁они	-6.83218
▁Но	-6.83739
▁in	-6.84601
го	-6.84719
▁под	-6.84966
ю	-6.87698
ами	-6.88735
ные	-6.89004
▁Я	-6.92862
ных	-6.93581
▁чтобы	-6.95803
ный	-6.95899
ной	-6.9673
»,	-6.98061
▁были	-6.98108
▁ее	-7.01255
▁когда	-7.02951
▁во	-7.03279
▁уже	-7.0452
▁время	-7.06134
▁еще	-7.08143
).	-7.08644
▁со	-7.11473
▁раз	-7.15939
▁На	-7.17185
ного	-7.18461
в	-7.18545
▁она	-7.19413
ка	-7.19776
▁ни	-7.20435
▁того	-7.21145
▁Он	-7.22361
▁была	-7.23003
▁если	-7.2426
▁меня	-7.24948
ная	-7.2506
с	-7.2567
▁которые	-7.26922
ли	-7.28112
▁По	-7.28568
▁об	-7.28607
ая	-7.28943
▁том	-7.29582
),	-7.29844
’	-7.29972
▁мне	-7.32448
л	-7.33122
ет	-7.33688
▁быть	-7.34545
ки	-7.35803
▁есть	-7.35828
▁про	-7.36349
ть	-7.36854
▁этого	-7.36856
▁может	-7.37423
▁чем	-7.37433
▁К	-7.38962
▁более	-7.39198
▁"	-7.39263
но	-7.39319
ого	-7.3938
▁этом	-7.40037
на	-7.4074
▁Это	-7.41102
▁ему	-7.41129
▁даже	-7.41374
▁М	-7.41399
▁У	-7.42014
▁себя	-7.43627
ах	-7.43743
т	-7.43963
▁Не	-7.44456
▁ли	-7.45017
▁года	-7.45463
ным	-7.46025
▁где	-7.47197
▁I	-7.48383
▁без	-7.48448
▁после	-7.51354
▁тем	-7.51658
▁который	-7.51867
▁можно	-7.5223
ed	-7.53542
ых	-7.54205
▁них	-7.54741
▁также	-7.55029
▁очень	-7.55115
ий	-7.55142
▁т	-7.55597
▁будет	-7.5572
▁нас	-7.57209
ые	-7.57833
ную	-7.57926
▁that	-7.61289
ия	-7.61582
ей	-7.61745
▁всех	-7.64297
▁О	-7.64375
ый	-7.65097
ное	-7.67495
ам	-7.68346
▁жизни	-7.6858
ing	-7.69932
ем	-7.70595
ие	-7.71319
▁него	-7.71412
ь	-7.71609
▁всего	-7.72341
▁“	-7.72553
▁лет	-7.72913
▁[	-7.73022
▁между	-7.73351
ым	-7.73866
▁is	-7.74015
▁себе	-7.74277
▁кто	-7.75532
ии	-7.75599
▁was	-7.7563
за	-7.7564
▁человек	-7.75829
▁этот	-7.76049
▁этой	-7.76384
ку	-7.76735
▁1	-7.76812
▁ты	-7.77186
ского	-7.77211
▁своей	-7.79148
ской	-7.79669
ую	-7.80734
▁The	-7.8236
▁Если	-7.82609
▁через	-7.82722
"	-7.83165
—	-7.83412
▁Как	-7.84018
▁один	-7.84283
▁эти	-7.84687
▁for	-7.85616
ский	-7.87328
▁За	-7.87548
▁При	-7.87752
▁нет	-7.87896
▁лишь	-7.88147
ла	-7.88822
▁пере	-7.88839
t	-7.88878
▁больше	-7.89308
не	-7.89515
▁им	-7.91176
сти	-7.92516
d	-7.92655
▁над	-7.93166
▁П	-7.93368
н	-7.93631
ном	-7.94208
В	-7.9453
▁людей	-7.94662
ию	-7.95873
▁там	-7.96015
▁своих	-7.96489
ными	-7.97067
e	-7.97235
▁году	-7.97409
▁2	-7.97743
му	-7.98206
ют	-7.98447
к	-7.9928
▁Так	-7.99308
▁несколько	-7.99383
▁свою	-8.00555
'	-8.00575
▁Г	-8.00598
▁сказал	-8.01367
▁with	-8.01767
▁перед	-8.01886
▁нам	-8.03126
▁as	-8.03272
▁много	-8.03355
▁времени	-8.03391
]	-8.04012
▁которых	-8.0441
▁потому	-8.04607
д	-8.04768
▁против	-8.05033
▁человека	-8.05493
▁on	-8.06176
▁Мы	-8.0625
лись	-8.07554
▁этих	-8.07763
ок	-8.08022
▁здесь	-8.08061
▁образом	-8.08289
▁день	-8.09466
▁своего	-8.09812
/	-8.10384
▁it	-8.1059
▁тогда	-8.10755
ется	-8.10916
ое	-8.11267
▁просто	-8.13244
▁Н	-8.13396
▁всегда	-8.13512
А	-8.13645
▁тот	-8.13842
С	-8.14799
▁Да	-8.14864
им	-8.15009
▁да	-8.15096
▁которой	-8.15138
ке	-8.15275
▁Л	-8.15531
▁сам	-8.15622
▁других	-8.15734
▁которая	-8.15815
▁вот	-8.16574
▁свои	-8.1661
▁Д	-8.16964
▁ним	-8.17048
▁Когда	-8.17305
▁Все	-8.18253
сть	-8.18569
▁Однако	-8.19188
▁два	-8.19469
▁Т	-8.19689
▁A	-8.20012
▁Они	-8.20247
▁войны	-8.20581
▁Вы	-8.21049
▁=	-8.21389
п	-8.21494
a	-8.22361
▁жизнь	-8.23056
▁4	-8.23527
их	-8.23812
y	-8.2407
▁be	-8.24313
(	-8.24467
▁хотя	-8.24708
▁тех	-8.24929
▁является	-8.25067
▁ничего	-8.25234
ло	-8.25349
▁теперь	-8.25488
г	-8.25748
▁те	-8.26102
ить	-8.27054
▁люди	-8.27149
▁3	-8.27638
▁случае	-8.28005
б	-8.28173
▁by	-8.28357
ит	-8.28554
▁России	-8.28678
▁S	-8.28684
по	-8.28809
▁именно	-8.28835
ны	-8.28977
▁Что	-8.3047
▁стал	-8.30657
ен	-8.31048
р	-8.31061
er	-8.31233
▁тоже	-8.31541
▁5	-8.31698
▁п	-8.31837
лся	-8.32029
▁Б	-8.32111
▁почти	-8.33201
▁собой	-8.33311
▁he	-8.33423
ться	-8.33453
▁такой	-8.34068
лась	-8.34193
▁вас	-8.34381
2	-8.34525
▁надо	-8.34582
▁стороны	-8.3459
▁No	-8.34877
▁д	-8.35062
▁мог	-8.35161
ская	-8.35362
▁Ф	-8.36238
ских	-8.3764
”	-8.37642
i	-8.37774
ly	-8.38982
▁his	-8.39651
▁потом	-8.39693
▁другой	-8.40045
▁которого	-8.40589
▁три	-8.4108
▁p	-8.41182
n	-8.41236
▁вместе	-8.41346
▁дело	-8.41352
▁должны	-8.41563
▁всем	-8.41566
▁at	-8.42129
▁ней	-8.42638
▁одной	-8.42838
▁могут	-8.42969
▁въ	-8.42982
▁нужно	-8.43
▁свое	-8.43034
▁Вот	-8.43078
ские	-8.43217
▁from	-8.43379
▁Она	-8.43398
▁Из	-8.44026
▁двух	-8.44044
И	-8.44179
▁had	-8.44518
▁части	-8.44727
▁10	-8.45064
▁Для	-8.45301
▁должен	-8.45384
▁тому	-8.45395
▁пока	-8.45908
▁тут	-8.45915
ются	-8.46026
▁you	-8.47262
▁часть	-8.47668
или	-8.47715
▁P	-8.48092
▁вам	-8.48825
▁которое	-8.49213
ность	-8.49376
▁После	-8.49377
▁Его	-8.4943
▁ко	-8.4969
ни	-8.50234
▁or	-8.5112
▁армии	-8.51268
▁своим	-8.513
▁6	-8.5286
▁мир	-8.53359
▁какой	-8.53673
▁место	-8.54174
▁другие	-8.54299
▁сейчас	-8.54326
▁Во	-8.54595
▁этим	-8.54643
▁СССР	-8.54825
▁not	-8.54838
▁От	-8.54939
ись	-8.5528
▁чего	-8.5539
▁слова	-8.55501
▁are	-8.55763
та	-8.56393
▁эту	-8.56799
▁одного	-8.56823
▁an	-8.57138
▁оно	-8.57154
▁свой	-8.57197
▁эта	-8.57584
те	-8.57736
от	-8.57747
▁м	-8.57977
кой	-8.58206
ин	-8.58784
▁сказать	-8.58793
▁Р	-8.58976
О	-8.59109
▁ей	-8.59161
ности	-8.59366
ском	-8.59714
▁хорошо	-8.59715
▁истории	-8.59765
і	-8.59777
▁говорит	-8.59902
▁друг	-8.6005
ил	-8.60096
▁мира	-8.60511
>	-8.61083
ко	-8.61135
П	-8.61287
▁затем	-8.61358
▁вопрос	-8.61492
ѣ	-8.61494
▁никогда	-8.61517
ния	-8.61615
▁тебя	-8.61752
К	-8.6185
1	-8.61888
М	-8.62067
▁р	-8.62117
нибудь	-8.62388
ыми	-8.62694
▁имеет	-8.62862
▁одно	-8.63121
▁стали	-8.63131
Я	-8.63216
al	-8.63835
▁совершенно	-8.63903
▁часто	-8.64204
es	-8.64975
ному	-8.66829
▁власти	-8.66892
▁всё	-8.67232
▁15	-8.67295
▁год	-8.67398
▁особенно	-8.67765
▁менее	-8.68006
▁работы	-8.68171
o	-8.68343
Г	-8.68467
▁среди	-8.68513
лось	-8.69775
ят	-8.70007
▁this	-8.70188
▁будут	-8.70553
ш	-8.70687
▁were	-8.70924
ков	-8.71059
▁/	-8.71836
p	-8.71883
▁have	-8.71907
▁снова	-8.72079
▁ведь	-8.72448
▁7	-8.7253
▁тебе	-8.72629
▁сразу	-8.72831
▁8	-8.72964
▁могли	-8.73166
▁До	-8.73357
▁которую	-8.73724
▁de	-8.74368
▁е	-8.74576
▁самом	-8.7464
▁б	-8.7474
ев	-8.75081
▁силы	-8.75758
▁конце	-8.75943
ние	-8.76275
▁Ну	-8.7707
▁следует	-8.77194
▁конечно	-8.77508
▁пор	-8.77657
▁например	-8.77679
Л	-8.77689
▁Поэтому	-8.77981
▁нашей	-8.78254
▁такое	-8.78367
▁Е	-8.78386
▁де	-8.78493
▁12	-8.78538
▁•	-8.78969
▁котором	-8.79044
▁связи	-8.79527
У	-8.79575
Д	-8.79627
▁сделать	-8.79831
▁действительно	-8.79844
▁нем	-8.79984
▁таким	-8.8052
▁вообще	-8.80525
Т	-8.81005
m	-8.81015
▁C	-8.81211
▁сил	-8.81314
▁II	-8.81372
▁этому	-8.81402
▁совсем	-8.81415
ское	-8.81556
▁мало	-8.81595
!»	-8.81878
▁однако	-8.82023
▁быстро	-8.82039
▁лучше	-8.82279
▁рас	-8.82478
▁In	-8.82563
▁всей	-8.82648
▁самого	-8.83407
▁около	-8.83513
▁Про	-8.83689
▁таких	-8.83757
S	-8.838
▁прежде	-8.83824
он	-8.83873
вер	-8.84045
▁той	-8.841
▁почему	-8.84527
▁каждый	-8.8463
▁деле	-8.84998
▁20	-8.85629
3	-8.85751
ч	-8.86033
▁R	-8.86479
ясь	-8.86578
▁города	-8.86623
▁момент	-8.86779
.)	-8.86881
▁такие	-8.86915
▁две	-8.8693
▁16	-8.86937
ась	-8.87039
▁but	-8.87139
▁годы	-8.87166
▁B	-8.87366
▁17	-8.87369
да	-8.87371
ив	-8.87449
▁дня	-8.87596
▁ними	-8.87708
Н	-8.87844
Б	-8.8792
▁поэтому	-8.88274
▁То	-8.88313
▁н	-8.88354
▁страны	-8.88443
▁поскольку	-8.88478
▁M	-8.88548
▁одна	-8.89584
ль	-8.89753
▁дома	-8.89779
ось	-8.89818
ец	-8.90442
з	-8.90513
▁9	-8.90678
▁//	-8.91148
▁Ты	-8.91246
цы	-8.91259
▁стало	-8.91342
▁смерти	-8.91557
▁город	-8.91576
скую	-8.9163
▁which	-8.91668
ство	-8.91689
▁Под	-8.91805
ком	-8.91887
▁дела	-8.91899
▁мой	-8.92021
ому	-8.92053
▁they	-8.92181
▁пути	-8.92183
ля	-8.92308
▁руки	-8.92371
Ф	-8.92405
en	-8.92686
ну	-8.92705
ж	-8.92996
f	-8.93042
▁гг	-8.9318
▁Э	-8.93235
▁своем	-8.93525
▁нельзя	-8.93707
▁качестве	-8.94107
in	-8.94136
▁всю	-8.94167
▁all	-8.94349
ским	-8.95007
r	-8.95431
x	-8.95432
▁войск	-8.95446
▁само	-8.95489
▁мере	-8.95513
▁США	-8.95684
▁J	-8.9573
ва	-8.95775
▁многие	-8.96038
*	-8.96294
▁1.	-8.9632
либо	-8.96773
▁наши	-8.96778
▁века	-8.96891
▁D	-8.96942
▁we	-8.97235
ти	-8.97295
▁their	-8.97436
▁L	-8.97464
4	-8.97785
▁её	-8.97924
▁период	-8.97956
ова	-8.9796
▁„	-8.97972
);	-8.98019
▁начала	-8.98277
▁области	-8.98342
ф	-8.98787
▁one	-8.98833
▁говорил	-8.98879
▁весьма	-8.99039
▁слишком	-8.99312
▁первый	-8.99345
▁ж	-8.99713
".	-8.99835
▁делать	-8.99936
^	-9.00091
▁Там	-9.00096
▁V	-9.00151
▁виде	-9.00172
ства	-9.00294
b	-9.00412
са	-9.00423
▁достаточно	-9.00442
▁которым	-9.00463
▁будто	-9.00518
Х	-9.00543
▁многих	-9.00574
–	-9.00702
▁2.	-9.0073
▁течение	-9.0122
▁F	-9.01408
▁ибо	-9.01756
▁должно	-9.01853
▁внимание	-9.01861
▁роль	-9.01991
▁наших	-9.01998
▁весь	-9.02078
▁тысяч	-9.02211
ник	-9.02281
▁генерал	-9.02288
▁такого	-9.02335
▁возможность	-9.02373
c	-9.03055
▁H	-9.03084
▁G	-9.03112
▁пред	-9.03141
▁та	-9.03163
▁второй	-9.03248
ст	-9.03734
A	-9.0383
▁куда	-9.04141
▁дней	-9.04376
▁ещё	-9.04417
▁E	-9.04654
re	-9.04865
▁глаза	-9.04892
ер	-9.05132
▁can	-9.05341
▁выше	-9.05396
▁14	-9.05405
us	-9.05457
Р	-9.05639
▁11	-9.05672
▁должна	-9.05808
▁мире	-9.0591
▁назад	-9.06396
ма	-9.06524
▁вполне	-9.06541
▁никто	-9.0692
▁путь	-9.07206
▁противника	-9.07361
▁so	-9.07437
▁+	-9.07461
▁свет	-9.07692
ц	-9.07705
из	-9.07719
ня	-9.07816
овой	-9.08125
I	-9.08319
▁большой	-9.08797
C	-9.09077
▁‘	-9.09092
l	-9.09222
▁сторону	-9.09458
▁значит	-9.09705
▁уж	-9.09782
▁нее	-9.09863
▁N	-9.10026
▁(«	-9.10222
▁месте	-9.10249
▁развития	-9.10618
▁столь	-9.10684
▁кого	-9.10906
до	-9.11087
ение	-9.11093
▁нашего	-9.11735
▁і	-9.11806
▁земли	-9.11833
­	-9.11852
э	-9.11939
▁T	-9.1194
▁системы	-9.12171
▁трех	-9.12235
▁30	-9.12298
ать	-9.12312
▁Об	-9.12393
▁некоторые	-9.12529
вы	-9.12626
▁имя	-9.1265
▁слово	-9.12706
▁Тогда	-9.12837
▁партии	-9.1304
▁группы	-9.13159
▁какие	-9.13162
при	-9.13296
▁стала	-9.13297
▁возможно	-9.13326
▁начале	-9.13457
ешь	-9.13513
▁Здесь	-9.13525
▁кроме	-9.13745
▁результате	-9.13769
▁числе	-9.13896
0	-9.13909
▁13	-9.13915
см	-9.14029
▁ответ	-9.1404
g	-9.14123
▁наиболее	-9.14148
▁либо	-9.14178
▁з	-9.14242
▁Мне	-9.14309
▁работу	-9.14351
▁d	-9.14425
▁писал	-9.14543
▁детей	-9.14546
▁He	-9.14698
▁говорить	-9.14724
▁мысли	-9.14732
мер	-9.14906
6	-9.14938
▁помощью	-9.1495
▁л	-9.15091
ал	-9.1513
▁др	-9.1523
▁значение	-9.1524
▁Только	-9.15256
k	-9.15299
▁действия	-9.15314
▁вокруг	-9.15333
▁войска	-9.15448
▁х	-9.15614
?»	-9.15675
▁идет	-9.15752
сь	-9.1593
▁Бог	-9.15952
▁самой	-9.161
ость	-9.16129
▁Х	-9.16211
▁Ш	-9.16383
▁Нет	-9.16427
▁нему	-9.16583
▁сегодня	-9.16872
▁удалось	-9.16997
▁прямо	-9.17008
▁своими	-9.17121
▁стоит	-9.17126
ра	-9.17144
▁Таким	-9.17176
▁W	-9.17187
▁точно	-9.17268
▁Теперь	-9.1732
ками	-9.17545
стью	-9.17767
ту	-9.17792
▁(19	-9.17852
▁места	-9.17942
▁дел	-9.17996
▁иногда	-9.18142
▁наш	-9.1846
▁Ю	-9.18527
▁no	-9.18682
▁необходимо	-9.18762
▁одним	-9.18848
▁общества	-9.1907
...»	-9.19144
▁книги	-9.19237
▁f	-9.19263
▁Со	-9.1931
▁рода	-9.19366
▁начал	-9.19401
▁пре	-9.19524
▁стр	-9.19558
B	-9.19636
▁кажется	-9.19675
▁знаю	-9.19698
5	-9.20029
▁равно	-9.20241
▁народа	-9.20354
▁довольно	-9.20414
▁Эти	-9.20541
▁см	-9.20627
▁знал	-9.20807
▁would	-9.20812
▁ту	-9.20831
▁Этот	-9.20835
▁долго	-9.20876
▁самое	-9.20959
▁сколько	-9.21119
ман	-9.21276
ина	-9.21276
▁рядом	-9.2128
▁легко	-9.21289
▁3.	-9.21444
▁получил	-9.21511
▁точки	-9.21602
▁полностью	-9.21632
▁самым	-9.21736
▁право	-9.21766
▁дом	-9.2183
де	-9.21858
▁степени	-9.22038
▁наконец	-9.22044
▁сами	-9.2212
ца	-9.22407
ости	-9.22866
▁государства	-9.23152
▁зрения	-9.23214
▁Германии	-9.23269
Е	-9.23438
",	-9.23462
▁народ	-9.2372
ле	-9.24066
▁вдруг	-9.24224
▁who	-9.2429
▁характер	-9.24313
га	-9.24322
▁Тем	-9.24461
▁обычно	-9.24633
Ш	-9.24646
▁деятельности	-9.24697
▁отношения	-9.25026
▁могу	-9.25194
▁хотел	-9.25316
▁часов	-9.25337
▁тела	-9.25478
▁Бога	-9.2552
▁вновь	-9.2567
▁воды	-9.25728
нее	-9.25828
▁out	-9.25907
D	-9.26064
▁друга	-9.26132
z	-9.26155
▁more	-9.26215
ша	-9.26264
▁положение	-9.26285
З	-9.2634
▁спросил	-9.26358
▁K	-9.26402
▁me	-9.26483
ились	-9.26753
цев	-9.26797
▁силу	-9.27065
под	-9.27178
▁э	-9.27229
▁одну	-9.27295
▁одном	-9.27372
▁возможности	-9.27449
▁новые	-9.27487
▁имени	-9.27629
▁опять	-9.27857
▁власть	-9.2786
ился	-9.27907
▁происходит	-9.27945
▁конца	-9.28047
▁25	-9.28114
ья	-9.28116
▁первой	-9.28146
▁her	-9.28149
тер	-9.28477
▁Кроме	-9.28505
ши	-9.2853
ан	-9.28621
▁>	-9.28628
али	-9.28712
во	-9.28728
▁воз	-9.28874
▁меньше	-9.29096
or	-9.29103
▁дальше	-9.29277
ре	-9.29278
▁становится	-9.29508
таки	-9.29573
ты	-9.29663
▁моей	-9.29681
▁been	-9.29843
th	-9.29991
▁постоянно	-9.30021
7	-9.30052
▁самых	-9.30142
▁ответил	-9.30146
▁своему	-9.30152
▁движения	-9.30169
▁вид	-9.30368
▁земле	-9.31122
▁состав	-9.31362
▁отношении	-9.31436
ится	-9.31454
h	-9.31564
ик	-9.31577
▁сильно	-9.31697
▁солдат	-9.32142
▁*	-9.3232
ation	-9.3256
▁ф	-9.32935
▁s	-9.32964
▁условиях	-9.33234
▁голову	-9.33339
▁немного	-9.3334
▁Эта	-9.33513
▁З	-9.33524
ою	-9.33668
M	-9.33879
▁другим	-9.34138
▁up	-9.34192
[	-9.34636
▁сын	-9.34697
▁речь	-9.3474
▁стать	-9.34919
▁далеко	-9.34991
овых	-9.35302
▁Ведь	-9.35348
▁являются	-9.35404
▁иметь	-9.35539
▁полу	-9.35605
ите	-9.3562
u	-9.35637
▁нами	-9.35652
▁найти	-9.35671
▁фронта	-9.35675
P	-9.35898
ис	-9.36247
▁разных	-9.36451
▁четыре	-9.36535
▁организации	-9.36568
▁It	-9.36789
H	-9.36849
▁населения	-9.36872
▁пришлось	-9.36921
▁раньше	-9.37073
ія	-9.37133
▁известно	-9.37216
▁число	-9.37231
же	-9.3725
w	-9.37325
▁деньги	-9.37393
▁my	-9.37437
▁понять	-9.37587
▁видел	-9.37596
скому	-9.3765
▁решение	-9.37925
L	-9.38052
F	-9.38262
▁очередь	-9.38277
ск	-9.38325
овые	-9.38454
▁мая	-9.38807
▁стран	-9.39033
▁about	-9.39044
▁новых	-9.39104
▁18	-9.39117
▁жить	-9.39144
ней	-9.39214
нии	-9.39239
▁количество	-9.39269
▁дни	-9.3934
▁into	-9.39609
▁говоря	-9.39627
▁мной	-9.3965
▁помощи	-9.39758
▁некоторых	-9.39942
▁цели	-9.40042
▁имел	-9.40068
▁тело	-9.40261
▁Еще	-9.40282
ду	-9.40286
▁has	-9.40299
▁работа	-9.40317
▁them	-9.40417
ющие	-9.40524
ения	-9.40568
▁русских	-9.40578
▁съ	-9.40586
▁пять	-9.40769
▁минут	-9.40777
▁благодаря	-9.40784
ion	-9.40835
▁находится	-9.41226
▁могла	-9.41286
▁работе	-9.41387
is	-9.41478
▁ч	-9.41661
ут	-9.41926
По	-9.4195
ющих	-9.41975
it	-9.42191
про	-9.4222
ний	-9.42316
▁См	-9.4244
▁действий	-9.42678
▁do	-9.42764
▁бес	-9.42814
▁невозможно	-9.42955
▁ясно	-9.43022
▁августа	-9.43154
▁море	-9.43429
▁Затем	-9.43491
▁will	-9.43491
▁t	-9.43527
▁скорее	-9.43547
▁гор	-9.43823
▁июля	-9.44068
мы	-9.44071
▁виду	-9.44088
ической	-9.44153
▁(18	-9.44219
ic	-9.44223
▁Кто	-9.44227
▁him	-9.44261
▁стране	-9.4429
вин	-9.44294
8	-9.44375
ше	-9.44413
▁сделал	-9.44454
▁Александр	-9.44468
▁внутри	-9.4447
ющий	-9.44547
▁состоянии	-9.4469
об	-9.45036
ила	-9.45067
j	-9.45083
▁одновременно	-9.45122
▁III	-9.45127
▁другом	-9.45165
▁июня	-9.45339
▁знает	-9.45358
▁Ч	-9.45583
▁there	-9.45591
ировать	-9.45609
▁имеют	-9.45665
▁самый	-9.45861
▁туда	-9.4599
▁мои	-9.46025
▁сама	-9.46133
G	-9.46158
▁права	-9.46198
▁трудно	-9.46247
▁'	-9.46253
▁каким	-9.46379
▁Именно	-9.46667
▁чуть	-9.46692
ers	-9.46702
▁its	-9.46729
▁говорят	-9.46758
▁словно	-9.46867
▁Москве	-9.46907
▁ночь	-9.46987
▁давно	-9.47008
его	-9.47074
▁различных	-9.47112
па	-9.47181
▁процесс	-9.47402
v	-9.47527
▁смысле	-9.4757
▁землю	-9.4763
▁иначе	-9.4767
▁нового	-9.47688
▁образ	-9.47697
▁любви	-9.47709
▁территории	-9.47715
▁решил	-9.47946
▁ст	-9.47996
▁сердце	-9.4805
ием	-9.48053
▁дать	-9.48067
▁time	-9.48081
▁дивизии	-9.48081
▁каждого	-9.48235
ников	-9.48271
иться	-9.48407
▁другого	-9.48538
▁Раз	-9.48545
▁Франции	-9.48711
ье	-9.49068
Э	-9.49331
ат	-9.49353
▁отец	-9.49365
▁русской	-9.49415
▁Хотя	-9.49435
▁вместо	-9.49669
▁Конечно	-9.49714
ич	-9.49724
ди	-9.49734
▁руку	-9.49737
▁хоть	-9.49784
▁e	-9.49914
▁X	-9.4993
▁существует	-9.50008
▁первого	-9.50158
T	-9.50178
▁скоро	-9.50248
▁которому	-9.50478
▁слов	-9.50525
▁революции	-9.50624
▁души	-9.50648
Ч	-9.50678
▁other	-9.50683
▁Даже	-9.50874
▁взгляд	-9.50893
▁when	-9.50911
▁удар	-9.51009
▁Ж	-9.51118
ум	-9.51132
ги	-9.51204
▁сентября	-9.51214
ическая	-9.51286
▁практически	-9.51288
ее	-9.51302
▁Чтобы	-9.51389
со	-9.5149
▁c	-9.51626
ией	-9.5169
▁па	-9.51842
ель	-9.51889
▁моя	-9.5203
▁ради	-9.52116
▁закон	-9.52221
▁марта	-9.52222
on	-9.52242
▁лицо	-9.52384
▁Потом	-9.52494
▁октября	-9.52518
род	-9.52594
раз	-9.5267
_	-9.52739
le	-9.52774
▁управления	-9.52864
▁решения	-9.52879
▁re	-9.52909
▁культуры	-9.5292
▁дал	-9.52965
▁новый	-9.53003
йте	-9.53032
че	-9.53134
ве	-9.53374
▁новой	-9.53442
▁поле	-9.53444
▁факт	-9.53547
▁несмотря	-9.53719
▁какое	-9.53811
ью	-9.54072
▁целью	-9.54094
▁автор	-9.5416
▁отца	-9.54366
▁ряд	-9.54388
▁главе	-9.54577
▁церкви	-9.54612
вший	-9.54617
▁гораздо	-9.54734
▁50	-9.54805
▁22	-9.54873
▁помощь	-9.55068
си	-9.55094
▁<	-9.55112
▁пишет	-9.5524
▁другими	-9.55461
▁1-	-9.5554
▁всеми	-9.55544
▁получить	-9.55572
ика	-9.55756
▁голос	-9.55848
ках	-9.55914
▁мысль	-9.56039
▁война	-9.5605
▁моего	-9.56119
▁прав	-9.56198
▁Их	-9.56199
▁{	-9.56237
▁Ни	-9.56302
ри	-9.56317
▁Через	-9.56337
▁первых	-9.56413
▁19	-9.5661
чи	-9.56704
▁правительства	-9.56795
іе	-9.56941
▁нескольких	-9.57022
▁also	-9.57147
▁относительно	-9.57183
▁your	-9.57327
▁можем	-9.57327
би	-9.5734
▁проблемы	-9.5737
▁%	-9.57419
▁лица	-9.5743
▁столько	-9.57534
ры	-9.57635
лю	-9.57662
▁руках	-9.57779
▁полка	-9.5783
▁b	-9.57844
▁смысл	-9.5801
▁вопросы	-9.58104
ического	-9.58131
▁такая	-9.58353
▁годов	-9.58364
▁типа	-9.58389
▁дает	-9.58391
ек	-9.58437
▁if	-9.58514
▁самые	-9.58784
▁опыт	-9.58828
▁военных	-9.58926
се	-9.58941
▁n	-9.58953
су	-9.59001
R	-9.59111
▁формы	-9.59309
▁план	-9.59342
▁than	-9.59358
▁час	-9.59433
Не	-9.59615
ические	-9.59881
▁et	-9.60075
▁тыс	-9.60191
E	-9.60194
▁вперед	-9.60263
▁m	-9.60345
▁24	-9.60396
▁100	-9.60454
нь	-9.60477
▁труда	-9.60612
ity	-9.60657
▁язык	-9.60695
▁ноября	-9.60704
▁only	-9.60794
▁2-	-9.6081
ист	-9.60829
▁21	-9.60936
▁40	-9.60954
▁настолько	-9.6096
▁основе	-9.60989
▁движение	-9.61017
▁ум	-9.61112
um	-9.61116
▁причем	-9.61119
ро	-9.61541
▁января	-9.61585
▁письмо	-9.61601
▁история	-9.61607
▁сих	-9.61644
нов	-9.61698
▁вся	-9.61741
▁Почему	-9.61794
▁казалось	-9.62052
.”	-9.62075
▁Один	-9.62116
▁использовать	-9.62265
▁4.	-9.62333
▁what	-9.62354
J	-9.62401
▁счет	-9.62538
▁любой	-9.62547
▁оказался	-9.62682
an	-9.62935
ру	-9.62997
▁числа	-9.63011
▁Например	-9.63144
▁вовсе	-9.6316
▁знать	-9.63173
илась	-9.6319
▁28	-9.63243
▁состояние	-9.63262
▁пол	-9.63288
▁непосредственно	-9.63366
▁система	-9.63381
V	-9.63426
▁апреля	-9.63498
рис	-9.63517
st	-9.63525
▁жил	-9.6361
=	-9.63646
▁Пере	-9.63719
▁пришел	-9.63768
▁вскоре	-9.6382
▁людьми	-9.63888
▁никаких	-9.63917
▁ЦК	-9.63957
▁правительство	-9.64123
▁могло	-9.64126
il	-9.64182
▁увидел	-9.64192
▁la	-9.64262
ча	-9.64311
ор	-9.64326
▁войне	-9.64383
▁начали	-9.64398
▁Может	-9.64406
▁брат	-9.64409
▁путем	-9.64477
▁декабря	-9.64484
▁сначала	-9.6458
▁частности	-9.6463
▁впервые	-9.64632
ян	-9.64888
ическое	-9.65117
▁людям	-9.65148
▁some	-9.65257
▁будем	-9.65339
▁she	-9.65362
кин	-9.65371
▁множество	-9.65463
▁борьбы	-9.65488
▁вещи	-9.65497
▁имели	-9.6551
▁районе	-9.65547
▁работать	-9.65629
вид	-9.65665
▁1941	-9.65668
▁целом	-9.65848
▁женщины	-9.65895
▁форме	-9.65909
▁другое	-9.65977
▁случаях	-9.66005
▁could	-9.66089
ющего	-9.66194
▁сказала	-9.66238
На	-9.66272
▁любовь	-9.66273
ники	-9.66274
▁мировой	-9.66282
9	-9.66328
▁огонь	-9.66337
▁матери	-9.66396
ических	-9.66523
▁человеком	-9.66628
▁пусть	-9.6676
K	-9.67007
ос	-9.6705
▁over	-9.67116
ический	-9.67126
▁первые	-9.6713
▁принять	-9.67532
▁буду	-9.67577
▁23	-9.67595
▁книге	-9.6769
to	-9.67796
вшись	-9.67996
▁сына	-9.68022
▁связь	-9.68064
▁рабочих	-9.6812
ar	-9.683
ia	-9.68426
▁едва	-9.68512
гу	-9.68529
▁видеть	-9.68752
▁род	-9.6882
▁двумя	-9.69047
ба	-9.69063
▁видно	-9.69158
ики	-9.6927
изм	-9.69307
▁готов	-9.69319
▁войну	-9.69342
▁словами	-9.69378
▁Сталин	-9.69541
▁цвет	-9.69635
▁всему	-9.69665
▁домой	-9.69734
▁явно	-9.69745
лен	-9.69755
▁26	-9.69788
▁случай	-9.6983
▁представляет	-9.69849
▁армия	-9.69878
▁первую	-9.69937
▁последние	-9.6994
▁Ц	-9.70056
́	-9.70089
юсь	-9.70259
ски	-9.70325
–19	-9.7033
▁идти	-9.70366
▁two	-9.70381
▁линии	-9.70397
енко	-9.70543
лин	-9.7084
▁означает	-9.70957
.).	-9.70991
▁Кон	-9.70991
▁говорили	-9.71121
▁Иван	-9.71132
ями	-9.71197
вшихся	-9.71223
▁This	-9.7128
▁женщин	-9.71599
▁правда	-9.71639
▁хочет	-9.71739
▁поводу	-9.71834
▁русского	-9.71897
▁которыми	-9.72059
▁доме	-9.72078
W	-9.72136
мен	-9.72192
▁Сам	-9.7226
▁Или	-9.72271
▁примерно	-9.72327
ими	-9.72387
нию	-9.72469
▁отношение	-9.72475
▁постепенно	-9.72483
ско	-9.72625
▁мнению	-9.72661
▁Ко	-9.72719
▁Ар	-9.72942
20	-9.72976
▁like	-9.72991
▁Кор	-9.73053
▁вести	-9.73074
te	-9.73168
▁каких	-9.73207
▁времена	-9.7331
▁искусства	-9.73312
▁царя	-9.73339
▁правило	-9.73433
▁Можно	-9.73478
▁главным	-9.7353
▁энергии	-9.73561
▁касается	-9.73611
▁штаба	-9.73628
бер	-9.73656
▁хочу	-9.73658
▁начало	-9.73711
▁мин	-9.73996
▁наше	-9.74065
▁27	-9.74069
▁остается	-9.74207
▁понял	-9.7429
▁ре	-9.74355
▁дети	-9.74468
▁смерть	-9.74512
▁направлении	-9.74708
▁состоит	-9.75022
▁делает	-9.75025
▁мать	-9.75051
▁влияние	-9.75061
▁вероятно	-9.75062
▁денег	-9.75062
▁цель	-9.7508
▁участие	-9.75108
▁моря	-9.75165
▁название	-9.75201
ста	-9.75238
▁i	-9.75241
▁февраля	-9.75325
▁кон	-9.75388
▁мое	-9.75511
▁теории	-9.75562
▁произошло	-9.75649
▁городе	-9.75832
▁глаз	-9.75935
▁способ	-9.76077
ви	-9.76123
▁кому	-9.76131
ового	-9.76229
овым	-9.76315
▁U	-9.76361
ющей	-9.76396
ника	-9.76411
лу	-9.76413
▁таком	-9.76429
▁0	-9.76595
▁взял	-9.76641
▁29	-9.76838
ё	-9.76964
▁важно	-9.77155
▁средств	-9.77282
вших	-9.77289
▁операции	-9.77292
▁десять	-9.7731
▁first	-9.77312
ший	-9.77326
ur	-9.77483
▁событий	-9.77505
▁труд	-9.77513
▁пользу	-9.77543
ща	-9.77585
▁значительно	-9.77612
енный	-9.7767
▁женщина	-9.77671
▁согласно	-9.77688
▁группа	-9.78098
▁природы	-9.78098
нет	-9.78133
▁считать	-9.78223
▁внимания	-9.7826
енные	-9.78391
et	-9.78446
▁un	-9.78568
O	-9.78584
»)	-9.78606
am	-9.78676
N	-9.78778
вшие	-9.78909
как	-9.78919
▁Глава	-9.78973
ус	-9.79013
вод	-9.79083
▁развитие	-9.79102
Ю	-9.79199
▁средства	-9.79259
▁никакого	-9.79287
▁said	-9.79323
2.	-9.79388
ге	-9.79414
as	-9.79438
▁станет	-9.79511
▁семьи	-9.79521
емся	-9.79763
▁5.	-9.79816
она	-9.79846
▁берегу	-9.79848
▁взять	-9.79856
▁корпуса	-9.79933
ала	-9.79994
▁основном	-9.80018
тся	-9.8002
ятся	-9.8011
скими	-9.80131
▁бой	-9.80241
▁мол	-9.8025
овая	-9.80361
▁первым	-9.80429
▁O	-9.80441
▁IV	-9.80553
“	-9.8059
▁ситуации	-9.80636
кон	-9.80643
ющая	-9.80791
▁ш	-9.81007
тель	-9.81021
+	-9.81049
▁Итак	-9.81244
▁позже	-9.81266
▁большинство	-9.81468
▁ходе	-9.81502
▁Союза	-9.81556
ях	-9.81572
19	-9.81603
▁Тут	-9.81604
▁политики	-9.81622
▁условия	-9.81764
▁ноги	-9.8196
▁обороны	-9.82081
ович	-9.82135
▁Есть	-9.82136
▁концов	-9.82196
▁каждой	-9.82201
▁большую	-9.82309
▁Наконец	-9.82407
▁вроде	-9.82413
▁анти	-9.82622
▁производства	-9.82696
▁империи	-9.82728
▁исследования	-9.82749
▁позиции	-9.82785
▁очевидно	-9.82812
▁сто	-9.82837
ар	-9.83008
▁ниже	-9.83018
▁народов	-9.83116
▁поля	-9.83167
ment	-9.83172
▁чаще	-9.83204
<	-9.83229
▁наша	-9.8335
▁умер	-9.83395
▁Те	-9.8352
мо	-9.83566
шей	-9.83584
ация	-9.83702
▁идеи	-9.83716
▁крайней	-9.83734
▁сторон	-9.83837
ации	-9.83843
▁чувство	-9.8388
ды	-9.83901
▁следующий	-9.83916
▁частей	-9.83921
▁Владимир	-9.83947
▁военной	-9.83963
▁Англии	-9.84007
▁информации	-9.84011
це	-9.84042
▁оказалось	-9.84172
▁значения	-9.84196
▁моих	-9.84207
овать	-9.84251
▁откуда	-9.84301
▁временем	-9.84363
▁немедленно	-9.84422
нос	-9.84533
▁деятельность	-9.84588
▁последний	-9.84715
▁письма	-9.84755
▁сюда	-9.84783
▁отношений	-9.84885
▁Москву	-9.84895
Ж	-9.84913
▁вышел	-9.84918
▁события	-9.85018
▁науки	-9.8506
▁Впрочем	-9.85076
ишь	-9.85077
▁исключительно	-9.85123
▁Ему	-9.85126
вшийся	-9.85269
▁резко	-9.85324
▁оказались	-9.85575
▁историю	-9.85742
бо	-9.85784
▁бывает	-9.85836
▁вечер	-9.85867
▁лиц	-9.8595
▁большое	-9.86072
man	-9.86106
▁most	-9.86119
able	-9.86152
▁далее	-9.86155
ха	-9.8626
ид	-9.86427
▁Надо	-9.86453
За	-9.86493
▁these	-9.86662
▁большим	-9.8678
▁Россия	-9.86864
▁мед	-9.86927
▁крови	-9.86949
▁разные	-9.87097
▁any	-9.87108
▁командир	-9.87143
▁нечто	-9.87143
▁отношению	-9.87208
▁главное	-9.87234
▁w	-9.87256
▁задачи	-9.87333
▁people	-9.87502
▁We	-9.87512
▁Европе	-9.87601
іи	-9.87602
▁какая	-9.8769
▁человеку	-9.87745
▁частью	-9.8777
▁чувства	-9.8777
▁Та	-9.87788
▁речи	-9.87796
▁четырех	-9.87836
ющим	-9.87851
▁отличие	-9.87932
пре	-9.88056
▁часа	-9.88075
▁Ре	-9.88123
▁членов	-9.88214
▁принял	-9.88256
▁животных	-9.8826
лет	-9.88271
вшего	-9.88285
ает	-9.88304
▁Уже	-9.88353
▁1)	-9.88431
▁вне	-9.88435
▁our	-9.88456
▁Правда	-9.88772
▁Николай	-9.88833
▁никак	-9.88916
▁положения	-9.88933
▁спустя	-9.89007
▁стоял	-9.89011
І	-9.89147
▁l	-9.89186
вшиеся	-9.89204
▁силой	-9.89205
▁советских	-9.89206
▁ранее	-9.89342
▁такую	-9.89343
▁плохо	-9.89351
▁But	-9.89538
ница	-9.89545
at	-9.89573
▁разве	-9.89643
стве	-9.89749
▁роли	-9.89782
▁Европы	-9.89849
▁пяти	-9.89928
▁дороги	-9.90042
▁New	-9.9017
ir	-9.90177
ate	-9.90275
▁плен	-9.90316
▁сила	-9.90325
▁Петр	-9.90473
▁политической	-9.90475
▁then	-9.90491
▁большие	-9.90538
▁работ	-9.90563
▁думаю	-9.90609
▁лично	-9.90648
▁реки	-9.90772
вар	-9.90847
▁изменения	-9.90915
ій	-9.90945
▁выход	-9.90991
▁благо	-9.91148
▁крест	-9.91276
▁написал	-9.9129
▁считал	-9.91317
▁воду	-9.91343
▁Между	-9.9141
▁обязательно	-9.91481
ран	-9.91484
▁общем	-9.91496
▁Без	-9.91551
▁Перед	-9.91625
est	-9.91657
изма	-9.91674
▁such	-9.91692
ist	-9.91702
▁стороне	-9.91904
▁2)	-9.91917
▁короля	-9.91923
▁какую	-9.92044
▁крестьян	-9.92082
ическую	-9.92101
▁месяцев	-9.92192
▁языка	-9.92255
▁находился	-9.92308
▁ком	-9.92333
▁XIX	-9.92375
▁русские	-9.9243
▁Сейчас	-9.92492
иль	-9.92545
▁света	-9.92575
▁разговор	-9.92604
▁царь	-9.92647
▁необходимости	-9.92743
▁къ	-9.92781
▁g	-9.92789
▁жена	-9.92806
▁пример	-9.92896
▁пост	-9.92928
ism	-9.93009
▁new	-9.93092
▁лес	-9.93114
три	-9.9312
прав	-9.93334
щ	-9.93339
▁школы	-9.9345
оз	-9.93568
гор	-9.93582
жи	-9.93611
▁...	-9.93635
▁крайне	-9.93663
▁рис	-9.93701
▁называется	-9.93736
стер	-9.93783
▁языке	-9.93799
ine	-9.93833
что	-9.93926
▁представить	-9.93933
▁v	-9.93947
▁Христа	-9.9398
▁местах	-9.94062
ne	-9.94106
▁военного	-9.94359
▁форм	-9.94466
▁приказал	-9.94496
de	-9.94544
вал	-9.94588
ак	-9.94591
▁советской	-9.94592
▁знали	-9.94595
▁фон	-9.94613
▁приказ	-9.94717
стр	-9.94851
▁заметил	-9.94942
▁начальник	-9.95001
ству	-9.95148
▁генерала	-9.95185
▁Москвы	-9.95234
▁какого	-9.95357
▁3-	-9.95434
▁шли	-9.95456
▁ночью	-9.95492
▁дух	-9.9561
чу	-9.95627
▁31	-9.95743
▁двадцать	-9.95786
▁получили	-9.9582
▁1942	-9.95862
▁after	-9.95972
▁роман	-9.96072
ll	-9.96072
▁глазами	-9.96214
18	-9.96246
▁man	-9.96253
▁начинает	-9.96265
▁тысячи	-9.96602
шего	-9.96604
дер	-9.9667
пер	-9.96735
▁помочь	-9.9686
▁полной	-9.96861
▁пар	-9.96866
▁большей	-9.96886
▁врага	-9.96887
▁район	-9.96907
▁насколько	-9.96942
the	-9.96948
▁Пусть	-9.97032
▁Господь	-9.97076
▁суд	-9.97101
▁видели	-9.97134
ают	-9.97207
▁новое	-9.97351
ian	-9.97365
▁сознания	-9.97398
▁ход	-9.97538
▁св	-9.97641
▁St	-9.97673
▁борьбе	-9.9769
▁поэт	-9.97692
▁флота	-9.97717
▁князь	-9.97735
▁обо	-9.97737
▁дороге	-9.97864
▁медленно	-9.97878
Ь	-9.97998
▁личности	-9.98007
▁службы	-9.9803
▁головой	-9.98044
▁уровне	-9.98054
▁позволяет	-9.98054
▁see	-9.98063
°	-9.9817
▁создать	-9.98217
▁чему	-9.98379
▁пер	-9.9838
▁состояния	-9.98381
ении	-9.98407
▁зависимости	-9.98484
▁приходилось	-9.985
▁штаб	-9.98566
!..	-9.98569
▁книга	-9.98582
▁земля	-9.98606
▁уровень	-9.98627
▁000	-9.98663
▁утра	-9.98698
▁кор	-9.98769
▁машины	-9.98808
00	-9.98813
▁конец	-9.98904
.—	-9.98908
Ц	-9.99026
▁вернулся	-9.99027
▁6.	-9.99037
▁радио	-9.99069
▁спокойно	-9.99088
▁военно	-9.99119
▁пошел	-9.99131
▁текст	-9.99132
рас	-9.9916
▁Пока	-9.99236
цу	-9.99279
ющее	-9.99314
▁De	-9.99386
▁офицеров	-9.99409
10	-9.99542
оп	-9.99543
▁причин	-9.99544
▁боя	-9.99612
▁суда	-9.99639
▁безопасности	-9.99675
лы	-9.99679
▁1917	-9.99721
▁чтоб	-9.99758
▁рук	-9.99789
▁знания	-9.99854
тон	-9.99858
▁Re	-9.99895
аль	-9.99904
▁книг	-9.99916
▁высоко	-9.99921
ющихся	-10.0015
ели	-10.002
▁отдельных	-10.0025
▁км	-10.0027
▁Мар	-10.0034
пере	-10.0035
▁Возможно	-10.004
▁широко	-10.0042
▁думал	-10.0047
мъ	-10.005
3.	-10.0051
▁Ее	-10.0056
▁можете	-10.0058
▁составе	-10.0061
▁теле	-10.0065
▁дверь	-10.0069
▁настоящее	-10.009
▁ну	-10.009
енных	-10.0098
▁Богу	-10.01
▁порядок	-10.0108
▁ума	-10.0112
▁Z	-10.0118
эн	-10.0126
▁XX	-10.0127
▁h	-10.0132
em	-10.0133
▁глазах	-10.0139
▁думать	-10.0147
▁сердца	-10.0156
▁хотелось	-10.0158
▁Среди	-10.0159
▁памяти	-10.0162
”.	-10.0167
▁групп	-10.0173
▁1918	-10.0174
▁книгу	-10.0175
▁фронт	-10.0175
▁проблем	-10.0177
лад	-10.0185
▁приходится	-10.0187
▁времен	-10.0191
▁соответствии	-10.0192
▁князя	-10.0199
▁раза	-10.0207
▁заявил	-10.0208
▁пришли	-10.0212
ницы	-10.0217
):	-10.0223
▁x	-10.0225
▁Тот	-10.0226
▁выбор	-10.0233
ившись	-10.0236
сон	-10.0238
мет	-10.025
▁русский	-10.025
▁месяца	-10.0251
▁r	-10.0261
▁неожиданно	-10.0262
▁полк	-10.0266
кова	-10.0267
▁Более	-10.0268
▁правильно	-10.0281
▁зло	-10.0284
▁оружие	-10.0285
лей	-10.0288
▁функции	-10.0289
▁больших	-10.0293
▁большая	-10.0293
▁систему	-10.0296
ант	-10.0297
ден	-10.0299
▁шесть	-10.0309
▁нашу	-10.0315
видимому	-10.0327
ска	-10.0327
ѵ	-10.0332
el	-10.0332
▁Многие	-10.0334
▁одному	-10.0335
▁видим	-10.0337
▁увидеть	-10.0339
▁Ла	-10.0341
ant	-10.0343
▁уровня	-10.0346
▁мою	-10.0347
▁Кар	-10.0363
альный	-10.0367
▁данные	-10.0373
▁even	-10.0382
▁Некоторые	-10.0383
▁Пре	-10.0385
▁4-	-10.039
▁предложил	-10.0396
▁первом	-10.0397
▁ребенка	-10.0397
▁мнение	-10.0399
▁60	-10.0403
вес	-10.0405
▁where	-10.0413
ете	-10.0424
▁just	-10.0429
▁стол	-10.0434
▁1943	-10.0436
ел	-10.0436
бор	-10.0438
▁оба	-10.0445
▁Ле	-10.0445
1.	-10.0448
▁k	-10.045
▁словам	-10.0451
▁другу	-10.0454
▁рукой	-10.046
▁изъ	-10.0462
▁Ленин	-10.0468
▁общество	-10.0475
▁Рас	-10.0477
▁|	-10.0478
▁душа	-10.0482
▁различные	-10.0492
ive	-10.0492
▁естественно	-10.0492
▁Сталина	-10.0494
▁Ли	-10.05
▁назначен	-10.0505
ева	-10.0516
▁бур	-10.0518
▁капитан	-10.0522
ана	-10.0538
▁будучи	-10.0539
▁видимо	-10.0541
ена	-10.0557
▁собственной	-10.0563
цами	-10.0563
▁чрезвычайно	-10.058
▁данных	-10.0583
▁душе	-10.0588
▁желание	-10.0602
▁государство	-10.0609
▁кино	-10.061
▁der	-10.0611
ших	-10.0611
▁впечатление	-10.0613
▁^	-10.0614
кий	-10.0618
▁Рис	-10.0622
▁литературы	-10.0622
ера	-10.0623
|	-10.0624
ch	-10.0628
▁Красной	-10.0633
▁~	-10.0636
▁рождения	-10.0637
сов	-10.0641
▁оружия	-10.0647
▁интерес	-10.0653
лов	-10.0654
нем	-10.0654
▁страх	-10.0656
ie	-10.066
▁обратно	-10.0662
}	-10.0662
альные	-10.0677
▁For	-10.068
▁отряд	-10.0686
▁честь	-10.0691
▁работал	-10.0692
▁начальника	-10.0693
▁порядка	-10.0693
▁many	-10.0695
▁наук	-10.0698
ван	-10.0699
▁результат	-10.0703
▁особенности	-10.0707
шие	-10.0711
шу	-10.0714
▁самому	-10.0715
▁общего	-10.072
,—	-10.0722
▁оказывается	-10.0726
▁боевых	-10.0736
▁зависит	-10.074
▁Гор	-10.075
▁поверхности	-10.0759
образ	-10.0764
▁протяжении	-10.0772
▁автора	-10.0782
чин	-10.0785
▁действие	-10.0786
▁наоборот	-10.0792
▁осталось	-10.0793
▁болезни	-10.0799
▁пр	-10.0813
нуть	-10.0814
▁Оно	-10.082
▁цен	-10.0841
альная	-10.0849
▁продолжал	-10.0851
▁кем	-10.0854
?!	-10.0854
▁месяц	-10.0856
дел	-10.0858
ход	-10.0864
▁very	-10.0864
50	-10.0867
▁Советского	-10.0868
ню	-10.0872
U	-10.0872
▁однажды	-10.0877
▁Несмотря	-10.0877
▁way	-10.0889
▁ночи	-10.0891
▁шла	-10.0891
age	-10.0894
«	-10.0904
and	-10.0908
▁did	-10.0909
▁положении	-10.0913
▁вверх	-10.0914
▁никакой	-10.0921
▁переход	-10.0922
▁союз	-10.0925
▁Александра	-10.093
▁редко	-10.0934
ry	-10.0939
чик	-10.0947
▁оказалась	-10.0959
15	-10.0959
▁may	-10.096
▁задача	-10.0965
▁знаем	-10.0972
30	-10.0975
▁приводит	-10.0977
▁компании	-10.0979
▁создания	-10.098
▁Человек	-10.0982
▁силами	-10.0989
17	-10.0999
мир	-10.1003
▁through	-10.1003
▁называют	-10.1005
▁форму	-10.1005
▁back	-10.1013
▁вниз	-10.1021
▁образования	-10.1023
▁философии	-10.1025
▁вдоль	-10.103
▁этими	-10.1033
▁1944	-10.1034
▁нашем	-10.1037
▁другую	-10.1039
▁вещей	-10.1039
▁руб	-10.1045
▁Вам	-10.1046
▁Потому	-10.1047
é	-10.1059
нием	-10.107
▁глубоко	-10.1071
▁эпохи	-10.1075
id	-10.1079
▁млн	-10.1081
▁придется	-10.1083
▁руками	-10.1084
▁случилось	-10.1086
▁Па	-10.1089
▁утром	-10.109
▁машин	-10.1094
X	-10.1101
▁новую	-10.1106
▁сознание	-10.1107
жа	-10.1107
▁сведения	-10.1109
▁срок	-10.111
▁центр	-10.1114
].	-10.1115
мор	-10.112
▁&	-10.1125
▁случайно	-10.1127
▁how	-10.1131
▁ныне	-10.1138
▁проект	-10.1143
ци	-10.1149
os	-10.1151
▁To	-10.1159
▁искать	-10.1166
▁свете	-10.1167
se	-10.1168
▁каждом	-10.1173
▁впоследствии	-10.1174
▁середине	-10.1175
▁идея	-10.1176
▁наступление	-10.1176
прежнему	-10.1181
▁прекрасно	-10.1186
ент	-10.1195
▁меры	-10.1195
▁чисто	-10.1196
▁странах	-10.1209
▁)	-10.1211
▁порядке	-10.1216
▁император	-10.1219
истов	-10.1235
▁Вер	-10.1238
ностью	-10.1242
▁Пер	-10.1243
4.	-10.1244
▁существования	-10.1247
омъ	-10.1254
▁І	-10.1259
▁Где	-10.1261
▁требует	-10.1268
▁шаг	-10.127
▁поход	-10.1278
ent	-10.1285
▁вынужден	-10.1288
▁немало	-10.1288
▁знаком	-10.1291
мат	-10.1297
▁относится	-10.1309
▁Каждый	-10.1314
▁некоторое	-10.1323
Да	-10.1334
▁головы	-10.1336
рон	-10.1339
▁world	-10.134
▁говорю	-10.1354
▁король	-10.1359
первых	-10.1361
цов	-10.1364
▁шел	-10.1374
▁городов	-10.1377
▁смог	-10.1388
▁And	-10.1398
▁остался	-10.1399
▁Поскольку	-10.1402
▁Очень	-10.1424
ve	-10.1433
▁муж	-10.1433
▁процессе	-10.1445
овский	-10.1446
-19	-10.1448
▁данном	-10.1454
▁процесса	-10.1454
▁Вас	-10.1456
▁made	-10.146
▁Дело	-10.1463
▁жителей	-10.1466
▁life	-10.1467
лом	-10.1469
ним	-10.1476
мин	-10.1477
▁корпус	-10.1477
▁немцы	-10.1478
▁небо	-10.1479
▁рот	-10.1482
▁дочь	-10.1491
▁общей	-10.1503
▁член	-10.1505
▁метод	-10.151
ies	-10.1525
▁первое	-10.1526
▁рассказ	-10.1528
▁Мир	-10.1547
год	-10.1553
бы	-10.1568
воз	-10.1572
▁класс	-10.1574
▁молодой	-10.1574
▁now	-10.1575
▁between	-10.1578
▁писать	-10.1579
▁характера	-10.1585
тор	-10.1585
▁work	-10.1589
бе	-10.1589
The	-10.1591
▁метров	-10.1596
▁границы	-10.1602
▁решили	-10.1603
▁200	-10.1605
ению	-10.1618
▁остальные	-10.1621
▁down	-10.1625
▁всякого	-10.1627
вен	-10.1629
,”	-10.1636
▁второго	-10.1643
▁al	-10.1643
▁системе	-10.1645
»).	-10.1646
▁Три	-10.1657
▁свободы	-10.1661
▁нашим	-10.1661
▁Вскоре	-10.1662
▁own	-10.1664
▁en	-10.1667
▁находились	-10.167
ир	-10.1671
▁недавно	-10.1672
▁класса	-10.168
фа	-10.1683
▁офицер	-10.1687
▁7.	-10.1687
жен	-10.1689
вшегося	-10.1699
▁us	-10.1699
▁45	-10.1699
▁Бо	-10.1701
▁подобно	-10.1709
▁вода	-10.1709
▁Меня	-10.172
▁because	-10.1725
▁абсолютно	-10.1751
▁боль	-10.1753
▁строго	-10.1754
▁возникает	-10.1762
Y	-10.1772
▁душу	-10.1776
▁живет	-10.1781
▁ди	-10.1782
▁память	-10.1793
▁друзей	-10.1796
▁хлеб	-10.1798
▁берег	-10.1799
▁get	-10.18
▁Было	-10.1804
▁вес	-10.1805
▁лице	-10.1807
енная	-10.1808
▁well	-10.182
▁горы	-10.1828
▁фактически	-10.1838
ическом	-10.1838
▁before	-10.1839
▁водой	-10.184
▁тихо	-10.1848
»:	-10.1849
▁узнал	-10.1865
▁Иногда	-10.1866
ём	-10.1869
▁понятия	-10.1869
▁семь	-10.1876
▁La	-10.1877
▁des	-10.1883
▁As	-10.1884
▁York	-10.1889
son	-10.1889
▁существование	-10.1901
▁вывод	-10.1905
▁внезапно	-10.1924
▁ими	-10.1925
▁состава	-10.1927
▁Москва	-10.193
▁дорогу	-10.1932
▁вз	-10.1934
▁принимать	-10.194
ta	-10.1947
пол	-10.195
ав	-10.1951
овый	-10.1953
▁нашел	-10.1956
▁ста	-10.1958
▁z	-10.1958
ров	-10.1961
▁годах	-10.1974
▁немцев	-10.1975
▁чувств	-10.1975
▁Иванович	-10.1976
ul	-10.1976
▁лежит	-10.1976
▁j	-10.1988
▁императора	-10.199
▁Сегодня	-10.1999
итель	-10.1999
ило	-10.1999
▁вечером	-10.2004
енной	-10.2005
▁солнце	-10.2017
▁идей	-10.2026
▁обществе	-10.2028
▁узнать	-10.2031
▁окончательно	-10.2034
▁граф	-10.2037
овую	-10.2038
▁считает	-10.2043
▁голове	-10.2044
ro	-10.2046
▁1945	-10.2062
▁природе	-10.2065
▁боевой	-10.2068
▁сказано	-10.2078
ter	-10.208
▁Лев	-10.2083
ary	-10.2084
▁Италии	-10.2093
▁жизнью	-10.2095
▁последних	-10.2098
▁писатель	-10.2099
▁Михаил	-10.2103
ющиеся	-10.2108
Как	-10.2108
▁дали	-10.211
▁форма	-10.2113
▁уверен	-10.2116
▁мимо	-10.2118
бу	-10.2119
кам	-10.212
na	-10.2121
▁видов	-10.2134
▁каком	-10.2138
▁отъ	-10.2141
теля	-10.2155
▁воздух	-10.2155
▁великого	-10.2156
▁специально	-10.2156
”,	-10.2157
шим	-10.2163
▁возраста	-10.2168
шая	-10.2171
▁традиции	-10.2172
▁years	-10.2174
11	-10.2175
▁dis	-10.2183
▁Россию	-10.2183
▁позднее	-10.2183
▁Нам	-10.2185
▁успех	-10.2188
▁much	-10.2195
▁армию	-10.2195
▁мер	-10.2199
▁Совета	-10.2205
▁und	-10.2207
нер	-10.2213
▁военные	-10.2215
▁качества	-10.2217
▁появились	-10.2221
уз	-10.2225
▁привести	-10.2235
▁завод	-10.2239
▁граждан	-10.224
▁опыта	-10.2242
▁сожалению	-10.2243
▁духа	-10.2244
▁миру	-10.2247
-2	-10.2252
бр	-10.2257
так	-10.226
16	-10.2269
▁Второй	-10.2269
▁лицом	-10.227
▁кровь	-10.2288
▁улице	-10.2288
▁Де	-10.2293
▁war	-10.2294
▁кое	-10.2301
лег	-10.2304
-1	-10.2311
▁первая	-10.2311
▁промышленности	-10.2318
▁евреев	-10.2322
▁тщательно	-10.2323
▁систем	-10.2324
стей	-10.2335
▁вопросов	-10.2335
▁мо	-10.2337
▁кораблей	-10.2341
▁церковь	-10.2344
▁35	-10.2345
▁говорится	-10.2347
▁следовательно	-10.235
▁Чем	-10.2352
▁последнее	-10.2354
▁рост	-10.2356
кая	-10.2358
▁тип	-10.2363
▁круг	-10.2364
▁ваш	-10.2367
стро	-10.2367
▁политических	-10.2368
▁They	-10.2372
▁ад	-10.2379
слав	-10.2382
▁итоге	-10.2383
▁оп	-10.2387
▁показывает	-10.2395
▁суть	-10.24
▁представления	-10.2401
тели	-10.2402
▁фронте	-10.2408
▁результаты	-10.2413
▁заключается	-10.2431
▁трудом	-10.2435
йтесь	-10.244
▁представление	-10.244
▁under	-10.2443
▁брата	-10.2446
▁семье	-10.2447
▁успешно	-10.2449
▁Особенно	-10.2452
▁танков	-10.2457
вшей	-10.2469
од	-10.2473
▁подробно	-10.2481
▁хотели	-10.2481
▁проблема	-10.2486
кар	-10.2488
▁go	-10.2488
суд	-10.2494
▁объяснить	-10.2494
▁буквально	-10.2494
▁центре	-10.2496
▁принято	-10.2499
▁кур	-10.2502
▁последнего	-10.2503
ad	-10.2512
▁ал	-10.2518
тов	-10.2518
▁Ан	-10.2518
▁жили	-10.2519
▁Люди	-10.2529
▁сделали	-10.2532
▁войсками	-10.2534
ated	-10.2534
▁Петра	-10.2535
▁большого	-10.2536
▁недели	-10.2539
▁потери	-10.2546
ям	-10.2548
▁огня	-10.2548
▁мест	-10.2554
▁действовать	-10.2558
вит	-10.2561
▁Руси	-10.2562
▁острова	-10.2562
▁кар	-10.2566
▁периода	-10.2568
▁миллионов	-10.2568
▁работает	-10.2573
\	-10.2575
▁пошли	-10.2578
▁находятся	-10.2582
▁флот	-10.2583
▁начать	-10.2585
▁same	-10.2585
▁сути	-10.2588
▁1940	-10.2592
▁иностранных	-10.2592
пор	-10.2593
▁двор	-10.2611
▁произведения	-10.2613
▁момента	-10.2616
▁напротив	-10.262
▁пытался	-10.2623
14	-10.2624
вшейся	-10.2625
▁use	-10.263
▁служить	-10.2634
▁содержание	-10.2652
▁стояли	-10.2662
▁вернуться	-10.2664
▁составляет	-10.2665
40	-10.2666
co	-10.2666
ание	-10.2668
▁Однажды	-10.2668
вшая	-10.267
исты	-10.2673
ён	-10.2674
▁If	-10.2675
▁Ба	-10.268
хо	-10.2698
25	-10.2698
▁хуже	-10.2699
емых	-10.27
5.	-10.2702
ol	-10.2705
»),	-10.2707
▁небольшой	-10.2709
▁Азии	-10.271
▁видит	-10.2718
▁those	-10.2723
▁con	-10.2724
▁одни	-10.2724
▁Ман	-10.2733
▁знак	-10.2733
▁вида	-10.2737
▁соч	-10.275
▁минуту	-10.2758
▁отдал	-10.2763
▁понятно	-10.2765
▁ужас	-10.2765
▁рублей	-10.2767
▁make	-10.2767
▁причине	-10.277
▁показал	-10.2779
ун	-10.2791
▁самолет	-10.2794
▁горе	-10.2795
▁современной	-10.2799
кор	-10.2801
▁представителей	-10.2809
▁Согласно	-10.2815
▁крупных	-10.2815
▁сидел	-10.2819
▁сотни	-10.282
ешься	-10.282
▁будущее	-10.2823
▁ближе	-10.2827
▁end	-10.2836
q	-10.284
▁основных	-10.2845
▁якобы	-10.285
▁long	-10.285
un	-10.2851
▁немецких	-10.2857
▁ц	-10.2858
▁такими	-10.2859
▁имела	-10.2864
▁словом	-10.2869
тен	-10.287
▁стены	-10.2872
▁делу	-10.2873
▁вопроса	-10.2877
▁зачем	-10.2877
▁тобой	-10.2884
лив	-10.2885
вой	-10.2885
ину	-10.2885
овал	-10.2888
6.	-10.2889
пред	-10.2898
ировал	-10.2903
▁показать	-10.2907
▁стихи	-10.2911
леп	-10.2917
▁отсутствие	-10.2918
▁сомнения	-10.2918
▁определить	-10.2919
▁отправился	-10.292
▁Ра	-10.2923
▁Ис	-10.2926
ut	-10.2927
▁веры	-10.293
▁XVIII	-10.2938
▁нес	-10.294
▁будущем	-10.2941
▁нередко	-10.2944
▁шум	-10.2946
▁should	-10.2958
▁being	-10.296
▁мужа	-10.2962
io	-10.2963
ины	-10.2971
▁VI	-10.2973
▁ею	-10.2974
зна	-10.2976
ma	-10.2981
▁службу	-10.2981
▁человеческого	-10.2991
▁Пред	-10.2997
овъ	-10.2997
▁самим	-10.2998
▁элементов	-10.2999
▁веке	-10.301
▁прошлого	-10.3011
▁всякий	-10.3012
▁назвать	-10.3018
наго	-10.302
▁Первый	-10.3024
▁командира	-10.3024
▁основании	-10.3028
иков	-10.3041
▁бар	-10.3045
▁ведет	-10.3049
▁бог	-10.3058
▁президент	-10.3061
▁предмет	-10.3067
мест	-10.3068
фе	-10.3074
▁другая	-10.3075
▁вел	-10.3084
▁собственно	-10.3086
▁поведения	-10.3088
▁успел	-10.3089
▁прием	-10.3091
▁оттуда	-10.3094
▁вариант	-10.3099
▁Гитлер	-10.31
▁включая	-10.3101
овое	-10.3104
▁подумал	-10.3108
▁достижения	-10.3111
▁спор	-10.3112
▁статьи	-10.3112
▁вследствие	-10.3122
▁остров	-10.3125
▁y	-10.3127
ген	-10.3131
▁Le	-10.3138
▁органов	-10.3139
чет	-10.3141
▁скорость	-10.3146
▁мозга	-10.3147
▁сквозь	-10.3149
▁случаев	-10.3151
хи	-10.3152
▁остались	-10.3157
ness	-10.3157
▁38	-10.3158
ез	-10.3159
▁36	-10.3161
▁газеты	-10.3166
том	-10.317
альных	-10.3172
ще	-10.3177
▁строй	-10.3178
пи	-10.3182
▁Бер	-10.3182
▁разум	-10.3185
▁Разве	-10.3191
▁долларов	-10.3191
▁члены	-10.3193
Ъ	-10.3194
▁Сан	-10.32
▁Га	-10.32
12	-10.3201
▁двери	-10.3208
▁верно	-10.3211
»;	-10.3211
▁ряда	-10.3212
▁страну	-10.3216
▁гл	-10.3217
▁(1	-10.3217
▁искусство	-10.3218
▁good	-10.3219
▁никого	-10.3221
▁символ	-10.3222
▁несомненно	-10.3223
▁Вместе	-10.3224
▁имеется	-10.3224
зы	-10.3232
▁концу	-10.3235
▁цвета	-10.3236
шь	-10.3242
ад	-10.3249
рос	-10.325
▁судьба	-10.3251
▁губ	-10.3252
▁1919	-10.3256
▁решительно	-10.3266
действительности	-10.328
▁Армии	-10.3281
▁перемен	-10.3281
▁Ленина	-10.3284
▁человечества	-10.3284
тур	-10.3285
ce	-10.3288
▁мм	-10.329
▁нос	-10.3291
▁Пар	-10.3297
▁полковник	-10.33
ост	-10.3304
ул	-10.3308
▁отдела	-10.331
▁Земли	-10.331
▁собою	-10.3311
▁делают	-10.3313
▁выйти	-10.3313
▁великий	-10.3316
чен	-10.3321
илось	-10.3322
▁подобных	-10.3324
▁всяком	-10.3332
▁анализ	-10.3332
ющую	-10.3334
▁способность	-10.3335
▁лейтенант	-10.3336
▁площади	-10.3339
▁Ор	-10.3342
▁самостоятельно	-10.3343
город	-10.3346
▁самая	-10.3348
емые	-10.3361
▁сон	-10.3362
▁Дж	-10.3368
▁part	-10.3368
▁область	-10.3374
▁сущности	-10.3377
▁основания	-10.3378
▁желания	-10.3381
▁орудий	-10.3384
щи	-10.3387
сто	-10.3389
▁пара	-10.339
▁История	-10.3393
▁вышли	-10.3399
▁вижу	-10.34
▁веков	-10.3403
▁моим	-10.3404
▁тепло	-10.3408
60	-10.3409
▁голод	-10.3412
▁Богом	-10.3413
ирует	-10.3414
▁победы	-10.3423
▁понимал	-10.3428
вторых	-10.3429
▁тяжело	-10.3429
45	-10.3433
▁сел	-10.3437
▁used	-10.3448
▁вкус	-10.3449
кс	-10.345
▁читать	-10.3455
▁появился	-10.3459
▁co	-10.3459
▁70	-10.3461
▁неделю	-10.3463
▁обоих	-10.3463
▁ваше	-10.3468
▁8.	-10.3472
▁Ку	-10.3474
▁o	-10.3475
▁1939	-10.3483
чер	-10.3483
▁смотреть	-10.3484
▁наверное	-10.3484
ания	-10.3485
▁ваши	-10.3492
13	-10.3495
▁армий	-10.3501
▁мною	-10.3505
инский	-10.3506
▁рассказал	-10.3516
стоя	-10.3523
ата	-10.3523
вшим	-10.3523
▁нашли	-10.3525
ance	-10.3533
▁именем	-10.3534
▁знают	-10.3537
▁коллектив	-10.3541
▁Ибо	-10.3543
▁целый	-10.3545
стан	-10.3546
▁прошлом	-10.3551
▁защиты	-10.3551
▁вашей	-10.3551
▁причины	-10.3552
▁жены	-10.3558
▁возле	-10.3559
▁вызывает	-10.3559
дар	-10.3561
▁курс	-10.3561
▁поведение	-10.3565
▁внимательно	-10.3565
▁будущего	-10.3566
▁кол	-10.3567
▁главный	-10.3569
▁понятие	-10.357
▁хозяйства	-10.357
ung	-10.3572
me	-10.3573
▁делал	-10.3573
▁борьба	-10.3573
▁борьбу	-10.3583
▁«...	-10.3588
▁правил	-10.3589
▁театр	-10.3589
ющими	-10.3592
▁Сергей	-10.3593
▁Павел	-10.3596
▁отдел	-10.3597
▁завтра	-10.3597
дав	-10.3599
▁воли	-10.3608
▁прибыл	-10.3608
▁договор	-10.3608
▁активно	-10.3615
▁бо	-10.3616
▁роста	-10.3618
▁корабль	-10.3622
▁леса	-10.3622
▁начинается	-10.3624
▁выражение	-10.3626
нут	-10.3627
▁слышал	-10.3627
▁встреча	-10.3628
ень	-10.3634
▁успеха	-10.3637
ten	-10.3647
▁Мин	-10.3651
▁Церкви	-10.3654
▁служит	-10.3656
▁района	-10.3662
▁третий	-10.3664
▁названием	-10.3665
▁3)	-10.3666
▁эффект	-10.3666
▁Y	-10.367
▁понимать	-10.3674
▁сообщил	-10.3675
▁пространства	-10.3678
▁задачу	-10.3678
▁§	-10.3679
▁недо	-10.3681
▁эпоху	-10.3688
▁усилия	-10.3689
▁рамках	-10.3695
цем	-10.3701
▁You	-10.3702
▁сильнее	-10.3708
мон	-10.3708
▁самолетов	-10.3709
аго	-10.3715
▁источник	-10.3716
▁литературе	-10.3717
▁задач	-10.372
▁дар	-10.3723
ty	-10.3723
нул	-10.3726
▁попытки	-10.3727
▁32	-10.3732
▁ярко	-10.3734
▁человеческой	-10.3737
▁отношениях	-10.374
уд	-10.374
▁считали	-10.3743
изации	-10.3747
▁девушка	-10.375
▁считают	-10.375
▁религии	-10.3752
▁Им	-10.3753
оль	-10.3754
▁десяти	-10.3757
▁пространство	-10.3759
▁техники	-10.3764
▁угодно	-10.3766
▁контроль	-10.3768
▁Бор	-10.3774
▁Значит	-10.3778
▁внутренних	-10.3779
▁принадлежит	-10.3781
зи	-10.3781
▁Карл	-10.3782
▁встречи	-10.3785
▁day	-10.3786
▁Много	-10.3796
▁необходимость	-10.3796
▁отметить	-10.3805
ацию	-10.3806
▁советского	-10.381
ів	-10.3812
▁недостаточно	-10.3823
▁массы	-10.3825
▁сможет	-10.3826
▁Бар	-10.3827
▁высокой	-10.383
▁свободу	-10.3835
▁население	-10.3848
▁предложение	-10.3853
▁дают	-10.3856
▁There	-10.3867
▁помню	-10.3868
ху	-10.3873
▁произнес	-10.3878
▁роз	-10.388
▁know	-10.3884
▁комплекс	-10.3889
▁СПб	-10.3892
▁Су	-10.3896
▁Ка	-10.3898
▁знаете	-10.39
▁нужны	-10.3902
Мы	-10.3904
▁жив	-10.3905
7.	-10.3907
▁провести	-10.3912
▁мама	-10.3913
▁способности	-10.3914
▁Киев	-10.3916
▁последней	-10.3916
be	-10.3918
ур	-10.3919
ka	-10.392
▁влияния	-10.392
зем	-10.3924
▁Господа	-10.3929
ступ	-10.393
▁сравнению	-10.3931
▁любил	-10.3933
▁совета	-10.3935
▁At	-10.394
▁ситуация	-10.3943
▁(17	-10.3945
▁условий	-10.3951
ря	-10.3956
▁закона	-10.3963
пе	-10.3964
Если	-10.3964
▁разумеется	-10.3969
▁следующее	-10.3976
При	-10.3977
ол	-10.398
▁80	-10.398
▁Нью	-10.398
],	-10.3981
▁вопросу	-10.3985
▁информацию	-10.3991
ств	-10.4001
▁игры	-10.4002
▁государств	-10.4002
рен	-10.4003
▁называли	-10.4004
▁посредством	-10.4005
▁какъ	-10.4006
▁подход	-10.4007
сы	-10.4008
▁вами	-10.4009
▁du	-10.4013
▁должности	-10.4017
▁земель	-10.4017
▁хотят	-10.4024
зе	-10.4025
▁перевод	-10.4026
говор	-10.4026
▁пару	-10.403
ющийся	-10.4034
▁1920	-10.4034
эр	-10.4039
▁спас	-10.404
▁государственной	-10.4059
▁раздел	-10.4059
▁сей	-10.4059
кур	-10.4066
эй	-10.4066
ань	-10.4075
ig	-10.4085
▁вышла	-10.4089
▁42	-10.4093
▁мужчин	-10.41
▁Св	-10.4106
▁отряда	-10.4108
▁ген	-10.4109
▁попал	-10.4114
▁Великой	-10.4122
▁новым	-10.4123
ton	-10.414
▁солдаты	-10.414
▁воде	-10.4142
70	-10.4144
▁зато	-10.4146
Про	-10.4148
▁вплоть	-10.4151
ление	-10.4153
▁авиации	-10.4153
зу	-10.4153
▁назвал	-10.4156
▁километров	-10.4157
▁Кур	-10.4158
▁днем	-10.4162
▁ред	-10.4164
▁воздуха	-10.4165
▁совет	-10.4168
▁данной	-10.4172
▁пришла	-10.4176
▁делом	-10.4176
▁телефон	-10.4177
▁дивизия	-10.4178
im	-10.4179
▁Союз	-10.418
▁off	-10.4182
▁берега	-10.4192
▁заниматься	-10.4196
▁вели	-10.4201
▁целей	-10.4207
ge	-10.421
овского	-10.4216
▁половине	-10.4221
▁новая	-10.4222
ган	-10.4222
▁Бу	-10.4223
▁[1	-10.4223
ции	-10.4224
▁Рим	-10.4229
▁вред	-10.4233
▁связано	-10.4242
?..	-10.4242
▁порт	-10.4242
▁материал	-10.4247
▁северо	-10.4247
Й	-10.4254
▁pro	-10.4254
▁запас	-10.4257
▁добиться	-10.4258
▁чел	-10.4265
▁ми	-10.4265
▁дальнейшем	-10.4266
▁Мак	-10.4272
ура	-10.4275
▁37	-10.4275
▁доктор	-10.4277
▁разведки	-10.4277
▁основные	-10.4278
▁must	-10.4278
▁самих	-10.4278
▁оставил	-10.4287
тан	-10.4291
▁командование	-10.4293
▁создание	-10.4294
▁университета	-10.4301
▁сверх	-10.4301
▁внешней	-10.4307
▁500	-10.4311
▁исследований	-10.4316
▁сбор	-10.4316
▁per	-10.4317
▁each	-10.4318
▁интересов	-10.4323
mo	-10.4328
▁приходит	-10.4329
▁Ту	-10.4336
▁обе	-10.4337
▁Ма	-10.434
▁автомат	-10.4341
▁хочется	-10.4352
▁имея	-10.4352
▁восемь	-10.4358
▁сказали	-10.4361
▁товарищ	-10.4363
▁школе	-10.4364
уль	-10.4366
▁героя	-10.437
▁бою	-10.4374
▁предложения	-10.4376
▁признать	-10.4379
▁опасности	-10.4381
▁никому	-10.4382
▁On	-10.4387
▁подготовки	-10.4388
ита	-10.4394
▁данным	-10.4396
▁друзья	-10.4404
▁39	-10.4404
▁впереди	-10.4404
▁погиб	-10.4406
▁началась	-10.441
шин	-10.4416
▁любого	-10.442
▁готовы	-10.4426
80	-10.4427
▁идут	-10.4427
▁корабля	-10.4427
la	-10.4429
li	-10.4431
ция	-10.4434
ёт	-10.4449
твор	-10.4452
▁волос	-10.4455
▁соответственно	-10.4458
▁политика	-10.4462
▁образование	-10.4466
итесь	-10.4468
▁Ха	-10.4476
▁наступления	-10.4477
▁9.	-10.4477
▁шести	-10.4488
▁Борис	-10.4489
▁Press	-10.4492
▁особо	-10.4498
▁Хорошо	-10.45
ні	-10.4507
▁three	-10.4508
▁законы	-10.4514
▁врагов	-10.4517
▁судов	-10.4519
▁народу	-10.452
▁корабли	-10.4523
ію	-10.4523
—19	-10.4526
▁Далее	-10.4527
▁still	-10.4529
per	-10.453
▁послал	-10.4533
▁основной	-10.4534
▁программы	-10.4539
жив	-10.4539
▁группу	-10.4541
бин	-10.4542
▁воздухе	-10.4543
▁ждать	-10.4544
▁огнем	-10.4546
▁both	-10.455
▁документы	-10.4552
▁300	-10.4554
▁XVI	-10.4557
▁сад	-10.456
▁XVII	-10.4562
▁четко	-10.4566
лит	-10.4568
‐	-10.4571
▁отдельные	-10.4576
▁Андрей	-10.4577
▁Генерал	-10.458
▁вашего	-10.4588
етесь	-10.4588
▁подобные	-10.4589
▁Василий	-10.459
▁игра	-10.4592
go	-10.4594
▁принцип	-10.4598
▁оставалось	-10.4598
▁реальности	-10.4598
▁Мор	-10.4602
ot	-10.4602
▁местных	-10.4604
▁ракет	-10.4606
▁серьезно	-10.461
▁So	-10.4619
юр	-10.4619
▁Мо	-10.462
▁An	-10.4621
▁явления	-10.4622
рез	-10.4626
▁War	-10.4626
▁men	-10.4626
▁социальной	-10.4627
телей	-10.4632
▁pre	-10.4634
▁смысла	-10.4638
▁рано	-10.4639
▁Париж	-10.4642
▁коп	-10.4644
ish	-10.465
след	-10.4662
▁сорок	-10.4663
▁Виктор	-10.4664
▁внутренней	-10.4667
▁нежели	-10.4669
▁комнате	-10.4674
▁навсегда	-10.4677
▁станции	-10.4679
▁правила	-10.4681
ak	-10.4683
▁Российской	-10.4686
▁связаны	-10.4686
жу	-10.4689
▁Прежде	-10.469
▁Пол	-10.4694
дов	-10.4695
▁ветер	-10.4696
Вы	-10.4698
рок	-10.4699
▁храм	-10.47
нич	-10.4702
▁Хо	-10.4704
▁полном	-10.4705
ite	-10.4706
ож	-10.4706
ra	-10.4706
▁смогли	-10.4711
▁письме	-10.4711
▁ног	-10.4714
▁живут	-10.4717
▁found	-10.472
▁оставить	-10.472
▁установить	-10.4729
▁отвечал	-10.4732
скаго	-10.4735
▁относятся	-10.4737
8.	-10.4737
▁экономики	-10.4743
▁заранее	-10.4752
остью	-10.4753
▁склон	-10.4754
▁й	-10.4759
▁33	-10.4761
▁объем	-10.4762
▁меч	-10.4764
ались	-10.4766
ланд	-10.477
фер	-10.4775
▁Иисуса	-10.4775
▁обратился	-10.4778
▁отсюда	-10.4778
▁Японии	-10.478
▁Иисус	-10.478
▁сопротивление	-10.4782
▁проч	-10.4782
▁молодых	-10.4783
▁When	-10.4784
▁транспорт	-10.4786
▁Ответ	-10.4788
▁бригады	-10.479
▁Con	-10.479
▁портрет	-10.4791
▁44	-10.4792
ари	-10.4792
▁поставить	-10.4793
▁следующие	-10.4793
сен	-10.4795
ическим	-10.4798
▁получила	-10.4798
▁дым	-10.4803
▁вод	-10.4804
▁сего	-10.4806
▁легче	-10.481
▁свойства	-10.4815
▁мужчины	-10.4817
▁согласился	-10.4817
no	-10.482
телем	-10.4822
▁многое	-10.4822
▁43	-10.4827
▁счастье	-10.4828
▁остальных	-10.4835
▁кризис	-10.4837
▁главного	-10.484
цам	-10.4843
▁меж	-10.4845
▁становятся	-10.4852
▁поздно	-10.4857
гранич	-10.4865
Z	-10.4866
▁песни	-10.4869
▁Иоанн	-10.4874
▁right	-10.4874
▁попросил	-10.4877
ует	-10.4878
▁главных	-10.4879
▁обеспечить	-10.4879
▁читал	-10.488
▁веру	-10.4881
▁плане	-10.4882
▁семи	-10.4884
все	-10.4887
▁against	-10.4888
▁боли	-10.4897
▁век	-10.491
чит	-10.4912
▁смотрел	-10.4912
▁пе	-10.4916
▁древних	-10.4917
▁Париже	-10.4919
▁держав	-10.4923
▁возрасте	-10.4926
▁края	-10.4928
вед	-10.4931
▁примеру	-10.4932
цен	-10.4932
ством	-10.4934
▁She	-10.4934
▁теми	-10.4936
▁Само	-10.4936
▁сохранить	-10.4944
▁ушел	-10.4944
▁пожалуй	-10.4952
▁служил	-10.4958
▁след	-10.4959
▁руководство	-10.4962
▁знаешь	-10.4962
▁Сначала	-10.4963
▁черт	-10.4966
▁посмотрел	-10.4969
▁might	-10.4971
▁полное	-10.4971
▁(2	-10.4973
▁похоже	-10.4974
24	-10.4974
-3	-10.4976
▁1937	-10.4979
ling	-10.4982
▁документ	-10.4989
▁модели	-10.499
▁Мал	-10.4992
▁играть	-10.4992
▁комнату	-10.4994
▁следовало	-10.4998
гр	-10.5005
35	-10.5009
▁ответственность	-10.5014
▁звезд	-10.5019
▁die	-10.502
хан	-10.5024
▁Пушкин	-10.5024
▁появилась	-10.5025
ti	-10.5032
▁бога	-10.5032
сер	-10.5034
▁Украины	-10.5034
▁хотите	-10.5045
▁41	-10.5046
▁take	-10.5046
альной	-10.5049
▁количества	-10.5051
▁деревни	-10.5053
▁впрочем	-10.5053
сел	-10.5053
▁общее	-10.5059
▁любом	-10.506
Что	-10.5065
аться	-10.5066
онов	-10.5067
йся	-10.5067
▁Был	-10.507
▁34	-10.507
om	-10.507
▁орудия	-10.5078
ence	-10.5079
▁артиллерии	-10.5084
▁дворе	-10.5088
▁пан	-10.5098
▁приехал	-10.5099
▁неизбежно	-10.5113
▁тотчас	-10.5114
▁страна	-10.5131
▁Америки	-10.5142
дин	-10.5143
▁достиг	-10.5144
39	-10.5146
стар	-10.5148
лем	-10.515
▁прямой	-10.5154
▁страха	-10.5155
▁Отец	-10.5156
▁Несколько	-10.5158
▁принес	-10.5159
▁юго	-10.5166
гер	-10.5169
▁сообщения	-10.5174
▁черты	-10.5177
ирования	-10.5177
▁стен	-10.5182
▁родителей	-10.5184
–18	-10.5189
▁номер	-10.5189
чки	-10.5192
▁кн	-10.5195
▁каждая	-10.5196
▁элементы	-10.5199
▁отнюдь	-10.52
▁представители	-10.52
▁текста	-10.52
ier	-10.5202
дра	-10.5204
▁зла	-10.5206
▁another	-10.5208
ирование	-10.5211
▁неизвестно	-10.5215
ьев	-10.5216
▁хлеба	-10.5218
▁близко	-10.5219
▁твой	-10.522
▁адрес	-10.5221
ri	-10.5222
▁лист	-10.5223
ора	-10.5224
▁исключением	-10.5226
▁батальон	-10.5228
▁радость	-10.5229
став	-10.523
▁начиная	-10.5232
▁получает	-10.5232
▁5-	-10.5233
▁открыто	-10.5237
▁правления	-10.524
▁Be	-10.5244
▁дочери	-10.5246
лан	-10.525
▁веществ	-10.5262
нных	-10.5264
▁Род	-10.5264
▁угол	-10.5266
▁here	-10.5268
▁брак	-10.5283
▁Al	-10.5285
▁каждому	-10.5287
дом	-10.5288
▁поэта	-10.5295
▁богов	-10.5296
▁интересы	-10.5298
▁имена	-10.53
▁управление	-10.5301
▁вряд	-10.5302
▁существ	-10.5302
кан	-10.5307
he	-10.531
без	-10.5311
тин	-10.5311
ёр	-10.5313
▁чувствовал	-10.5313
гар	-10.5315
▁семья	-10.5315
▁учения	-10.5315
▁будете	-10.5319
▁центра	-10.5319
▁собственных	-10.5322
▁Просто	-10.5323
бел	-10.5323
▁использования	-10.5324
▁РФ	-10.5324
▁представитель	-10.5333
▁нужна	-10.5346
▁le	-10.5351
▁вещества	-10.5352
▁ученых	-10.5353
▁ма	-10.5357
▁Всё	-10.5358
ед	-10.5358
▁глава	-10.5363
нный	-10.5364
▁делали	-10.5374
вали	-10.5377
{	-10.5378
▁двое	-10.5378
ts	-10.538
▁собственного	-10.5381
▁прошел	-10.5383
▁ощущение	-10.5386
▁рассказывал	-10.5388
▁профессор	-10.539
26	-10.539
▁понимаю	-10.539
▁противник	-10.5391
▁2000	-10.5391
▁моему	-10.5391
Об	-10.5391
▁открыл	-10.5398
▁University	-10.5402
▁строя	-10.5408
емый	-10.5409
▁$	-10.541
▁точку	-10.5413
▁энергия	-10.5414
▁главной	-10.5416
▁домов	-10.5419
▁партия	-10.5422
▁48	-10.5424
▁должность	-10.5426
ес	-10.5429
▁соответствует	-10.5429
▁Отсюда	-10.5429
▁150	-10.5436
▁пройти	-10.5436
сп	-10.5438
ица	-10.5438
▁масс	-10.5442
▁направление	-10.5446
▁ПО	-10.5448
▁Никто	-10.5448
com	-10.5449
▁родился	-10.5451
▁di	-10.5451
ять	-10.5453
▁тридцать	-10.5453
▁мнения	-10.5456
▁рад	-10.5458
бар	-10.5459
▁too	-10.546
▁реакции	-10.546
сом	-10.5466
инг	-10.5467
▁Гер	-10.5467
▁свод	-10.5469
зо	-10.5474
▁London	-10.5475
хот	-10.5477
ея	-10.5477
▁другому	-10.5484
ены	-10.5484
▁скорости	-10.5486
▁получается	-10.5488
▁теория	-10.5489
▁стар	-10.5492
▁контр	-10.5494
▁Такие	-10.5498
▁обще	-10.5505
▁край	-10.5507
ющейся	-10.5509
▁передать	-10.551
end	-10.5511
▁Николая	-10.5521
▁любит	-10.5521
▁great	-10.5521
▁ситуацию	-10.5522
▁порой	-10.5522
еров	-10.5522
инского	-10.5523
▁би	-10.5524
38	-10.5526
▁радости	-10.5527
▁Мой	-10.553
▁истины	-10.5538
▁Стар	-10.554
▁Ру	-10.5546
▁Одна	-10.5546
▁представляют	-10.5548
▁Эр	-10.5548
▁ребенок	-10.555
▁стандарт	-10.5551
▁появляется	-10.5553
▁производство	-10.5554
▁приняли	-10.5554
▁судьбы	-10.5559
Это	-10.556
▁живых	-10.556
▁термин	-10.5561
▁министра	-10.5561
▁утро	-10.5561
▁сигнал	-10.5563
▁обладает	-10.5564
▁говорилось	-10.5567
пар	-10.5568
нин	-10.5571
▁Джон	-10.5573
lo	-10.5574
▁причиной	-10.5581
▁бытия	-10.5581
▁команды	-10.5581
▁часы	-10.5583
▁Кстати	-10.5585
21	-10.5588
▁руководством	-10.559
22	-10.5592
▁крепости	-10.5597
▁голов	-10.5598
▁Ти	-10.56
пут	-10.5601
▁жители	-10.5606
хъ	-10.5609
▁Гитлера	-10.5611
▁Над	-10.5623
▁многом	-10.5624
▁Христос	-10.5624
рад	-10.5627
▁нашему	-10.5627
▁отвечает	-10.5628
▁провел	-10.563
▁come	-10.5636
▁Ин	-10.5637
▁бывший	-10.5637
▁армией	-10.5638
▁мозг	-10.5639
▁здания	-10.5646
▁вечера	-10.5647
▁НКВД	-10.5648
▁while	-10.5649
▁известный	-10.565
ировали	-10.5652
▁президента	-10.5652
▁пространстве	-10.5653
лер	-10.5655
▁лесу	-10.5657
▁картины	-10.5658
▁Индии	-10.5659
ьный	-10.5661
▁существуют	-10.5664
рин	-10.5667
рав	-10.5667
que	-10.5684
рей	-10.5686
овали	-10.5687
▁философ	-10.5689
ово	-10.569
▁слав	-10.5692
▁опасность	-10.5702
90	-10.5704
▁Ло	-10.5706
▁быстрее	-10.5707
зов	-10.5708
▁поддержку	-10.5709
▁страшно	-10.571
енным	-10.5713
фор	-10.5717
▁практике	-10.572
▁set	-10.5722
▁добро	-10.5723
▁тему	-10.5724
▁ex	-10.5727
▁наблюдения	-10.5727
▁секрет	-10.573
▁мужчина	-10.573
▁просил	-10.5733
Ы	-10.5734
чат	-10.5736
▁46	-10.574
▁подошел	-10.574
▁военный	-10.5742
▁Алексей	-10.5746
лок	-10.5752
▁se	-10.5752
▁миф	-10.5753
▁театра	-10.5754
▁рыб	-10.5754
▁велел	-10.5759
▁среды	-10.576
▁минуты	-10.5761
▁взрыв	-10.5761
яв	-10.5766
▁запах	-10.5768
дель	-10.5769
▁<...>	-10.5771
▁заметно	-10.5772
▁миром	-10.5772
41	-10.5776
▁выходит	-10.5787
▁организма	-10.5787
ида	-10.5789
ныя	-10.5789
▁Sch	-10.579
▁материалы	-10.5793
32	-10.5801
▁звук	-10.5801
▁American	-10.5801
▁фильм	-10.5806
▁пытались	-10.5811
той	-10.5812
▁оставаться	-10.5813
▁существу	-10.5816
▁направления	-10.5816
▁авторитет	-10.5819
еля	-10.582
▁крепко	-10.5822
▁поставил	-10.5823
▁Сколько	-10.5825
▁документов	-10.5829
9.	-10.5829
▁летом	-10.5832
▁зная	-10.5833
36	-10.5833
кро	-10.5836
▁Нас	-10.5836
▁большинства	-10.5841
▁изменить	-10.5853
▁чай	-10.5854
▁романа	-10.5857
▁Оп	-10.5865
88	-10.5868
▁безусловно	-10.5873
▁позицию	-10.5875
▁little	-10.5875
государственного	-10.5877
▁47	-10.588
▁Марк	-10.5881
27	-10.5882
▁дабы	-10.5882
▁машину	-10.5886
▁явление	-10.5891
это	-10.5893
▁ос	-10.5896
▁советские	-10.5898
▁масса	-10.59
▁каждое	-10.5902
▁прибыли	-10.5902
▁Нужно	-10.5903
вел	-10.5905
▁электро	-10.5907
раж	-10.591
енного	-10.5911
▁объект	-10.5913
▁проходит	-10.5915
▁1938	-10.592
овыми	-10.5921
мана	-10.5922
▁простой	-10.5925
▁структур	-10.5925
44	-10.5925
еры	-10.5929
зор	-10.5934
28	-10.5935
ac	-10.5938
▁иной	-10.5941
▁never	-10.5943
▁гости	-10.5943
▁different	-10.5944
▁туман	-10.5945
ci	-10.5949
▁called	-10.5951
лага	-10.5952
гин	-10.5953
up	-10.5956
лич	-10.5956
▁выхода	-10.5958
▁мор	-10.5958
▁стремление	-10.5961
▁имеем	-10.5965
▁Би	-10.597
▁ничем	-10.5971
▁руководства	-10.5971
▁герой	-10.5974
▁конфликт	-10.5979
▁Лишь	-10.5982
▁газет	-10.5984
▁обл	-10.5987
ток	-10.5987
▁Китай	-10.5988
ous	-10.5993
▁вчера	-10.5993
ьные	-10.5994
▁материалов	-10.5997
▁атаку	-10.6
ber	-10.6002
ального	-10.6003
▁Ван	-10.6005
ался	-10.6007
ушка	-10.6008
▁sp	-10.6009
ически	-10.6009
▁самолета	-10.601
▁камень	-10.6012
▁каждым	-10.6014
▁деревне	-10.6015
вшую	-10.6016
▁моем	-10.6017
▁реформ	-10.6024
▁don	-10.6026
▁влиянием	-10.6031
▁комиссии	-10.6036
▁неё	-10.604
▁Следовательно	-10.604
▁печати	-10.6043
▁Совет	-10.6043
ov	-10.6047
▁избежать	-10.6048
▁половины	-10.605
37	-10.6051
▁современных	-10.6051
ниц	-10.6053
▁соединения	-10.6059
▁воле	-10.6061
▁структуры	-10.6073
▁груди	-10.6073
вшееся	-10.608
43	-10.6084
▁батальона	-10.6085
▁Ничего	-10.6086
▁hand	-10.6092
▁отлично	-10.6094
▁происходило	-10.6095
▁лагеря	-10.6098
дон	-10.6098
▁ученые	-10.6098
▁голова	-10.61
щего	-10.6106
джи	-10.6107
▁способом	-10.6107
▁развитии	-10.6112
нт	-10.6116
▁place	-10.6116
например	-10.6119
▁большинстве	-10.6121
▁столетия	-10.6125
бой	-10.6127
»?	-10.6127
вшаяся	-10.6128
46	-10.6131
ted	-10.6133
▁зале	-10.6137
▁without	-10.6137
▁нужен	-10.6148
ряд	-10.6149
КА	-10.6156
▁властью	-10.6158
▁Мария	-10.616
▁переговоры	-10.616
do	-10.6161
▁рус	-10.6162
▁Такое	-10.6166
23	-10.6169
▁Советской	-10.6175
▁ла	-10.6177
▁начинают	-10.618
пр	-10.6182
▁газ	-10.6186
▁группе	-10.6187
▁свидетельствует	-10.6188
85	-10.6189
▁громко	-10.619
▁объявил	-10.6193
▁океан	-10.62
31	-10.6202
▁атаки	-10.6204
▁преимущественно	-10.6206
▁Автор	-10.6206
кина	-10.6207
▁душ	-10.6208
▁Ге	-10.6209
▁планы	-10.6211
▁вошел	-10.6211
▁уйти	-10.6211
▁орган	-10.6213
▁принимает	-10.6214
▁Soviet	-10.6215
атор	-10.6215
▁волны	-10.6215
▁взяли	-10.6222
▁картину	-10.6224
▁сход	-10.6227
con	-10.6229
▁проводить	-10.6229
▁Дон	-10.623
▁during	-10.6231
▁цикл	-10.6232
▁VII	-10.6233
▁всякой	-10.6237
▁полиции	-10.6237
тро	-10.6243
mer	-10.6245
нят	-10.6245
▁number	-10.6249
▁ю	-10.6249
слов	-10.625
нес	-10.625
▁городах	-10.6252
▁справедливо	-10.6254
▁голоса	-10.6263
▁Ивана	-10.6265
▁Сын	-10.6269
▁будь	-10.6272
▁считается	-10.6272
▁крупные	-10.6274
▁Иванов	-10.6281
▁хочешь	-10.6281
▁пить	-10.6282
▁странно	-10.6285
▁писателя	-10.6285
тельный	-10.6288
▁собор	-10.6289
▁Земле	-10.6292
▁Такой	-10.6295
▁министр	-10.6304
▁фоне	-10.6304
▁изд	-10.6304
▁школу	-10.6305
▁высшей	-10.6307
▁Мон	-10.6309
▁существа	-10.631
ву	-10.6311
▁указывает	-10.6313
▁устав	-10.6313
▁независимо	-10.6318
▁участников	-10.6318
▁понимание	-10.6321
▁Америке	-10.6323
▁способен	-10.6325
▁Vol	-10.6327
▁врач	-10.633
▁ар	-10.6332
ard	-10.6333
▁знание	-10.6335
▁солнца	-10.6336
▁рассматривать	-10.6338
▁спать	-10.6338
▁Действительно	-10.634
▁главы	-10.6343
▁around	-10.6344
ьная	-10.635
ченко	-10.6351
▁few	-10.6354
они	-10.636
▁старый	-10.6361
▁Ал	-10.6361
тельные	-10.6362
▁среде	-10.6376
▁союзников	-10.6376
бил	-10.6378
вшее	-10.6378
ler	-10.6382
29	-10.6385
▁помимо	-10.6385
рус	-10.6386
▁мальчик	-10.6387
ium	-10.639
ations	-10.639
▁полного	-10.639
▁господин	-10.639
▁вошли	-10.6394
▁am	-10.6401
▁поколения	-10.641
еб	-10.6411
кра	-10.6411
42	-10.6411
▁обед	-10.6412
▁политические	-10.6412
▁55	-10.6414
▁Сен	-10.6414
▁старший	-10.6415
33	-10.6419
Со	-10.6419
▁отказался	-10.6421
▁Мер	-10.6422
▁90	-10.6427
▁гибели	-10.6428
▁картина	-10.6428
гре	-10.6431
▁гон	-10.6436
▁посмотреть	-10.6436
▁давать	-10.6437
▁началось	-10.6438
▁кг	-10.644
▁later	-10.6443
▁создал	-10.6446
▁пункт	-10.6446
ions	-10.6447
▁идею	-10.6448
▁Син	-10.6448
75	-10.6449
▁стояла	-10.6449
▁методы	-10.645
▁вслед	-10.6454
▁близ	-10.6457
▁вторая	-10.6458
▁оставался	-10.6458
%	-10.6463
▁причина	-10.6466
▁принимал	-10.6466
▁рабочего	-10.6468
▁сообщение	-10.6471
реш	-10.6473
▁учение	-10.6473
▁местности	-10.6475
лик	-10.6477
▁волю	-10.6478
▁НА	-10.648
▁университет	-10.648
▁происхождения	-10.6481
▁победу	-10.6482
▁корм	-10.6484
▁1914	-10.6487
▁сравнительно	-10.6488
▁машина	-10.6491
▁окна	-10.65
мм	-10.6501
▁продолжает	-10.6501
▁сер	-10.6501
▁КПСС	-10.6502
▁Пан	-10.6509
▁государственных	-10.6512
▁русским	-10.6513
▁Кара	-10.6513
▁Тор	-10.6513
ража	-10.6516
▁самую	-10.6522
ион	-10.6523
▁социальных	-10.6524
▁написано	-10.6524
▁нож	-10.6525
▁передал	-10.6526
очки	-10.6527
▁захват	-10.6529
енное	-10.6532
дан	-10.6534
▁частично	-10.6536
ас	-10.6536
аю	-10.6537
▁лошадей	-10.6541
▁прошло	-10.6543
▁ничто	-10.6545
▁законов	-10.6549
бит	-10.6552
▁подобного	-10.6554
зер	-10.6555
▁торговли	-10.6556
▁волн	-10.6559
▁Q	-10.6568
▁head	-10.6573
стой	-10.6575
ating	-10.6578
форм	-10.6579
▁список	-10.6583
▁применения	-10.6584
▁собственные	-10.6585
▁источников	-10.6591
▁10.	-10.6591
пал	-10.6593
▁want	-10.6597
▁представляется	-10.6598
▁слегка	-10.66
ср	-10.6601
▁втором	-10.6602
▁понимания	-10.6602
ест	-10.6602
▁sin	-10.6605
▁Два	-10.6605
ca	-10.6607
▁нравится	-10.6609
▁будешь	-10.6609
▁получения	-10.661
▁избран	-10.6611
▁квадрат	-10.6612
▁знаний	-10.6617
▁здоровье	-10.6621
▁ран	-10.6622
▁Вол	-10.6624
▁двадцати	-10.6628
▁прос	-10.6629
▁птиц	-10.663
▁журнал	-10.6633
▁сложно	-10.6635
уют	-10.6635
уса	-10.6637
▁Си	-10.6637
No	-10.6638
▁came	-10.664
рат	-10.664
▁ответа	-10.6641
▁точка	-10.6641
▁данного	-10.6649
▁тесно	-10.6651
▁обнаружил	-10.6654
▁участия	-10.6656
▁команд	-10.6656
▁написать	-10.666
▁титул	-10.6661
▁цивилизации	-10.6669
ике	-10.6679
▁журналист	-10.6679
▁Николаевич	-10.668
less	-10.668
79	-10.6684
ред	-10.6685
▁помогает	-10.6687
▁пик	-10.6688
▁политике	-10.6691
▁конечном	-10.6693
65	-10.6696
one	-10.6697
▁офицеры	-10.67
▁Берлин	-10.67
▁везде	-10.6701
мышлен	-10.6701
▁штат	-10.6704
▁полный	-10.6707
▁социально	-10.6708
▁находилась	-10.6709
▁статье	-10.671
▁способны	-10.6711
▁огромное	-10.6712
сад	-10.6715
▁Ах	-10.6716
▁брать	-10.672
ением	-10.6721
▁своё	-10.6723
▁Кол	-10.6724
▁every	-10.6725
▁Город	-10.6726
▁реке	-10.6731
▁ле	-10.6732
▁Сер	-10.6734
▁отличается	-10.6735
▁стоят	-10.6738
изация	-10.674
▁имело	-10.6742
▁вещь	-10.6742
▁сфере	-10.6742
▁значительной	-10.6744
▁собрание	-10.6745
▁st	-10.6746
овской	-10.6747
там	-10.6748
рит	-10.675
▁американских	-10.675
▁живой	-10.6751
▁верить	-10.6752
▁мышления	-10.6753
▁гроз	-10.6755
▁племен	-10.6755
▁держать	-10.6757
▁товар	-10.6764
ается	-10.6767
▁завода	-10.6774
men	-10.6774
▁войско	-10.6774
▁роты	-10.6775
▁оборот	-10.6781
▁75	-10.6781
щие	-10.6782
▁целях	-10.6784
▁художник	-10.6785
▁Также	-10.679
▁Вопрос	-10.6791
▁Гу	-10.6792
▁определения	-10.6792
▁лучших	-10.6793
▁немецкой	-10.6793
▁Указ	-10.6795
ируют	-10.6796
сил	-10.6797
▁началом	-10.6797
▁надежды	-10.6797
▁вечно	-10.68
▁требования	-10.6804
▁единственный	-10.6805
▁села	-10.6806
▁требуется	-10.6807
▁Западной	-10.6807
land	-10.6809
▁лишен	-10.681
▁скажем	-10.6811
▁волосы	-10.6811
▁fact	-10.6819
▁папа	-10.682
▁пойти	-10.6821
▁сверху	-10.6823
▁обмен	-10.6825
▁организаций	-10.6835
▁Северной	-10.6836
▁увидели	-10.684
▁делах	-10.684
89	-10.6841
▁знала	-10.6843
▁Тар	-10.6846
▁Всего	-10.6847
готов	-10.6854
▁Ро	-10.6855
63	-10.6855
▁ходить	-10.6858
очка	-10.6864
sh	-10.6865
▁называет	-10.6871
▁проекта	-10.6873
иг	-10.6876
ical	-10.6878
▁славян	-10.6882
▁Испании	-10.6885
▁старик	-10.6888
▁попытка	-10.6895
цион	-10.6897
▁статус	-10.6898
▁исход	-10.6899
альную	-10.6906
▁пределы	-10.6912
▁количестве	-10.6913
▁политику	-10.6913
▁встал	-10.6915
▁свободно	-10.6917
▁воинов	-10.6917
▁бумаги	-10.6924
ющегося	-10.693
▁писателей	-10.6935
▁упор	-10.6936
▁find	-10.6938
▁Эй	-10.6938
▁кабинет	-10.6938
▁кстати	-10.6942
les	-10.6945
▁Вместо	-10.6946
кол	-10.6947
▁кара	-10.6948
▁Се	-10.695
емой	-10.6951
▁культура	-10.6955
▁связан	-10.6955
ций	-10.6957
▁послан	-10.6961
▁общественного	-10.6962
▁system	-10.6962
ν	-10.6963
От	-10.6965
iv	-10.6968
▁судить	-10.6969
da	-10.6969
▁навстречу	-10.6971
▁республики	-10.6972
▁занятия	-10.6974
▁49	-10.6974
нув	-10.6975
▁плана	-10.6975
▁политического	-10.6977
▁Бур	-10.6979
▁научно	-10.6979
▁обязан	-10.698
ьных	-10.698
▁предприятия	-10.6984
▁дивизий	-10.6985
мар	-10.6986
пис	-10.6988
▁дорог	-10.6988
▁поток	-10.6988
еж	-10.6991
▁элемент	-10.6993
▁прошли	-10.6994
▁need	-10.6995
ук	-10.6997
▁запрет	-10.7001
▁неоднократно	-10.7003
▁услышал	-10.7003
▁Зачем	-10.7006
▁рассказывает	-10.7006
▁Пушкина	-10.7007
щий	-10.7009
op	-10.701
▁строительства	-10.7012
▁контроля	-10.7014
▁морской	-10.7014
▁делам	-10.7016
▁минимум	-10.7019
ею	-10.7019
кер	-10.7019
▁старых	-10.702
един	-10.7025
До	-10.7026
лож	-10.7028
▁вопросам	-10.703
▁основу	-10.7032
▁возраст	-10.7037
▁учителя	-10.7038
ений	-10.7038
▁52	-10.7041
▁Одно	-10.7042
▁раб	-10.7042
▁Ди	-10.7045
▁сумел	-10.7046
ируя	-10.7047
▁связанные	-10.7049
▁всяких	-10.705
енную	-10.7052
▁Ком	-10.7054
▁эпизод	-10.7058
▁Разумеется	-10.7064
▁долг	-10.7066
▁составлен	-10.7069
рам	-10.7071
▁женой	-10.7071
▁Ян	-10.7073
▁факты	-10.7078
▁ch	-10.7086
▁округа	-10.7087
▁недель	-10.7088
▁последовательно	-10.7092
▁органы	-10.7093
чей	-10.7095
▁анализа	-10.7095
▁Германия	-10.7101
▁решить	-10.7102
▁поражение	-10.7104
▁Russian	-10.7106
▁old	-10.7108
▁Первая	-10.711
ною	-10.7112
▁природа	-10.7112
▁содержания	-10.7113
▁вспомнил	-10.7118
▁спросила	-10.7119
▁мае	-10.7122
▁left	-10.7122
▁XV	-10.7123
тра	-10.7124
кие	-10.7127
▁золото	-10.7127
знач	-10.7127
крас	-10.7128
▁познания	-10.7133
рыв	-10.7134
▁инженер	-10.7138
▁определение	-10.7138
▁определяется	-10.7142
▁наука	-10.7142
▁настоящий	-10.7143
ада	-10.7144
▁пожар	-10.7145
▁энергию	-10.7146
свет	-10.7153
▁ранен	-10.7157
▁процентов	-10.7158
▁процессов	-10.7159
▁воин	-10.716
вор	-10.716
шки	-10.7162
аз	-10.7164
▁татар	-10.7167
▁рабочие	-10.7167
▁свыше	-10.717
▁виды	-10.7174
ial	-10.7176
▁преступления	-10.7182
▁окончания	-10.7185
▁живот	-10.7189
▁полно	-10.7189
▁родители	-10.7191
фу	-10.7191
▁содержит	-10.7192
▁командованием	-10.7192
▁престол	-10.7194
▁Наиболее	-10.7197
!)	-10.7198
ьную	-10.7198
au	-10.7199
▁ворот	-10.72
▁какими	-10.7201
▁личного	-10.7201
▁6-	-10.7206
▁продолжали	-10.7208
▁ежедневно	-10.7208
▁Бел	-10.7208
▁руке	-10.7213
▁продолжать	-10.7215
глав	-10.723
▁совершил	-10.723
душ	-10.7232
▁полков	-10.7233
▁last	-10.7234
▁границу	-10.7236
ni	-10.7241
бл	-10.7243
кат	-10.7243
59	-10.7246
▁намного	-10.7246
ких	-10.7252
имся	-10.7252
▁Люб	-10.7253
▁плот	-10.7253
▁помог	-10.7257
▁потерял	-10.7258
▁русском	-10.7259
▁(3	-10.726
шев	-10.7263
▁far	-10.7265
▁поэзии	-10.7273
ику	-10.7274
ителей	-10.7281
▁гнев	-10.7287
евой	-10.7288
▁Император	-10.7291
▁Ду	-10.7292
▁последствия	-10.7292
▁ходу	-10.7292
▁занимался	-10.7294
▁наличие	-10.7299
▁интересно	-10.7301
▁многочисленные	-10.7302
▁страдания	-10.7303
ach	-10.7303
▁командиров	-10.7303
▁расстояние	-10.7303
▁поднял	-10.7304
~	-10.7305
шка	-10.7305
▁say	-10.7306
▁высоты	-10.7307
▁шар	-10.731
48	-10.7311
▁творчества	-10.7313
▁революция	-10.7313
▁праздник	-10.7314
▁голода	-10.7317
▁ответить	-10.7323
▁пределах	-10.7327
низ	-10.7327
шее	-10.7329
▁лагерь	-10.733
▁отказаться	-10.733
▁рок	-10.7334
▁Причем	-10.7337
▁авто	-10.734
▁дав	-10.734
▁пояс	-10.7341
▁отчасти	-10.7345
▁существо	-10.735
▁партизан	-10.735
▁Петербург	-10.7356
▁разума	-10.7356
крат	-10.7357
▁приговор	-10.7359
▁XIV	-10.7359
▁Me	-10.7364
мысл	-10.7367
ология	-10.7372
куп	-10.7374
▁жертв	-10.7375
▁сестра	-10.7375
щу	-10.7376
▁нечего	-10.7377
▁современного	-10.7383
▁возможным	-10.7385
▁отделения	-10.7388
▁Й	-10.7394
▁важное	-10.7396
▁Отечественной	-10.7397
▁образа	-10.7399
▁великой	-10.7401
альное	-10.7402
▁комитета	-10.7404
▁Свет	-10.7406
▁совместно	-10.7406
▁отказ	-10.7406
▁Do	-10.7407
▁уме	-10.7408
▁общий	-10.7413
▁непременно	-10.7413
▁линию	-10.7414
▁Тер	-10.7417
▁вызов	-10.7418
сте	-10.7421
лиз	-10.7422
▁рассказать	-10.7424
фи	-10.7425
Q	-10.7425
▁заметить	-10.7425
вели	-10.7426
▁ваших	-10.7429
▁Благодаря	-10.743
▁осталась	-10.7431
Все	-10.7432
▁11.	-10.7433
ители	-10.7434
▁режим	-10.7435
our	-10.7436
▁ценности	-10.7436
▁решений	-10.7439
ub	-10.744
▁следующим	-10.7441
▁играет	-10.7441
▁Ев	-10.7441
▁51	-10.7449
▁сыр	-10.745
▁XII	-10.7452
pe	-10.7453
▁мотив	-10.7457
▁работой	-10.7458
руч	-10.7458
▁можешь	-10.7458
▁Чу	-10.7464
▁Лит	-10.7469
▁видом	-10.7469
▁обеих	-10.747
67	-10.747
64	-10.7472
ke	-10.7473
▁народного	-10.7477
▁болезнь	-10.7479
▁Чер	-10.748
▁классов	-10.7483
▁ошибки	-10.7484
▁1921	-10.7484
▁Время	-10.7484
▁лодки	-10.7484
▁встретил	-10.7496
▁модель	-10.7497
▁оружием	-10.7497
▁остаться	-10.7498
▁акт	-10.75
▁again	-10.75
▁добавил	-10.7502
▁утверждает	-10.7502
ключа	-10.7503
▁подобное	-10.7503
oc	-10.7504
▁think	-10.7505
▁голосом	-10.7505
▁каждую	-10.7508
ius	-10.7509
▁данный	-10.751
▁материала	-10.7519
▁рез	-10.7519
▁выполнять	-10.752
▁point	-10.7523
87	-10.7523
▁раствор	-10.7526
▁глядя	-10.7528
▁останется	-10.753
▁example	-10.7532
▁операций	-10.7532
▁опер	-10.7535
▁вина	-10.7536
▁экономической	-10.7537
пы	-10.7539
▁работали	-10.7544
ительно	-10.7546
полн	-10.7547
▁молча	-10.7549
86	-10.755
иш	-10.7554
▁детьми	-10.7556
▁German	-10.7556
▁доход	-10.7559
▁голуб	-10.7559
син	-10.756
▁целиком	-10.7571
▁майор	-10.7571
▁механизм	-10.7571
ало	-10.7573
▁65	-10.7573
▁изучения	-10.7575
▁монастыря	-10.7575
ему	-10.7576
ограф	-10.7576
ким	-10.758
▁защиту	-10.7581
ено	-10.7584
▁сюжет	-10.7585
▁дерева	-10.7587
▁холод	-10.7587
▁home	-10.7588
▁описание	-10.7596
66	-10.7596
ацией	-10.7597
47	-10.7598
▁прочих	-10.7598
щих	-10.7602
ud	-10.7603
▁дат	-10.7603
▁стрел	-10.7605
ver	-10.7606
▁data	-10.7611
▁службе	-10.7612
▁пал	-10.7613
▁мета	-10.7616
▁грех	-10.7618
▁искренне	-10.7621
▁СС	-10.7623
▁оси	-10.7627
▁участвовал	-10.7628
гл	-10.7628
ование	-10.7629
▁института	-10.7629
▁твердо	-10.7632
пад	-10.7635
сс	-10.7635
▁дворян	-10.7638
▁мечта	-10.7639
▁Кат	-10.764
▁онъ	-10.7641
▁Ос	-10.7643
▁Сибири	-10.7644
▁Paris	-10.7648
▁духовной	-10.7649
▁институт	-10.7653
дал	-10.7654
▁мыслей	-10.7654
ини	-10.7654
▁куб	-10.766
ления	-10.7661
▁Наши	-10.7661
▁ритм	-10.7666
▁существенно	-10.7666
брос	-10.7668
▁high	-10.767
▁отдать	-10.7672
55	-10.7673
▁особого	-10.7674
▁удара	-10.7674
▁счастья	-10.7676
▁организм	-10.7677
▁state	-10.7677
ителя	-10.768
▁фото	-10.7683
▁комитет	-10.7684
▁побед	-10.7684
?”	-10.7685
ьте	-10.7685
min	-10.7692
▁ор	-10.7692
▁бр	-10.7693
▁понимает	-10.7694
▁ра	-10.7694
▁поддержки	-10.7695
▁выступил	-10.7695
кос	-10.7697
▁продуктов	-10.7698
▁Тур	-10.7699
tic	-10.7702
▁доступ	-10.7704
ally	-10.7705
▁пришло	-10.7706
▁дорогой	-10.7706
68	-10.7709
▁люблю	-10.771
▁вспомнить	-10.7711
▁север	-10.7713
▁power	-10.7714
нев	-10.7716
▁старого	-10.7717
▁собственности	-10.772
&	-10.7723
▁снег	-10.7723
▁Ленинград	-10.7724
▁названия	-10.7726
▁единственным	-10.773
▁выражения	-10.7731
▁великих	-10.7733
альным	-10.7733
▁58	-10.7738
▁Вообще	-10.774
▁научных	-10.7741
2)	-10.7742
▁замуж	-10.7745
34	-10.7745
▁работников	-10.7746
▁тонн	-10.7748
лат	-10.7752
ьи	-10.7755
нные	-10.776
▁ру	-10.776
тки	-10.7763
sa	-10.7763
▁улицы	-10.7766
▁почувствовал	-10.7767
▁бед	-10.7769
вил	-10.7769
вшимся	-10.777
▁na	-10.7772
▁ваша	-10.7777
▁строительство	-10.778
▁действует	-10.7781
▁контакт	-10.7782
▁Такая	-10.7787
▁Обычно	-10.7788
▁small	-10.78
▁Бес	-10.7802
ицы	-10.7806
▁записи	-10.7808
▁известных	-10.7809
▁маг	-10.781
ологии	-10.7811
▁хороший	-10.7817
зон	-10.7818
▁правду	-10.7822
▁обеспечения	-10.7823
▁трудности	-10.7823
▁бывшего	-10.7824
▁одежды	-10.7825
▁связанных	-10.7826
▁родов	-10.7827
▁национальной	-10.7831
▁обязанности	-10.7831
▁хотела	-10.7832
▁54	-10.7833
гра	-10.7841
▁противоположно	-10.7842
▁смертью	-10.7844
▁pp	-10.7844
▁Кам	-10.7844
лев	-10.7844
ner	-10.7846
фин	-10.7847
ice	-10.7849
▁запад	-10.7851
▁Ново	-10.7853
град	-10.7855
▁Очевидно	-10.7855
▁що	-10.7856
▁расстоянии	-10.7856
▁растений	-10.7856
▁’	-10.7857
▁велико	-10.7857
лина	-10.7858
▁старые	-10.7858
▁белых	-10.786
▁Лу	-10.7862
▁организация	-10.7863
▁использование	-10.7864
каз	-10.7864
▁прийти	-10.7865
▁одинаково	-10.7869
▁Анна	-10.787
▁озера	-10.7872
▁53	-10.7875
▁здоровья	-10.7877
▁боевые	-10.7879
▁личность	-10.7879
▁оказаться	-10.7883
▁Большинство	-10.7884
▁стоя	-10.7885
▁Тай	-10.7886
▁актив	-10.7886
ныхъ	-10.789
▁Востоке	-10.7892
▁честно	-10.7892
69	-10.7894
лас	-10.7894
▁директор	-10.7894
▁Жизнь	-10.7895
▁здание	-10.7896
▁боев	-10.7901
нского	-10.7904
▁районах	-10.7904
▁Воз	-10.7904
▁концерт	-10.7906
▁встрече	-10.7908
rs	-10.7908
▁договора	-10.7912
▁предположить	-10.7913
ens	-10.7916
▁маленький	-10.7916
▁сидит	-10.7916
▁Вар	-10.7918
▁Китая	-10.7918
▁Ша	-10.792
▁старой	-10.7921
▁авиа	-10.7921
▁святой	-10.7921
гон	-10.7922
▁компьютер	-10.7923
▁проблему	-10.7923
▁сосед	-10.7925
емого	-10.7926
81	-10.7929
▁приятно	-10.7933
▁показали	-10.7935
▁Въ	-10.7938
▁Бен	-10.7938
▁обучения	-10.7944
▁враг	-10.795
▁дед	-10.795
▁восстания	-10.7952
ума	-10.7955
▁дорога	-10.7956
пан	-10.7956
▁очередной	-10.7958
щую	-10.7958
hr	-10.7959
щен	-10.796
▁некогда	-10.7966
ology	-10.7967
▁режима	-10.7967
▁авторов	-10.7967
▁сильный	-10.7968
▁Ст	-10.7969
▁выглядит	-10.797
▁пят	-10.7971
▁пищи	-10.7972
▁занима	-10.7973
▁КП	-10.7973
▁обстоятельства	-10.7976
▁исследование	-10.798
▁поверхность	-10.7981
▁name	-10.7981
▁площадь	-10.7982
▁полным	-10.7983
▁говорила	-10.7987
кал	-10.7987
▁поражения	-10.7987
▁расположен	-10.799
▁прочим	-10.7992
коп	-10.7994
▁car	-10.7994
▁точке	-10.7995
▁огромные	-10.7995
▁перейти	-10.7996
инов	-10.7998
ai	-10.7999
▁бросил	-10.7999
▁семей	-10.7999
▁немецкие	-10.8
▁духе	-10.8001
ницу	-10.8002
▁любовью	-10.8002
49	-10.8005
sch	-10.8006
держ	-10.8006
▁заключение	-10.8007
▁аппарат	-10.8008
▁привело	-10.8009
ful	-10.8009
pa	-10.8011
▁известны	-10.8021
▁Ген	-10.8023
ba	-10.8024
▁жену	-10.8027
▁зал	-10.803
▁56	-10.8031
берг	-10.8031
▁вклад	-10.8034
▁пап	-10.8038
для	-10.8039
▁Са	-10.804
▁Кан	-10.8041
▁молодого	-10.8041
▁собрания	-10.8042
▁марте	-10.8046
ze	-10.8051
▁средствами	-10.8055
уч	-10.8056
▁уничтожить	-10.8056
▁human	-10.8057
▁пра	-10.806
▁одних	-10.8061
▁ан	-10.8064
▁Шар	-10.8065
воль	-10.8066
чики	-10.8066
▁весел	-10.807
эт	-10.807
▁достичь	-10.8073
уш	-10.8074
▁различия	-10.8075
▁ло	-10.8076
▁силе	-10.8076
енд	-10.808
▁воздействия	-10.8083
▁явился	-10.8086
▁огромный	-10.8086
▁обстоятельство	-10.8088
▁something	-10.8088
лез	-10.8088
we	-10.8089
?"	-10.809
▁святых	-10.809
▁Герман	-10.8092
▁оставались	-10.8094
ѳ	-10.8097
ическими	-10.81
Из	-10.81
‘	-10.8103
жал	-10.8104
▁сопротивления	-10.8106
▁слабо	-10.8106
97	-10.8109
line	-10.8111
▁комнаты	-10.8114
▁Польши	-10.8117
▁непрерывно	-10.8118
▁считаю	-10.8122
▁братьев	-10.8124
▁процессы	-10.813
▁мотор	-10.8131
▁имеются	-10.8132
▁thought	-10.8133
▁проведения	-10.8136
▁собак	-10.8136
▁неба	-10.8137
рот	-10.8137
▁Зато	-10.8138
▁исторической	-10.8139
▁VIII	-10.814
▁давал	-10.8141
▁пытается	-10.8143
▁ответственности	-10.8147
▁языком	-10.8148
▁отчет	-10.8149
▁put	-10.8149
лл	-10.815
▁спасти	-10.8151
▁святого	-10.8151
вать	-10.8159
▁проще	-10.816
рик	-10.8163
▁верх	-10.8165
▁).	-10.8165
▁назван	-10.8167
▁парень	-10.8168
▁дерево	-10.8169
▁лошади	-10.8176
очек	-10.8178
▁im	-10.8178
▁доклад	-10.8179
▁территорию	-10.8179
▁пошла	-10.818
99	-10.8183
▁Константин	-10.8185
▁хватает	-10.8185
шему	-10.8187
▁любое	-10.8187
кров	-10.8188
▁доказать	-10.8189
▁ду	-10.8191
si	-10.8192
▁журнала	-10.8193
▁правом	-10.8194
▁давление	-10.8196
▁съезд	-10.8198
▁клуб	-10.82
▁кро	-10.82
▁потеря	-10.8202
▁Михайлович	-10.8202
▁Восточной	-10.8203
▁His	-10.8204
▁реальность	-10.8207
▁Были	-10.8209
ино	-10.8212
сты	-10.8213
▁4)	-10.8214
▁Дом	-10.8215
учи	-10.8216
▁Че	-10.8219
▁often	-10.8222
▁возможностей	-10.8222
вшими	-10.8222
▁кот	-10.8223
lt	-10.8224
▁Верховного	-10.8225
▁What	-10.8225
▁Bo	-10.8225
▁Великий	-10.8227
▁Гар	-10.8227
▁важным	-10.8229
лон	-10.8229
▁ощущения	-10.823
▁боях	-10.8231
▁Почти	-10.8235
▁наверняка	-10.8238
▁историк	-10.8238
▁настоящего	-10.824
▁Жан	-10.824
▁Оба	-10.8242
▁потенциал	-10.8242
ized	-10.8243
станов	-10.8246
▁функция	-10.8247
▁Великого	-10.8248
▁сущность	-10.8248
▁окружен	-10.8249
▁гол	-10.8251
▁частиц	-10.8252
▁выступает	-10.8252
ющаяся	-10.8257
цеп	-10.8261
▁утверждал	-10.8263
мена	-10.8263
▁himself	-10.8263
▁силах	-10.8265
ище	-10.8265
рем	-10.8269
ьным	-10.827
▁выполнения	-10.8271
▁молод	-10.8275
яр	-10.8283
▁Мат	-10.8283
▁важных	-10.8285
56	-10.8286
стра	-10.8287
▁предварительно	-10.8291
ek	-10.8292
▁твои	-10.8293
▁большевиков	-10.8294
нец	-10.8295
▁хан	-10.8296
▁гражданской	-10.8296
▁Речь	-10.8298
▁герцог	-10.83
▁Дух	-10.83
▁ихъ	-10.8302
ah	-10.8303
▁новом	-10.8303
▁командования	-10.8305
▁дву	-10.8305
▁наряду	-10.8305
▁создает	-10.8306
▁оставлен	-10.8308
▁1922	-10.8309
▁Наполеон	-10.831
▁архив	-10.831
▁оценки	-10.8312
евич	-10.8314
ev	-10.8314
чек	-10.8314
▁художника	-10.8315
▁сети	-10.8315
▁средство	-10.8316
▁поможет	-10.8318
вол	-10.8324
▁произведений	-10.8324
дор	-10.8326
▁сделано	-10.8331
▁less	-10.8331
▁особой	-10.8334
▁случаи	-10.8338
рек	-10.834
▁склад	-10.8342
▁языков	-10.8342
▁немецкого	-10.8342
▁набор	-10.8343
▁темы	-10.8344
▁comp	-10.8344
надцат	-10.8346
▁связана	-10.8348
▁занят	-10.835
▁девушки	-10.8351
▁Слово	-10.8352
▁результатов	-10.8354
▁га	-10.8354
▁обещал	-10.8356
▁God	-10.8359
▁Этим	-10.8359
▁мост	-10.836
▁Ки	-10.8361
▁1933	-10.8362
▁придет	-10.8365
▁пора	-10.8365
▁ногами	-10.8365
ure	-10.8366
▁растения	-10.8368
▁нападения	-10.8369
lin	-10.837
▁бор	-10.8374
▁form	-10.8376
!"	-10.8376
нова	-10.8378
ap	-10.8378
били	-10.8383
▁больных	-10.8383
▁ман	-10.8385
▁августе	-10.8387
▁дому	-10.8387
▁изображения	-10.8388
▁вере	-10.839
▁country	-10.839
ting	-10.839
ющему	-10.8392
пов	-10.8393
▁строить	-10.8394
▁always	-10.8395
98	-10.8395
▁столом	-10.8397
▁поворот	-10.84
▁полную	-10.8402
▁предметы	-10.8403
▁стола	-10.8405
▁вход	-10.8407
▁лечения	-10.8408
▁умел	-10.841
77	-10.8411
раб	-10.8411
▁12.	-10.8411
шую	-10.8414
▁взглядом	-10.8414
72	-10.8415
▁феномен	-10.8415
▁Co	-10.8417
▁57	-10.8422
▁представлен	-10.8424
▁лен	-10.8424
аты	-10.8426
▁мод	-10.8427
▁ба	-10.8427
▁открыть	-10.8427
стрел	-10.843
зд	-10.8432
▁пользоваться	-10.8432
▁сознательно	-10.8432
▁заставить	-10.8437
▁давали	-10.8438
▁ребята	-10.844
фон	-10.8442
▁статья	-10.8442
▁танки	-10.8443
▁тон	-10.8444
▁рука	-10.8444
gen	-10.8445
▁играл	-10.8448
▁пород	-10.8451
лог	-10.8452
шек	-10.8454
▁глубине	-10.8455
▁Прим	-10.8455
▁IX	-10.8455
▁взгляды	-10.8458
▁входит	-10.846
▁взрыва	-10.8461
▁настроение	-10.8464
▁фигур	-10.8466
▁убит	-10.8467
▁обстоятельств	-10.8468
▁внутреннего	-10.8468
▁арестован	-10.8469
теле	-10.8469
▁остро	-10.8469
▁премьер	-10.8469
▁Суд	-10.8469
бол	-10.8469
▁множества	-10.8472
▁XIII	-10.8474
ап	-10.8477
▁линия	-10.8477
стями	-10.8478
▁занял	-10.8481
▁царство	-10.8481
▁сыном	-10.8481
▁привели	-10.8482
▁информация	-10.8484
▁товарищей	-10.8486
▁order	-10.8486
▁общих	-10.8487
▁принципе	-10.849
Ре	-10.8492
▁сне	-10.8498
▁объектов	-10.8501
▁высокий	-10.8501
▁Sa	-10.8503
тар	-10.8503
96	-10.8506
▁высокого	-10.8507
▁созда	-10.8507
▁герои	-10.8507
бес	-10.8508
▁(20	-10.8508
▁Рад	-10.8509
▁остановился	-10.851
▁указания	-10.8511
тал	-10.8511
▁возник	-10.8513
иц	-10.8513
▁away	-10.8513
▁разрешения	-10.8514
▁went	-10.8515
▁прогресс	-10.8517
▁чин	-10.852
▁Советский	-10.8521
▁1930	-10.8521
НО	-10.8522
▁формирования	-10.8534
▁1905	-10.8536
▁120	-10.8537
▁Хар	-10.8537
▁things	-10.8539
▁партий	-10.854
▁небе	-10.854
▁вызвать	-10.8541
▁исторических	-10.8542
буд	-10.8542
▁бу	-10.8543
▁Вселенной	-10.8545
▁Нельзя	-10.8545
▁древней	-10.8549
▁получилось	-10.8552
Ка	-10.8555
▁конференции	-10.8557
▁задачей	-10.8559
▁старался	-10.8559
-4	-10.8565
▁предприятий	-10.857
▁сторона	-10.8571
▁коня	-10.8572
мент	-10.8572
▁судьбу	-10.8574
▁пору	-10.8574
▁обстановке	-10.8576
▁эволюции	-10.8576
пу	-10.8581
▁Васильевич	-10.8581
▁Маркс	-10.8583
▁Крым	-10.8587
▁вера	-10.8588
клад	-10.8589
▁счастью	-10.8589
▁народы	-10.859
▁u	-10.8591
▁молодые	-10.8592
▁интервью	-10.8594
▁риск	-10.8595
▁войн	-10.8603
▁звезды	-10.8603
▁учитель	-10.8604
запад	-10.8605
▁благ	-10.8613
▁весело	-10.8615
ae	-10.8616
▁клетки	-10.8618
tion	-10.8619
▁степень	-10.8621
▁поднялся	-10.8622
тельных	-10.8623
▁скажу	-10.8626
▁Роман	-10.8627
▁1936	-10.8628
порт	-10.8629
▁сотрудников	-10.8636
▁ехать	-10.8637
▁кости	-10.8637
▁поддерживать	-10.8642
▁событие	-10.8643
▁став	-10.8644
84	-10.8645
71	-10.865
дол	-10.8653
▁секунд	-10.8656
▁десятки	-10.8657
▁John	-10.8659
Но	-10.8659
ru	-10.8663
▁призван	-10.8663
▁храма	-10.8663
▁христиан	-10.8664
▁ge	-10.8668
пел	-10.8669
ающие	-10.8669
▁называть	-10.8672
нс	-10.8672
den	-10.8672
▁попасть	-10.8673
▁Павла	-10.8674
▁являлся	-10.8677
▁смотрит	-10.8677
чка	-10.8678
▁западных	-10.8679
▁позиций	-10.8679
пон	-10.868
der	-10.8681
▁бал	-10.8681
▁Китае	-10.8682
▁планеты	-10.8682
шт	-10.8684
▁убежден	-10.8689
▁вспоминал	-10.8692
▁Запад	-10.8696
▁тел	-10.8697
▁отправил	-10.8699
▁best	-10.87
▁вынуждены	-10.8701
▁перехода	-10.8704
ill	-10.8704
▁Юго	-10.8706
▁появления	-10.8706
2,	-10.8706
▁группой	-10.8708
▁Командир	-10.871
▁единство	-10.871
▁Востока	-10.8711
▁создан	-10.8711
▁прошлое	-10.8711
кус	-10.8712
▁предметов	-10.8712
▁кадров	-10.8715
▁Иоанна	-10.8716
▁хватало	-10.8717
ny	-10.8718
▁указал	-10.8719
▁ЗА	-10.8719
▁воспоминания	-10.8719
ования	-10.872
▁немецкий	-10.8721
ющимся	-10.8721
▁Работа	-10.8724
▁американской	-10.8725
ром	-10.8725
▁дыхание	-10.8725
▁недалеко	-10.8726
▁девять	-10.8729
▁took	-10.8729
▁изменение	-10.8733
▁героев	-10.8733
▁сидели	-10.8735
щем	-10.8736
ведение	-10.8737
▁400	-10.8737
▁кос	-10.8737
ложить	-10.874
tor	-10.874
▁вступил	-10.8741
▁блок	-10.8743
▁усилий	-10.8743
▁компания	-10.8744
▁Шу	-10.8747
▁Мало	-10.8747
▁Ch	-10.8748
пп	-10.8749
▁отряды	-10.875
▁уравнения	-10.8752
▁природу	-10.8752
▁отдыха	-10.8757
▁случая	-10.8758
анти	-10.8759
няя	-10.8762
ял	-10.8763
▁book	-10.8763
▁регулярно	-10.8763
скій	-10.8763
£	-10.8766
▁связей	-10.8766
unt	-10.8772
▁жен	-10.8775
▁явлений	-10.8775
▁экспедиции	-10.8776
▁second	-10.8779
▁Ши	-10.8779
▁детям	-10.8779
▁разу	-10.8781
если	-10.8786
▁скал	-10.8787
▁Больше	-10.8788
▁существовать	-10.8788
▁early	-10.879
▁открытия	-10.8794
▁Тебе	-10.8794
▁особое	-10.8795
▁получаем	-10.8796
ическому	-10.8797
▁Наш	-10.8799
▁микро	-10.88
▁неправильно	-10.8801
▁дам	-10.8801
▁вопросом	-10.8802
61	-10.8802
▁братья	-10.8804
▁многим	-10.8806
днев	-10.8806
▁начальником	-10.8808
плат	-10.8809
▁военным	-10.8813
▁программ	-10.8813
▁твоей	-10.8815
▁семью	-10.8816
▁английский	-10.8817
▁общения	-10.8817
▁двора	-10.8817
▁качество	-10.8818
▁ожидать	-10.8825
▁One	-10.8826
▁лежал	-10.8827
▁мат	-10.8828
летний	-10.8828
ити	-10.8833
▁1991	-10.8836
▁специалистов	-10.8842
▁дворец	-10.8846
▁устройства	-10.8847
▁общественной	-10.8848
▁Новый	-10.885
▁help	-10.8853
und	-10.8853
▁епископ	-10.8853
▁public	-10.8853
▁отцом	-10.8854
▁человеке	-10.8858
▁человеческих	-10.8863
▁Солнце	-10.8865
▁составляют	-10.8865
▁движении	-10.8868
▁предназначен	-10.8868
▁меньшей	-10.8872
мел	-10.8872
53	-10.8872
▁спец	-10.8873
▁встречается	-10.8874
▁ворота	-10.8874
▁одежду	-10.8875
▁Го	-10.8877
▁изменений	-10.8881
▁Ro	-10.8882
▁убийства	-10.8883
ником	-10.8883
▁высоте	-10.8886
▁восьми	-10.8887
▁личной	-10.8889
▁занимает	-10.8892
ош	-10.8893
▁Гос	-10.8893
▁Ma	-10.8894
▁Кал	-10.8901
▁сознании	-10.8902
▁]	-10.8902
▁многочисленных	-10.8903
76	-10.8904
▁ne	-10.8907
▁going	-10.8907
▁французский	-10.8908
▁темно	-10.8908
▁накануне	-10.8909
▁XI	-10.891
лес	-10.8912
жение	-10.8914
Ты	-10.8917
▁делается	-10.8919
▁подразделения	-10.892
▁практики	-10.8921
▁первоначально	-10.8923
▁пехоты	-10.8923
▁металл	-10.8926
▁Точно	-10.8927
▁Святого	-10.8929
▁сахар	-10.8929
▁правой	-10.8931
▁does	-10.8934
▁План	-10.8935
▁Одновременно	-10.8937
ску	-10.8937
▁Одним	-10.8938
▁применение	-10.8939
▁участке	-10.8939
▁встречаются	-10.8942
тельная	-10.8943
▁ровно	-10.8944
▁мороз	-10.8946
▁стремится	-10.8948
▁ин	-10.8952
▁вернулись	-10.8953
▁источником	-10.8953
руш	-10.8954
▁построен	-10.8955
▁пулемет	-10.8957
▁получать	-10.8959
ay	-10.896
▁продолжа	-10.8962
▁ключ	-10.8962
▁необходимым	-10.8962
▁Вероятно	-10.8966
▁сообщает	-10.8967
Во	-10.8967
▁Пи	-10.8969
▁пле	-10.8969
рак	-10.8969
▁вооруженных	-10.8972
▁глав	-10.8973
ities	-10.8973
▁бороться	-10.8975
▁рек	-10.8976
▁труб	-10.8976
дей	-10.8976
▁всякое	-10.8976
▁товарищи	-10.8977
пит	-10.8978
▁Ar	-10.8978
еев	-10.8979
▁20-	-10.898
▁sub	-10.8981
аж	-10.8983
ову	-10.8984
▁осторожно	-10.8985
▁кампании	-10.8986
іі	-10.8988
▁became	-10.8989
▁Какой	-10.8993
▁самолеты	-10.8993
▁water	-10.8995
▁получив	-10.8996
чиков	-10.8996
▁пита	-10.8997
▁наклон	-10.8997
вет	-10.8999
▁юг	-10.9001
uc	-10.9001
▁союза	-10.9003
▁остаются	-10.9004
▁правительственн	-10.9005
▁проб	-10.9006
▁проход	-10.9007
▁спасения	-10.9014
▁Pro	-10.9014
▁особ	-10.9015
▁месту	-10.9016
▁телом	-10.9016
▁сентябре	-10.9016
54	-10.9017
▁приход	-10.9018
нную	-10.9019
▁ро	-10.9019
▁тени	-10.902
▁жертву	-10.9021
▁духовного	-10.9022
▁статей	-10.9025
▁использовал	-10.9026
руб	-10.9026
▁улицу	-10.9027
▁спрашивает	-10.9027
▁вол	-10.9028
-5	-10.9029
▁привел	-10.903
лі	-10.9032
▁бывают	-10.9033
▁заболевания	-10.9033
▁нашими	-10.9035
▁привык	-10.9036
ине	-10.9037
▁Другие	-10.9037
▁деятель	-10.9041
фр	-10.9041
▁думает	-10.9043
sk	-10.9043
▁деревьев	-10.9044
▁детали	-10.9045
▁ответила	-10.9046
▁разрушен	-10.905
▁0.	-10.9051
▁non	-10.9053
▁удовольствие	-10.9055
оны	-10.9056
▁называл	-10.9056
▁школ	-10.9059
ang	-10.9059
ании	-10.906
▁создании	-10.9061
ha	-10.9061
sen	-10.9061
▁сп	-10.9063
▁выступления	-10.9063
▁общественных	-10.9064
▁Александрович	-10.9065
▁убить	-10.9066
▁границ	-10.9068
▁Закон	-10.9068
▁Ta	-10.9069
сн	-10.9073
▁откровенно	-10.9075
зин	-10.9076
▁питания	-10.9077
нная	-10.9078
▁Народ	-10.9078
▁борт	-10.908
▁слушать	-10.908
▁высших	-10.9081
if	-10.9083
ina	-10.9084
зен	-10.9084
ота	-10.9085
▁ВКП	-10.9085
▁повод	-10.9086
телю	-10.9089
ящий	-10.9091
ow	-10.9092
▁наблюдать	-10.9094
ог	-10.9094
гал	-10.91
▁купить	-10.91
78	-10.91
▁light	-10.9101
▁Духа	-10.9101
ела	-10.9105
▁case	-10.9106
▁ждет	-10.9107
▁Ср	-10.9107
▁пойдет	-10.9108
▁Ra	-10.9109
▁главнокомандующ	-10.9111
▁cos	-10.9112
▁упорно	-10.9113
▁ed	-10.9114
▁скоростью	-10.9114
58	-10.9117
▁научной	-10.9118
▁мар	-10.9119
▁Кир	-10.9122
▁бизнес	-10.9124
▁команда	-10.9124
fi	-10.9125
▁сутки	-10.9125
▁мастер	-10.9126
▁напоминает	-10.9126
▁луч	-10.9127
▁словах	-10.9129
част	-10.913
▁следы	-10.9132
▁губернии	-10.9133
▁председатель	-10.914
▁переговоров	-10.914
▁взят	-10.9141
▁Великобритании	-10.9142
▁щит	-10.9142
▁Южной	-10.9144
▁вер	-10.9145
▁All	-10.9146
уча	-10.9147
▁среднего	-10.915
▁услов	-10.9152
▁писем	-10.9152
▁появление	-10.9155
▁кофе	-10.9156
закон	-10.9156
▁Му	-10.9158
▁некоторым	-10.9159
▁мн	-10.9161
led	-10.9162
▁позиция	-10.9163
еть	-10.9165
▁хозяин	-10.9165
▁Владимира	-10.9168
щей	-10.9169
▁0,	-10.917
▁ср	-10.9173
яз	-10.9173
▁заявление	-10.9175
▁обман	-10.9175
▁Лондон	-10.9175
кле	-10.9176
нной	-10.9179
▁попытался	-10.9179
бре	-10.9185
▁1980	-10.9186
ати	-10.9186
▁весной	-10.9186
▁отцов	-10.9187
▁стадии	-10.9188
груз	-10.9188
▁зуб	-10.9189
олог	-10.9191
ative	-10.9191
аем	-10.9193
▁дев	-10.9193
як	-10.9195
ющееся	-10.9196
▁выпуск	-10.9198
▁Тан	-10.92
ors	-10.9201
▁спиной	-10.9203
мут	-10.9205
тр	-10.9205
▁команду	-10.9206
▁взаимодействия	-10.9206
▁танк	-10.9207
▁реку	-10.9208
▁бойцов	-10.921
▁сцене	-10.9211
▁напряжения	-10.9213
▁миг	-10.9214
▁Россией	-10.9215
▁третьего	-10.9216
▁Ху	-10.9217
▁лап	-10.9217
▁расчет	-10.9218
▁дважды	-10.9219
▁началу	-10.922
▁выводу	-10.9221
▁удастся	-10.9226
▁ль	-10.9226
▁64	-10.9232
▁январе	-10.9232
▁высоких	-10.9233
▁вызвал	-10.9236
▁даст	-10.9237
▁Следует	-10.9237
чная	-10.9239
▁Хан	-10.924
▁трое	-10.924
▁аппарата	-10.9241
▁Помимо	-10.9243
▁гром	-10.9243
▁десант	-10.9244
▁успели	-10.9244
▁декабре	-10.9246
▁Казалось	-10.9246
▁передачи	-10.9247
сан	-10.9247
▁капитана	-10.9249
▁большими	-10.9249
▁окажется	-10.9251
▁ждал	-10.9253
▁товаров	-10.9253
▁назначения	-10.9253
▁ведут	-10.9254
▁Украине	-10.9256
▁важные	-10.9256
▁жир	-10.9256
▁культуре	-10.9257
▁Ай	-10.926
▁пытаясь	-10.9261
▁Кап	-10.9261
иста	-10.9262
▁(4	-10.9262
▁Петрович	-10.9263
▁course	-10.9264
▁утверждение	-10.9265
нар	-10.9266
▁октябре	-10.9268
леж	-10.9269
▁Центр	-10.9269
▁желая	-10.9269
▁кровью	-10.927
▁отдельно	-10.9272
▁французской	-10.9273
▁vol	-10.9275
▁пребывания	-10.9275
▁изначально	-10.9276
▁железной	-10.9277
▁Сар	-10.9282
▁выбора	-10.9284
иде	-10.9284
дж	-10.9285
▁Часть	-10.9285
$	-10.9288
▁монастырь	-10.9288
▁издания	-10.9291
▁нач	-10.9294
▁плав	-10.9294
▁(16	-10.9296
▁вв	-10.9296
▁хвост	-10.9297
оф	-10.9298
▁точнее	-10.9299
▁прим	-10.9299
▁Западе	-10.9299
▁заключения	-10.9302
▁крас	-10.9303
▁ще	-10.9303
▁ранга	-10.9306
▁определенные	-10.9308
Он	-10.9308
▁непо	-10.931
▁Ок	-10.9314
крыл	-10.9315
/2	-10.9315
▁необходимые	-10.9316
▁person	-10.9318
▁перенос	-10.9322
▁капитал	-10.9325
▁Ge	-10.9325
▁описания	-10.9327
92	-10.9327
▁проявления	-10.9328
▁since	-10.9329
цией	-10.9331
▁долю	-10.9333
▁идеал	-10.9334
▁1970	-10.9335
▁кат	-10.9337
▁расход	-10.9337
▁мистер	-10.9341
глядыва	-10.9342
▁бывших	-10.9344
ip	-10.9344
▁французского	-10.9353
▁фильма	-10.9354
ii	-10.9356
еп	-10.9358
▁капитала	-10.9359
▁большом	-10.936
▁следующем	-10.9364
▁показалось	-10.9365
▁жертвы	-10.9365
07	-10.9368
▁создавать	-10.9369
▁крик	-10.937
▁обстоятельствах	-10.9371
веден	-10.9372
▁белые	-10.9372
▁поняли	-10.9373
▁осенью	-10.9374
▁обусловлен	-10.9374
▁кожи	-10.9375
▁Эн	-10.9376
▁Пу	-10.9378
▁срочно	-10.9382
▁встреч	-10.9384
мал	-10.9385
▁второе	-10.9385
▁рос	-10.9388
▁Die	-10.9388
▁равна	-10.9388
хим	-10.9389
▁вернуть	-10.9391
рет	-10.9392
▁бесконечно	-10.9392
▁пи	-10.9392
▁границе	-10.9394
▁членом	-10.9395
▁науке	-10.9395
▁забыл	-10.9397
▁редактор	-10.9399
▁1960	-10.94
▁собрать	-10.9401
▁World	-10.9402
▁английского	-10.9405
▁пароход	-10.9406
▁Церковь	-10.9407
▁прошу	-10.9407
▁Запада	-10.9407
▁провинции	-10.9408
Ис	-10.9411
▁берегов	-10.9414
совет	-10.9416
▁автомобиль	-10.9417
▁продукты	-10.9419
ват	-10.9421
▁груз	-10.9421
шем	-10.9421
▁бомб	-10.9421
ета	-10.9422
▁чём	-10.9424
57	-10.9425
▁объяснил	-10.9425
▁местные	-10.9426
▁издание	-10.9428
щим	-10.9429
▁пушки	-10.943
▁наказания	-10.943
▁реакция	-10.9431
▁руководителей	-10.9431
▁Дмитрий	-10.9431
▁That	-10.9432
др	-10.9434
▁тыл	-10.9435
▁решать	-10.9437
▁Russia	-10.9437
▁Ри	-10.9439
▁социального	-10.944
▁night	-10.944
▁ВВС	-10.9442
▁выполнить	-10.9443
▁секретарь	-10.9444
ально	-10.9446
▁government	-10.9448
▁парламент	-10.945
▁Man	-10.945
▁подготовке	-10.9451
▁выгод	-10.9452
иф	-10.9452
пят	-10.9453
▁cit	-10.9455
▁культ	-10.9456
▁Федор	-10.9458
▁считая	-10.946
▁полета	-10.9463
▁имею	-10.9463
tro	-10.9465
оч	-10.9467
гла	-10.9467
ніе	-10.9468
▁чьи	-10.9469
▁покой	-10.9469
▁Неужели	-10.9469
▁испытания	-10.947
▁подъем	-10.9478
▁золота	-10.9478
▁цепи	-10.9479
▁функций	-10.9481
▁Мои	-10.9485
▁статью	-10.9486
▁large	-10.9488
▁par	-10.949
▁острове	-10.9493
▁important	-10.9501
анта	-10.9501
▁литература	-10.9504
▁until	-10.9504
▁мусульман	-10.9504
друг	-10.9504
▁победа	-10.9505
▁маневр	-10.9506
▁пределами	-10.9509
▁карты	-10.951
▁тремя	-10.9513
▁работают	-10.9519
▁окно	-10.952
▁повсюду	-10.9521
▁ногу	-10.9521
▁Бе	-10.9522
летнего	-10.9529
▁возникают	-10.9533
93	-10.9533
был	-10.9535
▁смеш	-10.9535
▁суток	-10.9537
▁стремительно	-10.9538
▁принципиально	-10.9539
АН	-10.9539
▁социал	-10.9547
▁next	-10.9547
▁появляются	-10.9548
▁чу	-10.9548
пуск	-10.9548
▁развитию	-10.9549
▁океана	-10.9549
хожу	-10.955
vo	-10.955
▁отцу	-10.955
▁забот	-10.955
▁вино	-10.9551
▁дала	-10.9553
▁принципы	-10.9556
лить	-10.9561
▁Вид	-10.9564
▁левой	-10.957
▁разработан	-10.9571
ницей	-10.9573
▁КГБ	-10.9574
Ну	-10.9575
▁Лю	-10.9576
ара	-10.9576
▁этапе	-10.9579
поль	-10.958
▁городу	-10.9581
▁распоряжение	-10.9582
▁столицы	-10.9583
▁народом	-10.9586
nd	-10.9588
▁1934	-10.9595
енно	-10.9599
дя	-10.96
бур	-10.9601
чем	-10.9604
▁Ми	-10.9605
▁ремонт	-10.9606
овича	-10.9606
▁троп	-10.961
▁школа	-10.9611
▁причинам	-10.9611
айте	-10.9612
▁детства	-10.9612
нки	-10.9616
▁казаков	-10.9618
▁Филипп	-10.9618
▁потребовал	-10.9619
быт	-10.962
▁определенной	-10.962
трен	-10.9622
ведения	-10.9623
▁63	-10.9623
ивший	-10.9624
тяж	-10.9624
▁Куда	-10.9627
▁адмирал	-10.9628
▁знач	-10.9628
▁атом	-10.9629
▁апреле	-10.9629
▁профессиональны	-10.963
▁Первой	-10.9634
▁Земля	-10.9635
▁Петербурге	-10.9636
▁ново	-10.9637
▁сборник	-10.9638
▁1915	-10.9645
▁налогов	-10.9647
7].	-10.9647
ителем	-10.9648
ue	-10.965
▁положил	-10.965
▁руч	-10.965
▁судя	-10.9652
▁заряд	-10.9652
▁Марии	-10.9653
▁человечество	-10.9653
рь	-10.9654
▁двигаться	-10.9655
▁показания	-10.9655
ливо	-10.9659
▁канон	-10.9659
▁62	-10.9659
▁ветра	-10.9659
▁ходил	-10.9661
▁повел	-10.9664
пра	-10.9664
▁РСФСР	-10.9667
▁сделала	-10.9668
бав	-10.9671
▁указ	-10.9671
креп	-10.9672
95	-10.9672
▁зачастую	-10.9673
аков	-10.9674
▁тяжелые	-10.9675
▁сражения	-10.9676
▁Академии	-10.9676
▁американского	-10.9676
ске	-10.9679
вая	-10.9679
▁цветов	-10.9681
▁59	-10.9683
▁категории	-10.9684
▁горизонт	-10.9687
▁Пал	-10.9688
▁воздействие	-10.9689
▁освобожден	-10.969
▁произведение	-10.9691
▁обер	-10.9693
▁1000	-10.9693
▁фланг	-10.9694
▁Какие	-10.9697
▁твоя	-10.9698
▁сна	-10.97
аны	-10.9701
▁комиссар	-10.9701
▁призыв	-10.9702
▁демон	-10.9705
▁царю	-10.9706
▁всячески	-10.9708
▁удивительно	-10.9709
▁\	-10.9709
▁непри	-10.9714
▁1946	-10.9717
▁платье	-10.972
▁молитвы	-10.9722
▁строк	-10.9723
▁печаль	-10.9725
ЕН	-10.9725
▁занять	-10.9726
▁читатель	-10.9729
▁торжественно	-10.9729
чив	-10.973
акт	-10.9731
▁концепции	-10.9733
▁подумать	-10.9733
▁прошла	-10.9733
иан	-10.9734
▁радостно	-10.9734
▁общим	-10.9735
▁получают	-10.9736
1].	-10.9739
▁разрыв	-10.9743
▁Франция	-10.9745
▁Вос	-10.9748
▁(15	-10.9748
73	-10.9753
▁графа	-10.9755
▁political	-10.9761
▁скажет	-10.9762
▁авторы	-10.9763
▁формально	-10.9764
art	-10.9767
▁Вся	-10.9769
▁приказа	-10.9772
▁берет	-10.9772
▁предстояло	-10.9774
▁слез	-10.9775
▁определенных	-10.9777
▁объекта	-10.978
▁Порт	-10.978
bo	-10.978
▁реклам	-10.9781
кую	-10.9781
▁изображение	-10.9782
▁city	-10.9783
▁трав	-10.9785
▁используется	-10.9788
▁шло	-10.9788
пил	-10.9789
одно	-10.979
▁распространение	-10.979
▁учиться	-10.9791
▁протест	-10.9792
▁Рима	-10.9798
▁бежать	-10.98
ft	-10.9805
▁демократии	-10.9807
▁камня	-10.9807
▁Первые	-10.9807
▁восток	-10.9808
▁2008	-10.9809
74	-10.9811
▁НЕ	-10.9811
▁видя	-10.9812
red	-10.9812
▁град	-10.9813
▁information	-10.9813
▁Новгород	-10.9813
▁бежал	-10.9815
вшуюся	-10.9815
емое	-10.9815
▁люб	-10.9817
▁сумму	-10.9817
▁1990	-10.9819
▁мелких	-10.9819
▁разными	-10.982
▁Тро	-10.982
▁духом	-10.982
▁30-	-10.982
▁Na	-10.9822
▁8-	-10.9822
аф	-10.9823
воен	-10.9827
po	-10.9828
▁восстановить	-10.9829
▁лоб	-10.9829
▁огромной	-10.983
▁Мол	-10.983
▁got	-10.9831
▁резерв	-10.9831
▁дер	-10.9833
▁крепость	-10.9834
▁мгновение	-10.9834
3].	-10.9835
нице	-10.9836
▁крикнул	-10.9841
8].	-10.9842
out	-10.9845
▁облик	-10.9846
▁внутрь	-10.9847
▁узнали	-10.9848
▁www	-10.9852
▁обыкновенно	-10.9854
▁мгновенно	-10.9855
▁кратко	-10.9857
▁полку	-10.9857
▁этап	-10.986
▁стиле	-10.986
▁гарнизон	-10.986
▁продукции	-10.9861
▁гос	-10.9863
бан	-10.9863
▁оставив	-10.9864
▁батареи	-10.9864
анов	-10.9865
▁государь	-10.9867
иса	-10.9867
▁любые	-10.9869
▁known	-10.9871
Ма	-10.9872
▁июле	-10.9872
▁нации	-10.9874
▁дворца	-10.9874
▁мил	-10.9875
▁Roman	-10.9878
▁большее	-10.988
▁июне	-10.988
▁признание	-10.9881
▁управлять	-10.9882
дыха	-10.9882
▁театре	-10.9883
▁year	-10.9883
▁био	-10.9886
▁близких	-10.9887
▁настроения	-10.989
▁твое	-10.9891
▁половину	-10.9892
▁бои	-10.9893
▁образован	-10.9893
▁целое	-10.9894
щик	-10.9897
▁европейских	-10.9897
▁Первое	-10.99
кры	-10.9902
▁Михаила	-10.9906
▁собирался	-10.9906
▁que	-10.9912
▁программа	-10.9913
▁произведен	-10.9913
▁единого	-10.9914
щая	-10.9916
▁обнаружили	-10.9916
▁желает	-10.9917
▁1916	-10.9917
▁станут	-10.9918
▁нём	-10.9919
▁Часто	-10.9919
▁пищу	-10.9919
int	-10.9924
▁беседы	-10.9927
▁пилот	-10.9927
▁оборону	-10.9928
▁освобождения	-10.993
▁просит	-10.9931
▁снял	-10.9932
▁морских	-10.9933
▁получали	-10.9934
1]	-10.9936
▁пятьдесят	-10.9937
▁сержант	-10.994
▁тексте	-10.9941
цию	-10.9943
▁Юрий	-10.9945
▁половина	-10.9946
▁высшего	-10.9946
▁told	-10.9948
▁похода	-10.9948
▁bar	-10.9949
▁ушли	-10.9949
▁Али	-10.9952
▁сильным	-10.9953
тика	-10.9954
▁включает	-10.9955
ho	-10.9956
є	-10.9957
▁объяснение	-10.9957
▁1925	-10.9961
еле	-10.9961
82	-10.9961
▁великим	-10.9965
▁различными	-10.9965
▁мягко	-10.9965
-18	-10.9966
▁Мил	-10.9966
▁отметил	-10.9967
2].	-10.9967
▁1923	-10.9968
▁обход	-10.997
▁Том	-10.997
„	-10.997
▁once	-10.997
▁небес	-10.9972
сам	-10.9975
сек	-10.9975
▁получал	-10.9975
▁успехом	-10.9976
Так	-10.9976
▁уравнение	-10.9976
▁Весь	-10.9977
▁предполагает	-10.9978
2]	-10.9982
▁академии	-10.9982
тек	-10.9982
дели	-10.9984
▁Главное	-10.9985
▁среднем	-10.999
▁century	-10.9992
▁игр	-10.9992
▁флаг	-10.9995
▁улыбнулся	-10.9997
▁топ	-10.9998
▁Фа	-10.9998
ise	-11
▁остатки	-11.0001
▁повтор	-11.0001
дет	-11.0001
них	-11.0001
нять	-11.0001
▁Вдруг	-11.0002
емая	-11.0003
▁восприятия	-11.0004
▁высокие	-11.0008
▁монарх	-11.0009
▁войти	-11.0012
▁грудь	-11.0015
▁Моя	-11.0016
▁позади	-11.0016
▁свобода	-11.0016
▁западной	-11.0017
ыш	-11.0017
▁though	-11.0021
▁отправлен	-11.0022
▁Восток	-11.0022
лейтенант	-11.0023
▁официально	-11.0024
▁By	-11.0025
▁1935	-11.0026
▁твоего	-11.0027
▁национального	-11.0027
▁квартиру	-11.0028
▁пьян	-11.0028
тем	-11.003
▁российской	-11.0031
▁реализации	-11.0031
▁лучшие	-11.0031
▁опубликован	-11.0032
▁Ростов	-11.0035
▁справедливости	-11.0037
▁Май	-11.0038
▁песен	-11.0039
▁1956	-11.0039
▁Другой	-11.0039
тя	-11.004
▁низ	-11.0042
езд	-11.0042
эл	-11.0043
ключи	-11.0044
очный	-11.0045
▁Сил	-11.0047
▁Ум	-11.0051
▁русская	-11.0054
▁находит	-11.0056
▁Прав	-11.0057
▁обращение	-11.0057
▁некий	-11.0063
▁собственную	-11.0065
▁ряде	-11.0067
▁учеников	-11.0067
▁охотно	-11.0068
▁following	-11.007
▁принц	-11.0072
чь	-11.0072
▁определяет	-11.0074
▁полки	-11.0076
▁заставляет	-11.0076
▁скот	-11.0077
▁покоя	-11.0079
▁стене	-11.0079
еш	-11.0082
▁заключен	-11.0082
▁созна	-11.0084
▁максимально	-11.0084
ga	-11.0085
▁признаки	-11.0086
▁ордена	-11.0086
хотя	-11.0087
▁примет	-11.0088
▁давления	-11.009
▁советский	-11.009
▁числу	-11.009
эк	-11.009
▁используя	-11.0092
▁АН	-11.0093
▁поднять	-11.0093
ible	-11.0094
жил	-11.0094
▁известен	-11.0095
▁используют	-11.0096
▁Петров	-11.0097
▁выяснилось	-11.0099
▁полковника	-11.0101
▁сельскохозяйств	-11.0102
▁among	-11.0102
иды	-11.0102
▁составляли	-11.0102
▁краю	-11.0103
▁позволяют	-11.0103
▁поезд	-11.0103
▁происхождение	-11.0108
▁газета	-11.0109
51	-11.0111
▁казни	-11.0112
▁1968	-11.0113
▁ткани	-11.0114
▁кризиса	-11.0116
▁див	-11.0116
▁1929	-11.0117
▁поиск	-11.0119
кого	-11.0121
▁охраны	-11.0123
▁искусстве	-11.0129
оса	-11.0129
▁нарушения	-11.0129
очные	-11.013
▁следовать	-11.0131
▁лад	-11.0133
▁упал	-11.0133
▁кожа	-11.0133
▁від	-11.0133
ric	-11.0134
пат	-11.0135
ell	-11.0135
▁достоинства	-11.0138
▁командовал	-11.014
▁mind	-11.0142
▁upon	-11.0143
▁66	-11.0143
▁крестьяне	-11.0145
▁side	-11.0145
za	-11.0146
▁возвращения	-11.0147
▁зап	-11.0149
▁Жив	-11.0149
чан	-11.0151
▁задание	-11.0152
▁битвы	-11.0153
бра	-11.0155
▁Большой	-11.0158
▁Книга	-11.0159
▁общин	-11.016
очной	-11.016
▁показывают	-11.0162
▁доказательства	-11.0164
▁основы	-11.0164
ide	-11.0165
▁History	-11.0167
▁феврале	-11.017
▁использовали	-11.017
▁восстание	-11.017
▁делами	-11.0173
▁подходит	-11.0175
▁предложен	-11.0176
▁любить	-11.0177
▁справа	-11.0177
▁понимали	-11.0177
▁представлял	-11.0177
▁кивнул	-11.0178
▁видела	-11.0179
цел	-11.018
▁квартире	-11.0181
ируем	-11.0183
▁general	-11.0183
культур	-11.0186
▁kind	-11.0191
▁земной	-11.0192
чев	-11.0196
▁трудов	-11.0197
▁using	-11.0199
▁монет	-11.02
▁местного	-11.0201
▁допустить	-11.0202
рабатыва	-11.0205
▁ши	-11.0206
▁вопреки	-11.0207
▁программу	-11.0207
▁добровольно	-11.021
▁сделан	-11.0212
▁поехал	-11.0212
ивать	-11.0214
▁Господи	-11.0214
▁Вал	-11.0215
▁Мама	-11.0216
пло	-11.0216
▁покинул	-11.0219
вала	-11.0219
▁кап	-11.0221
▁проводил	-11.0222
83	-11.0224
▁участок	-11.0226
▁деревья	-11.0226
▁given	-11.0228
▁подвиг	-11.0229
▁звание	-11.023
by	-11.0231
ron	-11.0235
▁возврат	-11.0235
ИН	-11.0235
▁противо	-11.0235
▁Or	-11.0237
▁базы	-11.0239
цвет	-11.024
▁председателя	-11.0241
▁слава	-11.0241
▁счастлив	-11.0242
▁Видимо	-11.0245
08	-11.0245
▁обратил	-11.0246
▁поступил	-11.0246
▁потребность	-11.0249
▁хорошие	-11.025
▁Роберт	-11.0252
▁Гре	-11.0253
▁тема	-11.0256
▁верил	-11.0257
имо	-11.0262
▁многими	-11.0263
▁61	-11.0263
▁методов	-11.0264
лист	-11.0266
▁Русь	-11.0268
▁исторического	-11.027
▁пен	-11.0272
▁сферы	-11.0273
шен	-11.0273
▁Максим	-11.0275
▁жила	-11.0276
▁тайны	-11.028
▁нормально	-11.0281
▁построить	-11.0282
▁сильное	-11.0282
▁Th	-11.0284
▁real	-11.0286
▁лун	-11.0288
▁едино	-11.0288
▁гостей	-11.0292
▁Фу	-11.0293
di	-11.03
алась	-11.0301
▁подготовлен	-11.0301
▁убил	-11.0302
▁структура	-11.0302
▁соединя	-11.0304
народ	-11.0304
тические	-11.0304
▁планов	-11.0305
▁операция	-11.0306
▁такому	-11.0306
▁пос	-11.0307
▁фигуры	-11.0309
▁Григорий	-11.0309
▁инструмент	-11.0309
▁реально	-11.0309
ä	-11.031
▁изо	-11.0314
▁death	-11.0315
▁Федерации	-11.0315
▁13.	-11.0316
Петербург	-11.0317
рес	-11.0317
▁пу	-11.0317
▁массу	-11.0318
мед	-11.0318
▁отлича	-11.0318
граф	-11.0319
▁social	-11.032
▁разговора	-11.0322
центр	-11.0323
▁родной	-11.0323
доб	-11.0324
берт	-11.0324
смотр	-11.0325
▁von	-11.0326
▁точек	-11.0331
▁ученый	-11.0336
▁наряд	-11.0336
▁гибель	-11.0338
▁массив	-11.0338
▁тур	-11.034
▁добра	-11.0342
▁began	-11.0343
кр	-11.0343
Щ	-11.0344
тик	-11.0346
▁источники	-11.0347
сона	-11.035
▁est	-11.0352
▁эфир	-11.0353
▁означало	-11.0354
▁дипломат	-11.0355
вшему	-11.0355
▁судьбе	-11.0357
▁return	-11.0359
▁плоскости	-11.0359
▁канал	-11.036
жит	-11.0362
▁Op	-11.0363
tu	-11.0367
чество	-11.0367
▁центром	-11.037
где	-11.037
▁старшего	-11.037
▁слезы	-11.0372
▁Северо	-11.0373
▁путей	-11.0373
▁хотим	-11.0373
▁сыновей	-11.0378
▁Мед	-11.0381
▁Думаю	-11.0382
▁организовать	-11.0383
пл	-11.0384
▁социализма	-11.0384
▁продолжительно	-11.0385
стях	-11.0385
▁шоссе	-11.0386
эм	-11.0387
▁face	-11.0388
▁look	-11.0388
▁отправились	-11.039
▁следствие	-11.039
▁основа	-11.0391
▁благополучно	-11.0392
▁река	-11.0392
▁побережье	-11.0392
▁куп	-11.0393
9].	-11.0395
▁государя	-11.0397
▁ча	-11.0399
▁направлен	-11.0399
▁Her	-11.0399
▁древности	-11.04
▁снять	-11.04
▁просить	-11.04
▁sh	-11.04
▁находиться	-11.0404
▁£	-11.0404
оне	-11.0405
▁известной	-11.0406
▁нигде	-11.0406
▁законом	-11.0407
▁подтвердил	-11.0409
▁After	-11.0411
▁Антон	-11.0411
нія	-11.0412
▁носит	-11.0414
▁врача	-11.0415
▁приблизительно	-11.0416
▁народных	-11.0418
ича	-11.0419
▁воскликнул	-11.0419
▁ша	-11.0419
▁чувствовать	-11.042
▁действиях	-11.042
▁богатства	-11.0424
▁слух	-11.0425
4].	-11.0426
▁1924	-11.0429
▁обратиться	-11.043
жда	-11.043
▁середины	-11.0431
▁open	-11.0431
▁Божий	-11.0434
вот	-11.0435
▁гал	-11.0435
ема	-11.0435
5].	-11.0437
▁ценность	-11.0442
▁гроб	-11.0443
▁слева	-11.0446
▁евреи	-11.0446
существ	-11.0449
▁посвящен	-11.0449
цар	-11.0451
▁носил	-11.0451
▁эксперимент	-11.0452
нок	-11.0453
▁рабочий	-11.0453
ς	-11.0455
вшимися	-11.0456
▁сведений	-11.0456
▁укрепления	-11.0458
▁ошибка	-11.046
▁камни	-11.0461
▁тяжелых	-11.0462
▁Толстой	-11.0465
▁наполнен	-11.0465
act	-11.0468
▁удобно	-11.0468
▁Спас	-11.0468
▁1932	-11.047
▁читателя	-11.047
▁Un	-11.047
▁труп	-11.0471
tra	-11.0472
тельно	-11.0472
▁Утром	-11.0478
▁иное	-11.0479
▁Мел	-11.0481
▁1975	-11.0482
62	-11.0488
▁мясо	-11.0489
▁начались	-11.0489
▁версии	-11.0491
▁практика	-11.0492
▁проявляется	-11.0493
▁possible	-11.0494
▁славу	-11.0496
▁возникла	-11.0496
нн	-11.0498
енс	-11.0499
лива	-11.05
▁обращен	-11.05
ual	-11.0502
▁критики	-11.0503
▁room	-11.0503
ностей	-11.0504
▁танка	-11.0504
Ко	-11.0506
▁ноябре	-11.0508
▁Цар	-11.051
ці	-11.0517
▁рай	-11.0518
▁воля	-11.0518
▁1973	-11.0519
▁мышц	-11.052
▁средней	-11.052
»...	-11.0521
▁вначале	-11.0521
▁кредит	-11.0521
▁бояр	-11.0523
▁урок	-11.0523
▁1967	-11.0523
▁поисках	-11.0525
▁принимали	-11.0525
▁сестры	-11.0525
▁любят	-11.0526
▁женщину	-11.0526
силь	-11.0527
бал	-11.0528
▁культур	-11.0528
ep	-11.053
ik	-11.0531
▁стоять	-11.0533
ex	-11.0533
▁Лондоне	-11.0536
1,	-11.0536
▁along	-11.0536
▁within	-11.0537
1)	-11.0539
ns	-11.0539
▁Германию	-11.0541
▁офицера	-11.0541
port	-11.0542
▁ценностей	-11.0543
▁let	-11.0544
▁Начальник	-11.0545
дела	-11.0545
▁присутствии	-11.0546
чку	-11.0546
▁противником	-11.0548
ship	-11.0548
▁начался	-11.055
▁верст	-11.0552
▁худ	-11.0553
3]	-11.0554
▁состоя	-11.0555
▁результатом	-11.0555
майор	-11.0555
▁колхоз	-11.0556
▁остановить	-11.0557
хват	-11.0557
▁Дар	-11.0559
▁позор	-11.0559
▁Se	-11.0562
6].	-11.0563
аешь	-11.0563
ворачива	-11.0565
▁пола	-11.0566
ana	-11.0567
▁превосход	-11.0568
▁областях	-11.0568
▁капиталистическ	-11.0569
▁типов	-11.0571
▁моменты	-11.0572
▁углу	-11.0574
▁Военно	-11.0576
▁мал	-11.0578
▁газете	-11.0581
▁Юр	-11.0581
рю	-11.0581
тянут	-11.0581
чика	-11.0583
bi	-11.0583
▁неизменно	-11.0583
▁class	-11.0584
all	-11.0585
▁факторов	-11.0586
▁судно	-11.0587
▁двум	-11.059
▁решила	-11.0591
ster	-11.0592
▁круга	-11.0593
▁красно	-11.06
▁городом	-11.0601
▁шанс	-11.0601
▁величины	-11.0606
▁занимал	-11.0607
▁воспользоваться	-11.0607
▁2010	-11.0608
▁людях	-11.0608
▁67	-11.0609
▁days	-11.0609
▁Крас	-11.061
▁масштаб	-11.0612
▁друж	-11.0612
▁особый	-11.0616
ающих	-11.0619
▁учреждения	-11.0623
▁оставили	-11.0623
тай	-11.0624
ley	-11.0626
▁несколькими	-11.0627
▁ru	-11.0627
енными	-11.0628
▁собаки	-11.0629
▁полет	-11.063
нима	-11.0633
▁описан	-11.0633
▁1979	-11.0633
▁курса	-11.0634
ани	-11.0637
▁стан	-11.0638
▁дождь	-11.064
▁миллиона	-11.0642
вай	-11.0642
▁полтора	-11.0644
▁заговор	-11.0644
▁нужда	-11.0645
▁американский	-11.0646
арь	-11.0646
▁владения	-11.0647
▁72	-11.065
▁стиль	-11.0652
ization	-11.0653
▁ждали	-11.0653
vi	-11.0653
pro	-11.0654
ушки	-11.0654
▁властей	-11.0656
▁Святой	-11.0656
▁land	-11.0657
ющем	-11.0659
▁1978	-11.0661
▁объяснения	-11.0663
▁Две	-11.0663
▁протянул	-11.0666
пас	-11.0669
НА	-11.067
▁звуки	-11.0672
▁строки	-11.0673
▁плат	-11.0674
▁Лучше	-11.0674
▁обнаружен	-11.0677
▁Московского	-11.0677
▁защит	-11.0678
▁Кра	-11.0679
нным	-11.0679
▁Ей	-11.0679
▁путешествия	-11.068
▁существовало	-11.0682
▁Санкт	-11.0683
ile	-11.0684
▁Год	-11.0685
▁реальной	-11.0685
▁командующий	-11.0687
▁ущерб	-11.0687
▁become	-11.0687
ляр	-11.0688
▁простор	-11.0692
▁узнав	-11.0696
чок	-11.0696
▁любую	-11.0698
▁переправ	-11.0699
ьной	-11.0699
▁экономического	-11.0701
▁птицы	-11.0701
va	-11.0702
ін	-11.0703
ab	-11.0706
//	-11.0707
▁войной	-11.0707
▁игру	-11.0707
▁процент	-11.0708
▁распространен	-11.071
▁рынка	-11.071
▁поставлен	-11.071
▁духов	-11.0714
▁машине	-11.0715
▁появилось	-11.0716
▁ведения	-11.0716
▁удовольствием	-11.0716
▁line	-11.0716
▁династии	-11.0718
▁control	-11.0719
ощ	-11.072
▁перешел	-11.0721
▁глас	-11.0722
▁чести	-11.0722
▁партию	-11.0724
▁огне	-11.0727
▁газа	-11.0729
работ	-11.073
▁Жен	-11.0731
▁military	-11.0733
▁зимой	-11.0734
▁Интересно	-11.0735
▁землей	-11.0737
▁прочие	-11.0743
▁выража	-11.0743
▁history	-11.0744
▁пленных	-11.0745
▁отмечал	-11.0748
▁известного	-11.075
ОВ	-11.0752
▁тезис	-11.0753
▁Гра	-11.0755
▁выразил	-11.0758
▁собственный	-11.0758
▁глубин	-11.0759
▁самыми	-11.0762
▁1928	-11.0763
анд	-11.0763
ings	-11.0764
▁очереди	-11.0764
ящие	-11.0764
▁Вторая	-11.077
▁десятилетия	-11.0771
▁частях	-11.0775
▁1927	-11.0775
▁тридцати	-11.0777
▁музыка	-11.0777
▁Греции	-11.0777
жд	-11.0778
▁объясняется	-11.0779
▁танковой	-11.0779
▁лег	-11.0781
▁рынок	-11.0784
▁учетом	-11.0787
фф	-11.079
▁уходит	-11.0794
▁закону	-11.0795
▁лошадь	-11.0795
▁плечи	-11.0797
▁air	-11.0799
▁чудо	-11.0801
▁My	-11.0803
▁British	-11.0804
▁ѵ	-11.0804
ящих	-11.0805
▁Риме	-11.0805
▁осуществить	-11.0807
▁белый	-11.0807
▁профессионально	-11.0808
è	-11.0809
▁друзьями	-11.0815
▁пригласил	-11.0815
▁Ь	-11.0817
▁практику	-11.0817
od	-11.0817
▁обращения	-11.0819
тый	-11.082
▁исполнение	-11.0822
▁последним	-11.0825
▁слушал	-11.0826
▁активности	-11.0827
▁девочка	-11.0827
ph	-11.0827
▁невольно	-11.0827
щиков	-11.083
▁музыки	-11.083
▁убийство	-11.0831
▁bo	-11.0833
очного	-11.0833
▁Кос	-11.0834
▁студентов	-11.0834
кла	-11.0839
▁сделает	-11.084
▁добавить	-11.084
▁ten	-11.0841
водил	-11.0841
▁уехал	-11.0842
▁новыми	-11.0844
▁несет	-11.0845
og	-11.0847
чков	-11.0847
ьем	-11.085
ице	-11.085
▁памятник	-11.0851
▁достал	-11.0851
▁материи	-11.0852
▁хорошего	-11.0854
▁four	-11.0855
усь	-11.0856
▁вышло	-11.0857
▁1950	-11.0857
уди	-11.0857
▁собран	-11.0859
▁посла	-11.0861
▁1953	-11.0861
▁вызван	-11.0861
нит	-11.0861
▁идеолог	-11.0862
▁85	-11.0862
▁1972	-11.0863
мах	-11.0872
▁яко	-11.0873
нье	-11.0873
")	-11.0874
ческой	-11.0874
▁Ме	-11.0879
▁аргумент	-11.088
▁зоны	-11.088
печат	-11.0881
▁военное	-11.0882
▁ок	-11.0884
ey	-11.0884
ивая	-11.0886
▁позвонил	-11.0887
▁образы	-11.0889
▁Мари	-11.0892
▁short	-11.0893
▁шт	-11.0897
▁конструктор	-11.0897
▁двенадцать	-11.0897
ода	-11.0898
▁пакет	-11.0901
унд	-11.0902
▁особых	-11.0902
нья	-11.0905
ёл	-11.0905
tin	-11.0906
▁Иначе	-11.0907
▁Германией	-11.0908
▁видят	-11.0908
спо	-11.0913
▁исчез	-11.0914
▁визит	-11.0915
овка	-11.0916
▁коллег	-11.0916
iz	-11.0916
gu	-11.0917
равн	-11.0917
бен	-11.0919
▁страсти	-11.092
ОН	-11.0921
▁главная	-11.0922
mon	-11.0923
▁детстве	-11.0927
▁долгое	-11.0927
▁наказание	-11.0928
▁обоз	-11.0929
▁пир	-11.0929
▁поражен	-11.0931
настоящему	-11.0932
▁требовал	-11.0932
▁меди	-11.0932
▁аль	-11.0933
▁вторую	-11.0933
ьер	-11.0934
▁°	-11.0934
▁го	-11.0935
▁главные	-11.0936
▁следующей	-11.0937
▁Естественно	-11.0938
▁попали	-11.0943
ko	-11.0944
01	-11.0945
▁Карла	-11.0946
▁children	-11.0947
▁нужды	-11.0948
▁захватить	-11.0948
▁областей	-11.0957
▁воскрес	-11.096
ica	-11.096
числ	-11.0965
▁ставит	-11.0965
▁1926	-11.0965
▁лов	-11.0965
▁перешли	-11.0966
▁ходили	-11.0966
щики	-11.0967
▁7-	-11.0967
▁столб	-11.0972
▁1985	-11.0974
▁смотрели	-11.0975
голов	-11.0976
уя	-11.0977
работа	-11.098
арт	-11.0981
▁утверждения	-11.0983
▁сэр	-11.0984
▁проверить	-11.0986
▁переводе	-11.0987
▁российских	-11.099
▁представил	-11.0995
▁1982	-11.0995
▁утверждать	-11.0996
▁1974	-11.0997
▁предлагает	-11.0997
▁68	-11.0997
▁потребности	-11.0998
▁англичан	-11.1001
▁бок	-11.1002
▁наблюдал	-11.1005
▁сыну	-11.1006
ища	-11.1006
Когда	-11.1006
▁чувствует	-11.1009
▁увидев	-11.1009
▁предан	-11.1009
▁1965	-11.1009
—18	-11.101
▁however	-11.1014
▁Чего	-11.1016
▁установки	-11.1017
ient	-11.1018
▁такъ	-11.1019
4]	-11.1021
шир	-11.1021
▁температура	-11.1021
▁собрал	-11.1022
▁народной	-11.1022
▁Ча	-11.1022
▁дне	-11.1024
▁новому	-11.1024
▁мастера	-11.1025
▁Царь	-11.1027
▁наличии	-11.1028
▁способы	-11.1029
▁ресурсов	-11.1029
▁Берлине	-11.103
▁напряжение	-11.1033
ons	-11.1034
▁следующего	-11.1034
▁жене	-11.1035
▁забыть	-11.1035
▁1961	-11.1035
▁исполнен	-11.1036
люб	-11.1037
▁14.	-11.104
нд	-11.1041
▁найден	-11.1042
▁уст	-11.1043
▁график	-11.1044
аются	-11.1044
▁вал	-11.1044
▁собственным	-11.1048
▁обладают	-11.1048
▁support	-11.1049
▁температуры	-11.1051
▁Солнца	-11.1051
▁фр	-11.1051
▁недолго	-11.1054
▁плод	-11.1056
▁хорошее	-11.1056
▁сочинения	-11.1056
▁ряды	-11.1056
▁являлись	-11.1058
▁Кавказ	-11.1058
▁вирус	-11.1058
05	-11.1058
пт	-11.1059
▁Ca	-11.1061
▁черно	-11.1064
▁мелкие	-11.1065
▁правительством	-11.1065
▁ха	-11.1066
▁юге	-11.1066
▁English	-11.1072
▁проник	-11.1072
▁магнит	-11.1073
▁истинно	-11.1075
▁оставалась	-11.1076
▁командующего	-11.1076
▁районов	-11.1076
▁run	-11.1077
▁актер	-11.1078
▁соответствующие	-11.1078
▁family	-11.1078
▁совершить	-11.108
▁Ск	-11.1081
▁последнюю	-11.1083
▁Смоленск	-11.1084
уг	-11.1085
▁1964	-11.1086
овская	-11.1086
▁режиссер	-11.1087
рия	-11.1088
▁искал	-11.1088
▁сцены	-11.109
▁These	-11.109
▁Иосиф	-11.109
▁дано	-11.1091
▁неудач	-11.1091
▁следующих	-11.1092
▁1983	-11.1093
▁Лен	-11.1094
▁фактов	-11.1094
▁свойств	-11.1095
▁закончил	-11.1096
▁present	-11.1096
ствовать	-11.11
▁виноват	-11.1101
II	-11.1101
▁развива	-11.1103
вез	-11.1103
▁образу	-11.1104
▁смут	-11.1106
6]	-11.1107
▁молодежи	-11.1109
▁древние	-11.111
▁диалог	-11.111
лова	-11.1112
ьян	-11.1113
▁1962	-11.1113
▁Польше	-11.1115
▁Политбюро	-11.1116
вести	-11.1116
▁царства	-11.1118
▁помнить	-11.1119
▁признан	-11.112
очных	-11.112
рид	-11.1121
▁отличаются	-11.1122
▁Давид	-11.1122
▁звучит	-11.1123
▁жал	-11.1123
▁политический	-11.1123
7]	-11.1125
▁общие	-11.1125
▁Буд	-11.1126
▁гидро	-11.1127
▁Mo	-11.1128
▁лицу	-11.113
Па	-11.113
▁вблизи	-11.113
▁чувствую	-11.113
▁писали	-11.1133
ya	-11.1135
▁1969	-11.1135
03	-11.1135
▁угла	-11.114
▁военную	-11.1141
▁раненых	-11.1141
▁Вечером	-11.1143
of	-11.1143
▁издан	-11.1145
▁ver	-11.1147
▁отделение	-11.1148
▁понимают	-11.1148
▁думали	-11.115
бург	-11.1151
▁тылу	-11.1151
▁вып	-11.1151
вѣ	-11.1152
мель	-11.1153
▁лед	-11.1156
▁Ver	-11.1157
добр	-11.1158
▁ислам	-11.1158
▁приведен	-11.1162
▁получится	-11.1166
▁характеристики	-11.1166
▁третьей	-11.1168
▁различ	-11.117
▁предметом	-11.117
▁грубо	-11.1171
▁основным	-11.1171
▁подписан	-11.1172
▁годами	-11.1174
▁основан	-11.1177
res	-11.1178
▁интересах	-11.1178
тре	-11.1179
▁государственный	-11.1179
▁горах	-11.118
mm	-11.118
▁теорию	-11.1181
▁колон	-11.1181
▁предстоит	-11.1181
▁патриот	-11.1182
▁лит	-11.1189
▁пожалуйста	-11.1189
▁Dr	-11.1189
▁1931	-11.1191
▁независимость	-11.1192
▁глагол	-11.1193
ведом	-11.1193
ris	-11.1193
▁Сал	-11.1194
▁выступал	-11.1195
▁газов	-11.1196
тельной	-11.1197
▁United	-11.1199
▁cl	-11.1199
ицу	-11.12
нен	-11.1203
▁былъ	-11.1208
▁Около	-11.1209
▁ударил	-11.1209
▁схватил	-11.1211
▁ad	-11.1213
▁Ibid	-11.1213
▁69	-11.1214
▁порыв	-11.1215
09	-11.1215
ick	-11.1216
▁похож	-11.1217
▁занимались	-11.1217
▁предел	-11.1217
▁ти	-11.1221
▁собрались	-11.1222
аг	-11.1222
▁нормы	-11.1224
▁закричал	-11.1224
КИ	-11.1225
бить	-11.1225
▁Николаев	-11.1227
▁окончил	-11.1229
▁базе	-11.1229
▁уверенность	-11.1229
даль	-11.123
▁рассказа	-11.1231
есь	-11.1231
▁сколь	-11.1233
wa	-11.1234
▁1984	-11.1238
▁Рай	-11.1238
▁пас	-11.1239
ающий	-11.124
яс	-11.1241
▁карт	-11.1242
▁буд	-11.1243
▁1977	-11.1243
▁Наверное	-11.1245
▁выпуска	-11.1246
▁гр	-11.1247
▁El	-11.1248
атив	-11.125
▁1948	-11.1251
служ	-11.1251
ставлен	-11.1251
▁удается	-11.1254
ческих	-11.1257
▁князей	-11.1259
▁состоял	-11.126
▁продолжил	-11.126
лав	-11.1261
▁разно	-11.1263
▁Жуков	-11.1267
ставля	-11.1267
ans	-11.1268
▁спирт	-11.1268
▁повести	-11.1268
▁1957	-11.1272
пущен	-11.1273
way	-11.1275
▁Ваше	-11.1275
▁желал	-11.1276
▁Бр	-11.1278
писыва	-11.1279
способ	-11.128
▁Вин	-11.1281
▁марш	-11.1282
▁разряд	-11.1282
▁расположение	-11.1283
▁радостью	-11.1283
щее	-11.1283
▁целого	-11.1287
91	-11.1289
▁клеток	-11.1291
▁1987	-11.1295
▁фундамент	-11.1297
крест	-11.1298
инской	-11.1301
▁вашу	-11.1301
▁толпы	-11.1303
ером	-11.1303
▁обнаружить	-11.1303
ере	-11.1303
▁ворон	-11.1304
▁сопровожда	-11.1304
жать	-11.1309
▁Необходимо	-11.131
▁последняя	-11.131
▁журнале	-11.1311
▁описывает	-11.1311
▁сидя	-11.1311
▁частями	-11.1314
▁важный	-11.1314
▁love	-11.1316
▁собственное	-11.1316
▁намерения	-11.1317
рог	-11.1318
▁мертв	-11.1318
▁че	-11.1318
▁установил	-11.1318
▁священник	-11.1319
▁Бра	-11.132
▁удавалось	-11.1322
тей	-11.1324
▁образов	-11.1324
▁}	-11.1325
▁Боже	-11.1325
▁держал	-11.1326
▁better	-11.1326
▁спину	-11.1328
▁религия	-11.1328
революцион	-11.1328
▁депутатов	-11.1329
-10	-11.133
▁присутствие	-11.133
▁кров	-11.1331
lu	-11.1332
▁выяснить	-11.1333
▁Ад	-11.1333
хов	-11.1334
▁избавиться	-11.1336
ТИ	-11.1336
▁2009	-11.1337
▁выводы	-11.1339
▁СО	-11.1339
▁others	-11.134
▁потряс	-11.134
▁лагере	-11.134
▁den	-11.134
▁провод	-11.1341
дент	-11.1341
▁изучение	-11.1341
▁Pa	-11.1341
▁повторил	-11.1342
▁реформы	-11.1353
▁оценить	-11.1354
▁христианства	-11.1355
▁слуг	-11.1357
писал	-11.1359
чал	-11.1361
▁технологии	-11.1362
▁сидеть	-11.1365
▁гад	-11.1365
▁падения	-11.1365
▁Mar	-11.1367
▁соединений	-11.1368
▁вспоминает	-11.1368
▁бомбы	-11.137
зелен	-11.1373
▁провели	-11.1373
▁Аль	-11.1373
▁масла	-11.1374
▁Ак	-11.1374
▁give	-11.1375
ишься	-11.1376
▁славы	-11.1376
▁произвол	-11.1376
ei	-11.1376
▁пункта	-11.1378
▁свидетельства	-11.1379
ходит	-11.138
сель	-11.138
▁баб	-11.1381
ительная	-11.1384
▁зам	-11.1384
▁10-	-11.1386
▁дум	-11.1387
▁выстрел	-11.1387
американ	-11.1389
итов	-11.1389
▁снарядов	-11.139
верен	-11.1391
▁1971	-11.1391
94	-11.1391
лён	-11.1391
▁выбран	-11.1391
▁Эту	-11.1393
▁лож	-11.1395
▁Скорее	-11.1396
Вот	-11.1399
▁племени	-11.1399
▁десят	-11.1399
▁разобраться	-11.1399
▁бывало	-11.14
▁жестоко	-11.1401
▁фигура	-11.1401
атов	-11.1402
▁Позже	-11.1403
▁заместитель	-11.1403
гляд	-11.1405
гли	-11.1406
▁единиц	-11.1406
зв	-11.1406
ико	-11.1406
▁main	-11.1409
▁возникновения	-11.141
▁Ред	-11.1411
▁простых	-11.1412
▁конструкции	-11.1413
▁сомнений	-11.1417
ава	-11.1417
▁house	-11.1417
▁психологии	-11.1418
0].	-11.1419
▁ел	-11.1421
5]	-11.1421
раст	-11.1422
▁городской	-11.1423
amp	-11.1425
лил	-11.1426
▁эмоции	-11.1427
▁матерью	-11.1428
▁предков	-11.1428
▁250	-11.1429
ists	-11.143
реб	-11.1431
8]	-11.1431
▁украшен	-11.1432
▁требовалось	-11.1433
▁слухи	-11.1435
▁бригада	-11.1436
▁постели	-11.1437
▁чудес	-11.1437
▁реш	-11.1439
несла	-11.1439
fe	-11.1439
▁цены	-11.144
▁любых	-11.1441
▁страда	-11.1443
▁Обо	-11.1448
ВА	-11.1449
гун	-11.1451
▁дорож	-11.1453
▁играли	-11.1454
▁поговорить	-11.1456
гн	-11.1457
ард	-11.1461
▁--	-11.1462
носил	-11.1463
▁обвинения	-11.1464
▁экономических	-11.1465
▁надежда	-11.1467
▁q	-11.1467
▁съезда	-11.1468
▁русскими	-11.1469
▁зависимость	-11.147
▁исходя	-11.147
AR	-11.147
▁Слова	-11.1473
▁горд	-11.1473
▁педагог	-11.1477
▁Bar	-11.1477
▁хозяйство	-11.1478
▁ro	-11.1478
▁французских	-11.1478
бат	-11.1479
▁согласие	-11.1479
ї	-11.1479
▁пистолет	-11.1479
пле	-11.148
лай	-11.1481
▁врагом	-11.1482
фир	-11.1484
▁Стр	-11.1485
▁Ne	-11.1485
▁раст	-11.1486
▁возможных	-11.1486
▁body	-11.1486
▁сан	-11.1486
ируется	-11.1487
▁имущества	-11.1488
▁верит	-11.149
ever	-11.1491
▁function	-11.1491
▁1981	-11.1492
▁совести	-11.1493
▁fire	-11.1494
()	-11.1495
▁временно	-11.1497
▁принятия	-11.1499
▁известные	-11.15
▁преодолеть	-11.1502
▁собака	-11.1502
▁bi	-11.1502
▁1976	-11.1503
тка	-11.1503
▁Поль	-11.1509
▁Генрих	-11.151
уда	-11.151
▁основание	-11.1513
▁free	-11.1513
▁войскам	-11.1514
▁состояла	-11.1514
стат	-11.1514
▁столе	-11.1515
!”	-11.1518
▁1947	-11.1518
щад	-11.1518
▁убедить	-11.1518
▁кругу	-11.1518
▁блага	-11.1524
▁умереть	-11.1524
▁Екатерина	-11.1524
дается	-11.1524
▁конфликта	-11.1526
щит	-11.1527
▁физики	-11.1527
▁государством	-11.1528
▁See	-11.153
▁period	-11.153
▁рев	-11.1531
3)	-11.1531
▁признал	-11.1531
▁разрешение	-11.1532
▁сильные	-11.1532
▁осужден	-11.1532
▁норм	-11.1534
▁видите	-11.1537
▁серии	-11.1538
ther	-11.1539
▁размеров	-11.1541
ковский	-11.1541
▁запись	-11.1541
Ин	-11.1541
▁осад	-11.1542
▁свидетельствуют	-11.1543
шими	-11.1544
▁отсутствия	-11.1544
▁хватит	-11.1546
▁просьбой	-11.1547
▁парад	-11.1547
лия	-11.1548
люби	-11.155
▁груд	-11.1551
▁group	-11.1553
▁обязаны	-11.1554
▁измерения	-11.1555
▁легких	-11.1555
инь	-11.1556
▁Известно	-11.1559
▁1958	-11.1559
разум	-11.1559
аций	-11.1561
▁настоящей	-11.1562
▁Образ	-11.1563
▁ma	-11.1565
▁провал	-11.1567
▁сует	-11.1567
▁Бат	-11.1568
нц	-11.157
▁сухо	-11.1571
▁великое	-11.1572
▁замкнут	-11.1576
▁противоречия	-11.1583
РА	-11.1584
идов	-11.1584
▁space	-11.1587
▁рабов	-11.1589
▁отчетливо	-11.1589
соб	-11.1589
▁ever	-11.1591
▁Трудно	-11.1592
▁бе	-11.1593
▁inter	-11.1593
▁кругов	-11.1595
▁изображен	-11.1595
▁1993	-11.1596
▁Наполеона	-11.1596
▁рынке	-11.1598
▁el	-11.1599
▁держа	-11.1599
▁вос	-11.1599
хор	-11.16
▁бюро	-11.16
шн	-11.16
▁различие	-11.1602
▁путешествие	-11.1603
▁имен	-11.1606
шку	-11.1607
▁пил	-11.1608
ag	-11.1613
In	-11.1616
▁слаб	-11.1617
▁Север	-11.1618
tes	-11.1619
▁десятков	-11.1621
▁текстов	-11.1621
▁соглашения	-11.1623
▁1959	-11.1623
уха	-11.1624
▁read	-11.1629
опыт	-11.163
▁единства	-11.1631
кладывать	-11.1632
gi	-11.1632
▁руководил	-11.1633
▁окружающей	-11.1634
екс	-11.1635
ki	-11.1637
▁толпа	-11.1637
ger	-11.1637
▁контексте	-11.1637
▁Ярослав	-11.1638
▁богослов	-11.1639
очку	-11.1639
роз	-11.1641
▁позволить	-11.1641
▁соглашение	-11.1642
▁ограничен	-11.1644
ывать	-11.1645
100	-11.1645
овом	-11.1645
▁фактор	-11.1646
▁условии	-11.1646
▁армян	-11.1647
▁государстве	-11.165
▁направил	-11.165
▁целую	-11.1651
▁профессора	-11.1653
▁Ed	-11.1653
▁код	-11.1655
▁several	-11.1655
▁рассуждения	-11.1655
▁старались	-11.1658
▁saw	-11.1658
▁согласия	-11.1658
▁didn	-11.1659
Ѵ	-11.166
▁имущество	-11.1663
▁упражнения	-11.1665
▁1989	-11.1668
іемъ	-11.1668
НИ	-11.1669
ug	-11.167
▁чувством	-11.167
▁злоб	-11.1671
▁смогут	-11.1673
▁enough	-11.1673
▁1986	-11.1676
▁направля	-11.1677
▁парк	-11.1678
▁христианской	-11.1679
▁1949	-11.1681
▁демократ	-11.1681
▁Письмо	-11.1682
онос	-11.1683
▁быт	-11.1683
▁тюрьме	-11.1684
▁post	-11.1692
▁шагом	-11.1692
▁Павлов	-11.1693
▁объявлен	-11.1695
▁Израиля	-11.1695
▁религиозных	-11.1695
▁переходит	-11.1695
▁сочинений	-11.1697
▁доктора	-11.1697
▁цел	-11.1697
нский	-11.1697
▁оказа	-11.1699
▁подвод	-11.17
мп	-11.1701
▁музей	-11.1701
тона	-11.1704
▁условно	-11.1706
▁ры	-11.1706
▁рассказы	-11.1707
▁награжден	-11.171
▁ha	-11.171
▁объединения	-11.1713
▁красоты	-11.1713
▁Наша	-11.1713
▁Bi	-11.1715
▁хозяина	-11.1716
▁nothing	-11.1717
▁1966	-11.1719
▁побережья	-11.172
▁серьезные	-11.172
пин	-11.172
▁поставили	-11.1724
9]	-11.1724
▁освобождение	-11.1725
▁служат	-11.1727
▁almost	-11.1728
▁элемента	-11.1728
▁1999	-11.173
▁1992	-11.173
▁шагов	-11.173
▁публично	-11.1734
▁орден	-11.1738
▁источника	-11.174
дум	-11.174
▁whole	-11.174
“.	-11.174
▁музыку	-11.1742
▁задания	-11.1742
▁достигает	-11.1745
▁смело	-11.1745
▁Щ	-11.1745
▁общины	-11.1746
предел	-11.1746
▁принят	-11.1746
tal	-11.1746
▁зря	-11.1746
▁Михайлов	-11.1751
▁воины	-11.1753
▁Божия	-11.1753
▁столице	-11.1754
-6	-11.1756
▁требуют	-11.1758
▁предположение	-11.1759
▁Ги	-11.1759
du	-11.176
ага	-11.1761
▁коммунистов	-11.1762
Там	-11.1763
▁Соединенных	-11.1764
▁законодательств	-11.1764
▁приказу	-11.1765
▁магазин	-11.1765
▁карте	-11.1766
вязан	-11.1767
52	-11.1768
▁системой	-11.1769
▁выполнение	-11.1773
▁стакан	-11.1775
енность	-11.1776
нѣ	-11.1776
▁командиром	-11.1777
шко	-11.1778
▁view	-11.1778
▁взвод	-11.1779
▁грехов	-11.178
▁убеждения	-11.178
▁работах	-11.1781
Ар	-11.1783
▁times	-11.1783
▁обуча	-11.1784
само	-11.1786
▁автоматически	-11.1787
▁увидела	-11.1788
▁поста	-11.1788
▁er	-11.1789
ize	-11.1789
▁ожидал	-11.1789
▁болгар	-11.179
▁кругом	-11.179
▁1963	-11.179
▁помогать	-11.1791
ложение	-11.1793
▁©	-11.1795
▁рабочей	-11.1797
▁result	-11.1797
▁внутренние	-11.1797
▁отрядов	-11.1798
▁ставить	-11.1799
▁насилия	-11.1801
опо	-11.1801
▁министров	-11.1803
200	-11.1806
▁мышление	-11.1808
▁Лес	-11.181
▁патриарх	-11.181
▁потеряли	-11.1813
ительные	-11.1815
▁удары	-11.1816
▁already	-11.1818
▁vi	-11.1819
селен	-11.182
стен	-11.182
▁больно	-11.1822
▁маленькие	-11.1822
▁стимул	-11.1823
▁назначение	-11.1829
▁пласт	-11.183
▁внешних	-11.183
ег	-11.1832
▁справ	-11.1832
▁масло	-11.1833
▁остальное	-11.1833
▁понятий	-11.1834
▁стремился	-11.1834
ring	-11.1835
топ	-11.1837
▁автобус	-11.1841
▁rather	-11.1841
▁устройство	-11.1841
▁мальчика	-11.1841
▁обратить	-11.1841
▁young	-11.1843
▁представлений	-11.1844
▁развед	-11.1846
▁Дальше	-11.1848
▁Дев	-11.185
дат	-11.1853
▁истину	-11.1855
▁ряду	-11.1856
ЕМ	-11.1857
▁координат	-11.1858
Де	-11.1858
бель	-11.1859
▁каса	-11.186
▁притом	-11.1863
▁пожал	-11.1863
▁покинуть	-11.1863
▁Ha	-11.1867
ning	-11.1868
▁фамилии	-11.187
▁сердцем	-11.1873
▁кусок	-11.1874
▁правительству	-11.1877
▁движением	-11.1879
▁боги	-11.1882
tre	-11.1882
▁Королев	-11.1883
▁принести	-11.1883
отвор	-11.1884
ивает	-11.1888
▁Сергеевич	-11.189
▁Ho	-11.189
▁приходят	-11.1891
▁двига	-11.1896
so	-11.1896
▁верхней	-11.1897
▁ставил	-11.1897
гур	-11.1899
▁Чи	-11.1902
▁least	-11.1903
▁психолог	-11.1904
▁колонны	-11.1906
вос	-11.1907
▁asked	-11.1907
▁находилось	-11.1908
▁банков	-11.1908
уров	-11.191
▁личных	-11.191
времен	-11.1911
▁устал	-11.1912
▁слышать	-11.1915
▁прост	-11.1915
▁лежа	-11.1915
▁ab	-11.1916
▁вице	-11.1916
▁распоряжении	-11.1918
евский	-11.1918
▁Поли	-11.1918
▁местом	-11.1918
▁миль	-11.1922
▁1996	-11.1923
иров	-11.1925
▁растет	-11.1925
▁hard	-11.1925
▁ракеты	-11.1926
▁Благо	-11.1926
hi	-11.1927
▁1913	-11.1928
инд	-11.1929
▁организацию	-11.1929
над	-11.193
▁становились	-11.1933
▁целые	-11.1934
▁Египет	-11.1935
▁автором	-11.1936
▁устроен	-11.1938
▁лодка	-11.1939
▁Европу	-11.194
▁77	-11.194
▁собора	-11.1941
▁определил	-11.1942
▁черн	-11.1945
▁600	-11.1946
▁Journal	-11.1946
,000	-11.1947
▁5)	-11.195
▁замок	-11.1951
рі	-11.1951
▁французов	-11.1952
▁опытом	-11.1952
чувств	-11.1953
▁вовремя	-11.1954
▁1995	-11.1958
▁высказал	-11.1958
ческий	-11.196
▁важную	-11.1961
▁фотографии	-11.1961
▁States	-11.1962
свят	-11.1962
▁готовности	-11.1963
▁Питер	-11.1963
мира	-11.1964
04	-11.1964
▁ап	-11.1967
нулся	-11.1967
▁Спасибо	-11.1968
верт	-11.1968
▁Василия	-11.1973
еса	-11.1973
ЕЙ	-11.1973
▁Иерусалим	-11.1975
▁son	-11.1975
▁спасение	-11.1976
▁акцент	-11.1977
▁(5	-11.1978
ren	-11.1978
▁Англия	-11.198
▁высоту	-11.198
▁собирались	-11.1982
▁пролив	-11.1983
▁знаменитый	-11.1983
▁находим	-11.1984
▁социальные	-11.1985
▁сем	-11.1987
▁Любовь	-11.1988
ear	-11.1988
▁взглядов	-11.1989
▁шпион	-11.1992
Нет	-11.1993
▁создали	-11.1993
ип	-11.1994
ирован	-11.1995
ja	-11.1996
▁больного	-11.1998
▁Васильев	-11.1999
▁process	-11.2001
▁астроном	-11.2002
▁Впервые	-11.2003
▁контракт	-11.2004
▁границей	-11.2005
▁День	-11.2007
▁идеологии	-11.2008
▁родину	-11.2008
джа	-11.201
▁некоторой	-11.2011
▁глубины	-11.2011
▁экипаж	-11.2012
прос	-11.2013
рд	-11.2013
5%	-11.2015
подоб	-11.2015
▁картин	-11.2016
луч	-11.2016
▁размер	-11.2019
▁отправиться	-11.2019
▁кавалер	-11.202
▁ac	-11.202
▁островов	-11.202
▁поддержке	-11.2022
▁помощник	-11.2023
▁губы	-11.2024
реж	-11.2024
▁оказать	-11.2025
ене	-11.2025
▁всюду	-11.2025
▁words	-11.2026
Под	-11.2027
▁Тре	-11.2029
Мо	-11.2032
▁da	-11.2033
илл	-11.2033
▁заседании	-11.2033
дали	-11.2035
▁це	-11.2037
ДА	-11.2041
▁чрез	-11.2042
▁готова	-11.2042
0]	-11.2044
▁фронтов	-11.2045
▁служба	-11.2046
▁Ник	-11.2049
▁чиновников	-11.205
▁низко	-11.205
▁потерь	-11.2052
▁счете	-11.2058
▁молекул	-11.206
▁Харьков	-11.2062
общ	-11.2062
▁действовали	-11.2063
▁королю	-11.2063
▁сеть	-11.2064
ерн	-11.2066
▁невероятно	-11.2067
▁английских	-11.2067
▁THE	-11.2067
▁неплохо	-11.2067
▁читателей	-11.207
▁хор	-11.2072
юн	-11.2074
▁local	-11.2076
▁op	-11.2076
▁карту	-11.2079
▁пророк	-11.2079
▁half	-11.2082
АР	-11.2082
▁Mon	-11.2083
тельную	-11.2083
▁рукописи	-11.2085
▁какому	-11.2086
▁квартиры	-11.2088
▁подхода	-11.2089
▁входили	-11.2092
▁лодок	-11.2093
▁училище	-11.2094
▁ци	-11.2096
▁собира	-11.2098
▁2001	-11.2099
▁домик	-11.21
строен	-11.2101
▁плечами	-11.2102
▁созданию	-11.2102
▁means	-11.2103
▁чисел	-11.2106
▁зубы	-11.2107
▁внизу	-11.2107
▁внутренний	-11.2108
▁незаметно	-11.2108
▁истина	-11.211
▁заняли	-11.2111
▁1994	-11.2113
▁Львов	-11.2115
á	-11.2115
▁пары	-11.2117
▁73	-11.2118
▁приступ	-11.2119
▁стоило	-11.212
▁Кн	-11.212
▁транс	-11.212
▁пытаются	-11.2121
▁высоким	-11.2122
▁поняла	-11.2122
▁разница	-11.2122
▁талант	-11.2125
▁богатство	-11.2126
▁облада	-11.2127
▁част	-11.2127
▁Дю	-11.2127
▁старше	-11.2128
▁звон	-11.2128
кали	-11.2129
▁стих	-11.213
брасыва	-11.2131
▁умеет	-11.2132
▁change	-11.2132
▁лук	-11.2133
▁участвовать	-11.2134
▁Маг	-11.2135
водит	-11.2138
▁поездки	-11.2138
rt	-11.2142
▁маршал	-11.2143
яд	-11.2143
▁брошен	-11.2144
ступал	-11.2145
линг	-11.2146
▁полезно	-11.2146
▁вооружения	-11.2148
▁окон	-11.2151
стран	-11.2153
сар	-11.2153
▁небольшие	-11.2153
▁зенит	-11.2153
▁ток	-11.2154
▁фи	-11.2155
▁секретаря	-11.2157
▁зритель	-11.2158
▁постоянной	-11.2159
▁обез	-11.216
▁вождя	-11.2161
▁операцию	-11.2161
▁колени	-11.2163
ates	-11.2164
▁выбрать	-11.2165
▁аэродром	-11.2166
▁носить	-11.2166
▁Мать	-11.2169
▁физической	-11.2169
▁расстояния	-11.2169
▁служили	-11.2169
▁случаю	-11.2169
▁Ваш	-11.217
бирать	-11.2172
▁полагал	-11.2172
ward	-11.2172
▁май	-11.2172
план	-11.2172
▁европейской	-11.2173
▁act	-11.2174
▁Ka	-11.2174
▁крут	-11.2174
▁говорим	-11.2175
▁коллеги	-11.2176
▁itself	-11.2177
▁Po	-11.2178
▁тюрьмы	-11.218
▁продолжение	-11.218
▁представляли	-11.2181
иной	-11.2182
▁науч	-11.2183
▁95	-11.2185
▁производить	-11.2186
▁сотен	-11.2187
▁черные	-11.2188
▁заняты	-11.2192
▁простым	-11.2192
▁чудовищ	-11.2193
▁расти	-11.2193
вич	-11.2193
▁коротко	-11.2195
▁занятий	-11.2195
▁сия	-11.2197
резать	-11.2198
▁проходили	-11.2199
▁вон	-11.2199
▁глубокой	-11.22
▁сложных	-11.2201
▁объясняет	-11.2202
▁настойчиво	-11.2203
арм	-11.2204
▁ввиду	-11.2206
ator	-11.2206
▁Кажется	-11.2206
ó	-11.2208
▁sa	-11.2209
▁американские	-11.221
▁последнем	-11.2213
▁приносит	-11.2217
▁зем	-11.2218
▁превращается	-11.2219
шел	-11.222
▁частных	-11.2221
▁принципов	-11.2221
▁брал	-11.2223
▁Fe	-11.2223
десят	-11.2223
▁Напротив	-11.2224
▁политическую	-11.2224
вис	-11.2226
▁финансов	-11.2227
▁Олег	-11.223
▁бытие	-11.2233
qu	-11.2237
▁отпуск	-11.2238
ыч	-11.2242
-15	-11.2242
▁стараясь	-11.2242
▁полит	-11.2244
▁1906	-11.2245
▁общая	-11.2245
важ	-11.2245
▁золотой	-11.2248
▁погибли	-11.2248
▁1912	-11.2248
▁Jo	-11.2248
▁Откуда	-11.225
иска	-11.2252
ü	-11.2253
▁точности	-11.2254
рой	-11.2255
▁отража	-11.226
министр	-11.2261
▁законам	-11.2264
ительный	-11.2264
▁столицу	-11.2265
▁сохранения	-11.2265
▁возвращается	-11.227
▁количеством	-11.2271
▁очерк	-11.2272
▁первыми	-11.2273
▁достигли	-11.2274
▁value	-11.2274
▁меняется	-11.2275
▁действ	-11.2276
▁лето	-11.2277
mann	-11.2278
оры	-11.2279
▁Долго	-11.2281
▁Ex	-11.2281
▁71	-11.2281
▁разным	-11.2282
▁60-	-11.2283
▁поколение	-11.2283
▁прорыв	-11.2283
▁еду	-11.2283
нах	-11.2285
▁экран	-11.2285
▁Then	-11.2285
▁защищать	-11.2285
▁Толстого	-11.2286
▁74	-11.2289
▁сорока	-11.2292
▁костюм	-11.2295
▁национальных	-11.2295
лек	-11.2296
▁своём	-11.2296
кто	-11.2297
ць	-11.2297
▁Африке	-11.2298
▁завет	-11.2298
ГА	-11.2299
▁записал	-11.2299
▁скрип	-11.2301
▁бюджет	-11.2301
▁Some	-11.2302
▁тайно	-11.2302
нат	-11.2305
▁Вед	-11.2305
▁слеп	-11.2305
▁происходят	-11.2306
▁американцы	-11.2306
▁выразить	-11.2308
▁тонко	-11.2308
▁Gu	-11.2308
▁удовольствия	-11.231
▁деревню	-11.231
ER	-11.231
▁подъ	-11.2311
▁разговоры	-11.2314
тип	-11.2316
цер	-11.2317
▁заменить	-11.2317
▁естественным	-11.232
▁трудящихся	-11.2321
▁коэффициент	-11.2323
▁Первым	-11.2327
▁уч	-11.2328
▁светом	-11.2328
▁научного	-11.2328
▁Джордж	-11.2329
▁si	-11.2329
ческие	-11.233
▁натур	-11.233
▁тре	-11.2332
▁признаков	-11.2332
▁бел	-11.2335
▁пресс	-11.2336
▁обеда	-11.2336
▁бег	-11.2338
▁центральной	-11.2344
▁окружения	-11.2345
▁Давайте	-11.2346
▁Эм	-11.2346
▁встречу	-11.2346
▁англичане	-11.2347
▁открытие	-11.2347
▁отвечать	-11.2352
▁чинов	-11.2353
▁всякие	-11.2355
роб	-11.2356
▁сражение	-11.2358
ног	-11.2359
стал	-11.2359
▁women	-11.236
▁Рейн	-11.2361
▁числом	-11.2362
▁объяснял	-11.2362
▁чуд	-11.2363
▁полная	-11.2363
mb	-11.2364
анс	-11.2364
▁фирмы	-11.2365
▁кладбище	-11.2366
▁явля	-11.2367
▁нанести	-11.2371
▁пятнадцать	-11.2371
▁together	-11.2371
▁проклят	-11.2373
▁тока	-11.2373
росс	-11.2373
▁отмечает	-11.2374
▁маленькой	-11.2375
▁продукт	-11.2375
▁9-	-11.2376
▁испытывал	-11.2377
▁рубеж	-11.2378
▁расс	-11.2378
▁Ba	-11.2378
▁специальных	-11.2379
числен	-11.2381
▁трон	-11.2381
сту	-11.2383
▁цифры	-11.2385
▁отражение	-11.2385
▁администрации	-11.2387
гран	-11.2387
▁ед	-11.2389
▁событиях	-11.239
▁смогла	-11.239
▁вооружение	-11.2391
▁малых	-11.2391
фт	-11.2392
▁апостол	-11.2394
▁(10	-11.2394
▁движений	-11.2395
▁стоимость	-11.2396
▁товары	-11.2399
▁bl	-11.24
чай	-11.2401
водить	-11.2401
нг	-11.2403
▁встретить	-11.2404
▁дивизион	-11.2405
▁светло	-11.2405
▁ежегодно	-11.2406
▁self	-11.2406
▁душой	-11.2407
▁внешнего	-11.2408
▁мяса	-11.2408
▁ПРО	-11.241
▁соответствующих	-11.241
▁переживания	-11.2411
▁вероятность	-11.2412
▁Андрея	-11.2412
▁активность	-11.2414
▁плоды	-11.2414
▁бывал	-11.2419
▁выбрал	-11.2421
▁философия	-11.2421
▁сформирован	-11.2421
▁Кот	-11.2422
▁Хор	-11.2423
▁рамки	-11.2423
▁Псков	-11.2424
▁никуда	-11.2428
▁Понятно	-11.2429
▁примеры	-11.2431
▁прогноз	-11.2431
▁сельского	-11.2432
▁Фер	-11.2435
▁интер	-11.2435
▁пунктов	-11.2435
▁Степан	-11.2436
▁Пят	-11.2436
▁оснований	-11.2436
▁подошли	-11.2437
▁приема	-11.244
▁мирового	-11.2442
▁капитализма	-11.2443
▁Нового	-11.2443
▁спросить	-11.2443
▁окружающих	-11.2445
▁бого	-11.2447
▁альтернатив	-11.2447
▁type	-11.2448
▁восприятие	-11.2449
▁креп	-11.2449
▁селе	-11.2449
▁мероприятия	-11.2449
▁парашют	-11.2449
▁посту	-11.2452
▁French	-11.2453
▁своя	-11.2454
▁76	-11.2455
▁обучение	-11.2457
кл	-11.2459
▁германских	-11.2459
ущий	-11.2462
▁Фи	-11.2463
Йорк	-11.2464
▁севере	-11.2464
▁связ	-11.2465
▁Египта	-11.2468
фил	-11.2471
ore	-11.2471
▁Африки	-11.2472
▁84	-11.2473
рим	-11.2474
класс	-11.2475
▁рассказывать	-11.2477
ck	-11.2478
▁1955	-11.2479
▁лежат	-11.2481
пс	-11.2481
▁непонятно	-11.2482
▁броне	-11.2483
ВО	-11.2483
дите	-11.2484
▁английской	-11.2484
ЛИ	-11.2484
истый	-11.2485
▁прочно	-11.2486
ющимися	-11.2487
▁редакции	-11.2488
▁маршрут	-11.249
▁здрав	-11.249
▁открыт	-11.2491
водят	-11.2491
▁Пе	-11.2494
▁сообщить	-11.2496
▁Спустя	-11.25
ee	-11.25
▁ошибок	-11.2501
▁опубликовал	-11.2504
▁обращается	-11.2504
▁животные	-11.2505
▁христианство	-11.2506
▁болезней	-11.2507
▁Li	-11.2508
ично	-11.2509
▁справиться	-11.2512
иб	-11.2512
▁Дела	-11.2513
▁пыль	-11.2514
▁предлагал	-11.2516
▁секунду	-11.2517
▁болот	-11.2518
▁подготовку	-11.2519
иях	-11.2521
▁верхов	-11.2522
физ	-11.2524
резан	-11.2525
метр	-11.2526
спе	-11.2527
▁ищет	-11.2528
Дж	-11.2529
ec	-11.2529
time	-11.2533
▁диск	-11.2536
есс	-11.2537
ложения	-11.2539
▁выс	-11.2539
лый	-11.254
▁правды	-11.2542
▁sense	-11.2543
▁схема	-11.2544
▁живопис	-11.2544
▁подал	-11.2544
▁2011	-11.2544
▁белой	-11.2545
▁show	-11.2545
▁независимости	-11.2546
▁диалект	-11.2546
▁значении	-11.2547
▁Lo	-11.2548
▁лета	-11.2549
▁аромат	-11.255
▁подчинен	-11.255
дь	-11.2552
▁формирование	-11.2553
▁соединение	-11.2555
▁основой	-11.2557
▁pass	-11.2558
▁университете	-11.2558
▁18.	-11.2561
▁Отца	-11.2563
▁мудрости	-11.2568
▁взаимо	-11.2569
▁дурак	-11.257
▁поли	-11.257
▁78	-11.257
▁Последний	-11.257
▁father	-11.2571
▁Мен	-11.2571
▁купил	-11.2571
▁германской	-11.2572
▁платить	-11.2572
▁Europe	-11.2573
▁seen	-11.2575
▁согласиться	-11.2575
▁Мас	-11.2576
▁full	-11.2577
▁Цит	-11.2577
▁открыли	-11.2577
беж	-11.2578
▁sc	-11.2578
▁code	-11.2586
▁банк	-11.2587
▁фа	-11.2588
▁подавлен	-11.2588
▁пыта	-11.2591
иты	-11.2592
▁доля	-11.2593
▁глубину	-11.2593
▁мах	-11.2593
▁хирург	-11.2594
▁поп	-11.2594
▁господ	-11.2594
кнул	-11.2596
▁направился	-11.2596
▁problem	-11.2598
▁залива	-11.2598
утся	-11.2599
▁fr	-11.2601
▁приняв	-11.2602
▁Баб	-11.2602
▁Джа	-11.2602
▁применять	-11.2602
▁Сразу	-11.2602
▁пишут	-11.2603
▁жестко	-11.2603
игра	-11.2605
шись	-11.2605
▁Per	-11.2606
бед	-11.2606
▁структуру	-11.2607
▁волна	-11.2609
▁art	-11.2609
▁Джо	-11.261
НЫЙ	-11.261
▁монах	-11.2611
▁продолжала	-11.2612
▁ожидания	-11.2612
оцен	-11.2613
ich	-11.2614
▁Алекс	-11.2616
▁знаков	-11.2617
▁having	-11.2618
▁членами	-11.2618
▁примером	-11.2619
▁пес	-11.2622
▁исследователи	-11.2622
▁Ше	-11.2625
▁взяла	-11.2627
▁мятеж	-11.2627
▁насчет	-11.2629
щему	-11.2632
▁ограничения	-11.2633
▁thing	-11.2633
летней	-11.2634
wi	-11.2634
▁общую	-11.2635
▁сменил	-11.2638
▁парт	-11.264
▁Опять	-11.2641
▁дорого	-11.2644
▁1997	-11.2644
▁разбит	-11.2645
▁call	-11.2646
ham	-11.2646
▁сзади	-11.2646
▁протокол	-11.2647
▁Фе	-11.2648
▁решении	-11.2652
жат	-11.2655
▁стихов	-11.2657
▁обстановка	-11.2658
▁лак	-11.2659
▁Пр	-11.2659
▁сложности	-11.266
лѣ	-11.2661
▁условие	-11.2662
▁половиной	-11.2664
ческая	-11.2665
▁правителя	-11.2665
▁примеров	-11.2665
▁становилось	-11.2666
▁параллельно	-11.2666
▁сцену	-11.2667
▁скандал	-11.2669
í	-11.2669
▁вопросе	-11.267
▁угрозы	-11.2671
▁использует	-11.2671
▁содержится	-11.2671
lect	-11.2672
▁Америка	-11.2672
▁хорошим	-11.2674
▁1998	-11.2674
▁сумма	-11.2677
▁выходить	-11.2677
▁последующие	-11.2677
▁млрд	-11.2678
▁великие	-11.2678
▁тепл	-11.2678
▁исключения	-11.2678
▁господа	-11.2678
▁перестал	-11.2679
▁зоне	-11.268
▁единой	-11.2684
▁тяжелой	-11.2685
ёк	-11.2686
▁воевать	-11.2686
▁члена	-11.2686
тив	-11.2686
▁сос	-11.2687
въ	-11.2691
▁Какая	-11.2691
нина	-11.2691
▁Брат	-11.2691
▁широкой	-11.2691
овки	-11.2692
бек	-11.2692
▁позволит	-11.2693
▁past	-11.2694
мол	-11.2699
ори	-11.2701
иев	-11.2702
▁надел	-11.2703
▁ребят	-11.2704
▁свидетельство	-11.2704
▁опасно	-11.2704
ствовал	-11.2705
▁experience	-11.2706
тел	-11.2706
Ле	-11.2707
▁решению	-11.2708
МА	-11.271
▁жар	-11.271
▁50-	-11.271
▁проща	-11.2711
горел	-11.2712
▁насыщен	-11.2714
верх	-11.2714
▁уезд	-11.2714
▁размеры	-11.2714
▁существовании	-11.2718
▁люд	-11.2718
▁бунт	-11.2719
рев	-11.272
▁2003	-11.2722
▁карман	-11.2723
▁свободе	-11.2723
▁велика	-11.2724
очная	-11.2724
▁Рядом	-11.2726
▁возвраща	-11.2727
▁Кер	-11.2728
▁near	-11.2729
▁примере	-11.2729
▁Турции	-11.273
▁рыбы	-11.2731
полз	-11.2731
аш	-11.2733
▁энергией	-11.2733
оза	-11.2735
▁книгах	-11.2736
ins	-11.2736
исто	-11.2737
уна	-11.2739
труд	-11.274
дой	-11.2741
ейн	-11.2742
▁видны	-11.2743
человек	-11.2744
веч	-11.2745
нула	-11.2745
▁Израиль	-11.2748
yn	-11.2749
▁заводе	-11.275
▁научиться	-11.275
▁обеспечен	-11.2751
▁вернее	-11.2755
ding	-11.2755
пет	-11.2756
▁партнер	-11.2758
▁директора	-11.2758
▁ударов	-11.276
▁заявления	-11.2761
▁собственность	-11.2763
мина	-11.2764
▁1910	-11.2766
▁метода	-11.2767
▁увидим	-11.2768
ящим	-11.2769
▁ученик	-11.2769
▁Оста	-11.2771
рова	-11.2772
▁Важно	-11.2773
▁банка	-11.2779
▁забав	-11.2779
her	-11.278
▁2004	-11.2782
▁американцев	-11.2786
▁незнаком	-11.2786
▁российского	-11.2786
▁равен	-11.2788
▁смех	-11.2789
▁плоти	-11.279
▁почита	-11.2791
su	-11.2791
ьного	-11.2792
▁anti	-11.2795
▁тор	-11.2796
▁суммы	-11.2796
▁военнопленных	-11.2798
▁слой	-11.2799
▁отказа	-11.2801
▁замечает	-11.2802
ere	-11.2804
▁moment	-11.2804
▁исполня	-11.2807
▁распространя	-11.2807
▁любим	-11.2809
▁ССР	-11.2809
тека	-11.2809
λ	-11.281
нам	-11.2814
▁Библии	-11.2815
▁встретиться	-11.2816
мой	-11.2816
▁еды	-11.2818
▁чтения	-11.2819
▁соотношение	-11.2819
▁относиться	-11.282
▁обряд	-11.282
▁France	-11.2821
▁question	-11.2822
▁принадлежат	-11.2824
яг	-11.2824
▁враги	-11.2826
▁(1)	-11.2827
▁хлоп	-11.2828
▁отдых	-11.2829
▁including	-11.283
▁захвачен	-11.2831
▁расстрел	-11.2832
▁хо	-11.2833
▁печать	-11.2833
▁определенного	-11.2835
▁оста	-11.2836
▁борту	-11.2838
▁соблазн	-11.284
ТО	-11.2841
никами	-11.2843
▁формой	-11.2844
ичный	-11.2844
няв	-11.2845
▁молот	-11.2846
▁доложил	-11.2847
дур	-11.2847
кса	-11.2849
▁психо	-11.285
глас	-11.285
▁действием	-11.2853
▁Никогда	-11.2853
береж	-11.2856
▁Сад	-11.2857
▁ca	-11.2858
▁проявил	-11.2859
▁88	-11.2863
▁Фил	-11.2863
▁творчество	-11.2864
▁течения	-11.2864
▁удел	-11.2865
▁битве	-11.2866
▁называемые	-11.2866
▁черный	-11.2866
▁really	-11.2867
▁способов	-11.2867
▁необходимых	-11.2868
▁ненависть	-11.2868
▁Скоро	-11.2869
▁ужасно	-11.2869
шке	-11.287
▁переворот	-11.287
▁нарушение	-11.2875
▁цветы	-11.2877
▁уши	-11.2877
▁Go	-11.2878
▁историки	-11.2878
▁тексты	-11.288
▁играют	-11.2883
ef	-11.2883
▁социализм	-11.2884
▁листья	-11.2886
▁Йо	-11.2888
▁Гур	-11.2888
▁суждения	-11.2888
▁труды	-11.289
ЛА	-11.2891
кою	-11.2892
▁страной	-11.2894
▁третьем	-11.2895
▁произошла	-11.2895
▁rest	-11.2897
сі	-11.2898
▁планет	-11.2901
▁современные	-11.2901
▁мудр	-11.2901
▁построения	-11.2902
бри	-11.2903
▁огромную	-11.2903
▁распространения	-11.2905
ложен	-11.2906
▁невидим	-11.2907
▁животного	-11.2908
▁пря	-11.2909
▁отсутствии	-11.2911
вато	-11.2915
▁знаки	-11.2915
▁убор	-11.2917
▁кристалл	-11.2917
lan	-11.2918
▁Была	-11.2918
“,	-11.2918
▁деятельностью	-11.2919
▁идёт	-11.292
яли	-11.2922
▁Лет	-11.2922
▁Аллах	-11.2922
▁разгром	-11.2923
овских	-11.2924
▁2002	-11.2925
▁les	-11.2927
▁Позднее	-11.2928
▁собирается	-11.2928
▁кольцо	-11.2929
▁билет	-11.293
▁духовных	-11.2931
▁принципа	-11.2932
▁увеличива	-11.2934
▁учреждений	-11.2935
▁длиной	-11.2936
▁требовали	-11.2936
▁82	-11.2937
▁критика	-11.2939
▁лестнице	-11.294
вѣт	-11.2941
▁писала	-11.2941
▁Уж	-11.2942
▁Республики	-11.2944
ывал	-11.2946
▁плюс	-11.2947
отдел	-11.2948
▁themselves	-11.2948
▁мя	-11.2948
истор	-11.2949
side	-11.295
▁перспектив	-11.2951
▁able	-11.2954
ski	-11.2956
▁функцию	-11.2957
▁ядер	-11.2958
▁сл	-11.2958
▁саду	-11.2958
рии	-11.2958
▁разбор	-11.2959
▁звали	-11.296
▁объекты	-11.296
▁стоимости	-11.2961
▁захватили	-11.2962
лъ	-11.2962
ТА	-11.2963
ds	-11.2963
ct	-11.2964
▁sur	-11.2964
▁юноша	-11.2965
▁шут	-11.2965
▁ta	-11.2966
▁стремились	-11.2966
▁National	-11.2969
▁81	-11.297
▁сторонников	-11.2971
sp	-11.2972
ившихся	-11.2972
▁разрушения	-11.2972
▁включен	-11.2973
▁tra	-11.2975
▁ящик	-11.2975
евых	-11.2979
▁вашим	-11.2979
▁обороне	-11.298
▁почет	-11.298
▁продолжают	-11.2981
▁пушек	-11.2983
▁обычных	-11.2985
лян	-11.2986
▁попытку	-11.2989
▁произвести	-11.2989
иями	-11.299
▁свободного	-11.2992
▁заново	-11.2992
▁экспериментальн	-11.2992
ленд	-11.2994
▁осуществляется	-11.2995
▁букв	-11.2998
▁поверить	-11.2998
двор	-11.3
▁соли	-11.3
▁небольших	-11.3002
чист	-11.3002
▁клиент	-11.3003
▁животное	-11.3006
▁клин	-11.3007
▁митинг	-11.301
▁тень	-11.301
▁образца	-11.3011
▁похвал	-11.3011
▁табл	-11.3012
▁Гал	-11.3016
▁окруж	-11.3017
▁Судя	-11.3017
▁обстановки	-11.3018
ast	-11.3021
аре	-11.3023
слѣд	-11.3023
fl	-11.3024
ez	-11.3024
▁простые	-11.3025
▁May	-11.3026
▁немцами	-11.3027
▁test	-11.3027
▁политическая	-11.3028
▁видео	-11.3029
▁двигатель	-11.3029
▁зовут	-11.303
ческого	-11.303
▁специальные	-11.303
▁подготовка	-11.303
▁министерства	-11.3031
▁находясь	-11.3031
стов	-11.3033
▁Русской	-11.3033
▁публикации	-11.3035
▁видишь	-11.3037
▁товарища	-11.3037
▁камней	-11.3038
▁рассматриваем	-11.3038
▁дай	-11.3039
▁Русский	-11.304
cc	-11.304
▁живу	-11.3041
▁входа	-11.3041
▁кирпич	-11.3042
мур	-11.3042
▁word	-11.3043
▁увлека	-11.3043
▁голосов	-11.3044
▁врачей	-11.3045
▁телефону	-11.3048
▁принимают	-11.305
яет	-11.305
▁Говорят	-11.3052
▁общение	-11.3053
▁вела	-11.3056
▁запрещен	-11.3057
ition	-11.306
▁Центральной	-11.306
▁знакомых	-11.306
▁единственной	-11.306
▁кам	-11.3063
▁America	-11.3063
▁Хрущев	-11.3064
▁руководитель	-11.3064
▁Кр	-11.3065
▁слышали	-11.3065
▁стратегии	-11.3066
▁плечо	-11.3068
▁качеств	-11.3068
▁Росс	-11.3068
▁привела	-11.3069
▁удачно	-11.307
▁военная	-11.307
▁Самое	-11.3073
▁спрашивал	-11.3073
dy	-11.3073
ious	-11.3074
▁ушла	-11.3075
▁пошло	-11.3077
▁пропаганды	-11.3077
▁родственников	-11.3078
als	-11.3079
▁99	-11.3079
▁800	-11.308
орт	-11.3081
истые	-11.3081
tr	-11.3085
ians	-11.3085
ern	-11.3086
▁корни	-11.3086
▁регион	-11.3086
▁считалось	-11.3087
▁твоих	-11.3087
▁оказываются	-11.3087
больш	-11.3088
AL	-11.3088
▁возвращение	-11.3089
▁интеллигент	-11.3089
▁обладал	-11.3089
чил	-11.309
див	-11.309
клон	-11.3095
▁special	-11.3096
▁выделен	-11.3097
▁жид	-11.3097
▁руководителя	-11.3098
▁дуб	-11.3099
▁2012	-11.3099
▁еврей	-11.3099
▁1900	-11.31
▁вызывают	-11.3101
▁160	-11.3104
▁mo	-11.3107
▁ввести	-11.311
mi	-11.3112
▁прорыва	-11.3113
▁посетил	-11.3114
▁фронтом	-11.3116
ийский	-11.3118
▁озеро	-11.3119
▁вывести	-11.312
▁настроен	-11.312
▁прекрасный	-11.3121
▁кадет	-11.3121
▁работала	-11.3122
▁личный	-11.3124
▁удивля	-11.3124
▁сделав	-11.3126
che	-11.3127
кажет	-11.3127
ix	-11.3129
▁нуждается	-11.313
▁башни	-11.313
▁настоящим	-11.3132
▁Советов	-11.3133
жить	-11.3133
ute	-11.3133
аев	-11.3133
▁эмиграции	-11.3139
▁вектор	-11.3139
▁area	-11.3141
▁true	-11.3141
▁конкретных	-11.3143
▁грани	-11.3143
верс	-11.3144
▁idea	-11.3145
▁убили	-11.3145
▁сильной	-11.3147
▁царской	-11.3147
▁районы	-11.3152
▁доказательств	-11.3153
▁населен	-11.3153
▁образцов	-11.3154
▁Мартин	-11.3155
▁Ясно	-11.3156
ывали	-11.3157
▁(2)	-11.3158
▁буржуазии	-11.3159
▁Капитан	-11.316
▁ОБ	-11.3162
▁уход	-11.3163
▁подарок	-11.3164
▁Федорович	-11.3164
▁объектив	-11.3164
▁блажен	-11.3165
▁темноте	-11.3166
ale	-11.3167
▁понят	-11.3167
нное	-11.3169
▁спал	-11.317
▁месяцы	-11.3172
биты	-11.3172
ou	-11.3172
istic	-11.3174
▁романе	-11.3176
▁остановиться	-11.3177
▁экс	-11.318
▁недостаток	-11.318
▁ступень	-11.318
▁получим	-11.3181
▁угрозу	-11.3182
▁перелом	-11.3183
▁Дан	-11.3186
▁эффективно	-11.3189
▁крем	-11.3192
▁разнообраз	-11.3192
тический	-11.3193
▁Бал	-11.3193
Ха	-11.3193
▁предмета	-11.3194
▁участка	-11.3194
▁развод	-11.3195
▁удержать	-11.3195
Бог	-11.3196
▁разд	-11.3197
▁падает	-11.3198
▁снят	-11.3198
▁красных	-11.3198
▁долга	-11.3198
▁How	-11.32
▁полов	-11.3201
▁пользовались	-11.3203
▁черной	-11.3204
▁close	-11.3205
ong	-11.3205
▁комнат	-11.3205
▁Фар	-11.3208
▁Сав	-11.3208
▁му	-11.3209
▁произошел	-11.321
чный	-11.321
▁2005	-11.3211
-16	-11.3215
▁электрон	-11.3215
▁используются	-11.3215
икой	-11.3217
▁желез	-11.3218
тической	-11.3218
σ	-11.322
▁королем	-11.3221
▁грандиоз	-11.3221
благодар	-11.3222
брат	-11.3222
▁обстановку	-11.3222
▁известным	-11.3224
▁живописи	-11.3224
▁необычайно	-11.3224
▁посол	-11.3225
▁79	-11.3225
ran	-11.3226
▁прежних	-11.3226
▁повезло	-11.3226
▁белого	-11.3227
моему	-11.3229
▁фольклор	-11.3231
▁колен	-11.3232
▁значительные	-11.3233
▁пассажир	-11.3235
сут	-11.3235
▁вызвало	-11.3235
вест	-11.3236
▁защитить	-11.3237
▁app	-11.3237
▁86	-11.3237
▁knew	-11.3239
▁инстинкт	-11.3239
▁греха	-11.324
▁Решение	-11.3242
ЧЕ	-11.3243
▁Вера	-11.3243
▁бросился	-11.3243
▁царем	-11.3244
ящая	-11.3245
▁трубку	-11.3245
кут	-11.3246
ело	-11.3247
▁Алексеевич	-11.3248
eg	-11.3248
▁синтез	-11.3248
▁лидер	-11.3249
▁Дома	-11.3249
▁мел	-11.325
▁Кро	-11.3252
▁считаться	-11.3254
ks	-11.3255
олом	-11.3255
▁нрав	-11.3257
▁мужем	-11.3258
нском	-11.3258
▁Какое	-11.3258
nt	-11.3259
вок	-11.3259
▁номера	-11.3259
▁развивается	-11.326
▁корон	-11.326
▁done	-11.3261
множ	-11.3263
▁вступить	-11.3263
▁front	-11.3263
▁техника	-11.3263
▁лежали	-11.3264
бег	-11.3264
▁носили	-11.3267
▁расходы	-11.3268
▁чистой	-11.3268
▁ранних	-11.3269
▁входят	-11.327
▁привлечь	-11.327
▁Вып	-11.3271
▁yet	-11.3271
▁республик	-11.3272
ses	-11.3272
▁Британ	-11.3273
▁боялся	-11.3274
▁совершен	-11.3275
▁поступать	-11.3276
▁Впоследствии	-11.3277
▁снеж	-11.3277
▁сочета	-11.3278
▁Божие	-11.328
▁промышленность	-11.3284
▁Лин	-11.3284
▁взяв	-11.3285
и́	-11.3286
ari	-11.3286
▁play	-11.3286
▁женщине	-11.3286
▁бер	-11.3289
▁принесли	-11.329
нного	-11.3291
▁убедительно	-11.3291
▁уверенно	-11.3292
▁частицы	-11.3293
▁гре	-11.3294
▁фин	-11.3298
нами	-11.3299
▁длинные	-11.3301
▁слову	-11.3302
▁деятелей	-11.3303
▁Князь	-11.3304
▁летчик	-11.3304
▁приходил	-11.3304
▁определенный	-11.3306
▁холодно	-11.3308
▁(14	-11.3309
кое	-11.3309
▁force	-11.3311
▁тормоз	-11.3312
▁князю	-11.3315
▁недостатка	-11.3315
▁думают	-11.3316
rit	-11.3316
▁ствол	-11.3316
▁убедиться	-11.3318
зр	-11.3318
▁прожил	-11.332
▁why	-11.332
рах	-11.332
▁погон	-11.332
юк	-11.3321
▁1954	-11.3322
▁восстановления	-11.3323
▁1904	-11.3324
▁улыбкой	-11.3324
▁обычной	-11.3325
gr	-11.3327
▁start	-11.3328
ock	-11.3329
▁уничтожение	-11.3331
фан	-11.3332
▁штраф	-11.3332
▁звезда	-11.3333
▁республика	-11.3333
▁Хуан	-11.3333
▁установлен	-11.3334
орган	-11.3334
▁рассмотреть	-11.3337
оруж	-11.3337
▁130	-11.3341
разному	-11.3342
▁участники	-11.3344
▁уничтожения	-11.3344
▁громад	-11.3344
▁милости	-11.3344
▁обращаться	-11.3345
▁природой	-11.3345
▁заговорил	-11.3345
-7	-11.3347
дай	-11.3349
анг	-11.3349
▁телевизор	-11.3349
▁чужой	-11.3349
▁зад	-11.335
▁моста	-11.3351
оли	-11.3352
▁ядра	-11.3352
аб	-11.3353
▁влюблен	-11.3354
▁воспоминаний	-11.3354
▁боевого	-11.3356
тельным	-11.3357
▁imp	-11.3357
гов	-11.3358
▁фокус	-11.3359
▁Война	-11.3359
▁пользовался	-11.3364
▁подробности	-11.3364
▁казаки	-11.3365
лаг	-11.3365
▁рат	-11.3366
НЕ	-11.3366
▁трагедии	-11.3366
let	-11.3366
▁единственно	-11.3366
▁действуют	-11.3367
▁лечение	-11.3367
▁баз	-11.3367
▁ухо	-11.3368
▁глубже	-11.3371
ries	-11.3373
демократ	-11.3374
▁Францию	-11.3374
▁выступление	-11.3375
▁прочитал	-11.3376
-20	-11.3376
▁яйца	-11.3379
▁книж	-11.3379
fa	-11.3379
▁po	-11.338
сия	-11.338
ящего	-11.3382
▁колебания	-11.3383
ess	-11.3384
▁(6	-11.3384
▁здоров	-11.3385
▁железа	-11.3385
▁service	-11.3385
ущие	-11.3387
▁Финляндии	-11.3388
▁оппозиции	-11.3388
▁поистине	-11.3388
стон	-11.3392
▁проф	-11.3393
▁постиг	-11.3395
▁чт	-11.3396
▁Тебя	-11.3396
▁преимущество	-11.3397
ath	-11.3398
▁бело	-11.3399
▁оценка	-11.34
▁периодически	-11.3402
▁осуществления	-11.3405
телен	-11.3406
▁як	-11.3407
иком	-11.3407
▁бросить	-11.3411
▁шаги	-11.3411
▁лучшее	-11.3415
ЛО	-11.3416
▁впечатления	-11.3417
▁Кре	-11.3419
▁ритуал	-11.342
ега	-11.342
▁автоном	-11.3421
▁кровати	-11.3422
▁Оказалось	-11.3423
▁19.	-11.3424
бега	-11.3426
ающего	-11.3426
▁пациент	-11.3427
▁музея	-11.3427
▁2006	-11.3428
▁Австрии	-11.3428
▁учился	-11.3431
▁численности	-11.3432
два	-11.3432
—3	-11.3434
▁миссии	-11.3437
ys	-11.3438
▁действиями	-11.3438
▁опор	-11.3439
мит	-11.3439
▁плотно	-11.3439
▁тюрьму	-11.3439
рост	-11.3442
еро	-11.3443
▁важнейших	-11.3444
for	-11.3445
▁чист	-11.3446
▁2014	-11.3448
▁исследователей	-11.3448
▁list	-11.3449
▁внешне	-11.3451
▁fl	-11.3452
▁дальнейшего	-11.3452
▁Северного	-11.3453
▁толку	-11.3455
▁племена	-11.3455
▁позволило	-11.3455
ОЛ	-11.3455
▁представителями	-11.3458
▁taken	-11.3462
▁германского	-11.3463
sion	-11.3465
▁политическим	-11.3466
ован	-11.3468
▁врачи	-11.3469
авшие	-11.3469
▁воспитания	-11.3469
▁решено	-11.347
▁леп	-11.3471
нас	-11.3471
▁военном	-11.3472
дев	-11.3472
▁Матери	-11.3473
носить	-11.3473
▁группировки	-11.3474
▁грузов	-11.3474
▁следствием	-11.3474
▁Эль	-11.3475
▁(12	-11.3475
▁государственные	-11.3476
▁Павлович	-11.3476
▁твою	-11.3477
▁ул	-11.3478
▁брака	-11.3478
▁варвар	-11.3481
▁почве	-11.3481
тельного	-11.3482
▁воображение	-11.3482
▁Одни	-11.3484
▁Мое	-11.3485
▁привез	-11.3485
▁смогу	-11.3485
▁осени	-11.3486
тянуть	-11.3487
▁султан	-11.3488
▁clear	-11.3489
▁пользы	-11.3491
▁преимущества	-11.3492
свобод	-11.3493
▁воен	-11.3494
▁1952	-11.3494
▁живого	-11.3495
▁положить	-11.3495
▁мешает	-11.3495
▁село	-11.3496
▁начинал	-11.3499
еет	-11.35
▁гвардии	-11.3501
▁грузин	-11.3502
тера	-11.3502
▁учебник	-11.3504
▁маленьких	-11.3504
▁средних	-11.3504
▁бить	-11.3508
▁комиссия	-11.3508
▁Александров	-11.3509
▁единственное	-11.3509
-17	-11.351
▁определенно	-11.351
▁исполнения	-11.3511
▁описал	-11.3511
▁тер	-11.3514
▁уста	-11.3517
▁учитывать	-11.3517
▁начнет	-11.3519
▁Фридрих	-11.352
▁епископа	-11.3521
▁Андреев	-11.3521
ПО	-11.3521
▁эксплуатации	-11.3521
▁заметили	-11.3522
▁посад	-11.3523
▁значительное	-11.3523
▁вошла	-11.3525
▁пролетариата	-11.3526
чить	-11.3527
▁предложить	-11.3528
▁надежду	-11.3529
▁Ага	-11.3529
▁братом	-11.3529
изирован	-11.353
▁дан	-11.3531
▁горько	-11.3531
▁наблюдается	-11.3532
▁крейсер	-11.3532
ЕТ	-11.3532
▁мут	-11.3533
▁подводных	-11.3534
•	-11.3535
▁перво	-11.3535
▁заинтересован	-11.3536
ахъ	-11.3537
▁Хал	-11.3538
▁вздохнул	-11.3538
Кон	-11.3539
▁мудрость	-11.3539
нули	-11.3539
▁некоторыми	-11.354
слуша	-11.354
▁давайте	-11.354
ола	-11.3541
шит	-11.3542
▁моменту	-11.3542
▁противников	-11.3542
▁спрос	-11.3542
▁реже	-11.3544
▁личные	-11.3545
ослов	-11.3546
ворот	-11.3547
▁бюрократ	-11.3548
ящей	-11.3549
▁устроил	-11.3551
▁готовность	-11.3552
цом	-11.3552
▁поиски	-11.3554
▁common	-11.3554
▁Макс	-11.3555
▁вырос	-11.3556
▁ждут	-11.3558
авших	-11.3558
цит	-11.3562
▁забор	-11.3563
▁показаться	-11.3563
▁способна	-11.3564
▁интеллигенции	-11.3565
▁дольше	-11.3565
▁коров	-11.3567
инки	-11.3567
▁нашла	-11.3567
▁возвращении	-11.3567
кт	-11.3568
шли	-11.3568
▁оттого	-11.3568
▁прекратить	-11.3569
▁отправили	-11.3572
▁срока	-11.3573
▁вернулась	-11.3573
▁money	-11.3574
▁Ольга	-11.3576
ack	-11.3577
▁деньгами	-11.3577
▁whether	-11.3578
чест	-11.3579
▁обзор	-11.358
▁главу	-11.358
▁Существует	-11.3581
▁свист	-11.3581
доволь	-11.3582
▁выполнен	-11.3582
▁рыба	-11.3583
▁сосуд	-11.3583
▁еле	-11.3584
▁представлять	-11.3585
▁советским	-11.3585
▁возникло	-11.3587
▁улицах	-11.3587
▁Глав	-11.3587
▁сезон	-11.3588
▁штурм	-11.3589
▁Сталину	-11.3591
▁ba	-11.3591
▁Вернуться	-11.3591
▁Георгий	-11.3592
ившего	-11.3592
▁отчего	-11.3595
▁численность	-11.3595
ob	-11.3597
▁стиля	-11.3597
▁группами	-11.3599
▁помещения	-11.36
▁скромно	-11.3602
4)	-11.3603
▁1911	-11.3603
Ан	-11.3604
▁прочь	-11.3606
▁принялся	-11.3607
▁высокую	-11.3607
▁отправить	-11.3607
▁санитар	-11.3609
▁Ильич	-11.361
▁жанр	-11.3611
▁прибыль	-11.3611
▁птица	-11.3618
▁Киеве	-11.3621
ающая	-11.3622
ОЙ	-11.3623
▁занимается	-11.3624
ИС	-11.3626
▁заняться	-11.3627
▁сторонам	-11.3628
НЫЕ	-11.3629
▁увеличение	-11.3629
▁художников	-11.363
систем	-11.363
▁интервал	-11.363
▁доверие	-11.3634
▁последующих	-11.3635
▁выделить	-11.3635
▁keep	-11.3635
▁ответы	-11.3635
▁Влад	-11.3635
▁утвержден	-11.3636
ленный	-11.3636
месяч	-11.3637
▁17.	-11.3638
етъ	-11.3641
ind	-11.3642
▁международных	-11.3644
▁заставил	-11.3645
▁ar	-11.3647
тъ	-11.3648
▁приоритет	-11.3648
▁закончен	-11.3648
▁вообража	-11.365
▁ra	-11.365
▁державы	-11.3652
▁сможете	-11.3653
▁весом	-11.3653
▁успехи	-11.3654
чества	-11.3654
▁всѣ	-11.3655
06	-11.3656
а́	-11.3657
▁развитием	-11.3657
▁остановил	-11.3657
▁печ	-11.3657
▁грузовик	-11.3658
▁Перевод	-11.3658
▁пациента	-11.3659
▁созданы	-11.366
▁цирк	-11.366
▁судна	-11.3663
nes	-11.3664
▁мысленно	-11.3667
▁Su	-11.3667
кач	-11.3668
▁возникли	-11.3668
▁Едва	-11.367
▁("	-11.3671
▁83	-11.3671
▁del	-11.3673
▁приехали	-11.3673
▁учитывая	-11.3674
▁Ab	-11.3676
▁доказательство	-11.3678
▁участвовали	-11.3679
▁Флор	-11.3679
ИТ	-11.368
▁Игорь	-11.3681
▁учен	-11.3682
▁короткий	-11.3683
▁пальцы	-11.3683
▁беда	-11.3684
брав	-11.369
▁привет	-11.369
▁суб	-11.3693
гард	-11.3695
оид	-11.3696
▁создана	-11.3696
▁подразделений	-11.3696
▁кричал	-11.3698
ады	-11.3699
▁разуме	-11.37
▁August	-11.37
▁страниц	-11.3702
▁красные	-11.3704
▁захотел	-11.3704
▁ме	-11.3704
▁отход	-11.3706
▁чет	-11.3707
▁reason	-11.3707
▁массовой	-11.3708
плю	-11.371
▁лучшим	-11.3711
▁англо	-11.3711
▁экипажа	-11.3711
▁Car	-11.3712
См	-11.3713
▁ресторан	-11.3714
▁скота	-11.3714
думал	-11.3714
▁допущен	-11.3716
▁поэтов	-11.3716
▁вызвали	-11.3717
uch	-11.3718
▁добродетель	-11.3719
▁миллионы	-11.3719
блюд	-11.372
▁шок	-11.3721
▁восточной	-11.3722
▁15.	-11.3722
▁уголь	-11.3723
ложив	-11.3724
▁отлич	-11.3724
евым	-11.3726
ust	-11.3727
▁установления	-11.3727
▁70-	-11.3728
▁’’	-11.3728
▁геолог	-11.3729
дова	-11.3731
▁понимая	-11.3732
▁отправ	-11.3732
благо	-11.3732
производ	-11.3734
дают	-11.3734
▁Ладно	-11.3734
▁ОТ	-11.3735
емъ	-11.3735
▁побывал	-11.3736
▁лекции	-11.3737
гг	-11.3737
▁Слав	-11.3737
▁заполнен	-11.3738
▁морю	-11.3738
▁солдата	-11.3738
▁стыд	-11.374
▁хода	-11.3744
▁Команд	-11.3744
uk	-11.3745
▁производстве	-11.3746
▁начина	-11.3747
перед	-11.3747
▁чудеса	-11.3748
len	-11.3749
▁необходимое	-11.3749
▁ров	-11.3749
▁французы	-11.3751
оход	-11.3752
▁говорите	-11.3753
▁арт	-11.3753
▁услышать	-11.3754
▁Гол	-11.3755
▁Абу	-11.3755
▁барон	-11.3755
▁милость	-11.3756
▁живым	-11.3756
▁проблемой	-11.3756
▁слабость	-11.3757
▁Цвет	-11.3757
▁мяч	-11.3759
▁умом	-11.3759
▁каб	-11.376
nn	-11.376
▁certain	-11.376
▁согласен	-11.3761
овод	-11.3762
ставить	-11.3763
ивные	-11.3765
ируются	-11.3767
ib	-11.3767
▁гнева	-11.3767
кре	-11.3767
русски	-11.3771
▁взрослых	-11.3772
▁цикла	-11.3772
Re	-11.3773
▁встретили	-11.3774
▁1,5	-11.3774
▁масон	-11.3775
▁взгляда	-11.3775
▁рассчитывать	-11.3775
▁помещение	-11.3776
▁составить	-11.3776
▁колес	-11.378
▁корреспондент	-11.3783
▁Комитет	-11.3783
▁обстрел	-11.3786
▁устроить	-11.3786
ходя	-11.3789
чих	-11.3791
▁Англию	-11.3792
дина	-11.3793
эль	-11.3795
актив	-11.3796
▁послать	-11.3797
▁Куб	-11.3798
▁двигателя	-11.3799
▁суп	-11.3799
▁бол	-11.38
сет	-11.3801
▁вопросах	-11.3801
сып	-11.3805
▁Cambridge	-11.3806
▁движется	-11.3807
▁телеграф	-11.3809
ified	-11.381
тая	-11.3811
De	-11.3811
▁Джеймс	-11.3812
▁жалоб	-11.3813
сла	-11.3816
▁бред	-11.3817
▁округ	-11.3818
▁87	-11.3819
атель	-11.3819
▁сотрудники	-11.3819
▁маленькая	-11.3821
▁12-	-11.3821
▁физического	-11.3821
▁Алексея	-11.3821
▁специалисты	-11.3823
▁буквы	-11.3823
▁Col	-11.3824
▁сверка	-11.3825
▁важнее	-11.3825
▁непосредственны	-11.3825
▁mother	-11.3826
▁целых	-11.3827
▁одежда	-11.3828
▁высказывания	-11.3828
▁относились	-11.3828
▁древне	-11.3829
▁single	-11.383
▁наружу	-11.383
▁Красного	-11.383
▁вариантов	-11.383
▁установка	-11.383
▁торпед	-11.3831
лежащ	-11.3831
▁женщиной	-11.3833
▁поколений	-11.3834
▁морали	-11.3837
▁16.	-11.3837
▁лучший	-11.384
▁кожу	-11.384
▁третья	-11.3841
▁климат	-11.3841
ИЙ	-11.3841
▁произойдет	-11.3843
▁Ещё	-11.3844
▁Пример	-11.3845
▁Бело	-11.3846
▁направлениях	-11.3846
▁сложные	-11.3847
▁причину	-11.3848
▁физических	-11.3848
▁религиозной	-11.385
▁кабинете	-11.3851
▁неподалеку	-11.3852
▁сооружения	-11.3852
вей	-11.3854
▁мг	-11.3854
▁Иль	-11.3855
▁Франц	-11.3856
▁Леонид	-11.3856
▁уверены	-11.3856
▁Аб	-11.3856
▁either	-11.3857
pt	-11.3857
▁Орлов	-11.3857
▁пьесы	-11.3858
▁напечатан	-11.3859
br	-11.386
rd	-11.3861
▁покор	-11.3863
▁tell	-11.3864
/1	-11.3865
▁надеюсь	-11.3866
▁молодым	-11.3866
▁1:	-11.3867
▁форт	-11.3867
▁творения	-11.387
▁средством	-11.3871
▁text	-11.3872
▁мышцы	-11.3872
▁забывать	-11.3872
▁подряд	-11.3873
лаж	-11.3874
измом	-11.3875
▁Парижа	-11.3875
ившиеся	-11.3875
▁больной	-11.3875
▁взглянул	-11.3876
▁снаряд	-11.3876
▁уважение	-11.3876
роч	-11.3876
носили	-11.3876
▁историков	-11.3877
лам	-11.3877
▁ногах	-11.3878
▁ощущал	-11.3879
▁подполковник	-11.3879
▁будущей	-11.388
▁Миш	-11.388
▁отверг	-11.3881
▁Бол	-11.3881
▁кабинета	-11.3884
чать	-11.3885
▁приходили	-11.3886
▁Ган	-11.3887
ien	-11.3888
ированные	-11.3889
▁страницы	-11.3889
друж	-11.389
▁заводов	-11.3891
▁подарил	-11.3891
▁Днепр	-11.3893
▁звуков	-11.3893
ированных	-11.3895
▁лат	-11.3895
▁рубеже	-11.3897
▁слоев	-11.3899
▁местной	-11.3899
▁пейзаж	-11.3901
▁заключить	-11.3902
▁плащ	-11.3905
▁переводчик	-11.3906
вое	-11.3908
▁фраза	-11.3908
еч	-11.391
КО	-11.3911
▁gra	-11.3912
▁требование	-11.3912
▁gave	-11.3912
▁soon	-11.3912
▁мент	-11.3915
▁интереса	-11.3916
вязать	-11.3918
▁шею	-11.3919
▁эквивалент	-11.392
▁враща	-11.3921
гром	-11.3922
▁муки	-11.3923
▁агентов	-11.3923
▁РККА	-11.3924
▁Маркса	-11.3924
▁story	-11.3925
▁академик	-11.3926
▁сроки	-11.3927
▁аккуратно	-11.3927
имый	-11.3929
▁изучать	-11.3929
▁Последние	-11.3933
▁неприятеля	-11.3933
▁посреди	-11.3934
▁Большая	-11.3934
use	-11.3936
▁разрыва	-11.3936
▁способствует	-11.3938
▁указывал	-11.3941
▁Платон	-11.3941
▁тревож	-11.3942
▁молодежь	-11.3942
уж	-11.3942
▁Стро	-11.3943
▁золотом	-11.3943
▁дворце	-11.3944
▁проговорил	-11.3944
▁Изд	-11.3944
▁ho	-11.3945
▁Опыт	-11.3946
дем	-11.3946
▁показано	-11.3947
ающей	-11.3949
ичные	-11.395
▁божеств	-11.395
▁ак	-11.3951
цин	-11.3951
кажите	-11.3951
основ	-11.3952
▁Вит	-11.3953
▁металла	-11.3953
▁приготовлен	-11.3953
▁гео	-11.3954
▁Минск	-11.3954
▁испытаний	-11.3955
сок	-11.3955
▁версия	-11.3956
анты	-11.3961
▁2007	-11.3961
▁языках	-11.3962
▁Труд	-11.3964
ff	-11.3964
вз	-11.3964
ивших	-11.3965
▁основная	-11.3966
▁свин	-11.3969
▁неверно	-11.3971
▁высокая	-11.3973
▁публицист	-11.3974
▁Молотов	-11.3976
▁чи	-11.3978
ичность	-11.3978
ственные	-11.3979
▁проходил	-11.3979
▁богатых	-11.398
▁ходит	-11.3983
▁страстно	-11.3983
▁высот	-11.3983
▁бак	-11.3984
▁монастыре	-11.3984
▁спин	-11.3985
▁Дуб	-11.3985
▁признания	-11.3986
▁Com	-11.3986
▁южной	-11.3986
▁относился	-11.3989
▁рота	-11.3991
▁Георг	-11.3992
▁надолго	-11.3993
▁помещен	-11.3994
▁_	-11.3996
▁Господу	-11.3997
▁трёх	-11.3997
Ба	-11.3997
▁pa	-11.3998
▁Te	-11.3999
▁утверждают	-11.4
î	-11.4001
▁включал	-11.4001
▁обсуждения	-11.4003
нка	-11.4005
▁дно	-11.4005
▁присутствует	-11.4006
▁above	-11.4006
▁Боль	-11.4006
▁подняться	-11.4006
▁выйдет	-11.4009
▁освободить	-11.4009
▁сообщал	-11.4011
▁From	-11.4012
пала	-11.4014
▁существовали	-11.4014
▁жест	-11.4014
цкий	-11.4014
▁надеяться	-11.4015
▁имеющих	-11.4016
02	-11.4017
▁обеспечение	-11.4018
▁северной	-11.4018
▁хорошей	-11.4019
▁matter	-11.4019
▁широкое	-11.4019
▁Бед	-11.402
▁расходов	-11.402
▁поиска	-11.4021
are	-11.4021
пира	-11.4023
▁жизненно	-11.4023
▁92	-11.4025
мени	-11.4026
▁давай	-11.4027
▁восточных	-11.4027
▁начинать	-11.403
телями	-11.403
▁данное	-11.403
гад	-11.4031
аса	-11.4031
жения	-11.4034
Ку	-11.4035
▁зерна	-11.4035
▁человеческий	-11.4038
▁историей	-11.4038
▁положено	-11.404
▁полях	-11.404
▁первому	-11.4044
▁Русские	-11.4045
▁назначил	-11.4047
пуст	-11.4047
▁late	-11.405
▁деталей	-11.4051
▁Germany	-11.4052
эс	-11.4052
▁современном	-11.4052
▁across	-11.4053
ert	-11.4053
▁command	-11.4053
▁жалко	-11.4053
▁1812	-11.4054
никова	-11.4054
▁экземпляр	-11.4056
гло	-11.4056
▁перевода	-11.4057
▁Король	-11.4059
▁Пап	-11.4059
▁канала	-11.4061
против	-11.4061
ИМ	-11.4062
▁Хе	-11.4062
атели	-11.4062
губ	-11.4062
Чер	-11.4063
▁скуп	-11.4064
▁расширя	-11.4065
▁сперва	-11.4065
▁Сына	-11.4066
▁Генри	-11.4066
▁завершен	-11.4068
▁поры	-11.407
▁изделия	-11.407
▁огромным	-11.407
писан	-11.4071
▁приближа	-11.4072
▁Ля	-11.4073
▁Бир	-11.4073
▁нерв	-11.4073
юще	-11.4073
▁Энгельс	-11.4074
▁вашем	-11.4074
▁аристократ	-11.4074
щика	-11.4075
▁городских	-11.4076
▁live	-11.4076
сал	-11.4076
▁приняла	-11.4077
▁стрельбы	-11.4078
То	-11.4079
▁юности	-11.4079
▁включил	-11.408
▁лидеров	-11.4081
▁линий	-11.4081
▁вторым	-11.4082
▁транспорта	-11.4083
▁modern	-11.4083
▁следствия	-11.4083
â	-11.4084
▁Вене	-11.4085
ES	-11.4087
ущих	-11.4087
▁кольца	-11.4089
▁feel	-11.4093
▁Бах	-11.4093
▁With	-11.4094
▁Семенов	-11.4095
▁страницах	-11.4096
▁91	-11.4096
▁сильных	-11.4097
▁умерла	-11.4097
▁думаете	-11.4098
рт	-11.4099
▁исторический	-11.41
▁Пес	-11.41
▁утоп	-11.4103
ющуюся	-11.4105
ыя	-11.4109
▁искусственно	-11.4109
ометр	-11.4109
▁оборудования	-11.411
▁language	-11.411
тики	-11.411
▁эр	-11.411
▁Сто	-11.4111
▁обороня	-11.4112
▁сложной	-11.4112
▁Совершенно	-11.4114
деля	-11.4115
▁гигант	-11.4117
▁1988	-11.4118
▁лаборатории	-11.412
▁поддерживал	-11.4121
udi	-11.4122
▁поклон	-11.4126
▁Уч	-11.4127
оциалистической	-11.4129
▁митрополит	-11.4129
ata	-11.4129
▁красиво	-11.4132
▁вечеру	-11.4132
▁указать	-11.4133
▁русское	-11.4133
▁недостатки	-11.4134
▁тишина	-11.4134
после	-11.4136
дро	-11.4136
▁возвращаться	-11.4137
▁заболеваний	-11.4139
▁Ангел	-11.4139
sc	-11.4139
ичная	-11.414
люблен	-11.4141
фар	-11.4141
▁направить	-11.4142
▁свободной	-11.4144
▁заключенных	-11.4145
▁валют	-11.4146
▁стену	-11.4146
▁development	-11.4146
▁указание	-11.4146
▁tr	-11.415
▁Рус	-11.415
▁прихода	-11.415
▁англ	-11.4151
▁удовлетворен	-11.4151
▁Чуд	-11.4153
▁вероятности	-11.4153
▁раскол	-11.4154
▁сомнение	-11.4157
▁культуру	-11.4157
▁освободи	-11.4158
▁признает	-11.4159
ителю	-11.4159
▁араб	-11.4162
▁великому	-11.4163
▁бумаг	-11.4164
uck	-11.4164
▁аспект	-11.4164
РЕ	-11.4165
гора	-11.4165
▁Путин	-11.4166
овав	-11.4167
лип	-11.4168
▁древнего	-11.4168
▁длины	-11.4168
дать	-11.4169
form	-11.4169
▁заключалась	-11.4169
руд	-11.4169
▁Уильям	-11.417
▁удивился	-11.417
▁жидкости	-11.4171
▁человеческие	-11.4171
Ли	-11.4171
▁ужин	-11.4171
▁wanted	-11.4173
▁ошибку	-11.4173
Ра	-11.4174
уме	-11.4175
▁артист	-11.4175
▁почт	-11.4175
вый	-11.4176
▁одет	-11.4177
тысяч	-11.4179
ента	-11.418
▁странами	-11.418
▁1951	-11.4181
▁нефти	-11.4181
есть	-11.4183
▁неприятно	-11.4183
▁смену	-11.4183
▁тиран	-11.4185
▁Эд	-11.4185
▁объектом	-11.4186
▁вины	-11.4187
Ме	-11.4188
▁кафе	-11.4188
St	-11.4188
▁добраться	-11.4188
бул	-11.4189
▁Gra	-11.419
▁собственными	-11.4191
▁князья	-11.4194
вшемся	-11.4194
▁Дор	-11.4195
▁сыновья	-11.4197
ившийся	-11.4198
▁суде	-11.4198
▁окончании	-11.4199
▁хватило	-11.4199
хол	-11.4199
пом	-11.4199
дает	-11.42
когда	-11.4202
чий	-11.4203
▁назвали	-11.4203
▁концепция	-11.4203
дач	-11.4204
▁открытым	-11.4204
las	-11.4204
OR	-11.4205
енок	-11.4207
кот	-11.4209
▁намечен	-11.4211
▁Fa	-11.4211
▁будущих	-11.4214
▁98	-11.4214
▁углов	-11.4214
нными	-11.4216
Раз	-11.4216
▁годом	-11.4217
▁столик	-11.4217
▁коем	-11.4218
▁глуп	-11.4218
▁наград	-11.4218
▁советская	-11.4219
val	-11.4219
▁Немцы	-11.4223
▁Pre	-11.4223
▁heart	-11.4224
▁семейства	-11.4224
▁рассеян	-11.4224
▁Прос	-11.4224
▁импер	-11.4225
▁череп	-11.4227
▁столкновения	-11.4227
▁дневник	-11.4227
▁Sp	-11.4228
▁неподвижно	-11.4228
▁переведен	-11.4228
▁понимании	-11.4231
▁Ран	-11.4231
▁любая	-11.4233
▁mon	-11.4233
▁Шер	-11.4234
▁похожи	-11.4234
▁обработки	-11.4235
ably	-11.4235
▁красный	-11.4236
▁молодости	-11.4238
▁sw	-11.4238
инга	-11.4238
▁top	-11.4239
бери	-11.424
▁General	-11.424
▁Помню	-11.4241
▁подо	-11.4241
РО	-11.4241
быть	-11.4244
ыск	-11.4244
Кр	-11.4244
▁Шах	-11.4245
эконом	-11.4245
▁широкий	-11.4247
▁диаметр	-11.4248
▁следить	-11.4249
▁представлены	-11.425
▁грамот	-11.425
двига	-11.4251
▁ценой	-11.4251
▁предполагал	-11.4252
гнал	-11.4252
▁приобретает	-11.4252
▁мощь	-11.4254
тическая	-11.4254
▁человеческое	-11.4255
учен	-11.4256
▁просвет	-11.4256
▁оратор	-11.4257
▁следов	-11.4257
нской	-11.4257
▁нижней	-11.4259
▁топор	-11.4259
▁),	-11.426
▁отбор	-11.4263
емым	-11.4264
▁лучшего	-11.4264
шан	-11.4265
▁Коль	-11.4268
▁взаимодействие	-11.4269
▁танковых	-11.4269
▁согласован	-11.4269
▁1907	-11.4272
▁принципу	-11.4273
▁ресурсы	-11.4273
▁произ	-11.4274
▁высоком	-11.4274
Са	-11.4275
▁Духов	-11.4275
▁Подобно	-11.4275
▁уз	-11.4275
▁кал	-11.4276
▁рецепт	-11.4277
och	-11.4277
тянул	-11.4278
▁справедливость	-11.4279
▁характерно	-11.4279
▁взор	-11.428
▁русско	-11.4282
ливый	-11.4282
▁Будучи	-11.4283
▁мощи	-11.4284
▁крупный	-11.4285
Ни	-11.4286
▁барабан	-11.4287
▁вершины	-11.4287
олов	-11.4287
▁супер	-11.4288
▁sent	-11.4289
▁сохранять	-11.4294
елей	-11.4295
ствует	-11.4296
▁холодной	-11.4298
▁воспитание	-11.4298
ps	-11.4298
▁убитых	-11.43
ome	-11.43
▁последствий	-11.4301
▁law	-11.4303
▁Лис	-11.4303
▁субъект	-11.4304
▁Красно	-11.4305
пресс	-11.4307
▁производит	-11.4307
▁увеличить	-11.4309
▁прибор	-11.431
СК	-11.431
▁двенадцати	-11.4311
▁спине	-11.4311
бывал	-11.4313
▁добрый	-11.4313
жан	-11.4314
▁образуют	-11.4315
pm	-11.4316
▁нечист	-11.4316
▁грехи	-11.4319
▁подобной	-11.4319
▁колебаний	-11.432
▁совершать	-11.432
орд	-11.432
▁Генерального	-11.432
▁закрыл	-11.4321
ступил	-11.4322
▁дядя	-11.4325
▁сказки	-11.4325
▁показатель	-11.4326
▁ри	-11.4326
▁пункты	-11.4326
▁МО	-11.4328
дне	-11.4329
▁революцию	-11.433
▁тов	-11.433
▁position	-11.4331
▁деталь	-11.4332
нские	-11.4332
▁русскую	-11.4333
▁организатор	-11.4334
▁международной	-11.4334
▁баланс	-11.4335
▁Алексеев	-11.4336
МО	-11.4338
нис	-11.4339
▁всерьез	-11.434
ялся	-11.4341
▁Berlin	-11.4341
▁упоминается	-11.4342
▁телу	-11.4343
▁Хр	-11.4343
има	-11.4344
▁исключен	-11.4345
глаз	-11.4345
▁итог	-11.4346
▁обмена	-11.4346
▁тысячу	-11.4346
▁гору	-11.4347
500	-11.4347
▁залив	-11.4348
▁единственная	-11.4349
▁бабушка	-11.4349
ві	-11.4349
▁Can	-11.4349
▁запрос	-11.4349
олит	-11.435
▁Соколов	-11.435
▁Каждая	-11.4353
▁компромисс	-11.4353
▁позволил	-11.4353
▁Собор	-11.4354
рап	-11.4355
▁десятка	-11.4357
▁business	-11.4358
▁Гр	-11.4358
▁румын	-11.4358
▁описать	-11.436
▁Саша	-11.4361
▁Er	-11.4361
ставил	-11.4363
▁170	-11.4363
ложил	-11.4364
▁Крест	-11.4364
священ	-11.4364
бира	-11.4365
инка	-11.4365
▁ангел	-11.4365
▁age	-11.4368
▁ПРИ	-11.437
▁соответствующим	-11.4372
set	-11.4374
▁элит	-11.4375
▁любили	-11.4375
pi	-11.4376
▁96	-11.4377
▁приняты	-11.4377
off	-11.4379
▁имеющие	-11.4379
▁five	-11.438
▁римлян	-11.4381
▁умение	-11.4381
▁Пир	-11.4382
▁Давай	-11.4384
▁морского	-11.4384
▁откровен	-11.4384
▁молчание	-11.4386
▁правилам	-11.4386
▁Яковлев	-11.4386
▁донос	-11.4388
▁Sh	-11.4388
▁использован	-11.4388
▁учит	-11.4389
▁неприятель	-11.4391
▁оправдан	-11.4393
▁захвата	-11.4393
▁запасы	-11.4393
▁максимум	-11.4395
кси	-11.4397
ments	-11.4398
▁банд	-11.4399
▁революционной	-11.4402
▁простого	-11.4402
Кор	-11.4406
▁партийных	-11.4408
▁выборов	-11.4408
▁проведение	-11.4409
▁прославлен	-11.441
▁мертвых	-11.4414
▁исторические	-11.4414
действ	-11.4414
▁полчаса	-11.4415
▁огромная	-11.4415
фикс	-11.4415
▁собирать	-11.4415
▁губернатор	-11.4415
евского	-11.4416
▁плену	-11.4418
▁беседу	-11.4419
ε	-11.4419
..."	-11.4419
▁поддержать	-11.442
▁ученого	-11.4421
▁колеса	-11.4422
▁рассе	-11.4422
old	-11.4423
тина	-11.4423
▁лучи	-11.4423
▁черных	-11.4423
▁вед	-11.4424
▁Fr	-11.4424
чёт	-11.4424
седа	-11.4425
ави	-11.4426
▁языки	-11.4426
анский	-11.4426
▁образе	-11.4427
▁штук	-11.4427
▁наступает	-11.4427
▁лежала	-11.4428
▁фирм	-11.4428
ea	-11.4429
▁дур	-11.4429
▁участков	-11.4429
▁брод	-11.4429
▁ликвидации	-11.4429
▁потока	-11.443
▁категорически	-11.443
▁плит	-11.443
▁Семен	-11.4432
▁вольно	-11.4432
ившие	-11.4432
▁major	-11.4433
▁Сама	-11.4433
▁прицел	-11.4434
▁sure	-11.4434
валь	-11.4435
▁собрании	-11.4435
рест	-11.4436
▁обезьян	-11.4436
▁Граф	-11.4437
▁побежал	-11.4438
▁Станислав	-11.4438
▁авангард	-11.4438
▁возглавил	-11.4438
▁93	-11.4441
▁внутреннее	-11.4441
▁Бас	-11.4443
▁недовольство	-11.4443
▁ложь	-11.4443
ЕР	-11.4443
▁Адам	-11.4444
▁Ке	-11.4444
▁поднят	-11.4444
фиц	-11.4445
влек	-11.4445
▁Ци	-11.4447
▁мл	-11.4447
▁Сол	-11.4448
▁study	-11.4453
▁сохранились	-11.4453
▁обязанностей	-11.4453
▁повышение	-11.4454
▁ДНК	-11.4454
▁субъектив	-11.4455
▁греб	-11.4458
▁пот	-11.4459
▁Снова	-11.446
ированный	-11.4461
iss	-11.4462
▁поезда	-11.4462
тического	-11.4463
ург	-11.4463
▁forces	-11.4463
▁Рос	-11.4466
▁небольшое	-11.4467
▁девушку	-11.4467
ступая	-11.4467
▁критику	-11.4467
евые	-11.4468
▁ti	-11.4469
▁теряет	-11.447
▁несчаст	-11.4471
рук	-11.4471
▁black	-11.4472
▁услуг	-11.4472
mor	-11.4473
▁успехов	-11.4473
вых	-11.4473
хай	-11.4473
▁лекарств	-11.4476
▁адвокат	-11.4476
▁table	-11.4477
▁ЦРУ	-11.4477
▁выпущен	-11.4478
▁присутствовал	-11.4479
▁скоп	-11.4481
▁добродетели	-11.4481
▁trans	-11.4482
▁сцен	-11.4484
tel	-11.4485
▁кандидат	-11.4485
▁отсутствует	-11.4486
▁размышления	-11.4486
ищ	-11.4487
▁nature	-11.4491
дея	-11.4492
▁определенное	-11.4492
▁вину	-11.4493
▁мелко	-11.4494
▁комплекса	-11.4495
▁Пра	-11.4495
Пол	-11.4496
▁вдвое	-11.4497
▁черта	-11.4498
▁поначалу	-11.45
ight	-11.4501
▁игре	-11.4501
▁контролировать	-11.4501
my	-11.4501
▁довод	-11.4502
▁экзамен	-11.4502
▁ground	-11.4502
▁наблюдатель	-11.4502
▁поступить	-11.4502
▁лейтенанта	-11.4503
▁рассчитан	-11.4503
▁участки	-11.4505
▁travel	-11.4505
ительное	-11.4507
▁папы	-11.4507
▁здорово	-11.4507
▁сказав	-11.4511
▁97	-11.4512
▁gr	-11.4512
ийской	-11.4512
▁показывал	-11.4513
▁Папа	-11.4513
ступив	-11.4513
▁лома	-11.4515
▁свят	-11.4515
▁Комитета	-11.4517
▁свойство	-11.4518
▁известие	-11.4518
▁горло	-11.4518
▁открывает	-11.4519
▁Примерно	-11.4519
языч	-11.4519
▁Основные	-11.4519
▁угроза	-11.452
▁West	-11.4522
щина	-11.4522
▁Сов	-11.4523
▁whose	-11.4523
▁установлено	-11.4524
▁Инд	-11.4525
ленные	-11.4526
▁Собственно	-11.4529
▁программе	-11.4529
▁eyes	-11.4529
▁пуст	-11.4531
▁организован	-11.4533
▁кислот	-11.4535
str	-11.4535
▁усилен	-11.4538
охран	-11.4538
▁коры	-11.4538
▁развит	-11.454
▁народе	-11.454
ound	-11.4541
▁соль	-11.4541
▁послуш	-11.4541
▁quite	-11.4544
▁Стоит	-11.4545
▁идее	-11.4545
спан	-11.4546
▁оставляет	-11.4547
▁остановились	-11.4547
▁называемый	-11.4547
▁лопат	-11.4549
ven	-11.455
▁господина	-11.455
▁верю	-11.455
▁схемы	-11.4551
тельство	-11.4551
▁видимости	-11.4553
сот	-11.4556
ключен	-11.4558
▁возвышен	-11.4559
▁Прошло	-11.4559
▁отнести	-11.456
▁огород	-11.456
▁зала	-11.4561
ходят	-11.4562
чим	-11.4562
▁интриг	-11.4563
чук	-11.4565
▁признак	-11.4566
▁инд	-11.4566
▁собственном	-11.4566
▁проводили	-11.4567
▁нужд	-11.4567
льд	-11.4568
▁безопасность	-11.4568
▁монахи	-11.4569
lic	-11.4569
опас	-11.4569
▁распада	-11.4569
▁ступени	-11.4572
▁местность	-11.4572
▁среду	-11.4573
бран	-11.4574
lar	-11.4576
▁89	-11.4578
яя	-11.458
▁путешественник	-11.458
▁противнику	-11.4582
▁изготовлен	-11.4582
дача	-11.4585
ino	-11.4586
▁напряжен	-11.4586
▁pi	-11.4586
▁особые	-11.4586
▁девушек	-11.4587
▁ударом	-11.4587
весел	-11.4588
нера	-11.4588
▁Шел	-11.4589
▁Art	-11.4591
РИ	-11.4592
носим	-11.4592
▁перевоз	-11.4594
док	-11.4595
▁блока	-11.4595
▁матрос	-11.4595
▁обречен	-11.4596
▁варианты	-11.4596
▁тяжести	-11.4596
▁попыток	-11.4596
▁звука	-11.4596
оциалистического	-11.4597
▁треугольник	-11.4597
▁долгие	-11.4597
Гр	-11.4598
▁являлась	-11.46
▁стихотворение	-11.46
▁известна	-11.46
▁However	-11.4601
зда	-11.4601
нских	-11.4603
▁волну	-11.4603
▁споры	-11.4603
▁Отдел	-11.4603
▁намек	-11.4605
▁стресс	-11.4605
▁сообща	-11.4605
▁гряд	-11.4606
▁attack	-11.4606
оре	-11.4608
бок	-11.461
▁находил	-11.4611
▁руководители	-11.4611
▁формула	-11.4612
▁ужаса	-11.4612
зия	-11.4616
▁помнил	-11.4618
дорож	-11.4618
ьное	-11.4618
▁anything	-11.4621
▁искусств	-11.4622
▁Божией	-11.4622
елл	-11.4622
▁выражен	-11.4623
▁расположены	-11.4623
ö	-11.4624
▁тороп	-11.4624
▁использовании	-11.4625
▁тенденции	-11.4625
▁эмоций	-11.4625
▁контраст	-11.4626
▁коррект	-11.4626
▁Яр	-11.4628
?)	-11.4629
▁преступление	-11.4631
▁наглядно	-11.4633
▁закрыт	-11.4633
▁com	-11.4635
▁испытывает	-11.4635
▁сед	-11.4635
нулись	-11.464
▁богу	-11.464
▁административно	-11.4643
▁топлива	-11.4646
лли	-11.4647
прост	-11.4647
▁стат	-11.4649
начал	-11.4651
ned	-11.4651
–17	-11.4651
енном	-11.4652
ery	-11.4653
▁государственным	-11.4653
▁действовал	-11.4655
НАЯ	-11.4655
▁Ур	-11.4655
хождение	-11.4657
▁пусто	-11.4657
тельное	-11.4659
▁степ	-11.4659
▁Наука	-11.4659
▁называемой	-11.466
▁коль	-11.4661
▁1908	-11.4662
▁разработки	-11.4664
▁предельно	-11.4666
▁Сид	-11.4667
▁удален	-11.4667
▁широком	-11.4668
▁отчаянно	-11.4668
▁Ир	-11.4668
▁Christian	-11.4668
▁Stalin	-11.4669
▁раздался	-11.4669
дѣ	-11.467
▁протестант	-11.467
US	-11.4671
▁ООН	-11.4672
▁происходили	-11.4673
▁seemed	-11.4673
вир	-11.4676
▁перевал	-11.4676
▁попала	-11.4679
оты	-11.4679
▁Армия	-11.4679
сл	-11.4679
дам	-11.468
▁Цз	-11.468
анный	-11.4681
▁сообщества	-11.4681
▁изучению	-11.4681
рут	-11.4683
▁преступ	-11.4683
▁высшее	-11.4684
iti	-11.4686
ір	-11.4687
▁главную	-11.4688
▁продолжается	-11.4688
▁поврежден	-11.4688
▁политическое	-11.469
третьих	-11.4691
▁улицам	-11.4693
▁методом	-11.4694
▁СМИ	-11.4695
шла	-11.4696
▁исполнитель	-11.4697
▁такова	-11.4698
▁небольшую	-11.4698
▁надеялся	-11.4698
2).	-11.47
ьными	-11.47
▁полосы	-11.47
▁выполнял	-11.4703
▁высшим	-11.4704
▁способами	-11.4707
▁повышен	-11.4708
▁благодарность	-11.4708
IV	-11.4713
▁вражеских	-11.4713
▁пальцем	-11.4713
айн	-11.4714
▁перемены	-11.4715
▁Army	-11.4715
▁(7	-11.4715
▁советско	-11.4715
▁проявля	-11.4716
chi	-11.4717
▁большевики	-11.4718
▁престиж	-11.4718
▁проявление	-11.472
▁указывают	-11.472
▁барьер	-11.472
▁дис	-11.4722
▁national	-11.4722
▁ребенком	-11.4723
▁современников	-11.4723
▁называемых	-11.4723
▁ведущих	-11.4723
пев	-11.4725
▁устойчив	-11.4726
▁раннего	-11.4726
Ё	-11.4726
▁девяти	-11.4726
давались	-11.4728
▁оборон	-11.4728
енка	-11.4728
▁муч	-11.473
▁стрелять	-11.473
rm	-11.473
▁Шан	-11.473
дѣл	-11.4732
вяз	-11.4733
▁снабжен	-11.4734
▁бойцы	-11.4735
ира	-11.4735
▁крыла	-11.4737
▁экономические	-11.4737
▁model	-11.4739
казать	-11.4741
▁Эли	-11.4741
▁весть	-11.4742
▁qui	-11.4743
Бо	-11.4744
▁длина	-11.4744
▁обозначения	-11.4744
▁тр	-11.4745
▁командиры	-11.4747
▁стрелковой	-11.4747
▁Ленинграда	-11.4751
▁приготовления	-11.4752
ini	-11.4752
▁разного	-11.4752
лой	-11.4753
▁бра	-11.4753
▁советник	-11.4753
▁хи	-11.4754
▁способа	-11.4755
ары	-11.4755
▁Цель	-11.4756
рать	-11.4757
▁досад	-11.4758
▁крае	-11.4758
ческое	-11.4758
того	-11.4758
▁советское	-11.4759
нрав	-11.476
▁Ko	-11.476
▁совещания	-11.4761
▁знаменитого	-11.4761
▁приведет	-11.4762
▁господство	-11.4762
▁использованием	-11.4763
Су	-11.4763
▁ростом	-11.4765
нимать	-11.4765
▁looked	-11.4765
▁lot	-11.4766
▁ненависти	-11.4767
▁подобным	-11.4767
▁Эл	-11.4767
▁послание	-11.4767
▁становился	-11.4767
▁попадает	-11.4768
ОТ	-11.4769
▁turn	-11.4769
kin	-11.4771
▁углом	-11.4773
▁государству	-11.4773
▁взаимно	-11.4777
▁цена	-11.4777
▁cannot	-11.4778
▁поспешно	-11.4778
Бел	-11.4779
▁греков	-11.478
▁дыр	-11.4784
▁Вильгельм	-11.4785
▁напрасно	-11.4787
▁[...]	-11.4787
▁рефлекс	-11.4787
▁особым	-11.4787
лах	-11.4788
▁Har	-11.4788
▁сожжен	-11.4789
ju	-11.479
▁Cor	-11.4791
▁оценку	-11.4792
еру	-11.4793
▁севера	-11.4794
уже	-11.4794
▁слове	-11.4796
▁wrote	-11.4796
▁попросту	-11.4797
▁крупного	-11.4797
лак	-11.4798
▁Гри	-11.4798
▁займ	-11.4799
▁обеспечивает	-11.4799
голос	-11.4799
▁молитва	-11.4799
даст	-11.48
▁встречал	-11.48
▁выступить	-11.48
▁миллион	-11.4803
▁пат	-11.4803
▁2013	-11.4803
▁формах	-11.4804
▁классической	-11.4804
давая	-11.4804
▁шеф	-11.4806
▁Штатов	-11.4807
1).	-11.4807
▁постройки	-11.4807
▁призвал	-11.4808
▁величина	-11.4808
АТЬ	-11.4809
▁всякую	-11.4809
рал	-11.481
▁оценке	-11.4811
яется	-11.4812
▁привязан	-11.4816
▁думаешь	-11.4816
▁менять	-11.4817
своему	-11.4817
следовательность	-11.4818
▁советы	-11.4819
▁выдвинул	-11.482
▁фильме	-11.482
▁разделить	-11.482
▁съезде	-11.482
▁фунтов	-11.482
▁печата	-11.4821
хана	-11.4821
▁отказались	-11.4822
▁огромных	-11.4823
ku	-11.4824
ld	-11.4825
▁#	-11.4825
▁sl	-11.4825
▁food	-11.4827
абель	-11.4827
▁глубокий	-11.4827
имые	-11.4828
tain	-11.4829
КОВ	-11.4829
▁making	-11.4829
сло	-11.483
▁мораль	-11.483
▁Европа	-11.4831
▁брату	-11.4831
▁обраща	-11.4832
▁Вчера	-11.4833
▁обозначен	-11.4834
▁требований	-11.4836
▁плодов	-11.4836
▁священника	-11.4838
▁пыли	-11.4839
▁хорошая	-11.4839
▁94	-11.484
▁сохранение	-11.484
▁потреб	-11.4841
▁Достаточно	-11.4841
▁базу	-11.4841
▁Дай	-11.4842
нымъ	-11.4842
▁ядро	-11.4842
▁земного	-11.4846
▁чтение	-11.4847
ано	-11.4848
▁Вз	-11.485
par	-11.485
мос	-11.485
▁стремления	-11.4851
▁сходство	-11.4851
▁Am	-11.4852
▁состоялся	-11.4853
▁побег	-11.4853
ants	-11.4856
▁believe	-11.4857
▁праздника	-11.4857
▁кле	-11.4859
яться	-11.486
▁условиям	-11.4861
шат	-11.4861
ose	-11.4861
▁поздней	-11.4861
▁позволили	-11.4862
▁русскому	-11.4863
▁поверх	-11.4865
▁посольства	-11.4866
▁помогают	-11.4867
стин	-11.4867
Ch	-11.4867
▁частной	-11.4867
▁левом	-11.4868
▁дьявол	-11.487
ставьте	-11.487
▁зданий	-11.4871
▁проводим	-11.4872
▁сотрудник	-11.4872
▁тяжелый	-11.4874
▁Сим	-11.4875
▁овладеть	-11.4876
▁140	-11.4876
ker	-11.4877
▁предоставлен	-11.4878
ложены	-11.4878
▁population	-11.4879
ο	-11.488
▁выбирать	-11.488
▁подчеркнуть	-11.4881
ающим	-11.4883
▁четверть	-11.4885
▁проверки	-11.4886
▁небольшая	-11.4886
▁жаль	-11.4886
▁method	-11.4886
▁клад	-11.4888
▁объема	-11.4888
▁училища	-11.4889
гнали	-11.4889
▁object	-11.4889
▁судеб	-11.489
▁11-	-11.4891
▁попытаться	-11.4892
▁думала	-11.4892
▁изменилось	-11.4893
ализм	-11.4893
▁отставку	-11.4893
ицкий	-11.4893
▁шу	-11.4894
мак	-11.4894
▁бессознательно	-11.4897
▁энергично	-11.4897
▁Начал	-11.4898
▁постоянного	-11.4898
изован	-11.4898
ben	-11.4899
▁серб	-11.4899
▁Задача	-11.4899
▁мечтал	-11.49
▁щедро	-11.49
▁Di	-11.49
▁Египте	-11.49
▁Достоевского	-11.49
▁бригад	-11.4902
▁царей	-11.4906
шина	-11.4907
▁разведка	-11.4909
форд	-11.4909
▁окружении	-11.491
▁чей	-11.491
▁тенденция	-11.491
▁повторял	-11.4911
▁пах	-11.4911
▁этаже	-11.4912
нским	-11.4912
▁Андреевич	-11.4912
▁sea	-11.4913
▁сообщили	-11.4913
▁коз	-11.4914
член	-11.4914
▁стороной	-11.4915
▁Рей	-11.4915
везли	-11.4917
bl	-11.4917
гру	-11.4919
▁Московской	-11.4919
▁выборах	-11.492
ляет	-11.492
двинул	-11.4921
тора	-11.4922
III	-11.4922
▁Быть	-11.4923
▁Начало	-11.4923
▁легенда	-11.4924
▁боится	-11.4924
▁str	-11.4925
▁истребителей	-11.4925
▁turned	-11.4926
▁интенсивно	-11.4927
▁strong	-11.4928
▁решением	-11.4932
▁получит	-11.4932
▁офис	-11.4933
▁звания	-11.4935
▁конь	-11.4935
▁защищен	-11.4935
руп	-11.4939
▁account	-11.494
▁производственны	-11.4941
tim	-11.4941
▁Пет	-11.4942
▁счита	-11.4946
▁живое	-11.4946
▁снизу	-11.4946
▁Але	-11.4948
▁конкретно	-11.4948
енгер	-11.4948
▁соседей	-11.495
mar	-11.4951
▁section	-11.4951
верг	-11.4953
▁тракт	-11.4953
ьё	-11.4954
▁напр	-11.4955
▁усиления	-11.4956
▁door	-11.4956
▁супруга	-11.4956
▁подверга	-11.4957
▁Анти	-11.4957
▁Правительство	-11.4957
▁сохрани	-11.4957
▁размах	-11.4959
▁круж	-11.4959
▁Ad	-11.496
▁Муж	-11.4962
▁зерно	-11.4962
▁town	-11.4963
▁подполь	-11.4964
▁композитор	-11.4965
▁Русская	-11.4968
тир	-11.4969
sky	-11.497
▁настоящая	-11.497
истом	-11.4972
▁отвечаю	-11.4974
▁Союзе	-11.4974
ателей	-11.4975
▁Министерства	-11.4975
▁храме	-11.4976
ama	-11.4977
▁пятидесяти	-11.4978
▁level	-11.4979
▁равновесия	-11.498
▁Ѳ	-11.4981
▁оказывать	-11.4982
▁Ас	-11.4983
лена	-11.4984
▁доверия	-11.4984
▁заставили	-11.4985
мудр	-11.4986
▁потерян	-11.4986
▁торговых	-11.4986
▁расширение	-11.4987
▁перспективы	-11.4988
▁(8	-11.4989
АК	-11.499
▁approach	-11.499
▁Ga	-11.4991
▁Москвой	-11.4991
▁пережив	-11.4992
▁Остальные	-11.4992
▁personal	-11.4993
▁стекла	-11.4993
▁(11	-11.4995
плав	-11.4995
▁мероприятий	-11.4995
еву	-11.4996
▁фонд	-11.4997
рё	-11.4998
ade	-11.4999
▁содержат	-11.4999
▁фразы	-11.5
▁мастеров	-11.5
ў	-11.5001
▁закончить	-11.5002
▁180	-11.5002
▁мечты	-11.5003
▁положен	-11.5004
раздел	-11.5004
тые	-11.5005
▁согласны	-11.5006
▁однозначно	-11.5006
tar	-11.5007
рн	-11.5008
▁роду	-11.5009
▁прогресса	-11.501
▁студент	-11.501
▁штабе	-11.5011
▁опыте	-11.5011
▁проявлен	-11.5011
Кто	-11.5014
-8	-11.5014
▁преобразования	-11.5014
▁научные	-11.5014
▁тюрем	-11.5015
▁юга	-11.5015
▁страсть	-11.5016
▁felt	-11.5016
▁повышения	-11.5016
▁сильного	-11.5016
net	-11.5018
▁тряс	-11.5019
▁формулы	-11.5019
▁составили	-11.5019
связ	-11.502
ходим	-11.502
▁Ju	-11.5023
▁живо	-11.5024
▁распределения	-11.5024
▁артиллерия	-11.5026
▁2:	-11.5026
▁восстановление	-11.5026
▁вселенной	-11.5026
▁распределение	-11.5027
▁Дик	-11.5028
чуж	-11.5029
ЕНИЕ	-11.503
▁Кронштадт	-11.5031
▁Сергея	-11.5031
▁Берлина	-11.5032
▁поселения	-11.5032
▁секс	-11.5033
▁исследователь	-11.5033
▁огромного	-11.5034
правлен	-11.5034
ыхъ	-11.5034
▁считался	-11.5034
▁Федоров	-11.5035
сев	-11.5035
тических	-11.5036
▁предполагаем	-11.5037
▁белорус	-11.5037
▁великая	-11.5038
▁Бре	-11.504
▁спокойствие	-11.5041
▁simple	-11.5041
▁комплект	-11.5042
зим	-11.5042
tt	-11.5042
▁контрреволюцион	-11.5042
ГО	-11.5043
▁Кали	-11.5043
ische	-11.5044
▁нанес	-11.5044
▁существовала	-11.5047
▁носят	-11.5049
▁нисколько	-11.505
ближ	-11.5052
▁анекдот	-11.5056
▁Америку	-11.5056
▁внук	-11.5056
▁предложили	-11.5057
▁песня	-11.5058
тес	-11.5059
▁водо	-11.5059
▁Коп	-11.5061
▁участием	-11.5061
ms	-11.5061
▁посты	-11.5062
ological	-11.5062
▁white	-11.5063
АЛ	-11.5063
▁надобно	-11.5064
▁слоя	-11.5065
▁Белоруссии	-11.5066
сыла	-11.5069
▁стекло	-11.507
▁познакомился	-11.5071
▁воскресенье	-11.5071
ственный	-11.5073
▁превосходство	-11.5073
▁бас	-11.5073
▁полей	-11.5075
▁генералов	-11.5075
▁Ат	-11.5076
vis	-11.5076
▁особенностей	-11.5077
▁Этого	-11.5078
▁1903	-11.5079
▁структуре	-11.508
▁состоялось	-11.5081
▁объективно	-11.5082
▁травы	-11.5083
ийского	-11.5083
▁ночам	-11.5083
▁рабочим	-11.5083
СС	-11.5084
▁design	-11.5088
▁1909	-11.5088
▁организме	-11.509
▁батарей	-11.5091
▁Афин	-11.5092
▁цилиндр	-11.5093
▁нелегко	-11.5094
▁странным	-11.5095
▁плоть	-11.5095
rum	-11.5096
▁тыла	-11.5097
▁домом	-11.5097
▁6)	-11.5097
АЛЬ	-11.5099
▁Роз	-11.5101
▁настаивал	-11.5102
▁облака	-11.5103
▁Петроград	-11.5104
▁возглавлял	-11.5105
ИЯ	-11.5106
▁San	-11.5108
▁качественно	-11.5108
▁снижение	-11.5108
▁сцена	-11.5108
▁приспособлен	-11.5109
▁привыкли	-11.5109
▁Хи	-11.5109
пот	-11.5111
горе	-11.5112
▁родине	-11.5113
▁НАТО	-11.5114
▁льда	-11.5116
-12	-11.5117
дре	-11.5119
рв	-11.5119
▁называются	-11.5119
▁превратился	-11.512
▁факторы	-11.512
▁эконом	-11.5123
▁битва	-11.5124
▁звер	-11.5124
тти	-11.5125
▁примера	-11.5126
▁разведку	-11.5127
▁king	-11.5127
▁Вавилон	-11.5127
▁реакцион	-11.5127
▁изнутри	-11.5127
▁семьей	-11.5129
▁пальцами	-11.513
▁Ѵ	-11.5131
▁раны	-11.5131
▁приобретен	-11.5133
▁замка	-11.5135
▁Архангельск	-11.5136
▁окружение	-11.5137
ken	-11.5137
▁печально	-11.5141
▁Новая	-11.5142
▁отмечен	-11.5142
ныне	-11.5143
▁решился	-11.5143
Le	-11.5144
▁написан	-11.5145
▁явились	-11.5145
ичным	-11.5145
▁намерен	-11.5146
нке	-11.5147
▁Похоже	-11.5147
▁счёт	-11.515
▁возведен	-11.515
elle	-11.5151
▁персонаж	-11.5152
тян	-11.5153
▁Hu	-11.5153
ката	-11.5154
нъ	-11.5154
▁снабжения	-11.5158
▁верность	-11.5158
king	-11.5158
▁удаля	-11.5159
▁фразу	-11.5159
▁Екатерины	-11.5159
▁физически	-11.516
qui	-11.516
▁шара	-11.516
▁met	-11.5161
щение	-11.5161
▁Тул	-11.5162
ёв	-11.5162
▁значительную	-11.5163
становлен	-11.5163
▁цепь	-11.5167
альными	-11.5168
▁распоряжения	-11.5168
▁семинар	-11.5169
▁малыш	-11.517
ste	-11.5171
▁скуд	-11.5173
ś	-11.5173
▁экономике	-11.5173
▁цену	-11.5173
▁значений	-11.5173
гиба	-11.5173
▁интернет	-11.5174
ТЫ	-11.5174
▁ветви	-11.5175
▁надежно	-11.5176
▁биографии	-11.5177
▁настоящем	-11.5179
▁истребитель	-11.518
читал	-11.5182
▁21.	-11.5182
▁нужным	-11.5183
▁боюсь	-11.5183
▁заседания	-11.5185
бах	-11.5185
▁ошибочно	-11.5185
монт	-11.5186
▁победе	-11.5187
▁президентом	-11.5189
▁коридор	-11.5189
▁привлек	-11.519
▁колонии	-11.519
▁пута	-11.5191
▁шаман	-11.5193
▁удач	-11.5193
▁ИЗ	-11.5193
▁Hitler	-11.5193
ash	-11.5194
▁важной	-11.5195
IS	-11.5195
▁АВ	-11.5196
ичности	-11.5197
▁ареста	-11.52
▁Сталинград	-11.5201
▁моно	-11.5201
▁писа	-11.5202
cy	-11.5202
▁мрамор	-11.5204
▁требовать	-11.5204
▁million	-11.5204
▁старика	-11.5205
hen	-11.5205
ставим	-11.5206
▁стенах	-11.5209
▁Пришлось	-11.5209
▁Ельцин	-11.5211
▁захватил	-11.5211
▁близости	-11.5211
▁especially	-11.5212
▁импульс	-11.5217
▁Ричард	-11.5217
cer	-11.5219
▁порог	-11.5219
▁сможем	-11.5219
▁лукав	-11.5221
пись	-11.5222
▁бешен	-11.5222
▁художественной	-11.5222
▁владе	-11.5222
α	-11.5223
▁key	-11.5223
▁Летом	-11.5224
tri	-11.5224
▁вертолет	-11.5224
▁морем	-11.5225
▁mi	-11.5226
▁бл	-11.5228
its	-11.523
▁Август	-11.523
вёл	-11.523
▁super	-11.523
▁Берия	-11.523
▁возвыша	-11.5232
▁эмоционально	-11.5232
▁Анны	-11.5235
▁скончался	-11.5235
▁страданий	-11.5236
see	-11.5236
▁искр	-11.5237
▁держит	-11.5239
▁еже	-11.524
▁хозяйстве	-11.5242
▁тест	-11.5242
шиб	-11.5243
▁шага	-11.5243
▁ресурс	-11.5244
обще	-11.5245
jo	-11.5246
▁Зем	-11.5247
▁особую	-11.5247
ектор	-11.5247
▁свидетельству	-11.5248
▁рядах	-11.5248
▁Pi	-11.5249
▁Chapter	-11.525
-11	-11.5252
▁находят	-11.5253
▁Президент	-11.5254
▁получение	-11.5254
▁бат	-11.5255
▁ехал	-11.5256
вшем	-11.5256
▁сумели	-11.5257
5)	-11.5259
▁обществ	-11.526
▁уважения	-11.526
▁фамилия	-11.526
▁Смирнов	-11.526
▁городского	-11.5261
▁составляла	-11.5261
▁населением	-11.5261
▁Яков	-11.5262
▁Гл	-11.5263
тич	-11.5264
▁охран	-11.5265
▁поступки	-11.5266
▁(13	-11.5266
св	-11.5267
▁рак	-11.5268
▁уходить	-11.527
▁рельеф	-11.5271
▁веса	-11.5272
▁составил	-11.5273
▁Бориса	-11.5274
▁корабле	-11.5274
ийская	-11.5275
▁публику	-11.5276
▁получа	-11.5277
▁Oxford	-11.5277
▁мужик	-11.5277
ушку	-11.5278
▁велик	-11.5278
▁обслужива	-11.5281
аюсь	-11.5281
▁сопровождении	-11.5281
▁Главный	-11.5282
▁вопросами	-11.5282
▁трубы	-11.5282
▁необходимы	-11.5284
▁скорб	-11.5284
▁зна	-11.5284
▁чье	-11.5285
▁заблуждение	-11.5285
cr	-11.5285
▁ob	-11.5287
▁приводят	-11.5289
▁центров	-11.529
▁спи	-11.529
vel	-11.5291
жный	-11.5291
▁замечания	-11.5291
cre	-11.5292
▁вслух	-11.5292
▁видение	-11.5293
▁империя	-11.5293
je	-11.5296
▁князем	-11.5296
▁сотрудничества	-11.5296
▁дало	-11.5297
▁сфер	-11.5297
▁80-	-11.5299
▁red	-11.5301
виз	-11.5301
мас	-11.5302
▁visit	-11.5304
▁сосредоточен	-11.5304
▁изучал	-11.5305
▁cr	-11.5305
▁полученные	-11.5305
ase	-11.5305
▁полоса	-11.5305
▁тро	-11.5305
▁небольшим	-11.5305
▁памят	-11.5306
▁behind	-11.5307
вого	-11.5307
▁девочки	-11.5307
▁отражен	-11.5308
▁Бак	-11.5308
▁единичн	-11.5309
▁предо	-11.5309
▁particular	-11.531
▁ухода	-11.531
лета	-11.5311
▁услуги	-11.5313
▁Евгений	-11.5314
▁lo	-11.5315
▁понимаем	-11.5316
▁творчестве	-11.5317
▁противоречит	-11.5317
▁направлению	-11.5318
▁отражает	-11.5318
▁понимаете	-11.5318
▁заключил	-11.5319
▁твоим	-11.5321
▁угрозой	-11.5322
▁Ще	-11.5322
ковского	-11.5322
ній	-11.5323
▁вещество	-11.5323
казание	-11.5323
йдя	-11.5323
▁Вокруг	-11.5324
▁коли	-11.5325
вернут	-11.5326
!!!	-11.5327
▁Оказывается	-11.5328
▁песню	-11.5328
▁Обе	-11.5328
▁обычного	-11.5329
▁пишу	-11.5331
▁выражением	-11.5333
▁реакцию	-11.5333
▁утеш	-11.5333
▁Горбачев	-11.5336
▁дневнике	-11.5337
▁King	-11.5338
▁Попов	-11.5338
опа	-11.5338
▁атаковать	-11.5339
▁этаж	-11.5339
▁create	-11.534
▁Is	-11.534
▁большего	-11.534
▁приток	-11.5341
▁закончилась	-11.5341
сле	-11.5342
▁su	-11.5343
▁Швеции	-11.5343
▁предупредил	-11.5343
▁покров	-11.5344
▁каст	-11.5344
▁Lu	-11.5345
кать	-11.5345
▁Гон	-11.5348
сса	-11.5348
▁выступать	-11.5349
▁Елена	-11.535
▁заключа	-11.5352
▁Тра	-11.5352
▁четверти	-11.5352
▁глубокое	-11.5353
▁младший	-11.5353
▁ориентирован	-11.5353
инская	-11.5353
▁Ru	-11.5355
▁останавлива	-11.5357
▁длинный	-11.5357
▁волнения	-11.5358
▁тай	-11.5359
▁pe	-11.536
оответ	-11.5361
▁осуществлен	-11.5362
йдем	-11.5362
тическое	-11.5366
▁врагу	-11.5366
амъ	-11.5367
▁позвал	-11.5367
▁взлет	-11.5367
▁математик	-11.5367
носят	-11.5369
▁further	-11.5369
▁партийной	-11.5369
▁отличались	-11.537
▁стремятся	-11.537
▁конкурс	-11.537
▁приемы	-11.537
▁идеально	-11.5371
ведет	-11.5371
манов	-11.5375
▁подошла	-11.5375
zi	-11.5375
▁сидела	-11.5375
▁правого	-11.5377
ийских	-11.5377
▁дошли	-11.5377
АС	-11.5378
▁дань	-11.5378
прям	-11.5379
▁воевод	-11.5379
ИЛ	-11.5385
точ	-11.5386
▁дежур	-11.5386
▁легкой	-11.5386
▁Рам	-11.5388
▁традиция	-11.5389
▁страхом	-11.5389
▁полз	-11.5389
▁вторжения	-11.539
▁различным	-11.539
▁тягот	-11.539
▁выходили	-11.5392
▁предположения	-11.5393
▁лицами	-11.5395
▁Черчилль	-11.5395
▁similar	-11.5395
энд	-11.5396
▁реп	-11.5396
▁ладно	-11.5398
▁встать	-11.5398
ево	-11.5398
шер	-11.5399
▁ожидании	-11.5401
▁престола	-11.5403
▁оркестр	-11.5404
ходящие	-11.5405
▁помогли	-11.5405
▁дыхания	-11.5406
сид	-11.5407
▁Альберт	-11.5409
nis	-11.541
АМ	-11.541
▁move	-11.541
▁ходом	-11.5413
▁абсурд	-11.5413
йдут	-11.5415
вшемуся	-11.5415
▁цари	-11.5415
▁международного	-11.5416
▁труднее	-11.5417
▁Апостол	-11.5417
▁Товарищ	-11.5418
▁бежали	-11.5418
▁Пат	-11.5418
▁восход	-11.542
нести	-11.5421
▁потребления	-11.5422
мета	-11.5423
▁110	-11.5426
нувшись	-11.5427
▁105	-11.5427
▁совещание	-11.5429
▁мет	-11.5429
▁оперативно	-11.5429
▁принятие	-11.5431
▁литературу	-11.5432
▁управлении	-11.5432
тать	-11.5433
▁основ	-11.5434
▁парня	-11.5434
à	-11.5434
▁логически	-11.5437
▁агрессии	-11.5437
▁произойти	-11.5437
▁Всем	-11.5438
han	-11.5439
▁собеседник	-11.5439
▁мусор	-11.544
анию	-11.544
оген	-11.544
▁затвор	-11.5442
▁монгол	-11.5442
▁Сп	-11.5443
▁Cha	-11.5443
▁полагать	-11.5443
▁усовершенствова	-11.5444
▁юрист	-11.5444
▁чертеж	-11.5444
▁технических	-11.5445
тами	-11.5446
▁жу	-11.5447
▁Сара	-11.5448
▁старая	-11.5449
▁вагон	-11.5449
▁современник	-11.5452
▁тренер	-11.5452
▁Маль	-11.5452
▁сража	-11.5453
▁подальше	-11.5453
▁повторя	-11.5454
▁обыск	-11.5455
▁Лук	-11.5455
▁держаться	-11.5455
▁Завтра	-11.5456
▁занимали	-11.5459
▁стихотворения	-11.5459
▁архитектор	-11.5459
▁Now	-11.5461
▁dem	-11.5463
▁падение	-11.5463
▁даром	-11.5464
▁грабеж	-11.5464
▁проводник	-11.5465
▁генералом	-11.5465
▁именова	-11.5468
▁исчезает	-11.547
▁Каким	-11.5471
▁Дей	-11.5471
гни	-11.5472
mp	-11.5473
ушек	-11.5473
New	-11.5474
▁интересам	-11.5474
▁Штаб	-11.5475
▁сине	-11.5475
▁ученики	-11.5475
▁министром	-11.5476
▁приклад	-11.5476
▁подтверждает	-11.5477
альд	-11.5479
бле	-11.548
▁погода	-11.5482
▁югу	-11.5482
▁факта	-11.5484
▁персонажей	-11.5485
илов	-11.5485
▁Смит	-11.5488
▁мужество	-11.549
▁everything	-11.549
▁woman	-11.549
τ	-11.5491
▁бывшие	-11.5491
▁выполнил	-11.5492
бож	-11.5494
▁римского	-11.5495
▁религиозные	-11.5495
over	-11.5496
▁эмигрант	-11.5497
▁вашему	-11.5497
▁En	-11.5499
▁Мик	-11.5499
▁домах	-11.5501
▁зон	-11.5502
▁перевести	-11.5502
▁пожелал	-11.5503
водя	-11.5504
▁Эк	-11.5504
Ком	-11.5506
▁катастрофы	-11.5506
▁территорий	-11.5506
кевич	-11.5506
▁пешком	-11.5507
▁широкие	-11.5507
▁явилось	-11.5507
▁пирамид	-11.5507
▁разделение	-11.5508
▁Землю	-11.5512
▁Сем	-11.5513
nie	-11.5514
▁разговоре	-11.5515
▁Войска	-11.5517
▁постель	-11.5517
▁доказывает	-11.5517
держан	-11.5517
▁упрек	-11.5518
▁Дра	-11.5518
▁княже	-11.5518
▁запомнил	-11.5518
лых	-11.5519
▁молчал	-11.552
▁потерять	-11.5522
▁brought	-11.5522
▁нападение	-11.5522
▁драматург	-11.5523
▁обид	-11.5523
лар	-11.5523
боя	-11.5524
▁признавал	-11.5525
няк	-11.5525
▁рабы	-11.5526
▁Владимирович	-11.5528
▁костей	-11.5529
day	-11.5529
▁пулеметов	-11.553
▁терпеть	-11.553
▁отрицательно	-11.5531
йдёт	-11.5531
▁совету	-11.5531
вад	-11.5532
▁40-	-11.5532
▁концентрации	-11.5532
▁знакомый	-11.5533
▁полос	-11.5534
▁рождение	-11.5535
▁личное	-11.5535
ушке	-11.5536
▁зажига	-11.5536
▁sun	-11.5537
хер	-11.5537
▁давая	-11.5537
▁автомобиля	-11.5538
▁встретились	-11.5539
▁женился	-11.554
▁встречались	-11.5541
cal	-11.5541
▁противоречие	-11.5543
▁возразил	-11.5543
▁сферу	-11.5544
▁суждено	-11.5544
АТ	-11.5544
служив	-11.5545
жев	-11.5545
▁субъекта	-11.5545
▁молоко	-11.5546
▁построил	-11.5546
есси	-11.5546
▁имелись	-11.5547
▁Главного	-11.5547
▁укреплен	-11.5547
▁надзор	-11.5547
—2	-11.5548
▁личным	-11.5548
▁задержан	-11.5549
знание	-11.5549
люд	-11.5549
▁зрел	-11.555
▁экспорт	-11.555
▁Боб	-11.555
▁пустыне	-11.555
uss	-11.555
▁акции	-11.5551
▁”	-11.5552
другому	-11.5553
▁развиваться	-11.5553
▁Пруссии	-11.5554
▁перес	-11.5555
▁Du	-11.5556
▁Рог	-11.5557
▁Figure	-11.5557
▁сердечно	-11.5558
▁прежние	-11.5559
елем	-11.5559
▁писатели	-11.5559
▁военачальник	-11.556
▁school	-11.5562
дри	-11.5562
▁выдержал	-11.5564
юль	-11.5564
▁Источник	-11.5567
▁проблеме	-11.5568
▁блеск	-11.5569
▁лиша	-11.5569
чные	-11.5569
▁Mi	-11.5569
▁situation	-11.557
▁компаний	-11.557
▁Чехов	-11.5571
▁примеч	-11.5571
▁шлем	-11.5571
▁живем	-11.5571
ичен	-11.5572
▁миномет	-11.5573
андал	-11.5573
ace	-11.5573
▁отличался	-11.5574
▁материальной	-11.5575
▁посоветовал	-11.5575
can	-11.5576
▁иудей	-11.5576
чно	-11.5577
▁Римской	-11.5577
uff	-11.5577
▁основыва	-11.5578
▁Илья	-11.5579
▁категория	-11.5579
▁направлены	-11.558
▁выпустил	-11.558
▁манифест	-11.558
▁комендант	-11.558
▁Дэвид	-11.5581
▁установили	-11.5581
▁total	-11.5581
▁тепла	-11.5581
ple	-11.5581
▁пророка	-11.5581
▁покое	-11.5582
▁Paul	-11.5582
▁врагами	-11.5582
енье	-11.5583
▁технологий	-11.5583
AT	-11.5583
▁23.	-11.5584
▁защите	-11.5584
▁левого	-11.5584
▁vo	-11.5584
Кар	-11.5584
стям	-11.5585
▁расположения	-11.5587
▁уступ	-11.5588
▁команде	-11.5589
▁замечательно	-11.5591
▁полосе	-11.5591
▁затрат	-11.5591
изировать	-11.5592
движен	-11.5592
▁профсоюз	-11.5592
▁доходов	-11.5594
фо	-11.5595
▁задержива	-11.5595
▁зараз	-11.5596
▁консул	-11.5597
▁добился	-11.5598
▁почвы	-11.5598
▁мотивы	-11.5601
▁мрак	-11.5601
▁Троцкий	-11.5602
▁Калинин	-11.5602
▁mean	-11.5602
▁действиям	-11.5603
гина	-11.5603
▁являлось	-11.5604
скор	-11.5604
▁hands	-11.5605
итет	-11.5606
▁един	-11.5607
▁project	-11.5607
▁пад	-11.5607
▁Штаты	-11.5608
▁продовольствия	-11.5608
▁пыл	-11.5608
▁Арт	-11.5608
▁ХХ	-11.5608
сор	-11.5608
государств	-11.5608
▁ref	-11.5608
Рус	-11.5608
▁six	-11.561
▁учил	-11.5611
ars	-11.5611
▁бизнеса	-11.5612
▁гер	-11.5613
We	-11.5614
▁передаче	-11.5615
▁мудрец	-11.5615
▁записки	-11.5616
смерт	-11.5617
▁Ni	-11.5617
▁разделен	-11.5617
▁Постепенно	-11.5618
▁узлов	-11.5618
▁кругах	-11.5619
▁акта	-11.5621
▁дисциплины	-11.5623
▁залп	-11.5623
ализация	-11.5623
▁профессии	-11.5623
▁темп	-11.5623
▁подойти	-11.5623
▁Джек	-11.5624
нике	-11.5624
▁несли	-11.5625
®	-11.5626
▁Женщина	-11.5626
▁черного	-11.5628
▁выгодно	-11.5628
▁напомнил	-11.5631
▁содержанием	-11.5632
▁наблюдаем	-11.5633
нца	-11.5633
▁energy	-11.5634
лера	-11.5634
▁дворцов	-11.5635
лые	-11.5636
▁Камен	-11.5636
▁ездил	-11.5636
боль	-11.5637
ниж	-11.5637
чина	-11.5637
дес	-11.5638
▁Ворошилов	-11.5639
▁дополнительные	-11.5639
▁забыли	-11.5639
▁представляла	-11.564
▁Воронеж	-11.564
уэ	-11.564
▁новости	-11.5641
▁mis	-11.5642
еніе	-11.5644
▁угля	-11.5645
You	-11.5646
▁военными	-11.5647
▁похорон	-11.5647
ЛЯ	-11.5648
▁Положение	-11.5649
▁манер	-11.5649
▁лучшем	-11.5653
2-	-11.5655
▁разделе	-11.5656
чную	-11.5656
▁Путь	-11.5659
▁духу	-11.5661
▁всякая	-11.5661
мок	-11.5661
▁Право	-11.5661
▁эры	-11.5662
ON	-11.5664
быв	-11.5665
▁мундир	-11.5666
▁скрыт	-11.5666
▁бояться	-11.5667
▁Пьер	-11.5667
▁гипер	-11.5667
▁Рез	-11.5668
▁особенность	-11.5669
▁посланник	-11.5669
▁землях	-11.567
▁бессмысленно	-11.5671
▁пользуются	-11.5673
▁зр	-11.5673
яков	-11.5673
▁выражает	-11.5673
▁турок	-11.5674
▁добрые	-11.5675
▁вторично	-11.5675
▁глубоким	-11.5676
pr	-11.5676
▁приглашен	-11.5676
▁внешним	-11.5677
▁исчезли	-11.5677
Хо	-11.5677
▁посвятил	-11.5677
▁равных	-11.568
▁син	-11.5682
EN	-11.5684
10)	-11.5684
дут	-11.5684
▁сустав	-11.5685
▁родитель	-11.5685
▁теоретически	-11.5687
крашен	-11.5687
▁плану	-11.5687
▁общественное	-11.5687
▁чья	-11.5688
▁оккупации	-11.5688
▁оператор	-11.5689
▁основного	-11.569
▁сражаться	-11.569
▁Венгрии	-11.569
▁Зо	-11.5691
нист	-11.5692
▁understand	-11.5693
▁qu	-11.5693
▁shall	-11.5693
▁направлений	-11.5696
изме	-11.5698
▁факультет	-11.5699
▁Even	-11.5699
ОК	-11.57
▁Март	-11.5701
▁требу	-11.5701
▁прислал	-11.5701
▁традиционно	-11.5703
▁прежней	-11.5704
He	-11.5704
yl	-11.5705
име	-11.5706
▁увеличения	-11.5707
▁поспешил	-11.5708
▁доволен	-11.5709
▁психиатр	-11.5709
▁90-	-11.571
▁смотрят	-11.5711
▁персон	-11.5712
▁надпись	-11.5713
▁Ленинграде	-11.5713
▁желанием	-11.5714
▁серьезных	-11.5714
▁уверенности	-11.5715
3).	-11.5716
▁зов	-11.5716
▁Бек	-11.5717
▁Сибирь	-11.572
▁Константинополь	-11.572
▁Ох	-11.5722
▁прочего	-11.5723
▁купол	-11.5724
▁role	-11.5724
▁изгнан	-11.5725
▁негатив	-11.5726
▁эффективность	-11.5726
▁организовал	-11.5727
▁Смерть	-11.5728
▁живые	-11.573
▁постановления	-11.5731
▁использовались	-11.5731
▁army	-11.5732
Ла	-11.5732
▁подписал	-11.5733
▁характере	-11.5733
▁превратить	-11.5733
▁позво	-11.5735
wer	-11.5736
▁препятствия	-11.5736
дира	-11.5738
▁квартал	-11.5738
▁соединен	-11.5739
▁придумал	-11.5739
▁big	-11.574
▁застал	-11.5741
бас	-11.5744
▁страдал	-11.5745
▁Si	-11.5745
лот	-11.5746
▁фрагмент	-11.5747
▁премии	-11.5748
один	-11.5748
уче	-11.5749
▁спектр	-11.5749
▁урожай	-11.5749
▁оказывает	-11.575
▁Крыма	-11.5753
▁богом	-11.5754
▁лог	-11.5754
▁прах	-11.5754
▁парус	-11.5757
▁125	-11.5757
слушива	-11.576
▁пыталась	-11.5761
▁переживал	-11.5761
▁рам	-11.5761
▁напрямую	-11.5763
рван	-11.5765
▁участии	-11.5766
▁административны	-11.5768
▁лав	-11.5769
▁нервной	-11.5771
▁заботы	-11.5771
▁склонны	-11.5771
гам	-11.5771
▁Мус	-11.5772
9).	-11.5772
▁economic	-11.5772
▁Доктор	-11.5774
▁разрушитель	-11.5774
▁chapter	-11.5775
рош	-11.5775
▁подчиня	-11.5775
▁учесть	-11.5776
▁показала	-11.5777
▁крах	-11.5779
▁Небес	-11.578
▁туалет	-11.578
уф	-11.578
▁радикально	-11.5784
▁Мастер	-11.5784
Та	-11.5785
верш	-11.5786
▁Средней	-11.5786
▁влияет	-11.5786
▁казн	-11.5787
▁орденом	-11.5788
▁подготовил	-11.5788
бро	-11.5789
▁круги	-11.579
▁Рассмотрим	-11.579
▁понимаешь	-11.579
▁небольшого	-11.579
▁предоставить	-11.579
▁представителя	-11.5792
▁ея	-11.5793
ches	-11.5793
вши	-11.5794
▁местами	-11.5794
▁слабости	-11.5794
▁беспокойство	-11.5797
▁своевременно	-11.5798
▁наблюдение	-11.5798
▁European	-11.5799
▁импорт	-11.5799
жин	-11.58
▁трактор	-11.5801
▁опустил	-11.5801
овские	-11.5801
▁правый	-11.5801
▁лорд	-11.5802
▁множеством	-11.5802
▁верб	-11.5803
▁fe	-11.5804
▁уменьша	-11.5805
▁молока	-11.5807
▁заверша	-11.5807
рож	-11.5808
луча	-11.5809
▁пестр	-11.581
▁рацион	-11.581
▁читателю	-11.5812
▁сие	-11.5813
енности	-11.5813
енский	-11.5815
▁(9	-11.5816
▁rec	-11.5818
▁чемодан	-11.5818
▁повернулся	-11.5818
▁искусством	-11.5818
ческую	-11.5819
тав	-11.5821
▁адмирала	-11.5821
▁хаос	-11.5822
▁квартир	-11.5823
▁благодати	-11.5823
▁подчеркивал	-11.5825
▁явилась	-11.5825
▁развал	-11.5826
▁writing	-11.5827
▁Сила	-11.5827
▁Насколько	-11.5828
▁атак	-11.5828
▁камер	-11.5829
cul	-11.5832
▁Кун	-11.5832
шло	-11.5833
▁Бай	-11.5833
▁перешла	-11.5833
▁понес	-11.5835
▁инициативе	-11.5836
oo	-11.5837
▁working	-11.5838
▁просьбе	-11.5839
▁коней	-11.584
▁господства	-11.5841
▁доклада	-11.5841
▁положением	-11.5841
▁рассмотрен	-11.5842
▁материальных	-11.5842
▁собственному	-11.5843
ац	-11.5844
▁State	-11.5844
▁экз	-11.5845
▁скуч	-11.5845
sis	-11.5846
▁документа	-11.5846
нцев	-11.5847
нку	-11.5849
It	-11.5851
▁прекраща	-11.5852
нская	-11.5853
▁проводит	-11.5854
рина	-11.5854
▁длину	-11.5854
[...]
